{
  "version": "1.0",
  "truncation": null,
  "padding": null,
  "added_tokens": [
    {
      "id": 0,
      "content": "<pad>",
      "single_word": false,
      "lstrip": false,
      "rstrip": false,
      "normalized": false,
      "special": true
    },
    {
      "id": 1,
      "content": "<s>",
      "single_word": false,
      "lstrip": false,
      "rstrip": false,
      "normalized": false,
      "special": true
    },
    {
      "id": 2,
      "content": "</s>",
      "single_word": false,
      "lstrip": false,
      "rstrip": false,
      "normalized": false,
      "special": true
    },
    {
      "id": 3,
      "content": "<unk>",
      "single_word": false,
      "lstrip": false,
      "rstrip": false,
      "normalized": false,
      "special": true
    },
    {
      "id": 4,
      "content": "<user>",
      "single_word": false,
      "lstrip": false,
      "rstrip": false,
      "normalized": false,
      "special": true
    },
    {
      "id": 5,
      "content": "<assistant>",
      "single_word": false,
      "lstrip": false,
      "rstrip": false,
      "normalized": false,
      "special": true
    }
  ],
  "normalizer": {
    "type": "NFKC"
  },
  "pre_tokenizer": {
    "type": "ByteLevel",
    "add_prefix_space": false,
    "trim_offsets": true,
    "use_regex": true
  },
  "post_processor": {
    "type": "TemplateProcessing",
    "single": [
      {
        "SpecialToken": {
          "id": "<s>",
          "type_id": 0
        }
      },
      {
        "Sequence": {
          "id": "A",
          "type_id": 0
        }
      },
      {
        "SpecialToken": {
          "id": "</s>",
          "type_id": 0
        }
      }
    ],
    "pair": [
      {
        "SpecialToken": {
          "id": "<s>",
          "type_id": 0
        }
      },
      {
        "Sequence": {
          "id": "A",
          "type_id": 0
        }
      },
      {
        "SpecialToken": {
          "id": "</s>",
          "type_id": 0
        }
      },
      {
        "SpecialToken": {
          "id": "<s>",
          "type_id": 0
        }
      },
      {
        "Sequence": {
          "id": "B",
          "type_id": 0
        }
      },
      {
        "SpecialToken": {
          "id": "</s>",
          "type_id": 0
        }
      }
    ],
    "special_tokens": {
      "</s>": {
        "id": "</s>",
        "ids": [
          2
        ],
        "tokens": [
          "</s>"
        ]
      },
      "<s>": {
        "id": "<s>",
        "ids": [
          1
        ],
        "tokens": [
          "<s>"
        ]
      }
    }
  },
  "decoder": null,
  "model": {
    "type": "BPE",
    "dropout": null,
    "unk_token": "<unk>",
    "continuing_subword_prefix": null,
    "end_of_word_suffix": null,
    "fuse_unk": false,
    "byte_fallback": false,
    "ignore_merges": false,
    "vocab": {
      "<pad>": 0,
      "<s>": 1,
      "</s>": 2,
      "<unk>": 3,
      "<user>": 4,
      "<assistant>": 5,
      "!": 6,
      "\"": 7,
      "#": 8,
      "$": 9,
      "%": 10,
      "&": 11,
      "'": 12,
      "(": 13,
      ")": 14,
      "*": 15,
      "+": 16,
      ",": 17,
      "-": 18,
      ".": 19,
      "/": 20,
      "0": 21,
      "1": 22,
      "2": 23,
      "3": 24,
      "4": 25,
      "5": 26,
      "6": 27,
      "7": 28,
      "8": 29,
      "9": 30,
      ":": 31,
      ";": 32,
      "<": 33,
      "=": 34,
      ">": 35,
      "?": 36,
      "@": 37,
      "A": 38,
      "B": 39,
      "C": 40,
      "D": 41,
      "E": 42,
      "F": 43,
      "G": 44,
      "H": 45,
      "I": 46,
      "J": 47,
      "K": 48,
      "L": 49,
      "M": 50,
      "N": 51,
      "O": 52,
      "P": 53,
      "Q": 54,
      "R": 55,
      "S": 56,
      "T": 57,
      "U": 58,
      "V": 59,
      "W": 60,
      "X": 61,
      "Y": 62,
      "Z": 63,
      "\\": 64,
      "_": 65,
      "a": 66,
      "b": 67,
      "c": 68,
      "d": 69,
      "e": 70,
      "f": 71,
      "g": 72,
      "h": 73,
      "i": 74,
      "j": 75,
      "k": 76,
      "l": 77,
      "m": 78,
      "n": 79,
      "o": 80,
      "p": 81,
      "q": 82,
      "r": 83,
      "s": 84,
      "t": 85,
      "u": 86,
      "v": 87,
      "w": 88,
      "x": 89,
      "y": 90,
      "z": 91,
      "~": 92,
      "£": 93,
      "¥": 94,
      "°": 95,
      "²": 96,
      "Â": 97,
      "â": 98,
      "ã": 99,
      "Ċ": 100,
      "č": 101,
      "Ġ": 102,
      "ġ": 103,
      "Ģ": 104,
      "ģ": 105,
      "Ĥ": 106,
      "ĵ": 107,
      "Ķ": 108,
      "ĺ": 109,
      "Ļ": 110,
      "ľ": 111,
      "Ŀ": 112,
      "Ġt": 113,
      "Ġ.": 114,
      "er": 115,
      "čĊ": 116,
      "an": 117,
      "Ġ<": 118,
      "ou": 119,
      "is": 120,
      "in": 121,
      "Ġth": 122,
      "Ġa": 123,
      "us": 124,
      "as": 125,
      "Ġs": 126,
      "ĠI": 127,
      "Ġw": 128,
      "ant": 129,
      "Ġy": 130,
      "Ġ,": 131,
      "user": 132,
      "ist": 133,
      "Ġyou": 134,
      "ass": 135,
      "re": 136,
      "istant": 137,
      "assistant": 138,
      "Ġm": 139,
      "at": 140,
      "on": 141,
      "Ġc": 142,
      "Ġh": 143,
      "Ġthe": 144,
      "Ġto": 145,
      "Ġb": 146,
      "Ġ?": 147,
      "ll": 148,
      "it": 149,
      "or": 150,
      "Ġf": 151,
      "Ġd": 152,
      "ing": 153,
      "en": 154,
      "es": 155,
      "Ġp": 156,
      "Ġl": 157,
      "Ġg": 158,
      "ve": 159,
      "Ġan": 160,
      "Ġo": 161,
      "Ġn": 162,
      "om": 163,
      "ĠW": 164,
      "ar": 165,
      "ow": 166,
      "et": 167,
      "ĠT": 168,
      "ed": 169,
      "Ġin": 170,
      "ay": 171,
      "Ġit": 172,
      "le": 173,
      "Ġha": 174,
      "ĠTh": 175,
      "Ġof": 176,
      "Ġis": 177,
      "Ġand": 178,
      "âĢ": 179,
      "ĠâĢ": 180,
      "ot": 181,
      "ĠY": 182,
      "ke": 183,
      "ic": 184,
      "ĠâĢĻ": 185,
      "Ġbe": 186,
      "Ġfor": 187,
      "ĠčĊ": 188,
      "'s": 189,
      "ere": 190,
      "ld": 191,
      "Ġre": 192,
      "oo": 193,
      "Ġe": 194,
      "Ġon": 195,
      "ĠH": 196,
      "Ġdo": 197,
      "Ġhave": 198,
      "ut": 199,
      "gh": 200,
      "Ġthat": 201,
      "Ġme": 202,
      "hat": 203,
      "ver": 204,
      "Ġwe": 205,
      "id": 206,
      "al": 207,
      "ch": 208,
      "ould": 209,
      "all": 210,
      "ĠA": 211,
      "Ġli": 212,
      "Ġ!": 213,
      "Ġyour": 214,
      "out": 215,
      "Ġare": 216,
      "ght": 217,
      "ĠS": 218,
      "ent": 219,
      "ri": 220,
      "Ġcan": 221,
      "'t": 222,
      "im": 223,
      "ion": 224,
      "ill": 225,
      "ĠO": 226,
      "el": 227,
      "Ġst": 228,
      "ome": 229,
      "Ġne": 230,
      "ĠM": 231,
      "ir": 232,
      "ro": 233,
      "Ġmy": 234,
      "ith": 235,
      "ter": 236,
      "ĠIt": 237,
      "Ġgo": 238,
      "Ġlike": 239,
      "Ġse": 240,
      "Ġsh": 241,
      "ĠYou": 242,
      "ĠC": 243,
      "Ġk": 244,
      "ad": 245,
      "ĠWhat": 246,
      "ĠWe": 247,
      "ĠD": 248,
      "ly": 249,
      "Ġwith": 250,
      "ac": 251,
      "st": 252,
      "ood": 253,
      "Ġthis": 254,
      "th": 255,
      "nd": 256,
      "se": 257,
      "ust": 258,
      "Ġab": 259,
      "am": 260,
      "ĠB": 261,
      "Ġj": 262,
      "ink": 263,
      "our": 264,
      "ally": 265,
      "Ġwh": 266,
      "Ġso": 267,
      "ĠN": 268,
      "ĠYes": 269,
      "if": 270,
      "very": 271,
      "Ġat": 272,
      "ake": 273,
      "Ġabout": 274,
      "Ġu": 275,
      "ec": 276,
      "Ġsu": 277,
      "Ġch": 278,
      "Ġwill": 279,
      "ea": 280,
      "Ġthink": 281,
      "Ġdon": 282,
      "ry": 283,
      "Ġget": 284,
      "Ġkn": 285,
      "Ġnot": 286,
      "'m": 287,
      "ank": 288,
      "op": 289,
      "ce": 290,
      "Ġknow": 291,
      "Ġwor": 292,
      "Ġhe": 293,
      "ĠThat": 294,
      "ĠThe": 295,
      "ook": 296,
      "ur": 297,
      "Ġwas": 298,
      "ore": 299,
      "Ġbut": 300,
      "est": 301,
      "Ġsee": 302,
      "ĠHow": 303,
      "ice": 304,
      "ble": 305,
      "Ġas": 306,
      "Ġthere": 307,
      "ĠWh": 308,
      "ase": 309,
      "end": 310,
      "Ġex": 311,
      "Ġsome": 312,
      "Ġcom": 313,
      "ra": 314,
      "pp": 315,
      "right": 316,
      "ime": 317,
      "Ġall": 318,
      "ge": 319,
      "ĠL": 320,
      "ind": 321,
      "Ġwhat": 322,
      "Ġwant": 323,
      "'ll": 324,
      "ight": 325,
      "ation": 326,
      "Ġany": 327,
      "Ġal": 328,
      "Ġgood": 329,
      "Ġor": 330,
      "Ġone": 331,
      "Ġjust": 332,
      "Ġpro": 333,
      "il": 334,
      "Ġright": 335,
      "Ġwould": 336,
      "Ġvery": 337,
      "Ġus": 338,
      "ard": 339,
      "ul": 340,
      "art": 341,
      "Ġtime": 342,
      "ĠG": 343,
      "ĠDo": 344,
      "ĠWell": 345,
      "ive": 346,
      "lease": 347,
      "ell": 348,
      "nt": 349,
      "ĠThank": 350,
      "one": 351,
      "rom": 352,
      "and": 353,
      "ĠNo": 354,
      "Ġwork": 355,
      "ess": 356,
      "Ġneed": 357,
      "Ġpl": 358,
      "Ġout": 359,
      "qu": 360,
      "Ġtoo": 361,
      "ct": 362,
      "Ġreally": 363,
      "ure": 364,
      "Ġhere": 365,
      "uch": 366,
      "ine": 367,
      "ate": 368,
      "ong": 369,
      "ers": 370,
      "ĠOh": 371,
      "Ġam": 372,
      "Ġup": 373,
      "Ġsp": 374,
      "Ġmuch": 375,
      "ĠE": 376,
      "ain": 377,
      "ast": 378,
      "ment": 379,
      "ĠP": 380,
      "Ġgoing": 381,
      "day": 382,
      "Ġdid": 383,
      "Ġlook": 384,
      "ĠBut": 385,
      "her": 386,
      "ort": 387,
      "Ġthey": 388,
      "Ġour": 389,
      "Ġtake": 390,
      "Ġif": 391,
      "any": 392,
      "ack": 393,
      "Ġco": 394,
      "ven": 395,
      "os": 396,
      "ep": 397,
      "ound": 398,
      "Ġr": 399,
      "Ġfrom": 400,
      "Ġcomp": 401,
      "ĠF": 402,
      "ear": 403,
      "ig": 404,
      "Ġplease": 405,
      "ĠJ": 406,
      "Ġcon": 407,
      "un": 408,
      "elp": 409,
      "Ġhelp": 410,
      "Ġshould": 411,
      "ays": 412,
      "Ġfe": 413,
      "Ġnow": 414,
      "Ġaf": 415,
      "ĠR": 416,
      "are": 417,
      "Ġlo": 418,
      "ie": 419,
      "reat": 420,
      "Ġcl": 421,
      "um": 422,
      "Ġmo": 423,
      "ish": 424,
      "Ġoff": 425,
      "Ġqu": 426,
      "ame": 427,
      "Ġmore": 428,
      "'ve": 429,
      "Ġthem": 430,
      "king": 431,
      "Ġnew": 432,
      "ĠHe": 433,
      "res": 434,
      "Ġgot": 435,
      "Ġbeen": 436,
      "hing": 437,
      "ite": 438,
      "ick": 439,
      "thing": 440,
      "'re": 441,
      "Ġhow": 442,
      "Ġ1": 443,
      "ity": 444,
      "ĠAnd": 445,
      "ob": 446,
      "Ġv": 447,
      "ning": 448,
      "Ġag": 449,
      "Ġro": 450,
      "Ġmake": 451,
      "ree": 452,
      "ect": 453,
      "ĠIs": 454,
      "ĠCan": 455,
      "Ġno": 456,
      "omet": 457,
      "ol": 458,
      "Ġcould": 459,
      "Ġ..": 460,
      "ies": 461,
      "ount": 462,
      "eop": 463,
      "ĠOK": 464,
      "use": 465,
      "ag": 466,
      "eople": 467,
      "'d": 468,
      "Ġ...": 469,
      "Ġinter": 470,
      "ous": 471,
      "Ġby": 472,
      "Ġover": 473,
      "Ġwhen": 474,
      "per": 475,
      "he": 476,
      "ek": 477,
      "Ġhas": 478,
      "Ġtw": 479,
      "ck": 480,
      "Ġen": 481,
      "row": 482,
      "Ġlot": 483,
      "Ġpeople": 484,
      "Ġher": 485,
      "Ġbus": 486,
      "Ġbu": 487,
      "Ġtr": 488,
      "act": 489,
      "Ġweek": 490,
      "Ġevery": 491,
      "Ġthen": 492,
      "Ġcall": 493,
      "Ġshe": 494,
      "ĠLet": 495,
      "Ġsure": 496,
      "Ġsa": 497,
      "ough": 498,
      "Ġcome": 499,
      "00": 500,
      "Ġsomet": 501,
      "Ġtell": 502,
      "em": 503,
      "Ġar": 504,
      "irst": 505,
      "orry": 506,
      "der": 507,
      "ĠCh": 508,
      "Ġwell": 509,
      "Ġthing": 510,
      "ach": 511,
      "Ġbet": 512,
      "fer": 513,
      "Ġhad": 514,
      "ĠSo": 515,
      "able": 516,
      "ĠV": 517,
      "ĠGood": 518,
      "Ġgreat": 519,
      "Ġyear": 520,
      "ĠMay": 521,
      "Ġafter": 522,
      "age": 523,
      "Ġday": 524,
      "Ġback": 525,
      "ud": 526,
      "Ġlong": 527,
      "Ġdoes": 528,
      "ance": 529,
      "ĠAre": 530,
      "ving": 531,
      "xt": 532,
      "Ġpre": 533,
      "ak": 534,
      "eah": 535,
      "ĠMy": 536,
      "ther": 537,
      "ber": 538,
      "ide": 539,
      "Ġway": 540,
      "blem": 541,
      "ĠThey": 542,
      "ĠWhy": 543,
      "Ġproblem": 544,
      "ff": 545,
      "oy": 546,
      "cc": 547,
      "Ġhim": 548,
      "Ġcour": 549,
      "itt": 550,
      "Ġsir": 551,
      "Ġlet": 552,
      "Ġjob": 553,
      "ĠHa": 554,
      "ich": 555,
      "Ġwon": 556,
      "ĠIf": 557,
      "Ġapp": 558,
      "Ġroom": 559,
      "ĠThere": 560,
      "Ġtoday": 561,
      "Ġpr": 562,
      "Ġfirst": 563,
      "Ġll": 564,
      "Ġtwo": 565,
      "Ġad": 566,
      "ĠThis": 567,
      "Ġgive": 568,
      "Ġonly": 569,
      "pt": 570,
      "so": 571,
      "ually": 572,
      "port": 573,
      "ĠHere": 574,
      "Ġsomething": 575,
      "Ġgu": 576,
      "ary": 577,
      "ĠMr": 578,
      "ace": 579,
      "Ġsay": 580,
      "Ġtry": 581,
      "Ġother": 582,
      "ab": 583,
      "Ġmany": 584,
      "Ġkind": 585,
      "Ġ2": 586,
      "red": 587,
      "Ġpay": 588,
      "ef": 589,
      "Ġim": 590,
      "ĠYeah": 591,
      "Ġcourse": 592,
      "ang": 593,
      "ress": 594,
      "ty": 595,
      "Ġ'": 596,
      "be": 597,
      "riend": 598,
      "own": 599,
      "orning": 600,
      "ĠOk": 601,
      "oney": 602,
      "Ġfeel": 603,
      "Ġbr": 604,
      "Ġcompany": 605,
      "ĠThanks": 606,
      "ool": 607,
      "Ġpart": 608,
      "Ġfind": 609,
      "ĠSure": 610,
      "ose": 611,
      "ater": 612,
      "ue": 613,
      "other": 614,
      "Ġlast": 615,
      "Ġmorning": 616,
      "Ġbetter": 617,
      "Ġsorry": 618,
      "ans": 619,
      "ail": 620,
      "Ġnext": 621,
      "Ġper": 622,
      "Ġanything": 623,
      "Ġfl": 624,
      "Ġmeet": 625,
      "eck": 626,
      "ert": 627,
      "Ġdidn": 628,
      "Ġhapp": 629,
      "Ġalso": 630,
      "Ġbuy": 631,
      "ng": 632,
      "ial": 633,
      "Ġcar": 634,
      "Ġtra": 635,
      "Ġexp": 636,
      "Ġres": 637,
      "Ġlove": 638,
      "atch": 639,
      "ady": 640,
      "Ġint": 641,
      "Ġke": 642,
      "erv": 643,
      "ought": 644,
      "ĠHave": 645,
      "Ġwere": 646,
      "Ġeven": 647,
      "ark": 648,
      "ee": 649,
      "ĠDon": 650,
      "Ġthan": 651,
      "Ġmust": 652,
      "ittle": 653,
      "way": 654,
      "ign": 655,
      "Ġlittle": 656,
      "ĠWould": 657,
      "Ġun": 658,
      "fore": 659,
      "orrow": 660,
      "ause": 661,
      "ange": 662,
      "Ġhis": 663,
      "ways": 664,
      "sel": 665,
      "ap": 666,
      "Ġmay": 667,
      "Ġbefore": 668,
      "ounds": 669,
      "Ġmin": 670,
      "Ġmoney": 671,
      "Ġwho": 672,
      "get": 673,
      "Ġbec": 674,
      "Ġalways": 675,
      "Ġsch": 676,
      "Ġwr": 677,
      "urn": 678,
      "iz": 679,
      "ise": 680,
      "Ġnice": 681,
      "Ġman": 682,
      "Ġcheck": 683,
      "Ġmon": 684,
      "ence": 685,
      "Ġsm": 686,
      "ip": 687,
      "ĠChin": 688,
      "Ġfriend": 689,
      "ĠShe": 690,
      "Ġstart": 691,
      "ely": 692,
      "Ġinterest": 693,
      "Ġdown": 694,
      "ait": 695,
      "ĠIn": 696,
      "alk": 697,
      "orm": 698,
      "Ġdif": 699,
      "Ġask": 700,
      "ĠVe": 701,
      "Ġacc": 702,
      "Ġagain": 703,
      "Ġyes": 704,
      "ition": 705,
      "ather": 706,
      "oth": 707,
      "ese": 708,
      "Ġmonth": 709,
      "ĠHell": 710,
      "ĠHello": 711,
      "Ġbl": 712,
      "ĠWhen": 713,
      "ade": 714,
      "Ġthings": 715,
      "ĠDid": 716,
      "Ġhome": 717,
      "Ġthank": 718,
      "Ġplay": 719,
      "Ġid": 720,
      "Ġde": 721,
      "ars": 722,
      "Ġname": 723,
      "Ġtom": 724,
      "mer": 725,
      "Ġuse": 726,
      "ful": 727,
      "Ġhi": 728,
      "ting": 729,
      "ĠNot": 730,
      "ile": 731,
      "Ġthese": 732,
      "Ġhard": 733,
      "ĠU": 734,
      "Ġmean": 735,
      "ĠWhere": 736,
      "Ġnight": 737,
      "Ġhop": 738,
      "iss": 739,
      "Ġstill": 740,
      "ĠEx": 741,
      "self": 742,
      "ĠAll": 743,
      "oss": 744,
      "Ġwhere": 745,
      "vie": 746,
      "Ġtomorrow": 747,
      "Ġminut": 748,
      "Ġmost": 749,
      "ens": 750,
      "Ġput": 751,
      "nder": 752,
      "oin": 753,
      "Ġlea": 754,
      "Ġdep": 755,
      "Ġfew": 756,
      "ost": 757,
      "Ġidea": 758,
      "od": 759,
      "Ġrec": 760,
      "du": 761,
      "Ġtheir": 762,
      "Ġdays": 763,
      "ĠHi": 764,
      "Ġclass": 765,
      "Ġfood": 766,
      "Ġdr": 767,
      "Ġdis": 768,
      "Ġfin": 769,
      "ny": 770,
      "ĠCould": 771,
      "Ġdoing": 772,
      "lish": 773,
      "Ġinto": 774,
      "Ġshow": 775,
      "ions": 776,
      "ild": 777,
      "Ġph": 778,
      "Ġwhy": 779,
      "Ġ3": 780,
      "Ġunder": 781,
      "ouse": 782,
      "Ġbest": 783,
      "ner": 784,
      "Ġwait": 785,
      "Ġnever": 786,
      "Ġcont": 787,
      "Ġbig": 788,
      "Ġbad": 789,
      "Ġbook": 790,
      "Ġstud": 791,
      "ĠRe": 792,
      "ond": 793,
      "ĠPlease": 794,
      "ily": 795,
      "ĠJust": 796,
      "Ġkeep": 797,
      "Ġel": 798,
      "ious": 799,
      "Ġhour": 800,
      "Ġschool": 801,
      "Ġcare": 802,
      "ire": 803,
      "Ġfa": 804,
      "Ġdec": 805,
      "Ġgr": 806,
      "Ġte": 807,
      "iness": 808,
      "ĠThen": 809,
      "ĠEng": 810,
      "Ġhope": 811,
      "ried": 812,
      "ock": 813,
      "Ġfine": 814,
      "Ġbecause": 815,
      "Ġmind": 816,
      "Ġ$": 817,
      "Ġcard": 818,
      "Ġfam": 819,
      "Ġaround": 820,
      "Ġle": 821,
      "artment": 822,
      "Ġorder": 823,
      "Ġelse": 824,
      "Ġyears": 825,
      "Ġseem": 826,
      "Ġthree": 827,
      "gg": 828,
      "imes": 829,
      "ĠOf": 830,
      "Ġquite": 831,
      "Ġnum": 832,
      "ult": 833,
      "Ġpa": 834,
      "raid": 835,
      "form": 836,
      "Ġafraid": 837,
      "ves": 838,
      "pl": 839,
      "vel": 840,
      "Ġplan": 841,
      "Ġdiffer": 842,
      "ertain": 843,
      "cuse": 844,
      "Ġeat": 845,
      "Ġdoll": 846,
      "oon": 847,
      "ĠSt": 848,
      "cl": 849,
      "Ġact": 850,
      "Ġhand": 851,
      "Ġlooking": 852,
      "Ġcount": 853,
      "Ġoffice": 854,
      "ĠEnglish": 855,
      "Ġbusiness": 856,
      "Ġhigh": 857,
      "Ġworking": 858,
      "Ġhot": 859,
      "ash": 860,
      "Ġma": 861,
      "erson": 862,
      "Ġ5": 863,
      "Ġsc": 864,
      "Ġisn": 865,
      "ĠReally": 866,
      "Ġspea": 867,
      "ĠK": 868,
      "ĠMaybe": 869,
      "Ġold": 870,
      "Ġsounds": 871,
      "Ġdrink": 872,
      "Ġhouse": 873,
      "Ġsupp": 874,
      "anc": 875,
      "Ġrem": 876,
      "Ġsoon": 877,
      "joy": 878,
      "ull": 879,
      "Ġthought": 880,
      "Ġmade": 881,
      "Ġtea": 882,
      "Ġsal": 883,
      "ations": 884,
      "Ġstay": 885,
      "we": 886,
      "come": 887,
      "Ġbel": 888,
      "Ġrest": 889,
      "Ġplace": 890,
      "arge": 891,
      "Ġnumber": 892,
      "ieve": 893,
      "Ġdoesn": 894,
      "ew": 895,
      "wn": 896,
      "Ġwonder": 897,
      "ord": 898,
      "Ġgl": 899,
      "Ġsaid": 900,
      "ible": 901,
      "Ġeas": 902,
      "ĠExcuse": 903,
      "Ġanother": 904,
      "noon": 905,
      "und": 906,
      "ten": 907,
      "Ġwatch": 908,
      "Ġafternoon": 909,
      "Ġenjoy": 910,
      "akes": 911,
      "iver": 912,
      "Ġhear": 913,
      "Ġlear": 914,
      "Ġpass": 915,
      "oint": 916,
      "Ġsame": 917,
      "Ġhaven": 918,
      "Ġatt": 919,
      "Ġop": 920,
      "ĠChinese": 921,
      "les": 922,
      "Ġton": 923,
      "Ġwhich": 924,
      "Ġchange": 925,
      "ember": 926,
      "Ġprice": 927,
      "ple": 928,
      "ye": 929,
      "Ġdollars": 930,
      "ix": 931,
      "ated": 932,
      "Ġheard": 933,
      "Ġta": 934,
      "Ġminutes": 935,
      "Ġeach": 936,
      "irl": 937,
      "Ġinv": 938,
      "Ġsec": 939,
      "ĠNow": 940,
      "Ġsuch": 941,
      "ents": 942,
      "Ġspec": 943,
      "Ġmight": 944,
      "Ġperson": 945,
      "Ġrel": 946,
      "Ġaccount": 947,
      "Ġdes": 948,
      "Ġdin": 949,
      "ĠOn": 950,
      "Ġguess": 951,
      "Ġtalk": 952,
      "Ġeverything": 953,
      "Ġimport": 954,
      "Ġdri": 955,
      "og": 956,
      "tty": 957,
      "Ġear": 958,
      "uck": 959,
      "Ġmom": 960,
      "Ġcle": 961,
      "Ġdone": 962,
      "Ġserv": 963,
      "Ġra": 964,
      "ready": 965,
      "Ġsk": 966,
      "Ġread": 967,
      "Ġalready": 968,
      "ertainly": 969,
      "Ġleave": 970,
      "Ġem": 971,
      "Ġgetting": 972,
      "Ġdifferent": 973,
      "Ġins": 974,
      "Ġbring": 975,
      "Ġenough": 976,
      "stand": 977,
      "Ġprodu": 978,
      "Ġtonight": 979,
      "Ġyet": 980,
      "ĠOkay": 981,
      "Ġusually": 982,
      "ict": 983,
      "icket": 984,
      "Ġbit": 985,
      "Ġcomput": 986,
      "ĠSh": 987,
      "ons": 988,
      "ĠYour": 989,
      "Ġwhile": 990,
      "Ġbre": 991,
      "ory": 992,
      "ular": 993,
      "Ġhappen": 994,
      "up": 995,
      "Ġticket": 996,
      "ren": 997,
      "Ġfun": 998,
      "Ġfriends": 999,
      "ork": 1000,
      "Ġworry": 1001,
      "Ġvis": 1002,
      "Ġbelieve": 1003,
      "ize": 1004,
      "aut": 1005,
      "fe": 1006,
      "Ġset": 1007,
      "Ġbo": 1008,
      "Ġmat": 1009,
      "Ġtrain": 1010,
      "Ġdinner": 1011,
      "Ġgirl": 1012,
      "Ġfo": 1013,
      "Ġbeaut": 1014,
      "ical": 1015,
      "Ġlooks": 1016,
      "Ġpretty": 1017,
      "ience": 1018,
      "vor": 1019,
      "Ġready": 1020,
      "Ġstop": 1021,
      "Ġter": 1022,
      "Ġthose": 1023,
      "Ġmar": 1024,
      "Ġmeeting": 1025,
      "rough": 1026,
      "Ġturn": 1027,
      "ĠAny": 1028,
      "Ġlate": 1029,
      "Ġlater": 1030,
      "Ġlist": 1031,
      "Ġcost": 1032,
      "Ġimportant": 1033,
      "Ġap": 1034,
      "Ġlive": 1035,
      "Ġser": 1036,
      "Ġinform": 1037,
      "Ġdisc": 1038,
      "ĠWill": 1039,
      "Ġaway": 1040,
      "ĠHey": 1041,
      "view": 1042,
      "cept": 1043,
      "uan": 1044,
      "Ġcoming": 1045,
      "Ġused": 1046,
      "ctor": 1047,
      "Ġwrong": 1048,
      "Ġunderstand": 1049,
      "ub": 1050,
      "Ġthrough": 1051,
      "Ġevening": 1052,
      "Ġcoll": 1053,
      "Ġhappy": 1054,
      "Ġadd": 1055,
      "Ġtri": 1056,
      "ĠFr": 1057,
      "Ġreg": 1058,
      "eft": 1059,
      "Ġphone": 1060,
      "Ġshop": 1061,
      "Ġopen": 1062,
      "Ġoffer": 1063,
      "Ġsmall": 1064,
      "Ġspeak": 1065,
      "Ġexper": 1066,
      "Ġparty": 1067,
      "ia": 1068,
      "Ġsign": 1069,
      "ities": 1070,
      "Ġfr": 1071,
      "Ġoften": 1072,
      "Ġfree": 1073,
      "Ġleft": 1074,
      "Ġever": 1075,
      "Ġfamily": 1076,
      "Ġcou": 1077,
      "Ġ10": 1078,
      "ian": 1079,
      "gether": 1080,
      "ĠAl": 1081,
      "Ġspecial": 1082,
      "Ġdel": 1083,
      "Ġcity": 1084,
      "Ġthanks": 1085,
      "ĠJo": 1086,
      "arket": 1087,
      "meric": 1088,
      "Ġcomputer": 1089,
      "Ġair": 1090,
      "iting": 1091,
      "iday": 1092,
      "its": 1093,
      "Ġten": 1094,
      "Ġrun": 1095,
      "ments": 1096,
      "Ġlearn": 1097,
      "ient": 1098,
      "Ġmus": 1099,
      "Ġbeautif": 1100,
      "Ġform": 1101,
      "ĠAmeric": 1102,
      "ĠLook": 1103,
      "ably": 1104,
      "Ġend": 1105,
      "Ġsend": 1106,
      "Ġla": 1107,
      "Ġeasy": 1108,
      "Ġfar": 1109,
      "Ġproduct": 1110,
      "Ġown": 1111,
      "Ġcountry": 1112,
      "ved": 1113,
      "Ġmiss": 1114,
      "Ġchild": 1115,
      "Ġpres": 1116,
      "ĠBe": 1117,
      "Ġquest": 1118,
      "Ġmoment": 1119,
      "Ġbeautiful": 1120,
      "Ġseems": 1121,
      "fect": 1122,
      "Ġ6": 1123,
      "Ġweekend": 1124,
      "leas": 1125,
      "ors": 1126,
      "Ġrece": 1127,
      "ĠWhich": 1128,
      "ward": 1129,
      "Ġstr": 1130,
      "ĠGreat": 1131,
      "Ġservice": 1132,
      "ph": 1133,
      "Ġremember": 1134,
      "Ġnews": 1135,
      "Ġprefer": 1136,
      "Ġimp": 1137,
      "ivers": 1138,
      "lic": 1139,
      "ĠSorry": 1140,
      "gr": 1141,
      "Ġexpens": 1142,
      "ever": 1143,
      "Ġkid": 1144,
      "Ġcons": 1145,
      "ason": 1146,
      "Ġfive": 1147,
      "Ġagree": 1148,
      "Ġprom": 1149,
      "Ġpos": 1150,
      "ĠWho": 1151,
      "ery": 1152,
      "Ġwel": 1153,
      "Ġteach": 1154,
      "Ġ4": 1155,
      "ĠAs": 1156,
      "aur": 1157,
      "Ġtogether": 1158,
      "ited": 1159,
      "ĠFor": 1160,
      "ploy": 1161,
      "old": 1162,
      "Ġac": 1163,
      "Ġsl": 1164,
      "ates": 1165,
      "Ġtold": 1166,
      "Ġhaving": 1167,
      "Ġfinish": 1168,
      "Ġglad": 1169,
      "bably": 1170,
      "Ġwent": 1171,
      "ffee": 1172,
      "Ġinterested": 1173,
      "iv": 1174,
      "ouble": 1175,
      "Ġable": 1176,
      "Ġtrue": 1177,
      "Ġposs": 1178,
      "Ġret": 1179,
      "Ġyourself": 1180,
      "Ġlife": 1181,
      "enty": 1182,
      "Ġreal": 1183,
      "ody": 1184,
      "ĠCome": 1185,
      "Ġhours": 1186,
      "ping": 1187,
      "Ġext": 1188,
      "Ġok": 1189,
      "als": 1190,
      "Ġcol": 1191,
      "Ġinterview": 1192,
      "ĠChina": 1193,
      "Ġinformation": 1194,
      "hn": 1195,
      "ract": 1196,
      "Ġ7": 1197,
      "ager": 1198,
      "Ġwelcome": 1199,
      "unch": 1200,
      "Ġinteresting": 1201,
      "iet": 1202,
      "ince": 1203,
      "Ġbeing": 1204,
      "Ġmovie": 1205,
      "Ġbreak": 1206,
      "Ġworld": 1207,
      "Ġsomeone": 1208,
      "ife": 1209,
      "Ġmyself": 1210,
      "aurant": 1211,
      "ntil": 1212,
      "Ġcoffee": 1213,
      "Ġstudy": 1214,
      "Ġsing": 1215,
      "ating": 1216,
      "Ġbank": 1217,
      "Ġpleas": 1218,
      "ices": 1219,
      "Ġ8": 1220,
      "alking": 1221,
      "Ġsur": 1222,
      "arent": 1223,
      "Ġtrans": 1224,
      "here": 1225,
      "ĠWow": 1226,
      "Ġnothing": 1227,
      "Ġfill": 1228,
      "Ġseat": 1229,
      "Ġadv": 1230,
      "Ġfavor": 1231,
      "Ġboth": 1232,
      "ired": 1233,
      "Ġbusy": 1234,
      "Ġexpect": 1235,
      "Ġmatter": 1236,
      "Ġmusic": 1237,
      "terday": 1238,
      "ĠTo": 1239,
      "alth": 1240,
      "Ġthinking": 1241,
      "ction": 1242,
      "Ġapartment": 1243,
      "Ġexpensive": 1244,
      "lf": 1245,
      "most": 1246,
      "Ġmarket": 1247,
      "Ġwater": 1248,
      "Ġfour": 1249,
      "Ġuntil": 1250,
      "Ġguy": 1251,
      "ĠJohn": 1252,
      "Ġpol": 1253,
      "Ġcomm": 1254,
      "pe": 1255,
      "Ġav": 1256,
      "reet": 1257,
      "Ġcred": 1258,
      "Ġluck": 1259,
      "room": 1260,
      "Ġtrip": 1261,
      "ĠMary": 1262,
      "fic": 1263,
      "ied": 1264,
      "ĠDoes": 1265,
      "Ġactually": 1266,
      "Ġcor": 1267,
      "Ġspend": 1268,
      "Ġcompl": 1269,
      "000": 1270,
      "Ġbed": 1271,
      "Ġbir": 1272,
      "Ġinst": 1273,
      "amp": 1274,
      "ier": 1275,
      "oor": 1276,
      "atur": 1277,
      "Ġrestaurant": 1278,
      "ts": 1279,
      "omm": 1280,
      "Ġprobably": 1281,
      "enc": 1282,
      "Ġwin": 1283,
      "Ġseen": 1284,
      "Ġmaybe": 1285,
      "Ġpick": 1286,
      "edu": 1287,
      "Ġexam": 1288,
      "ĠSee": 1289,
      "actly": 1290,
      "Ġsecond": 1291,
      "Ġsit": 1292,
      "Ġcook": 1293,
      "ib": 1294,
      "ike": 1295,
      "Ġmet": 1296,
      "ides": 1297,
      "Ġcharge": 1298,
      "Ġyesterday": 1299,
      "Ġty": 1300,
      "Ġweather": 1301,
      "mm": 1302,
      "Ġthir": 1303,
      "ately": 1304,
      "Ġcloth": 1305,
      "Ġexperience": 1306,
      "az": 1307,
      "ding": 1308,
      "ention": 1309,
      "Ġnear": 1310,
      "leep": 1311,
      "Ġbeg": 1312,
      "ific": 1313,
      "ject": 1314,
      "Ġwalk": 1315,
      "Ġwife": 1316,
      "Ġfil": 1317,
      "ĠTom": 1318,
      "Ġcho": 1319,
      "Ġposition": 1320,
      "Ġpossible": 1321,
      "ci": 1322,
      "Ġbag": 1323,
      "Ġexc": 1324,
      "Ġcalled": 1325,
      "arents": 1326,
      "Ġtable": 1327,
      "Ġboss": 1328,
      "Ġfound": 1329,
      "ĠAct": 1330,
      "ĠBy": 1331,
      "ual": 1332,
      "Ġhappened": 1333,
      "Ġind": 1334,
      "Ġsuit": 1335,
      "clud": 1336,
      "te": 1337,
      "Ġcash": 1338,
      "Ġstand": 1339,
      "Ġcold": 1340,
      "Ġago": 1341,
      "ĠActually": 1342,
      "Ġqual": 1343,
      "Ġflight": 1344,
      "Ġemploy": 1345,
      "ath": 1346,
      "Ġhead": 1347,
      "time": 1348,
      "Ġsugg": 1349,
      "Ġmanager": 1350,
      "iversity": 1351,
      "Ġsuggest": 1352,
      "ft": 1353,
      "Ġhalf": 1354,
      "Ġ-": 1355,
      "Ġsw": 1356,
      "Ġyuan": 1357,
      "Ġvisit": 1358,
      "Ġcredit": 1359,
      "Ġent": 1360,
      "ĠSm": 1361,
      "tern": 1362,
      "Ġsub": 1363,
      "Ġtravel": 1364,
      "Ġcut": 1365,
      "Ġdress": 1366,
      "Ġalmost": 1367,
      "Ġdoctor": 1368,
      "ĠCertainly": 1369,
      "osed": 1370,
      "Ġterri": 1371,
      "Ġparents": 1372,
      "Ġwar": 1373,
      "Ġfact": 1374,
      "air": 1375,
      "Ġhealth": 1376,
      "Ġsever": 1377,
      "ĠNew": 1378,
      "ĠEvery": 1379,
      "ĠFine": 1380,
      "Ġdeal": 1381,
      "Ġwish": 1382,
      "Ġhotel": 1383,
      "Ġserious": 1384,
      "Ġfull": 1385,
      "Ġpack": 1386,
      "ai": 1387,
      "Ġthough": 1388,
      "Ġhur": 1389,
      "Ġvac": 1390,
      "Ġweeks": 1391,
      "Ġtaking": 1392,
      "Ġbirth": 1393,
      "Ġseveral": 1394,
      "Ġca": 1395,
      "Ġcur": 1396,
      "Ġshort": 1397,
      "Ġdepartment": 1398,
      "Ġ9": 1399,
      "Ġbought": 1400,
      "Ġwear": 1401,
      "Ġlight": 1402,
      "erc": 1403,
      "Ġbill": 1404,
      "ries": 1405,
      "Ġperfect": 1406,
      "Ġteam": 1407,
      "br": 1408,
      "Ġtimes": 1409,
      "Ġmed": 1410,
      "Ġfore": 1411,
      "Ġmove": 1412,
      "Ġintern": 1413,
      "ĠOur": 1414,
      "ense": 1415,
      "Ġpop": 1416,
      "ĠAn": 1417,
      "ics": 1418,
      "Ġele": 1419,
      "Ġhair": 1420,
      "ational": 1421,
      "ages": 1422,
      "Ġclean": 1423,
      "oose": 1424,
      "Ġonce": 1425,
      "Ġreserv": 1426,
      "Ġsmo": 1427,
      "Ġmakes": 1428,
      "Ġcase": 1429,
      "arg": 1430,
      "ott": 1431,
      "uring": 1432,
      "ures": 1433,
      "Ġclothes": 1434,
      "ustom": 1435,
      "Ġ%": 1436,
      "Ġcalling": 1437,
      "ither": 1438,
      "Ġsum": 1439,
      "Ġlost": 1440,
      "ĠUn": 1441,
      "jing": 1442,
      "ortun": 1443,
      "ĠRight": 1444,
      "Ġminute": 1445,
      "ues": 1446,
      "Ġbas": 1447,
      "Ġpaper": 1448,
      "ush": 1449,
      "Ġinclud": 1450,
      "ider": 1451,
      "Ġavail": 1452,
      "where": 1453,
      "Ġcr": 1454,
      "ĠMe": 1455,
      "ffic": 1456,
      "aps": 1457,
      "oes": 1458,
      "Ġtour": 1459,
      "reen": 1460,
      "Ġgi": 1461,
      "ĠAf": 1462,
      "Ġwanted": 1463,
      "ommend": 1464,
      "Ġstore": 1465,
      "Ġdiffic": 1466,
      "ĠFriday": 1467,
      "ught": 1468,
      "Ġ;": 1469,
      "ines": 1470,
      "ister": 1471,
      "Ġdate": 1472,
      "Ġrather": 1473,
      "Ġsaw": 1474,
      "Ġresp": 1475,
      "Ġred": 1476,
      "Ġexerc": 1477,
      "Ġrecommend": 1478,
      "Ġ20": 1479,
      "Ġtalking": 1480,
      "ont": 1481,
      "Ġbro": 1482,
      "Ġdire": 1483,
      "Ġsell": 1484,
      "Ġeveryone": 1485,
      "Ġappre": 1486,
      "Ġmarried": 1487,
      "got": 1488,
      "pr": 1489,
      "Ġrent": 1490,
      "ĠAt": 1491,
      "Ġass": 1492,
      "Ġbirthday": 1493,
      "Ġlarge": 1494,
      "ĠAb": 1495,
      "Ġmonths": 1496,
      "Ġbegin": 1497,
      "ream": 1498,
      "Ġline": 1499,
      "Ġref": 1500,
      "ĠOne": 1501,
      "Ġavailable": 1502,
      "Ġappreci": 1503,
      "Ġmach": 1504,
      "ided": 1505,
      "cell": 1506,
      "Ġcomes": 1507,
      "hip": 1508,
      "line": 1509,
      "Ġearly": 1510,
      "Ġswe": 1511,
      "Ġsleep": 1512,
      "Ġlunch": 1513,
      "Ġaccept": 1514,
      "ĠSmith": 1515,
      "ings": 1516,
      "Ġwrite": 1517,
      "Ġstarted": 1518,
      "It": 1519,
      "ax": 1520,
      "ially": 1521,
      "Ġ\"": 1522,
      "Ġwind": 1523,
      "itch": 1524,
      "Ġaren": 1525,
      "ently": 1526,
      "Ġrain": 1527,
      "Ġchildren": 1528,
      "ball": 1529,
      "na": 1530,
      "oup": 1531,
      "Ġsim": 1532,
      "ijing": 1533,
      "Ġcustom": 1534,
      "Ġwouldn": 1535,
      "ĠBeijing": 1536,
      "ower": 1537,
      "osit": 1538,
      "Ġappoint": 1539,
      "ames": 1540,
      "Ġ15": 1541,
      "Ġmaking": 1542,
      "bye": 1543,
      "Ġtast": 1544,
      "Ġconc": 1545,
      "Ġtrying": 1546,
      "Ġreturn": 1547,
      "cri": 1548,
      "ident": 1549,
      "Ġconf": 1550,
      "ision": 1551,
      "Ġpoint": 1552,
      "Ġexactly": 1553,
      "Ġfavorite": 1554,
      "Ġdifficult": 1555,
      "oll": 1556,
      "work": 1557,
      "Ġsix": 1558,
      "Ġdet": 1559,
      "Ġpain": 1560,
      "ĠTV": 1561,
      "Ġloc": 1562,
      "Ġshopping": 1563,
      "Ġprep": 1564,
      "Ġletter": 1565,
      "gram": 1566,
      "Ġreservation": 1567,
      "Ġsummer": 1568,
      "Ġsince": 1569,
      "Ġcouldn": 1570,
      "iec": 1571,
      "side": 1572,
      "Ġalong": 1573,
      "ave": 1574,
      "ming": 1575,
      "zy": 1576,
      "Ġyoung": 1577,
      "Ġhon": 1578,
      "Ġgame": 1579,
      "icy": 1580,
      "Ġleast": 1581,
      "haps": 1582,
      "Ġtop": 1583,
      "Ġtook": 1584,
      "orts": 1585,
      "Ġproblems": 1586,
      "Ġproducts": 1587,
      "Ġve": 1588,
      "Ġsays": 1589,
      "Ġtot": 1590,
      "ĠMon": 1591,
      "Ġchoose": 1592,
      "Ġsy": 1593,
      "Ġcame": 1594,
      "Ġreason": 1595,
      "adam": 1596,
      "Ġgrad": 1597,
      "Ġsales": 1598,
      "Ġwonderful": 1599,
      "ĠAfter": 1600,
      "uss": 1601,
      "Ġreport": 1602,
      "Ġliving": 1603,
      "Ġquick": 1604,
      "Ġconsider": 1605,
      "Ġtest": 1606,
      "Ġmain": 1607,
      "Ġbooks": 1608,
      "Ġpleasure": 1609,
      "Ġsize": 1610,
      "Ġstreet": 1611,
      "Ġword": 1612,
      "Ġprogram": 1613,
      "olut": 1614,
      "Ġduring": 1615,
      "Ġforget": 1616,
      "Ġwasn": 1617,
      "undred": 1618,
      "cess": 1619,
      "man": 1620,
      "ne": 1621,
      "Ġwithout": 1622,
      "Ġchea": 1623,
      "Ġwhole": 1624,
      "Ġ(": 1625,
      "Ġ)": 1626,
      "ital": 1627,
      "Ġchance": 1628,
      "aturday": 1629,
      "The": 1630,
      "Ġboy": 1631,
      "Ġpict": 1632,
      "ĠSounds": 1633,
      "raw": 1634,
      "head": 1635,
      "Ġcouple": 1636,
      "Ġpresent": 1637,
      "rist": 1638,
      "Ġes": 1639,
      "Ġcertainly": 1640,
      "Ġdef": 1641,
      "Ġits": 1642,
      "Ġ12": 1643,
      "Ġtrouble": 1644,
      "Ġcolor": 1645,
      "ĠSome": 1646,
      "Ġche": 1647,
      "Ġdrive": 1648,
      "Ġappreciate": 1649,
      "cellent": 1650,
      "ger": 1651,
      "Ġtired": 1652,
      "ret": 1653,
      "Ġhundred": 1654,
      "Ġless": 1655,
      "Ġsty": 1656,
      "Ġbuild": 1657,
      "ĠVery": 1658,
      "body": 1659,
      "ling": 1660,
      "pec": 1661,
      "uff": 1662,
      "ility": 1663,
      "ĠPer": 1664,
      "Ġteacher": 1665,
      "band": 1666,
      "ege": 1667,
      "ms": 1668,
      "Ġrequ": 1669,
      "ĠSaturday": 1670,
      "Ġfeeling": 1671,
      "Ġappointment": 1672,
      "ĠTake": 1673,
      "Ġinc": 1674,
      "Ġrep": 1675,
      "rown": 1676,
      "Ġlisten": 1677,
      "Ġpri": 1678,
      "Ġmem": 1679,
      "urance": 1680,
      "Ġcover": 1681,
      "Ġcontract": 1682,
      "Ġmaj": 1683,
      "Ġhold": 1684,
      "ĠMiss": 1685,
      "angu": 1686,
      "Ġexercise": 1687,
      "Ġsn": 1688,
      "Ġfif": 1689,
      "friend": 1690,
      "Ġcatch": 1691,
      "Ġsometimes": 1692,
      "Ġapply": 1693,
      "pecially": 1694,
      "Ġside": 1695,
      "ss": 1696,
      "Ġmess": 1697,
      "Ġpur": 1698,
      "Ġforward": 1699,
      "Ġshall": 1700,
      "ecause": 1701,
      "Ġtax": 1702,
      "Ġworked": 1703,
      "But": 1704,
      "Ġtried": 1705,
      "Ġgen": 1706,
      "Ġeither": 1707,
      "Ġprof": 1708,
      "ared": 1709,
      "Ġart": 1710,
      "Ġwaiting": 1711,
      "usband": 1712,
      "Ġhusband": 1713,
      "Ġarri": 1714,
      "ĠChrist": 1715,
      "Ġdecided": 1716,
      "Ġquestion": 1717,
      "Ġquestions": 1718,
      "Ġvacation": 1719,
      "av": 1720,
      "led": 1721,
      "Ġmeans": 1722,
      "Ġuniversity": 1723,
      "Ġsupposed": 1724,
      "ys": 1725,
      "Ġwom": 1726,
      "Ġcop": 1727,
      "Ġlangu": 1728,
      "Ġchang": 1729,
      "Ġneeds": 1730,
      "ĠFirst": 1731,
      "Ġinsurance": 1732,
      "You": 1733,
      "ness": 1734,
      "Ġopp": 1735,
      "Ġlik": 1736,
      "Ġdeposit": 1737,
      "Ġseven": 1738,
      "ume": 1739,
      "Ġpopular": 1740,
      "Ġmajor": 1741,
      "cu": 1742,
      "aster": 1743,
      "Ġmother": 1744,
      "Ġhol": 1745,
      "ĠBecause": 1746,
      "Ġallow": 1747,
      "ĠAmerican": 1748,
      "Ġreceive": 1749,
      "Ġasked": 1750,
      "Ġsalary": 1751,
      "Ġbox": 1752,
      "Ġextra": 1753,
      "Ġcomplet": 1754,
      "Ġterrible": 1755,
      "solut": 1756,
      "int": 1757,
      "Ġcent": 1758,
      "Ġbott": 1759,
      "Ġfast": 1760,
      "Ġpiec": 1761,
      "Ġjoin": 1762,
      "Ġchick": 1763,
      "astic": 1764,
      "clock": 1765,
      "Ġface": 1766,
      "Ġsun": 1767,
      "Ġmen": 1768,
      "Ġda": 1769,
      "Ġcond": 1770,
      "olog": 1771,
      "ween": 1772,
      "Ġfoot": 1773,
      "Ġcollege": 1774,
      "igh": 1775,
      "ature": 1776,
      "Ġpub": 1777,
      "ĠSomet": 1778,
      "Ġlose": 1779,
      "ĠAnything": 1780,
      "Ġfinished": 1781,
      "Ġforeign": 1782,
      "by": 1783,
      "sh": 1784,
      "esides": 1785,
      "Ġpast": 1786,
      "Ġrate": 1787,
      "Ġfloor": 1788,
      "Ġfoll": 1789,
      "Ġsick": 1790,
      "Ġcool": 1791,
      "Ġhate": 1792,
      "Ġforgot": 1793,
      "Ġtraffic": 1794,
      "Ġrecei": 1795,
      "ru": 1796,
      "Ġwine": 1797,
      "Ġdish": 1798,
      "Ġpost": 1799,
      "Ġones": 1800,
      "Ġsuper": 1801,
      "Ġoutside": 1802,
      "Ġpersonal": 1803,
      "Ġthirty": 1804,
      "eed": 1805,
      "itely": 1806,
      "Ġdance": 1807,
      "resh": 1808,
      "Ġtwenty": 1809,
      "solutely": 1810,
      "Ġyeah": 1811,
      "Ġpar": 1812,
      "omp": 1813,
      "aken": 1814,
      "Ġpartic": 1815,
      "Ġspeaking": 1816,
      "Ġrelax": 1817,
      "Ġfollow": 1818,
      "Ġaw": 1819,
      "Ġfit": 1820,
      "Ġeff": 1821,
      "Ġbetween": 1822,
      "Ġpract": 1823,
      "Ġsuppose": 1824,
      "Ġattend": 1825,
      "Ġwinter": 1826,
      "Ġespecially": 1827,
      "cle": 1828,
      "Ġahead": 1829,
      "vert": 1830,
      "ĠSir": 1831,
      "ised": 1832,
      "initely": 1833,
      "Ġcra": 1834,
      "ĠBob": 1835,
      "Ġtele": 1836,
      "ins": 1837,
      "Ġprov": 1838,
      "Ġdepend": 1839,
      "Ġpaid": 1840,
      "Ġclear": 1841,
      "Ġcondition": 1842,
      "arch": 1843,
      "Ġweight": 1844,
      "ĠBye": 1845,
      "Ġblack": 1846,
      "Ġkids": 1847,
      "Ġmachine": 1848,
      "Ġi": 1849,
      "elcome": 1850,
      "Ġstuff": 1851,
      "ails": 1852,
      "Ġquality": 1853,
      "Ġpark": 1854,
      "Ġ100": 1855,
      "Ġgradu": 1856,
      "vies": 1857,
      "Ġmil": 1858,
      "Ġeight": 1859,
      "outh": 1860,
      "stem": 1861,
      "Ġgets": 1862,
      "Ġanyway": 1863,
      "Ġdiscuss": 1864,
      "Ġchicken": 1865,
      "ead": 1866,
      "Ġfig": 1867,
      "Ġfather": 1868,
      "ĠWait": 1869,
      "ets": 1870,
      "ĠJan": 1871,
      "ield": 1872,
      "Ġsale": 1873,
      "ully": 1874,
      "Ġfish": 1875,
      "Ġgif": 1876,
      "ĠWelcome": 1877,
      "irt": 1878,
      "Ġmovies": 1879,
      "Ġ30": 1880,
      "Ġswim": 1881,
      "Ġfix": 1882,
      "Ġey": 1883,
      "Ġdocu": 1884,
      "Ġstra": 1885,
      "Ġchar": 1886,
      "Ġexcellent": 1887,
      "Ġkinds": 1888,
      "ĠAmerica": 1889,
      "ced": 1890,
      "Ġtaken": 1891,
      "Ġcup": 1892,
      "ĠAh": 1893,
      "ĠGo": 1894,
      "Ġconven": 1895,
      "Ġreading": 1896,
      "Ġsystem": 1897,
      "Ġreceipt": 1898,
      "ator": 1899,
      "Ġhea": 1900,
      "Ġonline": 1901,
      "irm": 1902,
      "ĠNice": 1903,
      "ousand": 1904,
      "Ġplaying": 1905,
      "Ġokay": 1906,
      "mas": 1907,
      "Ġbor": 1908,
      "Ġamount": 1909,
      "velop": 1910,
      "Ġpassport": 1911,
      "ug": 1912,
      "vy": 1913,
      "Ġtakes": 1914,
      "Ġcam": 1915,
      "Ġbecome": 1916,
      "Ġaddress": 1917,
      "ĠAlright": 1918,
      "Ġrespons": 1919,
      "bs": 1920,
      "Ġpress": 1921,
      "Ġdoor": 1922,
      "ills": 1923,
      "ross": 1924,
      "Ġgoods": 1925,
      "Ġsports": 1926,
      "Ġhonest": 1927,
      "ees": 1928,
      "Ġmine": 1929,
      "Ġbar": 1930,
      "Ġproject": 1931,
      "Ġclose": 1932,
      "Ġtickets": 1933,
      "Ġwindow": 1934,
      "Ġthousand": 1935,
      "Ġmag": 1936,
      "ĠTw": 1937,
      "Ġdog": 1938,
      "Ġgoes": 1939,
      "aces": 1940,
      "Ġsingle": 1941,
      "sw": 1942,
      "ses": 1943,
      "ĠZ": 1944,
      "Ġtem": 1945,
      "ouch": 1946,
      "Ġfall": 1947,
      "Ġann": 1948,
      "ĠYork": 1949,
      "Ġwhite": 1950,
      "ĠJack": 1951,
      "Ġdiscount": 1952,
      "Ġimpress": 1953,
      "ton": 1954,
      "Ġtreat": 1955,
      "Ġball": 1956,
      "iron": 1957,
      "ĠLi": 1958,
      "ashion": 1959,
      "Ġfront": 1960,
      "Ġtype": 1961,
      "ĠAbout": 1962,
      "ric": 1963,
      "Ġsound": 1964,
      "Ġphot": 1965,
      "Ġeyes": 1966,
      "Ġansw": 1967,
      "ĠTell": 1968,
      "ĠMom": 1969,
      "Ġanyone": 1970,
      "Ġ50": 1971,
      "ĠChristmas": 1972,
      "pect": 1973,
      "ative": 1974,
      "ters": 1975,
      "ĠBr": 1976,
      "ulations": 1977,
      "ung": 1978,
      "Ġaff": 1979,
      "Ġcountries": 1980,
      "Ġchoice": 1981,
      "IB": 1982,
      "less": 1983,
      "Ġdro": 1984,
      "ĠSp": 1985,
      "Ġstation": 1986,
      "Ġkitch": 1987,
      "ĠRIB": 1988,
      "Ġkey": 1989,
      "Ġrecently": 1990,
      "Ġtransfer": 1991,
      "edule": 1992,
      "Ġveget": 1993,
      "Ġtotal": 1994,
      "ĠMonday": 1995,
      "Ġstyle": 1996,
      "Ġgener": 1997,
      "con": 1998,
      "rent": 1999,
      "Ġfresh": 2000,
      "Ġev": 2001,
      "uth": 2002,
      "Ġwants": 2003,
      "Ġarr": 2004,
      "Ġadvice": 2005,
      "Ġkitchen": 2006,
      "30": 2007,
      "els": 2008,
      "Ġ200": 2009,
      "Ġperform": 2010,
      "Ġexpl": 2011,
      "Ġpromot": 2012,
      "Ġmail": 2013,
      "ables": 2014,
      "Ġmanage": 2015,
      "Ġdesign": 2016,
      "Ġtraining": 2017,
      "Ġkidding": 2018,
      "Ġsurpr": 2019,
      "cy": 2020,
      "Ġsat": 2021,
      "Ġmention": 2022,
      "Ġgone": 2023,
      "Ġsave": 2024,
      "Ġlovely": 2025,
      "Ġinstead": 2026,
      "Ġdirect": 2027,
      "Ġbuilding": 2028,
      "ĠPerhaps": 2029,
      "Ġopportun": 2030,
      "Ġstraight": 2031,
      "We": 2032,
      "Ġmadam": 2033,
      "Ġbeh": 2034,
      "Ġworth": 2035,
      "ump": 2036,
      "Ġroad": 2037,
      "Ġinternet": 2038,
      "ĠSometimes": 2039,
      "Ġconvenient": 2040,
      "cent": 2041,
      "fort": 2042,
      "ium": 2043,
      "over": 2044,
      "Ġshoes": 2045,
      "pped": 2046,
      "ountain": 2047,
      "Ġplanning": 2048,
      "ether": 2049,
      "rodu": 2050,
      "ption": 2051,
      "Ġleaving": 2052,
      "Ġhandle": 2053,
      "Ġwatching": 2054,
      "Th": 2055,
      "col": 2056,
      "Ġdi": 2057,
      "Ġdouble": 2058,
      "ĠDad": 2059,
      "Ġfamous": 2060,
      "Ġcrazy": 2061,
      "ken": 2062,
      "min": 2063,
      "Ġarea": 2064,
      "ĠMs": 2065,
      "Ġsoft": 2066,
      "ĠIntern": 2067,
      "Ġlucky": 2068,
      "Ġmedic": 2069,
      "Ġson": 2070,
      "Ġhist": 2071,
      "Ġneigh": 2072,
      "Ġsucc": 2073,
      "Ġlots": 2074,
      "Ġholiday": 2075,
      "Ġneighb": 2076,
      "Ġsuccess": 2077,
      "nter": 2078,
      "ral": 2079,
      "ants": 2080,
      "Ġmid": 2081,
      "Ġben": 2082,
      "Ġwhether": 2083,
      "Ġschedule": 2084,
      "Ġcareful": 2085,
      "Ġdecision": 2086,
      "Ġpublic": 2087,
      "Ġsort": 2088,
      "Ġsoup": 2089,
      "edding": 2090,
      "Ġplans": 2091,
      "Ġdefinitely": 2092,
      "Ġlanguage": 2093,
      "Ġtown": 2094,
      "vern": 2095,
      "Ġvar": 2096,
      "Ġapplic": 2097,
      "aby": 2098,
      "Ġpair": 2099,
      "Ġinvest": 2100,
      "Ġboard": 2101,
      "Ġstrong": 2102,
      "Ġpromise": 2103,
      "ency": 2104,
      "Ġexciting": 2105,
      "Ġlocal": 2106,
      "fast": 2107,
      "pa": 2108,
      "Ġsent": 2109,
      "Ġsister": 2110,
      "Ġmatch": 2111,
      "Ġgrow": 2112,
      "Ġequ": 2113,
      "change": 2114,
      "ĠComp": 2115,
      "ĠBesides": 2116,
      "ĠPro": 2117,
      "ĠRo": 2118,
      "Ġcontact": 2119,
      "mp": 2120,
      "oud": 2121,
      "Ġsense": 2122,
      "Ġstep": 2123,
      "thers": 2124,
      "ĠLond": 2125,
      "Ġrecord": 2126,
      "Ġparticular": 2127,
      "ĠLondon": 2128,
      "bers": 2129,
      "Ġtouch": 2130,
      "erve": 2131,
      "Ġbath": 2132,
      "eter": 2133,
      "Ġstock": 2134,
      "Ġheart": 2135,
      "Ġrunning": 2136,
      "Ġemployees": 2137,
      "Ġtaste": 2138,
      "Ġanswer": 2139,
      "Ġgames": 2140,
      "Ġitem": 2141,
      "Ġlibr": 2142,
      "Ġship": 2143,
      "ĠJim": 2144,
      "Ġshouldn": 2145,
      "Ġadvert": 2146,
      "ĠUS": 2147,
      "ĠShall": 2148,
      "ove": 2149,
      "ugg": 2150,
      "Ġwedding": 2151,
      "Ġlow": 2152,
      "uture": 2153,
      "Ġblue": 2154,
      "Ġstudent": 2155,
      "Ġstudents": 2156,
      "Ġhands": 2157,
      "rat": 2158,
      "Ġwall": 2159,
      "rect": 2160,
      "Ġhu": 2161,
      "Ġpe": 2162,
      "ĠWith": 2163,
      "Ġmeat": 2164,
      "ĠNe": 2165,
      "Ġbrother": 2166,
      "Ġdecide": 2167,
      "ances": 2168,
      "Ġwondering": 2169,
      "Ġcollect": 2170,
      "Ġbreakfast": 2171,
      "Ġfilm": 2172,
      "Ġelect": 2173,
      "Ġmist": 2174,
      "Ġfuture": 2175,
      "ĠThese": 2176,
      "ots": 2177,
      "ĠCl": 2178,
      "Ġamaz": 2179,
      "Ġenv": 2180,
      "Ġtrad": 2181,
      "Ġdesk": 2182,
      "Ġprofess": 2183,
      "Ġgift": 2184,
      "Ġlibrary": 2185,
      "son": 2186,
      "Ġfashion": 2187,
      "Ġdist": 2188,
      "Ġothers": 2189,
      "ĠAcc": 2190,
      "eak": 2191,
      "Ġlonger": 2192,
      "Ġintrodu": 2193,
      "Ġquickly": 2194,
      "fortable": 2195,
      "Ġide": 2196,
      "ories": 2197,
      "eng": 2198,
      "Ġoh": 2199,
      "Ġcann": 2200,
      "ĠDav": 2201,
      "Ġplaces": 2202,
      "Ġrooms": 2203,
      "ĠMrs": 2204,
      "Ġ25": 2205,
      "Ġdevelop": 2206,
      "Ġfair": 2207,
      "Ġleg": 2208,
      "Ġdeliver": 2209,
      "gan": 2210,
      "ha": 2211,
      "ĠBill": 2212,
      "osp": 2213,
      "Ġquiet": 2214,
      "Ġlead": 2215,
      "ording": 2216,
      "Ġsecret": 2217,
      "Ġregular": 2218,
      "Ġstudying": 2219,
      "educ": 2220,
      "airs": 2221,
      "Ġpriv": 2222,
      "cel": 2223,
      "land": 2224,
      "oking": 2225,
      "to": 2226,
      "Ġsong": 2227,
      "Ġfield": 2228,
      "rol": 2229,
      "Ġplenty": 2230,
      "Ġval": 2231,
      "Ġpercent": 2232,
      "Ġdeg": 2233,
      "rench": 2234,
      "Ġfootball": 2235,
      "Ġdepends": 2236,
      "ior": 2237,
      "mit": 2238,
      "more": 2239,
      "ring": 2240,
      "apan": 2241,
      "Ġdriving": 2242,
      "Ġgirlfriend": 2243,
      "Ġpicture": 2244,
      "Ġcamer": 2245,
      "Ġbenef": 2246,
      "aff": 2247,
      "Ġice": 2248,
      "isf": 2249,
      "ising": 2250,
      "Ġhor": 2251,
      "Ġdear": 2252,
      "Ġclock": 2253,
      "Ġmod": 2254,
      "itting": 2255,
      "Ġbrand": 2256,
      "Ġclasses": 2257,
      "ĠSte": 2258,
      "Ġguys": 2259,
      "Ġeffect": 2260,
      "Ġmagaz": 2261,
      "Ġamazing": 2262,
      "Ġenviron": 2263,
      "What": 2264,
      "Ġeduc": 2265,
      "Ġfurn": 2266,
      "ĠTr": 2267,
      "ĠSund": 2268,
      "Ġgovern": 2269,
      "Ġexchange": 2270,
      "ongrat": 2271,
      "Ġcompan": 2272,
      "ĠJapan": 2273,
      "Ġimpro": 2274,
      "teen": 2275,
      "Ġheavy": 2276,
      "Ġafford": 2277,
      "Ġenvironment": 2278,
      "Ġlat": 2279,
      "Ġusing": 2280,
      "ĠFrench": 2281,
      "Ġeng": 2282,
      "Ġguest": 2283,
      "ĠNothing": 2284,
      "Ġattention": 2285,
      "Ġexample": 2286,
      "Ġexcited": 2287,
      "Ġpiece": 2288,
      "nect": 2289,
      "Ġsand": 2290,
      "Ġhit": 2291,
      "Ġbaby": 2292,
      "Ġland": 2293,
      "Ġnerv": 2294,
      "Ġnecess": 2295,
      "Ġasking": 2296,
      "ĠPeople": 2297,
      "Ġgrand": 2298,
      "Ġpolice": 2299,
      "Ġcheap": 2300,
      "ospital": 2301,
      "Ġcat": 2302,
      "Ġpot": 2303,
      "chn": 2304,
      "Ġste": 2305,
      "ĠMost": 2306,
      "urs": 2307,
      "Ġsaying": 2308,
      "itional": 2309,
      "Ġgirls": 2310,
      "Ġcorrect": 2311,
      "fully": 2312,
      "med": 2313,
      "Ġ/": 2314,
      "Ġknew": 2315,
      "raph": 2316,
      "ĠGet": 2317,
      "ape": 2318,
      "Ġdifference": 2319,
      "Ġlaw": 2320,
      "Ġbedroom": 2321,
      "Ġsatisf": 2322,
      "ĠDavid": 2323,
      "Ġz": 2324,
      "Ġdiet": 2325,
      "ote": 2326,
      "ĠHmm": 2327,
      "ĠMany": 2328,
      "Ġseeing": 2329,
      "Ġcompet": 2330,
      "Ġflow": 2331,
      "Ġresult": 2332,
      "Ġblood": 2333,
      "Ġfinal": 2334,
      "Ġskin": 2335,
      "Ġfru": 2336,
      "Ġdelic": 2337,
      "Ġlearned": 2338,
      "Ġhurry": 2339,
      "Ġfigure": 2340,
      "Ġarrange": 2341,
      "ĠSunday": 2342,
      "Ġcompanies": 2343,
      "com": 2344,
      "Ġdream": 2345,
      "Ġorgan": 2346,
      "iew": 2347,
      "Ġclub": 2348,
      "ude": 2349,
      "Ġpayment": 2350,
      "Ġcarry": 2351,
      "Ġglass": 2352,
      "Ġlearning": 2353,
      "Ġcurrent": 2354,
      "Ġdaught": 2355,
      "Ġperformance": 2356,
      "ongratulations": 2357,
      "dle": 2358,
      "mail": 2359,
      "Ġcake": 2360,
      "Ġfre": 2361,
      "Ġgreen": 2362,
      "Ġoper": 2363,
      "ĠTai": 2364,
      "iced": 2365,
      "Ġworried": 2366,
      "Ġspace": 2367,
      "Ġview": 2368,
      "Ġeating": 2369,
      "Ġenjoyed": 2370,
      "ĠAnyway": 2371,
      "Ġswimming": 2372,
      "den": 2373,
      "ma": 2374,
      "por": 2375,
      "Ġcamp": 2376,
      "ester": 2377,
      "ĠTues": 2378,
      "Ġbeer": 2379,
      "Ġbeach": 2380,
      "Ġegg": 2381,
      "ĠMike": 2382,
      "Ġwash": 2383,
      "Ġexcept": 2384,
      "Ġprices": 2385,
      "Ġsmoking": 2386,
      "Ġwords": 2387,
      "ĠTwo": 2388,
      "ĠTuesday": 2389,
      "Ġmountain": 2390,
      "Ġcas": 2391,
      "Ġhum": 2392,
      "Ġhospital": 2393,
      "Ġstaff": 2394,
      "road": 2395,
      "Ġabsolutely": 2396,
      "Ġsol": 2397,
      "selves": 2398,
      "Ġwriting": 2399,
      "Ġcontin": 2400,
      "Ġplane": 2401,
      "Ġrelations": 2402,
      "Ġcosts": 2403,
      "uggage": 2404,
      "ah": 2405,
      "ĠID": 2406,
      "Ġdanc": 2407,
      "Ġluggage": 2408,
      "Ġgave": 2409,
      "elf": 2410,
      "Ġwithin": 2411,
      "Ġnotice": 2412,
      "ored": 2413,
      "ppy": 2414,
      "Ġanymore": 2415,
      "ĠGive": 2416,
      "aged": 2417,
      "Ġjobs": 2418,
      "Ġopin": 2419,
      "Ġcounter": 2420,
      "Ġsimple": 2421,
      "Ġdetails": 2422,
      "Ġapplication": 2423,
      "Ġgovernment": 2424,
      "How": 2425,
      "bo": 2426,
      "cial": 2427,
      "ients": 2428,
      "Ġsight": 2429,
      "ony": 2430,
      "Ġfly": 2431,
      "Ġpat": 2432,
      "Ġsomewhere": 2433,
      "Ġclim": 2434,
      "anger": 2435,
      "Ġdriver": 2436,
      "Ġtyp": 2437,
      "Ġsweet": 2438,
      "conom": 2439,
      "Ġmedicine": 2440,
      "Ġhistory": 2441,
      "Ġcannot": 2442,
      "Ġnervous": 2443,
      "Ġri": 2444,
      "oub": 2445,
      "Ġdam": 2446,
      "ĠWas": 2447,
      "ĠGr": 2448,
      "Ġworks": 2449,
      "Ġride": 2450,
      "Ġ11": 2451,
      "Ġhealthy": 2452,
      "Ġwoman": 2453,
      "Ġcopy": 2454,
      "Ġvegetables": 2455,
      "Ġprivate": 2456,
      "Ġmot": 2457,
      "Ġmater": 2458,
      "Ġcomfortable": 2459,
      "Ġtelling": 2460,
      "Ġbuying": 2461,
      "Ġresume": 2462,
      "Ġfinally": 2463,
      "Ġdrinks": 2464,
      "ancy": 2465,
      "phone": 2466,
      "Ġreceived": 2467,
      "Ġdaughter": 2468,
      "mb": 2469,
      "ym": 2470,
      "Ġce": 2471,
      "ically": 2472,
      "Ġtechn": 2473,
      "Ġhigher": 2474,
      "Ġinside": 2475,
      "Ġcooking": 2476,
      "Ġtaxi": 2477,
      "Ġprovide": 2478,
      "paper": 2479,
      "ĠCompany": 2480,
      "gy": 2481,
      "ned": 2482,
      "Ġyours": 2483,
      "unk": 2484,
      "ertific": 2485,
      "ĠKe": 2486,
      "ĠEverything": 2487,
      "Ġgiven": 2488,
      "Ġconcert": 2489,
      "Ġincre": 2490,
      "Ġlatest": 2491,
      "ration": 2492,
      "ĠQ": 2493,
      "Ġbreat": 2494,
      "ĠSus": 2495,
      "Ġstar": 2496,
      "Ġstress": 2497,
      "Ġ19": 2498,
      "Ġcars": 2499,
      "Ġattract": 2500,
      "Ġearl": 2501,
      "Ġregister": 2502,
      "Ġairport": 2503,
      "Ġcorner": 2504,
      "Ġpackage": 2505,
      "cription": 2506,
      "ney": 2507,
      "Ġmessage": 2508,
      "Ġdocuments": 2509,
      "Ġitems": 2510,
      "ĠNext": 2511,
      "aw": 2512,
      "dy": 2513,
      "iod": 2514,
      "ina": 2515,
      "Ġnine": 2516,
      "ĠWang": 2517,
      "Ġeye": 2518,
      "Ġmeal": 2519,
      "Ġkill": 2520,
      "Ġconnect": 2521,
      "Ġloan": 2522,
      "Ġovertime": 2523,
      "ĠGoodbye": 2524,
      "Ġfamil": 2525,
      "Ġdeli": 2526,
      "Ġsubway": 2527,
      "Ġmenu": 2528,
      "Ġparking": 2529,
      "Ġbehind": 2530,
      "Ġnecessary": 2531,
      "ives": 2532,
      "unt": 2533,
      "ware": 2534,
      "rees": 2535,
      "ones": 2536,
      "Ġpounds": 2537,
      "Ġlately": 2538,
      "Ġob": 2539,
      "Ġproper": 2540,
      "ilities": 2541,
      "Ġspent": 2542,
      "Ġround": 2543,
      "Ġperiod": 2544,
      "Ġskills": 2545,
      "Ġenter": 2546,
      "Ġlikes": 2547,
      "oc": 2548,
      "Ġcream": 2549,
      "Ġpan": 2550,
      "Ġanim": 2551,
      "icle": 2552,
      "Ġbeef": 2553,
      "Ġsea": 2554,
      "ĠIsn": 2555,
      "ache": 2556,
      "Ġcourses": 2557,
      "Ġchocol": 2558,
      "Ġcustomers": 2559,
      "Ġprepare": 2560,
      "Ġcheaper": 2561,
      "Ġtemper": 2562,
      "ĠInternet": 2563,
      "Ġmaterial": 2564,
      "ĠSusan": 2565,
      "Ġaut": 2566,
      "antastic": 2567,
      "Ġcal": 2568,
      "Ġgym": 2569,
      "ĠHot": 2570,
      "ional": 2571,
      "ĠDan": 2572,
      "amb": 2573,
      "Ġappro": 2574,
      "Ġwarm": 2575,
      "Ġcustomer": 2576,
      "Ġrequire": 2577,
      "Ġdrop": 2578,
      "ĠSteven": 2579,
      "Ġimprove": 2580,
      "And": 2581,
      "io": 2582,
      "wan": 2583,
      "ze": 2584,
      "onna": 2585,
      "Ġfat": 2586,
      "ĠDep": 2587,
      "cks": 2588,
      "Ġcontrol": 2589,
      "ĠShan": 2590,
      "Ġnewspaper": 2591,
      "Ġpolicy": 2592,
      "Ġindust": 2593,
      "ortunately": 2594,
      "gage": 2595,
      "me": 2596,
      "iter": 2597,
      "Ġfur": 2598,
      "Ġlab": 2599,
      "Ġiss": 2600,
      "Ġstate": 2601,
      "Ġsem": 2602,
      "Ġshare": 2603,
      "ĠDay": 2604,
      "Ġur": 2605,
      "Ġsometime": 2606,
      "Ġhappens": 2607,
      "Ġpurch": 2608,
      "Ġcompletely": 2609,
      "Ġflowers": 2610,
      "Ġdelicious": 2611,
      "Ġdelivery": 2612,
      "Ġbur": 2613,
      "ecking": 2614,
      "ĠGod": 2615,
      "Ġfee": 2616,
      "ĠDidn": 2617,
      "ĠUniversity": 2618,
      "Ġbroke": 2619,
      "Ġsnow": 2620,
      "Ġexplain": 2621,
      "Ġmanagement": 2622,
      "ĠTaiwan": 2623,
      "Ġopinion": 2624,
      "--": 2625,
      "iqu": 2626,
      "Ġcents": 2627,
      "arm": 2628,
      "ica": 2629,
      "ghai": 2630,
      "Ġshirt": 2631,
      "Ġju": 2632,
      "Ġord": 2633,
      "Ġbrought": 2634,
      "Ġagainst": 2635,
      "Ġdead": 2636,
      "Ġsalad": 2637,
      "Ġslow": 2638,
      "Ġinternational": 2639,
      "ĠJane": 2640,
      "Ġfruit": 2641,
      "Ġtall": 2642,
      "Ġgra": 2643,
      "Ġgonna": 2644,
      "ĠThose": 2645,
      "ĠMark": 2646,
      "Ġwithd": 2647,
      "ĠBl": 2648,
      "Ġwilling": 2649,
      "Ġrid": 2650,
      "Ġprin": 2651,
      "Ġaccident": 2652,
      "Ġgroup": 2653,
      "Ġcommun": 2654,
      "Ġhurt": 2655,
      "cribe": 2656,
      "Ġdishes": 2657,
      "Ġpractice": 2658,
      "Ġcharac": 2659,
      "ale": 2660,
      "Ġsqu": 2661,
      "Ġborrow": 2662,
      "iture": 2663,
      "Ġfire": 2664,
      "Ġpull": 2665,
      "vers": 2666,
      "Ġwebs": 2667,
      "Ġchecking": 2668,
      "Ġworse": 2669,
      "Ġprocess": 2670,
      "Ġring": 2671,
      "Ġclos": 2672,
      "ission": 2673,
      "Ġfunny": 2674,
      "Ġcomplain": 2675,
      "Ġpictures": 2676,
      "Ġchanged": 2677,
      "Ġliked": 2678,
      "Ġtelephone": 2679,
      "ursday": 2680,
      "medi": 2681,
      "So": 2682,
      "Ġthrow": 2683,
      "Ġbother": 2684,
      "ĠâĢĿ": 2685,
      "Ġreach": 2686,
      "ĠOr": 2687,
      "ĠMake": 2688,
      "Ġalright": 2689,
      "essert": 2690,
      "Ġrush": 2691,
      "Ġ18": 2692,
      "Ġtruth": 2693,
      "Ġremind": 2694,
      "Ġterms": 2695,
      "Ġthird": 2696,
      "Ġopportunity": 2697,
      "Ġwithdraw": 2698,
      "nis": 2699,
      "ann": 2700,
      "Ġdessert": 2701,
      "lex": 2702,
      "lebr": 2703,
      "Ġabroad": 2704,
      "ope": 2705,
      "Ġtwice": 2706,
      "Ġprint": 2707,
      "Ġbooked": 2708,
      "Ġcards": 2709,
      "ograph": 2710,
      "Ġsett": 2711,
      "Ġcelebr": 2712,
      "bit": 2713,
      "hy": 2714,
      "let": 2715,
      "set": 2716,
      "Ġmill": 2717,
      "Ġhoney": 2718,
      "Ġhung": 2719,
      "enny": 2720,
      "estern": 2721,
      "illy": 2722,
      "ĠBank": 2723,
      "Ġmoved": 2724,
      "Ġtrade": 2725,
      "Ġpaying": 2726,
      "Ġmiddle": 2727,
      "Ġcamera": 2728,
      "Ġeducation": 2729,
      "Ġrelationship": 2730,
      "Ġearlier": 2731,
      "iar": 2732,
      "Ġill": 2733,
      "Ġsil": 2734,
      "rew": 2735,
      "Ġhang": 2736,
      "Ġdark": 2737,
      "Ġlic": 2738,
      "ution": 2739,
      "ĠMa": 2740,
      "Ġsection": 2741,
      "ĠCongratulations": 2742,
      "Ġalone": 2743,
      "ized": 2744,
      "ĠUm": 2745,
      "Ġsupport": 2746,
      "Ġservices": 2747,
      "Ġ40": 2748,
      "Ġbottle": 2749,
      "Ġideas": 2750,
      "Ġresults": 2751,
      "Ġchocolate": 2752,
      "ĠShanghai": 2753,
      "five": 2754,
      "hib": 2755,
      "uro": 2756,
      "Ġbody": 2757,
      "orth": 2758,
      "Ġdry": 2759,
      "Ġoil": 2760,
      "Ġocc": 2761,
      "Ġnatur": 2762,
      "ĠThursday": 2763,
      "Ġredu": 2764,
      "Ġseason": 2765,
      "ĠBrown": 2766,
      "pping": 2767,
      "aret": 2768,
      "Ġroll": 2769,
      "Ġimmedi": 2770,
      "ips": 2771,
      "Ġturned": 2772,
      "Ġfifteen": 2773,
      "ology": 2774,
      "Ġfurniture": 2775,
      "Ġfurther": 2776,
      "50": 2777,
      "bed": 2778,
      "my": 2779,
      "Ġways": 2780,
      "Ġpoll": 2781,
      "Ġgas": 2782,
      "Ġgar": 2783,
      "ĠYuan": 2784,
      "eag": 2785,
      "ĠPa": 2786,
      "ĠRem": 2787,
      "Ġquit": 2788,
      "ences": 2789,
      "Ġwomen": 2790,
      "Ġboring": 2791,
      "Ġresponsible": 2792,
      "Ġpressure": 2793,
      "Ġdegree": 2794,
      "ĠHotel": 2795,
      "Ġcap": 2796,
      "Ġpity": 2797,
      "Ġeconom": 2798,
      "Ġcancel": 2799,
      "Ġstory": 2800,
      "Ġspeed": 2801,
      "Ġimag": 2802,
      "Ġkept": 2803,
      "Ġunf": 2804,
      "Ġchecked": 2805,
      "Ġblock": 2806,
      "ĠOnly": 2807,
      "Ġtennis": 2808,
      "Ġcommon": 2809,
      "Ġbroken": 2810,
      "Ġbeginning": 2811,
      "Ġintroduce": 2812,
      "If": 2813,
      "oke": 2814,
      "itive": 2815,
      "ĠWor": 2816,
      "idence": 2817,
      "ĠAd": 2818,
      "imum": 2819,
      "ified": 2820,
      "Ġnote": 2821,
      "ĠWhite": 2822,
      "ured": 2823,
      "Ġrout": 2824,
      "Ġplayer": 2825,
      "Ġactiv": 2826,
      "Ġstaying": 2827,
      "ival": 2828,
      "Ġpromotion": 2829,
      "ĠRoom": 2830,
      "He": 2831,
      "XX": 2832,
      "pri": 2833,
      "vin": 2834,
      "vious": 2835,
      "Ġage": 2836,
      "Ġcult": 2837,
      "Ġsho": 2838,
      "Ġsold": 2839,
      "ĠLike": 2840,
      "Ġspring": 2841,
      "ĠPeter": 2842,
      "Ġcoat": 2843,
      "Ġmoving": 2844,
      "ference": 2845,
      "Ġflat": 2846,
      "Ġsmell": 2847,
      "Ġaccording": 2848,
      "Ġcolleag": 2849,
      "Ġmilk": 2850,
      "Ġdancing": 2851,
      "Ġsemester": 2852,
      "Ġjuice": 2853,
      "Ġhungry": 2854,
      "co": 2855,
      "oice": 2856,
      "ination": 2857,
      "Ġchat": 2858,
      "Ġbal": 2859,
      "Ġfight": 2860,
      "Ġfund": 2861,
      "Ġdoub": 2862,
      "Ġlower": 2863,
      "ĠAust": 2864,
      "ĠEven": 2865,
      "une": 2866,
      "apers": 2867,
      "Ġsmart": 2868,
      "Ġfinanc": 2869,
      "ĠStreet": 2870,
      "Ġeasier": 2871,
      "Ġmissed": 2872,
      "Ġsitu": 2873,
      "Ġsubject": 2874,
      "Ġfifty": 2875,
      "Ġallowed": 2876,
      "book": 2877,
      "ces": 2878,
      "used": 2879,
      "Ġwalking": 2880,
      "ists": 2881,
      "Ġcertain": 2882,
      "Ġhob": 2883,
      "Ġfail": 2884,
      "ĠSu": 2885,
      "ĠMan": 2886,
      "ĠMar": 2887,
      "Ġcharg": 2888,
      "ĠLast": 2889,
      "Ġanywhere": 2890,
      "arden": 2891,
      "ules": 2892,
      "ĠGu": 2893,
      "Ġspicy": 2894,
      "ĠExactly": 2895,
      "Ġcareer": 2896,
      "Ġeasily": 2897,
      "wards": 2898,
      "ibility": 2899,
      "Ġbags": 2900,
      "Ġconcer": 2901,
      "Ġarrive": 2902,
      "ixt": 2903,
      "sc": 2904,
      "Ġed": 2905,
      "Ġest": 2906,
      "Ġfantastic": 2907,
      "lect": 2908,
      "ĠHong": 2909,
      "ilt": 2910,
      "Ġlooked": 2911,
      "Ġquar": 2912,
      "ĠHappy": 2913,
      "Ġstarting": 2914,
      "ĠStates": 2915,
      "Ġscen": 2916,
      "Ġdrinking": 2917,
      "Ġinvol": 2918,
      "Ġbread": 2919,
      "Ġexpected": 2920,
      "Ġconfirm": 2921,
      "Ġconditions": 2922,
      "Ġmotor": 2923,
      "ket": 2924,
      "li": 2925,
      "oun": 2926,
      "Ġcrow": 2927,
      "Ġdraw": 2928,
      "Ġpic": 2929,
      "Ġrese": 2930,
      "oof": 2931,
      "ute": 2932,
      "ĠNever": 2933,
      "Ġprop": 2934,
      "Ġ16": 2935,
      "Ġeverybody": 2936,
      "izz": 2937,
      "ĠShould": 2938,
      "Ġgiving": 2939,
      "Ġshipment": 2940,
      "Ġmistake": 2941,
      "Ġtemperature": 2942,
      "Ġcrowd": 2943,
      "gar": 2944,
      "gent": 2945,
      "sm": 2946,
      "Ġcell": 2947,
      "Ġcig": 2948,
      "orn": 2949,
      "orge": 2950,
      "Ġfac": 2951,
      "Ġlarg": 2952,
      "arant": 2953,
      "Ġstick": 2954,
      "ĠItal": 2955,
      "ĠLin": 2956,
      "Ġspare": 2957,
      "ĠEm": 2958,
      "ĠEuro": 2959,
      "ĠPark": 2960,
      "Ġoffic": 2961,
      "Ġnose": 2962,
      "action": 2963,
      "Ġinvite": 2964,
      "iety": 2965,
      "Ġseats": 2966,
      "Ġcaught": 2967,
      "Ġprepared": 2968,
      "Ġmiles": 2969,
      "Ġneighbor": 2970,
      "Ġwebsite": 2971,
      "een": 2972,
      "ffer": 2973,
      "oid": 2974,
      "istration": 2975,
      "Ġbon": 2976,
      "Ġdut": 2977,
      "Ġdra": 2978,
      "Ġforty": 2979,
      "ĠHis": 2980,
      "ĠAr": 2981,
      "elt": 2982,
      "adays": 2983,
      "Ġchall": 2984,
      "Ġknows": 2985,
      "ĠJul": 2986,
      "Ġvide": 2987,
      "vings": 2988,
      "eful": 2989,
      "Ġhomework": 2990,
      "Ġnights": 2991,
      "Ġraise": 2992,
      "Ġmarri": 2993,
      "Ġstandard": 2994,
      "board": 2995,
      "ĠAustral": 2996,
      "aim": 2997,
      "lor": 2998,
      "nes": 2999,
      "Ġtough": 3000,
      "anna": 3001,
      "Ġfare": 3002,
      "Ġang": 3003,
      "Ġnet": 3004,
      "ĠâĢľ": 3005,
      "Ġsteak": 3006,
      "ĠMadam": 3007,
      "ĠCar": 3008,
      "Ġnoticed": 3009,
      "ĠHowever": 3010,
      "Ġdeep": 3011,
      "Ġfault": 3012,
      "Ġ500": 3013,
      "Ġfactory": 3014,
      "ĠPaul": 3015,
      "app": 3016,
      "go": 3017,
      "zen": 3018,
      "Ġtie": 3019,
      "Ġach": 3020,
      "Ġband": 3021,
      "Ġnon": 3022,
      "ĠSince": 3023,
      "ĠOly": 3024,
      "Ġjour": 3025,
      "Ġbud": 3026,
      "Ġcalls": 3027,
      "Ġperhaps": 3028,
      "Ġdollar": 3029,
      "Ġapolog": 3030,
      "ground": 3031,
      "Ġinstru": 3032,
      "ĠEveryone": 3033,
      "Ġlights": 3034,
      "Ġsmoke": 3035,
      "Ġincluded": 3036,
      "Ġgives": 3037,
      "Ġboxes": 3038,
      "Ġdivor": 3039,
      "Ġadvertise": 3040,
      "ertificate": 3041,
      "Ġincrease": 3042,
      "Ġanimals": 3043,
      "ĠOlymp": 3044,
      "ped": 3045,
      "ying": 3046,
      "anch": 3047,
      "ĠInd": 3048,
      "read": 3049,
      "Ġbra": 3050,
      "Ġpoor": 3051,
      "Ġnorm": 3052,
      "ĠHoney": 3053,
      "ĠSe": 3054,
      "irts": 3055,
      "ĠGreen": 3056,
      "ellow": 3057,
      "Ġneeded": 3058,
      "Ġflu": 3059,
      "ĠUh": 3060,
      "Ġhoping": 3061,
      "Ġshows": 3062,
      "Ġpassed": 3063,
      "Ġexpecting": 3064,
      "ĠAnn": 3065,
      "Ġincluding": 3066,
      "Ġreasonable": 3067,
      "Ġindustry": 3068,
      "Ġlicense": 3069,
      "ĠRemember": 3070,
      "Ġdoubt": 3071,
      "aking": 3072,
      "hood": 3073,
      "vision": 3074,
      "wise": 3075,
      "Ġtur": 3076,
      "erry": 3077,
      "anish": 3078,
      "Ġfaster": 3079,
      "Ġdem": 3080,
      "ĠWed": 3081,
      "ĠThree": 3082,
      "Ġstom": 3083,
      "Ġsuits": 3084,
      "umn": 3085,
      "useum": 3086,
      "Ġtrust": 3087,
      "Ġguarant": 3088,
      "Ġfinding": 3089,
      "ipe": 3090,
      "Ġcomputers": 3091,
      "Ġtransport": 3092,
      "ĠToday": 3093,
      "Ġmarketing": 3094,
      "Ġsweater": 3095,
      "Ġtotally": 3096,
      "Ġborn": 3097,
      "Ġbenefits": 3098,
      "Ġfamiliar": 3099,
      "Ġimmediately": 3100,
      "Ġfinancial": 3101,
      "nesday": 3102,
      "ĠWednesday": 3103,
      "eal": 3104,
      "ole": 3105,
      "tain": 3106,
      "ises": 3107,
      "Ġdue": 3108,
      "Ġdanger": 3109,
      "ley": 3110,
      "Ġsearch": 3111,
      "Ġexhib": 3112,
      "Ġrice": 3113,
      "Ġrules": 3114,
      "Ġexpress": 3115,
      "Ġscore": 3116,
      "Ġvisa": 3117,
      "ĠUnited": 3118,
      "ĠAbsolutely": 3119,
      "They": 3120,
      "Ġmembers": 3121,
      "Thank": 3122,
      "Ġbathroom": 3123,
      "Ġtraditional": 3124,
      "Ġeggs": 3125,
      "Ġnatural": 3126,
      "Ġresearch": 3127,
      "That": 3128,
      "Ġant": 3129,
      "Ġmood": 3130,
      "Ġhous": 3131,
      "Ġfelt": 3132,
      "Ġdad": 3133,
      "ĠâĢĶ": 3134,
      "ooper": 3135,
      "ĠMich": 3136,
      "ĠBet": 3137,
      "urity": 3138,
      "estival": 3139,
      "Ġwhatever": 3140,
      "ĠGer": 3141,
      "Ġspot": 3142,
      "Ġrad": 3143,
      "Ġhelpful": 3144,
      "Ġinspect": 3145,
      "ployment": 3146,
      "Ġbaggage": 3147,
      "Ġinclude": 3148,
      "Ġpaint": 3149,
      "Ġcovered": 3150,
      "Ġcenter": 3151,
      "Ġpieces": 3152,
      "Ġsuccessful": 3153,
      "Ġengine": 3154,
      "Ġpurchase": 3155,
      "Ġcolleagues": 3156,
      "Ġvideo": 3157,
      "light": 3158,
      "Ġwake": 3159,
      "Ġbat": 3160,
      "vell": 3161,
      "ĠYear": 3162,
      "alent": 3163,
      "ĠSar": 3164,
      "ĠSay": 3165,
      "rib": 3166,
      "ĠMac": 3167,
      "Ġkil": 3168,
      "Ġjump": 3169,
      "Ġwashing": 3170,
      "ĠLu": 3171,
      "Ġupset": 3172,
      "ĠPl": 3173,
      "Ġrich": 3174,
      "Ġclients": 3175,
      "Ġhimself": 3176,
      "Ġprot": 3177,
      "Ġearth": 3178,
      "Ġlaund": 3179,
      "Ġbasket": 3180,
      "ledge": 3181,
      "Ġgraduate": 3182,
      "ĠSpanish": 3183,
      "Ġguests": 3184,
      "Ġcigaret": 3185,
      "Ġstomach": 3186,
      "lo": 3187,
      "ply": 3188,
      "ĠX": 3189,
      "Ġtill": 3190,
      "isk": 3191,
      "Ġgarden": 3192,
      "ĠHar": 3193,
      "Ġmeals": 3194,
      "Ġweak": 3195,
      "ĠOff": 3196,
      "iring": 3197,
      "Ġwaste": 3198,
      "ilar": 3199,
      "ĠFrom": 3200,
      "Ġhelping": 3201,
      "ĠRob": 3202,
      "Ġmoder": 3203,
      "Ġhasn": 3204,
      "Ġkeeps": 3205,
      "Ġexperi": 3206,
      "ĠAlso": 3207,
      "Ġformal": 3208,
      "Ġpleasant": 3209,
      "Ġcheese": 3210,
      "Ġbottom": 3211,
      "Ġgeneral": 3212,
      "Ġsurprised": 3213,
      "Ġprofessional": 3214,
      "Ġsecretary": 3215,
      "ĠKeep": 3216,
      "Ġbonus": 3217,
      "Ġmarriage": 3218,
      "Ġapologize": 3219,
      "Ġet": 3220,
      "Ġtight": 3221,
      "Ġsitting": 3222,
      "Ġcart": 3223,
      "Ġport": 3224,
      "Ġpower": 3225,
      "Ġnegot": 3226,
      "ĠMmm": 3227,
      "tery": 3228,
      "Ġchamp": 3229,
      "itten": 3230,
      "Ġstarts": 3231,
      "Ġplayed": 3232,
      "Ġleaves": 3233,
      "Ġdisapp": 3234,
      "Ġfax": 3235,
      "Ġground": 3236,
      "Ġagreement": 3237,
      "Ġadvance": 3238,
      "Ġtraveling": 3239,
      "Ġpainting": 3240,
      "Ġmagazine": 3241,
      "Ġcontinue": 3242,
      "Ġsituation": 3243,
      "Ġlaundry": 3244,
      "Ġnegoti": 3245,
      "bing": 3246,
      "ined": 3247,
      "rest": 3248,
      "Ġmix": 3249,
      "Ġcreat": 3250,
      "Ġcause": 3251,
      "Ġbri": 3252,
      "Ġbright": 3253,
      "Ġpool": 3254,
      "vey": 3255,
      "Ġnut": 3256,
      "Ġlives": 3257,
      "Ġneck": 3258,
      "Ġexcuse": 3259,
      "Ġuseful": 3260,
      "ĠPC": 3261,
      "ĠPre": 3262,
      "ĠPar": 3263,
      "ĠJenny": 3264,
      "Ġenc": 3265,
      "Ġener": 3266,
      "Ġbuilt": 3267,
      "Ġarm": 3268,
      "aker": 3269,
      "itted": 3270,
      "Ġfoods": 3271,
      "Ġphys": 3272,
      "Ġbigger": 3273,
      "Ġkeeping": 3274,
      "Ġschools": 3275,
      "Ġtext": 3276,
      "Ġlevel": 3277,
      "Ġinvited": 3278,
      "Ġsuggestions": 3279,
      "Ġboyfriend": 3280,
      "Ġtelevision": 3281,
      "Ġdocument": 3282,
      "Ġimpressed": 3283,
      "Ġsoftware": 3284,
      "Ġattractive": 3285,
      "izza": 3286,
      "cer": 3287,
      "night": 3288,
      "ugh": 3289,
      "wich": 3290,
      "ison": 3291,
      "Ġwra": 3292,
      "Ġmouth": 3293,
      "Ġfried": 3294,
      "Ġpush": 3295,
      "ĠHer": 3296,
      "Ġshape": 3297,
      "ĠCor": 3298,
      "Ġability": 3299,
      "ĠBar": 3300,
      "Ġcock": 3301,
      "ĠRich": 3302,
      "ĠCanad": 3303,
      "Ġ24": 3304,
      "Ġreserve": 3305,
      "Ġdescribe": 3306,
      "Ġcolors": 3307,
      "Ġnearly": 3308,
      "Ġlistening": 3309,
      "Ġsurprise": 3310,
      "ĠAccount": 3311,
      "Ġcampus": 3312,
      "Ġangry": 3313,
      "ires": 3314,
      "kes": 3315,
      "market": 3316,
      "ps": 3317,
      "Ġ:": 3318,
      "Ġrom": 3319,
      "Ġtow": 3320,
      "Ġbow": 3321,
      "Ġbase": 3322,
      "itude": 3323,
      "oming": 3324,
      "Ġbeat": 3325,
      "Ġren": 3326,
      "ĠApri": 3327,
      "Ġstories": 3328,
      "the": 3329,
      "Ġsport": 3330,
      "acks": 3331,
      "Ġnowadays": 3332,
      "Ġsafe": 3333,
      "ĠOnce": 3334,
      "Ġski": 3335,
      "Ġprescription": 3336,
      "Ġmedium": 3337,
      "Ġstores": 3338,
      "Ġprograms": 3339,
      "Ġdogs": 3340,
      "Ġvarious": 3341,
      "Ġdelivered": 3342,
      "Ġissue": 3343,
      "ĠApril": 3344,
      "Do": 3345,
      "ex": 3346,
      "fl": 3347,
      "gency": 3348,
      "rant": 3349,
      "Ġmis": 3350,
      "atives": 3351,
      "Ġcab": 3352,
      "Ġcooper": 3353,
      "Ġbike": 3354,
      "Ġpm": 3355,
      "Ġpen": 3356,
      "Ġpet": 3357,
      "Ġowe": 3358,
      "ety": 3359,
      "Ġreview": 3360,
      "ĠChe": 3361,
      "Ġchann": 3362,
      "Ġknowledge": 3363,
      "Ġexport": 3364,
      "Ġusual": 3365,
      "Ġamong": 3366,
      "Ġspo": 3367,
      "Ġru": 3368,
      "Ġfeet": 3369,
      "ished": 3370,
      "Ġ14": 3371,
      "Ġrob": 3372,
      "Ġnoise": 3373,
      "Ġeveryday": 3374,
      "Ġsau": 3375,
      "Ġguide": 3376,
      "Ġcarp": 3377,
      "Ġmonthly": 3378,
      "Ġ300": 3379,
      "Ġdecl": 3380,
      "Ġstayed": 3381,
      "Ġspecific": 3382,
      "Ġvisiting": 3383,
      "Ġwearing": 3384,
      "Ġcleaning": 3385,
      "Ġmachines": 3386,
      "Ġsimply": 3387,
      "Ġarrived": 3388,
      "Ġgraduated": 3389,
      "ĠZh": 3390,
      "Ġphotos": 3391,
      "Ġhuge": 3392,
      "ĠJapanese": 3393,
      "Ġimagine": 3394,
      "ĠEurope": 3395,
      "ĠAustralia": 3396,
      "ĠOffice": 3397,
      "May": 3398,
      "iel": 3399,
      "vent": 3400,
      "Ġcross": 3401,
      "Ġfirm": 3402,
      "Ġloud": 3403,
      "ĠWon": 3404,
      "arling": 3405,
      "ĠTra": 3406,
      "ential": 3407,
      "Ġcand": 3408,
      "ops": 3409,
      "Ġheld": 3410,
      "ept": 3411,
      "Ġbye": 3412,
      "Ġwritten": 3413,
      "Ġfriendly": 3414,
      "Ġmostly": 3415,
      "Ġshower": 3416,
      "Ġolder": 3417,
      "Ġserve": 3418,
      "Ġretire": 3419,
      "Ġnearby": 3420,
      "Ġheadache": 3421,
      "argain": 3422,
      "ĠQu": 3423,
      "Ġurgent": 3424,
      "Ġcommunic": 3425,
      "de": 3426,
      "ror": 3427,
      "val": 3428,
      "Ġsixt": 3429,
      "Ġwood": 3430,
      "Ġfile": 3431,
      "Ġdest": 3432,
      "Ġlos": 3433,
      "aring": 3434,
      "idge": 3435,
      "ĠCent": 3436,
      "ify": 3437,
      "Ġsugar": 3438,
      "Ġplastic": 3439,
      "Ġhelps": 3440,
      "Ġload": 3441,
      "Ġclaim": 3442,
      "Ġbuses": 3443,
      "Ġeverywhere": 3444,
      "employment": 3445,
      "Ġappet": 3446,
      "Ġadm": 3447,
      "ptions": 3448,
      "Ġharder": 3449,
      "place": 3450,
      "upid": 3451,
      "rency": 3452,
      "Ġunderstanding": 3453,
      "Ġ80": 3454,
      "Ġfilms": 3455,
      "ĠTomorrow": 3456,
      "Ġassistant": 3457,
      "Ġrefund": 3458,
      "Ġdetail": 3459,
      "Ġequip": 3460,
      "Ġmagazines": 3461,
      "Ġcrowded": 3462,
      "BA": 3463,
      "gest": 3464,
      "ners": 3465,
      "ron": 3466,
      "vis": 3467,
      "Ġwanna": 3468,
      "Ġcere": 3469,
      "Ġcir": 3470,
      "Ġtor": 3471,
      "Ġbrown": 3472,
      "ĠTry": 3473,
      "ĠHold": 3474,
      "ĠAm": 3475,
      "ĠSec": 3476,
      "rible": 3477,
      "irty": 3478,
      "ĠCal": 3479,
      "Ġjam": 3480,
      "urch": 3481,
      "ctions": 3482,
      "ĠEl": 3483,
      "Ġcomplic": 3484,
      "Ġconference": 3485,
      "Ġhelped": 3486,
      "Ġhardly": 3487,
      "Ġbiggest": 3488,
      "Ġscared": 3489,
      "Ġwatched": 3490,
      "Ġacross": 3491,
      "Ġrespect": 3492,
      "Ġpoints": 3493,
      "Ġopportunities": 3494,
      "Ġhuh": 3495,
      "Ġmodel": 3496,
      "Ġsandwich": 3497,
      "Ġhuman": 3498,
      "Ġmaterials": 3499,
      "Ġcelebrate": 3500,
      "Ġmillion": 3501,
      "Ġinvolved": 3502,
      "Ġbudget": 3503,
      "Can": 3504,
      "bec": 3505,
      "hen": 3506,
      "uri": 3507,
      "Ġ0": 3508,
      "Ġmuseum": 3509,
      "Ġcable": 3510,
      "Ġcities": 3511,
      "Ġtooth": 3512,
      "Ġbargain": 3513,
      "itation": 3514,
      "Ġnational": 3515,
      "ownt": 3516,
      "ĠMore": 3517,
      "ĠWhatever": 3518,
      "Ġhell": 3519,
      "pper": 3520,
      "Ġorig": 3521,
      "Ġourselves": 3522,
      "acket": 3523,
      "Ġfees": 3524,
      "Ġ13": 3525,
      "Ġagre": 3526,
      "Ġbranch": 3527,
      "Ġparts": 3528,
      "ĠKong": 3529,
      "Ġtalked": 3530,
      "Ġmarry": 3531,
      "Ġstrange": 3532,
      "Ġstrict": 3533,
      "Ġsuitable": 3534,
      "Ġdirector": 3535,
      "Ġsupermarket": 3536,
      "Ġvalue": 3537,
      "Ġsquare": 3538,
      "Ġactivities": 3539,
      "Ġmodern": 3540,
      "ael": 3541,
      "ks": 3542,
      "Ġtree": 3543,
      "erved": 3544,
      "Ġsilly": 3545,
      "Ġmark": 3546,
      "att": 3547,
      "orter": 3548,
      "Ġdig": 3549,
      "Ġdownt": 3550,
      "Ġnob": 3551,
      "oting": 3552,
      "Ġeffic": 3553,
      "Ġstre": 3554,
      "Ġstamp": 3555,
      "Ġabs": 3556,
      "amed": 3557,
      "Ġjo": 3558,
      "Ġheat": 3559,
      "ĠEn": 3560,
      "Ġfever": 3561,
      "Ġloves": 3562,
      "Ġunemployment": 3563,
      "Ġdecor": 3564,
      "Ġscience": 3565,
      "iction": 3566,
      "Ġmath": 3567,
      "Ġopening": 3568,
      "Ġsmaller": 3569,
      "Ġproduction": 3570,
      "Ġadvant": 3571,
      "Ġwarrant": 3572,
      "ĠMonica": 3573,
      "Ġlanguages": 3574,
      "Ġchanges": 3575,
      "Ġcomplete": 3576,
      "Ġfixed": 3577,
      "Ġelectric": 3578,
      "Ġdamage": 3579,
      "Ġautom": 3580,
      "Ġorders": 3581,
      "ĠItalian": 3582,
      "Ġduty": 3583,
      "Ġdangerous": 3584,
      "Ġorigin": 3585,
      "Ġnobody": 3586,
      "da": 3587,
      "men": 3588,
      "nic": 3589,
      "ued": 3590,
      "Ġsad": 3591,
      "Ġsam": 3592,
      "Ġtoast": 3593,
      "Ġbi": 3594,
      "Ġfell": 3595,
      "Ġpie": 3596,
      "Ġliter": 3597,
      "eth": 3598,
      "Ġmeas": 3599,
      "Ġstri": 3600,
      "ird": 3601,
      "irus": 3602,
      "stairs": 3603,
      "Ġknown": 3604,
      "ĠList": 3605,
      "ĠDoctor": 3606,
      "Ġclosed": 3607,
      "icks": 3608,
      "Ġsaf": 3609,
      "Ġfeels": 3610,
      "Ġuncle": 3611,
      "Ġhire": 3612,
      "Ġnumbers": 3613,
      "ples": 3614,
      "Ġemail": 3615,
      "Ġproduce": 3616,
      "Ġpacking": 3617,
      "Ġsimilar": 3618,
      "Ġdaily": 3619,
      "ĠProf": 3620,
      "Ġachieve": 3621,
      "Ġguarantee": 3622,
      "Ġsauce": 3623,
      "case": 3624,
      "dden": 3625,
      "inary": 3626,
      "Ġpage": 3627,
      "ows": 3628,
      "Ġemer": 3629,
      "ĠHu": 3630,
      "Ġmeant": 3631,
      "Ġlim": 3632,
      "Ġlimit": 3633,
      "ĠOct": 3634,
      "Ġstupid": 3635,
      "ĠCity": 3636,
      "ĠDr": 3637,
      "Ġsocial": 3638,
      "Ġsudden": 3639,
      "ards": 3640,
      "ĠFin": 3641,
      "ĠRes": 3642,
      "Ġvoice": 3643,
      "Ġroses": 3644,
      "Ġads": 3645,
      "ngth": 3646,
      "Ġminimum": 3647,
      "Ġordered": 3648,
      "Ġlaugh": 3649,
      "Ġpromised": 3650,
      "Ġavoid": 3651,
      "Ġcurrency": 3652,
      "ĠBrit": 3653,
      "Ġdirectly": 3654,
      "Ġorganiz": 3655,
      "Ġbreath": 3656,
      "Ġregistered": 3657,
      "Ġcharacter": 3658,
      "Ġchalleng": 3659,
      "Ġradio": 3660,
      "Ġprotect": 3661,
      "Ġbasketball": 3662,
      "Ġcomplicated": 3663,
      "Ġdowntown": 3664,
      "Ġstrength": 3665,
      "ls": 3666,
      "sy": 3667,
      "tes": 3668,
      "uf": 3669,
      "Ġtend": 3670,
      "Ġwet": 3671,
      "rem": 3672,
      "Ġpian": 3673,
      "Ġdozen": 3674,
      "iff": 3675,
      "ĠGe": 3676,
      "Ġoverse": 3677,
      "Ġsavings": 3678,
      "Ġbackground": 3679,
      "ĠUs": 3680,
      "ension": 3681,
      "Ġcarefully": 3682,
      "gging": 3683,
      "ĠJoe": 3684,
      "Ġsurf": 3685,
      "Ġindeed": 3686,
      "Ġhurts": 3687,
      "Ġselling": 3688,
      "Ġassist": 3689,
      "Ġlocated": 3690,
      "Ġyounger": 3691,
      "Ġcases": 3692,
      "Ġflying": 3693,
      "ĠGrand": 3694,
      "ĠDaniel": 3695,
      "ique": 3696,
      "Ġexhibition": 3697,
      "load": 3698,
      "ĠPretty": 3699,
      "ĠParis": 3700,
      "Ġencour": 3701,
      "ĠListen": 3702,
      "Would": 3703,
      "bar": 3704,
      "bly": 3705,
      "par": 3706,
      "ury": 3707,
      "Ġut": 3708,
      "ane": 3709,
      "isa": 3710,
      "Ġcertificate": 3711,
      "Ġpizza": 3712,
      "Ġbell": 3713,
      "Ġgold": 3714,
      "ĠCur": 3715,
      "ĠDe": 3716,
      "Ġchurch": 3717,
      "ĠLee": 3718,
      "ulous": 3719,
      "ober": 3720,
      "Ġvol": 3721,
      "Ġvote": 3722,
      "Ġages": 3723,
      "ptop": 3724,
      "Ġaccounting": 3725,
      "Ġrare": 3726,
      "ĠAlice": 3727,
      "ivid": 3728,
      "Ġcommission": 3729,
      "Ġseriously": 3730,
      "Ġcrit": 3731,
      "Ġassign": 3732,
      "Ġhorrible": 3733,
      "Ġsatisfied": 3734,
      "poration": 3735,
      "Ġpicnic": 3736,
      "ĠLucy": 3737,
      "Ġcarpet": 3738,
      "There": 3739,
      "bies": 3740,
      "ians": 3741,
      "ipped": 3742,
      "mates": 3743,
      "eren": 3744,
      "isle": 3745,
      "Ġmall": 3746,
      "Ġmap": 3747,
      "Ġcine": 3748,
      "inger": 3749,
      "Ġanc": 3750,
      "ĠWere": 3751,
      "Ġhall": 3752,
      "Ġlif": 3753,
      "ĠSouth": 3754,
      "see": 3755,
      "ources": 3756,
      "Ġchem": 3757,
      "ardon": 3758,
      "ĠGot": 3759,
      "ĠPerson": 3760,
      "Ġran": 3761,
      "Ġtrack": 3762,
      "Ġstudied": 3763,
      "Ġsuppl": 3764,
      "Ġpleased": 3765,
      "Ġmeters": 3766,
      "Ġterribly": 3767,
      "Ġfully": 3768,
      "Ġbased": 3769,
      "Ġ150": 3770,
      "Ġawful": 3771,
      "Ġvariety": 3772,
      "ĠBlack": 3773,
      "Ġoccas": 3774,
      "Ġconcerned": 3775,
      "Ġlarger": 3776,
      "ĠMichael": 3777,
      "ĠCanada": 3778,
      "Ġrenew": 3779,
      "ĠOctober": 3780,
      "Ġoverseas": 3781,
      "hol": 3782,
      "Ġauth": 3783,
      "Ġfool": 3784,
      "Ġdial": 3785,
      "Ġdarling": 3786,
      "omas": 3787,
      "icles": 3788,
      "Ġbear": 3789,
      "idays": 3790,
      "ĠSept": 3791,
      "elve": 3792,
      "Ġgod": 3793,
      "Ġsepar": 3794,
      "Ġshot": 3795,
      "ĠCool": 3796,
      "ado": 3797,
      "though": 3798,
      "ĠBoth": 3799,
      "iling": 3800,
      "Ġspl": 3801,
      "Ġconst": 3802,
      "Ġsurely": 3803,
      "Ġarg": 3804,
      "achel": 3805,
      "Ġtravell": 3806,
      "Ġsched": 3807,
      "Ġleather": 3808,
      "Ġboat": 3809,
      "Ġbeauty": 3810,
      "ĠFrank": 3811,
      "Ġ60": 3812,
      "Ġexpenses": 3813,
      "Ġemployee": 3814,
      "Ġsuggestion": 3815,
      "Ġelev": 3816,
      "Ġbasic": 3817,
      "Ġtastes": 3818,
      "Ġpresentation": 3819,
      "Ġaware": 3820,
      "together": 3821,
      "Ġsettled": 3822,
      "ĠGerman": 3823,
      "ĠProfess": 3824,
      "25": 3825,
      "My": 3826,
      "uly": 3827,
      "xic": 3828,
      "year": 3829,
      "istic": 3830,
      "itor": 3831,
      "Ġpo": 3832,
      "oms": 3833,
      "Ġfort": 3834,
      "ĠHas": 3835,
      "ĠHope": 3836,
      "iding": 3837,
      "Ġlift": 3838,
      "riger": 3839,
      "ĠCon": 3840,
      "ĠBen": 3841,
      "Ġbutton": 3842,
      "Ġasleep": 3843,
      "Ġsomebody": 3844,
      "Ġcomb": 3845,
      "inda": 3846,
      "Ġplus": 3847,
      "Ġrange": 3848,
      "Ġaffect": 3849,
      "ĠRose": 3850,
      "Ġclient": 3851,
      "Ġgotten": 3852,
      "Ġrock": 3853,
      "agne": 3854,
      "Ġarrest": 3855,
      "ĠCheck": 3856,
      "Ġ21": 3857,
      "Ġscr": 3858,
      "Ġscreen": 3859,
      "Ġinviting": 3860,
      "Ġaccounts": 3861,
      "Ġlived": 3862,
      "ĠFrance": 3863,
      "Ġregistration": 3864,
      "Ġrealize": 3865,
      "Ġsurvey": 3866,
      "Ġexams": 3867,
      "Ġfiles": 3868,
      "Ġentertain": 3869,
      "Ġcute": 3870,
      "Ġ90": 3871,
      "Ġdirection": 3872,
      "Ġrefriger": 3873,
      "Ġaccepted": 3874,
      "Ġrequest": 3875,
      "Ġarticle": 3876,
      "Ġcentre": 3877,
      "Ġimpression": 3878,
      "ĠWorld": 3879,
      "Ġbalance": 3880,
      "Ġinspection": 3881,
      "ĠSeptember": 3882,
      "45": 3883,
      "ald": 3884,
      "cast": 3885,
      "hold": 3886,
      "iol": 3887,
      "Ġtrees": 3888,
      "ero": 3889,
      "isy": 3890,
      "using": 3891,
      "asons": 3892,
      "Ġself": 3893,
      "Ġwestern": 3894,
      "Ġcri": 3895,
      "Ġhost": 3896,
      "Ġpapers": 3897,
      "Ġlay": 3898,
      "Ġgate": 3899,
      "Ġshut": 3900,
      "Ġnotes": 3901,
      "ceed": 3902,
      "indy": 3903,
      "ĠEr": 3904,
      "ĠPh": 3905,
      "ief": 3906,
      "aches": 3907,
      "Ġappear": 3908,
      "ablish": 3909,
      "Ġaccess": 3910,
      "ĠExcellent": 3911,
      "ossible": 3912,
      "play": 3913,
      "Ġhighly": 3914,
      "Ġtrains": 3915,
      "Ġforms": 3916,
      "ĠAmericans": 3917,
      "Ġchoices": 3918,
      "Ġdressed": 3919,
      "Ġincludes": 3920,
      "Ġletters": 3921,
      "ĠSomeone": 3922,
      "Ġprofit": 3923,
      "Ġholidays": 3924,
      "rupt": 3925,
      "Ġclearly": 3926,
      "Ġevents": 3927,
      "Ġpotat": 3928,
      "Ġfrequ": 3929,
      "cohol": 3930,
      "Ġquarter": 3931,
      "ĠJulia": 3932,
      "Ġtransportation": 3933,
      "Ġexperienc": 3934,
      "Ġcandid": 3935,
      "Ġtorn": 3936,
      "ĠGeorge": 3937,
      "ĠProfessor": 3938,
      "fortunately": 3939,
      "how": 3940,
      "hand": 3941,
      "ism": 3942,
      "Ġcry": 3943,
      "Ġhat": 3944,
      "ites": 3945,
      "Ġgain": 3946,
      "ĠTay": 3947,
      "ĠApp": 3948,
      "Ġlie": 3949,
      "ĠSam": 3950,
      "Ġstuck": 3951,
      "ĠMorning": 3952,
      "Ġselect": 3953,
      "ĠCo": 3954,
      "ĠCindy": 3955,
      "acy": 3956,
      "ĠBus": 3957,
      "Ġplant": 3958,
      "Ġcode": 3959,
      "epend": 3960,
      "Ġroast": 3961,
      "Ġnovel": 3962,
      "Ġtwelve": 3963,
      "ĠAren": 3964,
      "Ġapple": 3965,
      "Ġproud": 3966,
      "efore": 3967,
      "Ġparties": 3968,
      "Ġperf": 3969,
      "Ġbecoming": 3970,
      "Ġident": 3971,
      "Ġputting": 3972,
      "Ġdepress": 3973,
      "ĠEngland": 3974,
      "Ġactive": 3975,
      "Ġsecurity": 3976,
      "Ġsky": 3977,
      "Ġopened": 3978,
      "Ġlaptop": 3979,
      "Ġpositive": 3980,
      "Ġdressing": 3981,
      "Ġbills": 3982,
      "Ġmedical": 3983,
      "ĠUnfortunately": 3984,
      "ĠMexic": 3985,
      "Ġ120": 3986,
      "Ġrepair": 3987,
      "Ġpersonality": 3988,
      "Ġfigures": 3989,
      "Ġwallet": 3990,
      "ĠWashing": 3991,
      "ĠDepartment": 3992,
      "ography": 3993,
      "Ġsilk": 3994,
      "Ġneighborhood": 3995,
      "Ġdisappoint": 3996,
      "Ġhello": 3997,
      "ufact": 3998,
      "Ġcinema": 3999,
      "BC": 4000,
      "ey": 4001,
      "iest": 4002,
      "ipping": 4003,
      "law": 4004,
      "rate": 4005,
      "rated": 4006,
      "zz": 4007,
      "ering": 4008,
      "eral": 4009,
      "Ġaisle": 4010,
      "ases": 4011,
      "Ġsouth": 4012,
      "Ġmass": 4013,
      "Ġmaster": 4014,
      "atic": 4015,
      "atures": 4016,
      "Ġbesides": 4017,
      "Ġfed": 4018,
      "Ġpal": 4019,
      "Ġlad": 4020,
      "ĠTe": 4021,
      "ĠTime": 4022,
      "key": 4023,
      "Ġrecept": 4024,
      "verage": 4025,
      "ĠOther": 4026,
      "elen": 4027,
      "term": 4028,
      "ama": 4029,
      "ĠBefore": 4030,
      "urse": 4031,
      "Ġexact": 4032,
      "ĠPut": 4033,
      "venue": 4034,
      "Ġoffers": 4035,
      "Ġthemselves": 4036,
      "Ġnoon": 4037,
      "Ġprevious": 4038,
      "Ġmanufact": 4039,
      "mercial": 4040,
      "Ġdrug": 4041,
      "Ġcontrib": 4042,
      "Ġacting": 4043,
      "Ġaction": 4044,
      "Ġattitude": 4045,
      "Ġskirt": 4046,
      "Ġstopped": 4047,
      "Ġpresident": 4048,
      "Ġrestaurants": 4049,
      "Ġstanding": 4050,
      "ĠPerfect": 4051,
      "Ġboarding": 4052,
      "ĠAccording": 4053,
      "Ġmountains": 4054,
      "Ġeconomy": 4055,
      "Ġnormal": 4056,
      "ĠSarah": 4057,
      "Ġequipment": 4058,
      "Ġagreed": 4059,
      "Ġelevator": 4060,
      "Ġrefrigerator": 4061,
      "ĠTaylor": 4062,
      "Here": 4063,
      "cut": 4064,
      "hou": 4065,
      "rance": 4066,
      "under": 4067,
      "Ġer": 4068,
      "Ġthin": 4069,
      "ased": 4070,
      "Ġsides": 4071,
      "Ġweren": 4072,
      "antic": 4073,
      "Ġbid": 4074,
      "Ġdied": 4075,
      "Ġnorth": 4076,
      "Ġincome": 4077,
      "oted": 4078,
      "Ġareas": 4079,
      "ĠServ": 4080,
      "Ġgoal": 4081,
      "Ġje": 4082,
      "Ġbutter": 4083,
      "ĠLinda": 4084,
      "Ġgoodbye": 4085,
      "Ġorange": 4086,
      "ulation": 4087,
      "Ġplum": 4088,
      "ĠJason": 4089,
      "Ġlock": 4090,
      "Ġviol": 4091,
      "ability": 4092,
      "Ġdepart": 4093,
      "Ġclassical": 4094,
      "Ġdisp": 4095,
      "ĠKing": 4096,
      "ĠShow": 4097,
      "Ġadditional": 4098,
      "Ġended": 4099,
      "Ġmissing": 4100,
      "Ġsinging": 4101,
      "Ġperfectly": 4102,
      "Ġsmooth": 4103,
      "Ġbasis": 4104,
      "Ġveh": 4105,
      "Ġapplying": 4106,
      "Ġmessages": 4107,
      "Ġpurp": 4108,
      "Ġcopies": 4109,
      "Ġrelaxing": 4110,
      "Ġimpressive": 4111,
      "ĠInternational": 4112,
      "Ġmistakes": 4113,
      "Ġdevelopment": 4114,
      "Ġlegal": 4115,
      "Ġsongs": 4116,
      "Ġsolve": 4117,
      "Ġjourney": 4118,
      "Ġdemand": 4119,
      "Ġchampagne": 4120,
      "Ġenergy": 4121,
      "Ġlosing": 4122,
      "Ġancient": 4123,
      "seeing": 4124,
      "Ġreception": 4125,
      "house": 4126,
      "Ġsou": 4127,
      "Ġsen": 4128,
      "Ġsle": 4129,
      "istry": 4130,
      "Ġdat": 4131,
      "Ġlady": 4132,
      "ĠWall": 4133,
      "ĠWestern": 4134,
      "ĠTa": 4135,
      "Ġreplace": 4136,
      "ĠABC": 4137,
      "rill": 4138,
      "Ġstorm": 4139,
      "Ġshirts": 4140,
      "ĠDec": 4141,
      "ĠBel": 4142,
      "eaking": 4143,
      "ĠGl": 4144,
      "Ġplat": 4145,
      "ĠPM": 4146,
      "Ġ17": 4147,
      "olen": 4148,
      "Ġkeys": 4149,
      "Ġunit": 4150,
      "Ġplayers": 4151,
      "Ġseemed": 4152,
      "Ġenjoying": 4153,
      "Ġfoc": 4154,
      "Ġmeetings": 4155,
      "Ġserved": 4156,
      "ĠFranc": 4157,
      "Ġdelay": 4158,
      "Ġimpossible": 4159,
      "Ġspending": 4160,
      "Ġinstall": 4161,
      "ibly": 4162,
      "ification": 4163,
      "Ġindepend": 4164,
      "Ġsubs": 4165,
      "Ġconfident": 4166,
      "Ġchanging": 4167,
      "Ġrelaxed": 4168,
      "Ġrecords": 4169,
      "Ġadvertising": 4170,
      "Ġpeace": 4171,
      "Ġcharacters": 4172,
      "Ġculture": 4173,
      "Ġhobbies": 4174,
      "Ġfailed": 4175,
      "Ġestablish": 4176,
      "ĠZhang": 4177,
      "ĠQuite": 4178,
      "ĠWashington": 4179,
      "10": 4180,
      "Is": 4181,
      "ds": 4182,
      "gress": 4183,
      "mate": 4184,
      "oors": 4185,
      "ta": 4186,
      "ted": 4187,
      "Ġtail": 4188,
      "erk": 4189,
      "Ġsens": 4190,
      "Ġharm": 4191,
      "Ġdom": 4192,
      "Ġloss": 4193,
      "arp": 4194,
      "ĠThomas": 4195,
      "Ġears": 4196,
      "ĠHelen": 4197,
      "ales": 4198,
      "Ġshy": 4199,
      "Ġsuffer": 4200,
      "ural": 4201,
      "urry": 4202,
      "ĠLe": 4203,
      "uled": 4204,
      "ĠJones": 4205,
      "ĠJune": 4206,
      "Ġbucks": 4207,
      "Ġshowing": 4208,
      "Ġfav": 4209,
      "Ġlease": 4210,
      "Ġpale": 4211,
      "ĠStop": 4212,
      "ĠStud": 4213,
      "Ġtaught": 4214,
      "Ġrelig": 4215,
      "Ġstops": 4216,
      "Ġweekends": 4217,
      "Ġsurv": 4218,
      "Ġtraveler": 4219,
      "Ġteams": 4220,
      "Ġtests": 4221,
      "Ġstyles": 4222,
      "Ġmember": 4223,
      "Ġfishing": 4224,
      "Ġresponsibility": 4225,
      "Ġannual": 4226,
      "ĠProbably": 4227,
      "Ġdegrees": 4228,
      "Ġclimate": 4229,
      "Ġtypes": 4230,
      "Ġconnection": 4231,
      "Ġrequirements": 4232,
      "Ġordinary": 4233,
      "Ġslowly": 4234,
      "Ġpollution": 4235,
      "ĠRobert": 4236,
      "Ġwrap": 4237,
      "ĠRichard": 4238,
      "Ġrule": 4239,
      "Ġdeclare": 4240,
      "Ġdigital": 4241,
      "Ġwarranty": 4242,
      "ĠUsually": 4243,
      "55": 4244,
      "Let": 4245,
      "tle": 4246,
      "ties": 4247,
      "Ġtalent": 4248,
      "Ġaud": 4249,
      "Ġaverage": 4250,
      "uses": 4251,
      "Ġwa": 4252,
      "Ġmad": 4253,
      "Ġcre": 4254,
      "Ġcous": 4255,
      "Ġhom": 4256,
      "Ġfries": 4257,
      "Ġnic": 4258,
      "ĠWind": 4259,
      "ĠTer": 4260,
      "Ġinit": 4261,
      "alog": 4262,
      "ĠSing": 4263,
      "ental": 4264,
      "Ġstolen": 4265,
      "ĠMc": 4266,
      "ĠMum": 4267,
      "ĠColl": 4268,
      "Ġabove": 4269,
      "Ġjoking": 4270,
      "Ġchess": 4271,
      "Ġalcohol": 4272,
      "ĠEach": 4273,
      "asty": 4274,
      "Ġconvers": 4275,
      "Ġmob": 4276,
      "Ġoffices": 4277,
      "Ġquant": 4278,
      "aging": 4279,
      "Ġperm": 4280,
      "Ġdrunk": 4281,
      "Ġmax": 4282,
      "Ġremain": 4283,
      "Ġattach": 4284,
      "Ġinvitation": 4285,
      "Ġaccountant": 4286,
      "Ġbrings": 4287,
      "Ġadded": 4288,
      "Ġlazy": 4289,
      "iversary": 4290,
      "Ġslip": 4291,
      "Ġswitch": 4292,
      "Ġdealing": 4293,
      "Ġincred": 4294,
      "Ġmemory": 4295,
      "Ġgifts": 4296,
      "Ġannoy": 4297,
      "Ġinvestment": 4298,
      "Ġlegs": 4299,
      "Ġtypical": 4300,
      "ambling": 4301,
      "ĠDeposit": 4302,
      "Ġreduce": 4303,
      "going": 4304,
      "Ġdivorce": 4305,
      "Ġetc": 4306,
      "Ġbrief": 4307,
      "ĠPCC": 4308,
      "Ġsafety": 4309,
      "Ġemergency": 4310,
      "Ġoccasion": 4311,
      "20": 4312,
      "Could": 4313,
      "avor": 4314,
      "back": 4315,
      "bie": 4316,
      "give": 4317,
      "just": 4318,
      "yd": 4319,
      "zhou": 4320,
      "Ġsus": 4321,
      "Ġwild": 4322,
      "Ġmas": 4323,
      "Ġmang": 4324,
      "lla": 4325,
      "Ġdie": 4326,
      "Ġhabit": 4327,
      "ĠYep": 4328,
      "ĠSa": 4329,
      "ĠSc": 4330,
      "ĠSally": 4331,
      "ĠSand": 4332,
      "ĠSue": 4333,
      "imate": 4334,
      "Ġstat": 4335,
      "Ġstraw": 4336,
      "roat": 4337,
      "Ġshelf": 4338,
      "ĠCD": 4339,
      "Ġkick": 4340,
      "ĠDef": 4341,
      "ams": 4342,
      "Ġworst": 4343,
      "Ġspir": 4344,
      "osh": 4345,
      "Ġrisk": 4346,
      "ĠFair": 4347,
      "ĠJames": 4348,
      "aren": 4349,
      "Ġagency": 4350,
      "Ġnoisy": 4351,
      "ĠChen": 4352,
      "agement": 4353,
      "Ġunits": 4354,
      "izes": 4355,
      "Ġblow": 4356,
      "Ġmeaning": 4357,
      "Ġdisplay": 4358,
      "Ġshowed": 4359,
      "Ġbadly": 4360,
      "Ġrelated": 4361,
      "Ġearn": 4362,
      "ĠLooks": 4363,
      "Ġinterviewer": 4364,
      "Ġfilled": 4365,
      "Ġseconds": 4366,
      "ibilities": 4367,
      "Ġqualified": 4368,
      "Ġentrance": 4369,
      "ĠAnother": 4370,
      "Ġcru": 4371,
      "iece": 4372,
      "retch": 4373,
      "ĠLiu": 4374,
      "Ġglasses": 4375,
      "Ġsightseeing": 4376,
      "Ġlabor": 4377,
      "Ġhobby": 4378,
      "Ġcharges": 4379,
      "Ġpropos": 4380,
      "Ġcigarettes": 4381,
      "ĠSecond": 4382,
      "Ġmeasure": 4383,
      "Ġsuddenly": 4384,
      "remely": 4385,
      "Ġpiano": 4386,
      "Ġdisappointed": 4387,
      "Ġjeans": 4388,
      "ĠFrancis": 4389,
      "Ġfavour": 4390,
      "bits": 4391,
      "food": 4392,
      "hile": 4393,
      "nal": 4394,
      "off": 4395,
      "ris": 4396,
      "rack": 4397,
      "Ġthroat": 4398,
      "Ġyellow": 4399,
      "Ġban": 4400,
      "Ġbite": 4401,
      "Ġfle": 4402,
      "Ġfits": 4403,
      "Ġdiv": 4404,
      "Ġpound": 4405,
      "Ġanal": 4406,
      "ĠToo": 4407,
      "ĠTurn": 4408,
      "ĠHurry": 4409,
      "alt": 4410,
      "ĠAug": 4411,
      "ĠSch": 4412,
      "ĠSpr": 4413,
      "ĠOver": 4414,
      "eless": 4415,
      "Ġgolf": 4416,
      "ĠCard": 4417,
      "oods": 4418,
      "ended": 4419,
      "ĠLo": 4420,
      "ĠLily": 4421,
      "Ġanytime": 4422,
      "ĠGen": 4423,
      "Ġworkers": 4424,
      "Ġworksh": 4425,
      "Ġoutd": 4426,
      "ĠPoor": 4427,
      "Ġrough": 4428,
      "ĠFore": 4429,
      "ĠFive": 4430,
      "ĠFestival": 4431,
      "Ġvill": 4432,
      "Ġvirus": 4433,
      "Ġoverd": 4434,
      "Ġapples": 4435,
      "Ġ26": 4436,
      "Ġflavor": 4437,
      "Ġreserved": 4438,
      "eech": 4439,
      "Ġchecks": 4440,
      "Ġowners": 4441,
      "Ġextremely": 4442,
      "Ġsinger": 4443,
      "ĠJohnson": 4444,
      "Ġpolit": 4445,
      "Ġcomplim": 4446,
      "Ġindivid": 4447,
      "Ġterrific": 4448,
      "Ġwarning": 4449,
      "Ġseller": 4450,
      "Ġraining": 4451,
      "Ġchequ": 4452,
      "Ġparticip": 4453,
      "Ġpractical": 4454,
      "ĠZina": 4455,
      "Ġfalling": 4456,
      "Ġannoun": 4457,
      "Ġanniversary": 4458,
      "Ġhandsome": 4459,
      "Ġideal": 4460,
      "Ġeffects": 4461,
      "Ġcatalog": 4462,
      "Ġzoo": 4463,
      "Ġcompetition": 4464,
      "Ġcasual": 4465,
      "Ġproperty": 4466,
      "XXXX": 4467,
      "ĠSuper": 4468,
      "ĠOlympic": 4469,
      "Ġhouses": 4470,
      "Ġcockt": 4471,
      "Ġcooperation": 4472,
      "ĠWonder": 4473,
      "Ġretirement": 4474,
      "Ġsixty": 4475,
      "Ġappetiz": 4476,
      "Ġoriginal": 4477,
      "Ġliterature": 4478,
      "Ġsupplies": 4479,
      "Ġauthor": 4480,
      "Ġdepressed": 4481,
      "ĠDefinitely": 4482,
      "15": 4483,
      "SA": 4484,
      "cing": 4485,
      "hod": 4486,
      "mother": 4487,
      "mony": 4488,
      "Ġing": 4489,
      "Ġess": 4490,
      "Ġsite": 4491,
      "Ġwire": 4492,
      "Ġtheater": 4493,
      "Ġble": 4494,
      "Ġbun": 4495,
      "Ġbunch": 4496,
      "Ġfol": 4497,
      "Ġfancy": 4498,
      "Ġpin": 4499,
      "Ġpork": 4500,
      "Ġlend": 4501,
      "Ġgrown": 4502,
      "Ġoptions": 4503,
      "ĠTed": 4504,
      "ĠThings": 4505,
      "entle": 4506,
      "Ġstretch": 4507,
      "ĠBu": 4508,
      "Ġjacket": 4509,
      "Ġchips": 4510,
      "Ġthinks": 4511,
      "ĠLove": 4512,
      "quet": 4513,
      "Ġspell": 4514,
      "ĠRom": 4515,
      "agers": 4516,
      "ĠChar": 4517,
      "ĠVI": 4518,
      "Ġcourt": 4519,
      "ĠHaven": 4520,
      "Ġappli": 4521,
      "Ġloved": 4522,
      "Ġunb": 4523,
      "weight": 4524,
      "Ġdeserve": 4525,
      "standing": 4526,
      "Ġterm": 4527,
      "Ġsuitcase": 4528,
      "Ġtourist": 4529,
      "Ġbroad": 4530,
      "Ġsweat": 4531,
      "Ġsleeping": 4532,
      "Ġhonor": 4533,
      "Ġarticles": 4534,
      "Ġforgotten": 4535,
      "ĠRoad": 4536,
      "Ġcameras": 4537,
      "ĠTrue": 4538,
      "Ġwashed": 4539,
      "Ġpatient": 4540,
      "Ġdamaged": 4541,
      "Ġobject": 4542,
      "bedroom": 4543,
      "smoking": 4544,
      "Ġadvertisement": 4545,
      "Ġcirc": 4546,
      "Ġstamps": 4547,
      "ĠEnjoy": 4548,
      "sych": 4549,
      "Ġscheduled": 4550,
      "Ġperfume": 4551,
      "Ġvehicle": 4552,
      "Ġmobile": 4553,
      "Ġingred": 4554,
      "She": 4555,
      "ca": 4556,
      "cip": 4557,
      "ker": 4558,
      "offer": 4559,
      "rict": 4560,
      "uct": 4561,
      "you": 4562,
      "Ġtv": 4563,
      "Ġtit": 4564,
      "Ġtag": 4565,
      "inum": 4566,
      "Ġcough": 4567,
      "Ġtheat": 4568,
      "Ġbicy": 4569,
      "Ġfan": 4570,
      "Ġdorm": 4571,
      "Ġdedu": 4572,
      "Ġpu": 4573,
      "Ġpil": 4574,
      "Ġpunch": 4575,
      "Ġlake": 4576,
      "Ġlect": 4577,
      "ĠWant": 4578,
      "ĠWalk": 4579,
      "Ġinqu": 4580,
      "Ġrepe": 4581,
      "ids": 4582,
      "idden": 4583,
      "Ġlip": 4584,
      "ĠSqu": 4585,
      "enth": 4586,
      "Ġshame": 4587,
      "ading": 4588,
      "Ġsoda": 4589,
      "iforn": 4590,
      "Ġchest": 4591,
      "Ġchances": 4592,
      "ĠWhile": 4593,
      "ĠLisa": 4594,
      "Ġaltogether": 4595,
      "Ġproced": 4596,
      "ils": 4597,
      "Ġplays": 4598,
      "venir": 4599,
      "Ġrum": 4600,
      "Ġrise": 4601,
      "Ġ23": 4602,
      "Ġflower": 4603,
      "Ġunus": 4604,
      "Ġunivers": 4605,
      "Ġunless": 4606,
      "Ġaccomp": 4607,
      "Ġblank": 4608,
      "Ġstudies": 4609,
      "Ġscient": 4610,
      "anced": 4611,
      "Ġglob": 4612,
      "Ġdining": 4613,
      "Ġskill": 4614,
      "Ġinsist": 4615,
      "Ġseries": 4616,
      "Ġregard": 4617,
      "iao": 4618,
      "Ġfrank": 4619,
      "Ġends": 4620,
      "Ġconsum": 4621,
      "Ġentire": 4622,
      "ĠAnna": 4623,
      "Ġreturns": 4624,
      "Ġboys": 4625,
      "Ġrepres": 4626,
      "Ġbottles": 4627,
      "Ġsunny": 4628,
      "ĠSomething": 4629,
      "Ġsupervis": 4630,
      "ĠSpeaking": 4631,
      "Ġdistance": 4632,
      "Ġfairly": 4633,
      "porate": 4634,
      "Ġclimb": 4635,
      "unte": 4636,
      "Ġseafood": 4637,
      "Ġgrab": 4638,
      "Ġsettle": 4639,
      "Ġroute": 4640,
      "ĠOlympics": 4641,
      "Ġweakness": 4642,
      "ĠCaliforn": 4643,
      "Ġefficient": 4644,
      "Ġadvantage": 4645,
      "Ġcritic": 4646,
      "Ġsplit": 4647,
      "Ġtravelling": 4648,
      "Ġpurpose": 4649,
      "Ġsenior": 4650,
      "Ġsurvive": 4651,
      "Ġquantity": 4652,
      "ĠAugust": 4653,
      "Ġingredients": 4654,
      "Ġuniversities": 4655,
      "When": 4656,
      "eel": 4657,
      "mon": 4658,
      "papers": 4659,
      "sing": 4660,
      "vant": 4661,
      "vard": 4662,
      "wor": 4663,
      "yer": 4664,
      "Ġtu": 4665,
      "Ġtone": 4666,
      "esome": 4667,
      "Ġgall": 4668,
      "Ġgro": 4669,
      "eding": 4670,
      "Ġinfl": 4671,
      "icro": 4672,
      "Ġreasons": 4673,
      "ĠHop": 4674,
      "ĠHum": 4675,
      "ĠHouse": 4676,
      "utation": 4677,
      "ĠAng": 4678,
      "ĠMaster": 4679,
      "Ġgoals": 4680,
      "ĠDick": 4681,
      "ĠBra": 4682,
      "ource": 4683,
      "Ġsole": 4684,
      "Ġumb": 4685,
      "Ġsuite": 4686,
      "Ġknock": 4687,
      "urger": 4688,
      "Ġcommercial": 4689,
      "ilson": 4690,
      "ulty": 4691,
      "Ġamb": 4692,
      "Ġspeech": 4693,
      "Ġrude": 4694,
      "ĠFour": 4695,
      "ĠRuss": 4696,
      "Ġclerk": 4697,
      "Ġhadn": 4698,
      "Ġappl": 4699,
      "efully": 4700,
      "Ġminor": 4701,
      "Ġschol": 4702,
      "Ġdownload": 4703,
      "ĠInter": 4704,
      "ĠExp": 4705,
      "ensive": 4706,
      "oston": 4707,
      "ĠKore": 4708,
      "Ġsupply": 4709,
      "Ġempt": 4710,
      "Ġaddition": 4711,
      "Ġaddict": 4712,
      "Ġexpert": 4713,
      "Ġmethod": 4714,
      "Ġtyping": 4715,
      "Ġmaintain": 4716,
      "Ġsnack": 4717,
      "Ġeffort": 4718,
      "Ġgraduation": 4719,
      "Ġgenerally": 4720,
      "cycle": 4721,
      "This": 4722,
      "Ġneighbors": 4723,
      "Ġparticularly": 4724,
      "Ġwalls": 4725,
      "Ġelectron": 4726,
      "Ġbenefit": 4727,
      "Ġriver": 4728,
      "Ġtechnical": 4729,
      "Ġprincip": 4730,
      "Ġroutine": 4731,
      "Ġcharged": 4732,
      "Ġmotorcycle": 4733,
      "Ġturning": 4734,
      "Ġneckl": 4735,
      "Ġphysical": 4736,
      "Ġbowl": 4737,
      "Ġspoken": 4738,
      "Ġchallenging": 4739,
      "Ġexperienced": 4740,
      "ĠBusiness": 4741,
      "Ġsouvenir": 4742,
      "ĠBelieve": 4743,
      "ĠGlad": 4744,
      "Ġincredible": 4745,
      "ĠWonderful": 4746,
      "Ġumbre": 4747,
      "Why": 4748,
      "ham": 4749,
      "rit": 4750,
      "yle": 4751,
      "Ġ&": 4752,
      "ĠÂ": 4753,
      "Ġiron": 4754,
      "ining": 4755,
      "onest": 4756,
      "Ġbrow": 4757,
      "Ġfired": 4758,
      "Ġflex": 4759,
      "Ġfestival": 4760,
      "Ġdare": 4761,
      "Ġdating": 4762,
      "ened": 4763,
      "Ġloose": 4764,
      "Ġgentle": 4765,
      "Ġnames": 4766,
      "aries": 4767,
      "arian": 4768,
      "ĠâĢĺ": 4769,
      "utch": 4770,
      "ĠSim": 4771,
      "ĠSich": 4772,
      "Ġstage": 4773,
      "Ġsharp": 4774,
      "ĠWeb": 4775,
      "ĠDri": 4776,
      "ĠBo": 4777,
      "Ġchop": 4778,
      "eable": 4779,
      "raft": 4780,
      "elly": 4781,
      "Ġplate": 4782,
      "Ġplain": 4783,
      "Ġplants": 4784,
      "Ġspots": 4785,
      "ĠPres": 4786,
      "ĠFred": 4787,
      "ears": 4788,
      "Ġfeatures": 4789,
      "ĠRome": 4790,
      "ĠRick": 4791,
      "Ġloans": 4792,
      "Ġagent": 4793,
      "Ġadjust": 4794,
      "Ġotherwise": 4795,
      "Ġintend": 4796,
      "Ġinterests": 4797,
      "Ġblame": 4798,
      "Ġdepos": 4799,
      "Ġbelow": 4800,
      "ucky": 4801,
      "Ġhappening": 4802,
      "Ġvisited": 4803,
      "Ġsigns": 4804,
      "Ġnewspapers": 4805,
      "ĠWhoa": 4806,
      "ĠForget": 4807,
      "Ġextension": 4808,
      "Ġ70": 4809,
      "ifications": 4810,
      "Ġeleven": 4811,
      "Ġpaperwork": 4812,
      "Ġtopic": 4813,
      "Ġgrades": 4814,
      "Ġconsidering": 4815,
      "Ġcheer": 4816,
      "Ġhundreds": 4817,
      "Ġresponsibilities": 4818,
      "Ġphoto": 4819,
      "overed": 4820,
      "Ġneighbour": 4821,
      "Ġregularly": 4822,
      "Ġvalu": 4823,
      "Ġcats": 4824,
      "Ġfamilies": 4825,
      "Ġenterpr": 4826,
      "Ġcalm": 4827,
      "Ġgarage": 4828,
      "ĠWorking": 4829,
      "Ġscenery": 4830,
      "Ġhousing": 4831,
      "ĠHarvard": 4832,
      "Ġchannels": 4833,
      "ĠCurrent": 4834,
      "achelor": 4835,
      "Ġtornado": 4836,
      "Ġcocktail": 4837,
      "Ġrepeat": 4838,
      "ĠCalifornia": 4839,
      "ĠSichuan": 4840,
      "23": 4841,
      "TM": 4842,
      "father": 4843,
      "ging": 4844,
      "ky": 4845,
      "ler": 4846,
      "rass": 4847,
      "ray": 4848,
      "vable": 4849,
      "zing": 4850,
      "Ġir": 4851,
      "Ġtim": 4852,
      "Ġtip": 4853,
      "iny": 4854,
      "asing": 4855,
      "Ġcu": 4856,
      "Ġtoil": 4857,
      "Ġbored": 4858,
      "Ġfu": 4859,
      "Ġfond": 4860,
      "Ġdum": 4861,
      "ening": 4862,
      "enry": 4863,
      "Ġpig": 4864,
      "Ġpock": 4865,
      "Ġoption": 4866,
      "Ġnature": 4867,
      "ĠWatch": 4868,
      "aration": 4869,
      "lection": 4870,
      "Ġhabits": 4871,
      "icing": 4872,
      "icag": 4873,
      "ĠHenry": 4874,
      "chan": 4875,
      "ĠAvenue": 4876,
      "ĠATM": 4877,
      "Ġstere": 4878,
      "Ġstir": 4879,
      "ĠMm": 4880,
      "ĠMart": 4881,
      "roll": 4882,
      "rovert": 4883,
      "Ġsev": 4884,
      "adem": 4885,
      "storm": 4886,
      "ĠBoston": 4887,
      "Ġjud": 4888,
      "Ġjunk": 4889,
      "ĠNational": 4890,
      "Ġate": 4891,
      "Ġchair": 4892,
      "each": 4893,
      "estic": 4894,
      "Ġprob": 4895,
      "Ġcompens": 4896,
      "ĠRest": 4897,
      "arest": 4898,
      "Ġlog": 4899,
      "umes": 4900,
      "Ġgotta": 4901,
      "ĠAndy": 4902,
      "Ġrocks": 4903,
      "Ġpred": 4904,
      "Ġwrote": 4905,
      "Ġtomat": 4906,
      "Ġrecent": 4907,
      "Ġdisag": 4908,
      "ĠKate": 4909,
      "Ġbelt": 4910,
      "Ġclever": 4911,
      "Ġembar": 4912,
      "ĠWilli": 4913,
      "Ġoffering": 4914,
      "Ġspeaks": 4915,
      "Ġfrust": 4916,
      "Ġcoup": 4917,
      "ĠAlmost": 4918,
      "Ġcolour": 4919,
      "Ġtransaction": 4920,
      "ommod": 4921,
      "Ġwalked": 4922,
      "Ġpacked": 4923,
      "Ġreservations": 4924,
      "Ġbasically": 4925,
      "ĠAfric": 4926,
      "Ġconfused": 4927,
      "Ġlocation": 4928,
      "Ġreports": 4929,
      "Ġconsidered": 4930,
      "Ġholding": 4931,
      "Ġoppos": 4932,
      "Ġcompleted": 4933,
      "Ġfollowing": 4934,
      "ĠWaiter": 4935,
      "Ġbarbec": 4936,
      "Ġtransferred": 4937,
      "Ġmentioned": 4938,
      "Ġfashionable": 4939,
      "ĠKevin": 4940,
      "Ġstarving": 4941,
      "Ġproperly": 4942,
      "---": 4943,
      "Ġprinter": 4944,
      "Ġcommunity": 4945,
      "Ġblocks": 4946,
      "Ġfacial": 4947,
      "Ġofficial": 4948,
      "Ġnetwork": 4949,
      "Ġadvertisements": 4950,
      "ĠBetty": 4951,
      "Ġcabin": 4952,
      "Ġpotatoes": 4953,
      "Ġcandidate": 4954,
      "ĠDecember": 4955,
      "Ġconversation": 4956,
      "Ġtitle": 4957,
      "Ġunusual": 4958,
      "Ġempty": 4959,
      "Ġnecklace": 4960,
      "ĠPresident": 4961,
      "icago": 4962,
      "Don": 4963,
      "Now": 4964,
      "aign": 4965,
      "gers": 4966,
      "kn": 4967,
      "look": 4968,
      "nel": 4969,
      "ram": 4970,
      "uary": 4971,
      "word": 4972,
      "yn": 4973,
      "Ġvers": 4974,
      "Ġtape": 4975,
      "asy": 4976,
      "Ġwide": 4977,
      "Ġcast": 4978,
      "Ġfab": 4979,
      "Ġdull": 4980,
      "Ġpills": 4981,
      "omen": 4982,
      "Ġinch": 4983,
      "Ġforgive": 4984,
      "uts": 4985,
      "Ġweb": 4986,
      "ĠAir": 4987,
      "Ġliqu": 4988,
      "Ġstairs": 4989,
      "Ġnearest": 4990,
      "ĠMed": 4991,
      "ĠMal": 4992,
      "roy": 4993,
      "Ġseed": 4994,
      "Ġselection": 4995,
      "ĠCall": 4996,
      "ĠDave": 4997,
      "amin": 4998,
      "ĠBas": 4999,
      "Ġsof": 5000,
      "Ġsore": 5001,
      "Ġhey": 5002,
      "ender": 5003,
      "Ġprogress": 5004,
      "Ġrights": 5005,
      "ĠEd": 5006,
      "Ġcoin": 5007,
      "Ġcosm": 5008,
      "eping": 5009,
      "Ġwhenever": 5010,
      "Ġsheet": 5011,
      "ĠChicago": 5012,
      "Ġadmin": 5013,
      "anged": 5014,
      "ĠSurely": 5015,
      "Ġexpand": 5016,
      "Ġkeen": 5017,
      "Ġbecame": 5018,
      "izing": 5019,
      "arship": 5020,
      "Ġ36": 5021,
      "Ġwaiter": 5022,
      "ashed": 5023,
      "Ġrelatives": 5024,
      "Ġdescription": 5025,
      "Ġdisco": 5026,
      "Ġevenings": 5027,
      "Ġshops": 5028,
      "Ġlaid": 5029,
      "Ġteachers": 5030,
      "Ġqualifications": 5031,
      "Ġemployer": 5032,
      "Ġwarming": 5033,
      "ĠEverybody": 5034,
      "Ġcaf": 5035,
      "Ġconsideration": 5036,
      "olution": 5037,
      "Ġrequired": 5038,
      "Ġreputation": 5039,
      "Ġpostc": 5040,
      "Ġfitness": 5041,
      "Ġcharming": 5042,
      "Ġhistor": 5043,
      "Ġequal": 5044,
      "Ġeffective": 5045,
      "ĠTrust": 5046,
      "Ġpotential": 5047,
      "Ġlawyer": 5048,
      "Ġsatisfaction": 5049,
      "Ġcampaign": 5050,
      "Ġobvious": 5051,
      "Ġapproach": 5052,
      "Ġstatement": 5053,
      "Ġshoe": 5054,
      "Ġconcern": 5055,
      "orgeous": 5056,
      "ĠEmory": 5057,
      "Ġofficer": 5058,
      "Ġdivorced": 5059,
      "Ġcigarette": 5060,
      "Ġromantic": 5061,
      "Ġceremony": 5062,
      "Ġsample": 5063,
      "Ġvolunte": 5064,
      "Ġcrime": 5065,
      "Ġdata": 5066,
      "Ġcousin": 5067,
      "Ġmaximum": 5068,
      "Ġproposal": 5069,
      "ĠSpring": 5070,
      "Ġindividual": 5071,
      "Ġappliances": 5072,
      "Ġbicycle": 5073,
      "ĠSquare": 5074,
      "Ġglobal": 5075,
      "Ġsupervisor": 5076,
      "ĠAngel": 5077,
      "Ġumbrella": 5078,
      "Ġembarrass": 5079,
      "bage": 5080,
      "down": 5081,
      "iving": 5082,
      "lets": 5083,
      "made": 5084,
      "pir": 5085,
      "Ġtre": 5086,
      "Ġtar": 5087,
      "ĠIBA": 5088,
      "anta": 5089,
      "Ġmir": 5090,
      "Ġmum": 5091,
      "Ġmult": 5092,
      "Ġcy": 5093,
      "Ġdirty": 5094,
      "ĠWest": 5095,
      "ĠWork": 5096,
      "ara": 5097,
      "ĠTen": 5098,
      "ĠTim": 5099,
      "icies": 5100,
      "alf": 5101,
      "ĠAirl": 5102,
      "ĠAlex": 5103,
      "ĠAmy": 5104,
      "rimp": 5105,
      "Ġcancell": 5106,
      "elie": 5107,
      "Ġstations": 5108,
      "ĠMerry": 5109,
      "Ġsex": 5110,
      "ĠCP": 5111,
      "ĠCont": 5112,
      "store": 5113,
      "usted": 5114,
      "Ġjew": 5115,
      "Ġheight": 5116,
      "enda": 5117,
      "ĠEs": 5118,
      "Ġcoke": 5119,
      "Ġrates": 5120,
      "ĠJuly": 5121,
      "Ġagenda": 5122,
      "Ġtrick": 5123,
      "Ġgreatest": 5124,
      "Ġroommate": 5125,
      "Ġadmit": 5126,
      "Ġ27": 5127,
      "Ġbride": 5128,
      "Ġpermit": 5129,
      "Ġdownstairs": 5130,
      "Ġhiking": 5131,
      "Ġhired": 5132,
      "Ġdecent": 5133,
      "Ġhighest": 5134,
      "Ġscale": 5135,
      "ĠKaren": 5136,
      "Ġattack": 5137,
      "Ġpersonally": 5138,
      "ogn": 5139,
      "Ġrail": 5140,
      "Ġworrying": 5141,
      "Ġinformed": 5142,
      "Ġtrim": 5143,
      "Ġoffered": 5144,
      "Ġcoun": 5145,
      "Ġruns": 5146,
      "Ġsending": 5147,
      "Ġpresents": 5148,
      "Ġconsult": 5149,
      "Ġteaching": 5150,
      "ivil": 5151,
      "Ġ75": 5152,
      "Ġmarkets": 5153,
      "Ġfourth": 5154,
      "Ġpolicies": 5155,
      "azz": 5156,
      "Ġcafe": 5157,
      "Ġhaircut": 5158,
      "Ġcrack": 5159,
      "Ġconfidence": 5160,
      "ollow": 5161,
      "Ġdetect": 5162,
      "Ġlessons": 5163,
      "Ġrequires": 5164,
      "Ġpurse": 5165,
      "Ġpublish": 5166,
      "shine": 5167,
      "ĠBring": 5168,
      "Ġevent": 5169,
      "Ġevidence": 5170,
      "Ġdesigned": 5171,
      "coln": 5172,
      "Ġdiam": 5173,
      "eteria": 5174,
      "Ġtradition": 5175,
      "Ġprofessor": 5176,
      "Ġbedrooms": 5177,
      "Ġautumn": 5178,
      "Ġgroups": 5179,
      "Ġunfortunately": 5180,
      "Ġfunds": 5181,
      "ĠGuess": 5182,
      "Ġbattery": 5183,
      "Ġpaintings": 5184,
      "Ġmixed": 5185,
      "Ġskiing": 5186,
      "Ġchannel": 5187,
      "Ġrobber": 5188,
      "ĠService": 5189,
      "Ġfocus": 5190,
      "Ġstrawber": 5191,
      "Ġcompliment": 5192,
      "Ġlipst": 5193,
      "Ġrepresent": 5194,
      "Ġapplied": 5195,
      "Ġtoilet": 5196,
      "Ġopposite": 5197,
      "Ġcafeteria": 5198,
      "11": 5199,
      "88": 5200,
      "Are": 5201,
      "Will": 5202,
      "eg": 5203,
      "free": 5204,
      "ked": 5205,
      "lim": 5206,
      "like": 5207,
      "pack": 5208,
      "uing": 5209,
      "Ġx": 5210,
      "Ġtong": 5211,
      "Ġtab": 5212,
      "iner": 5213,
      "Ġthirst": 5214,
      "Ġaunt": 5215,
      "rel": 5216,
      "Ġmut": 5217,
      "onven": 5218,
      "Ġcott": 5219,
      "Ġcongratulations": 5220,
      "Ġfry": 5221,
      "Ġfitting": 5222,
      "Ġdates": 5223,
      "ena": 5224,
      "Ġpays": 5225,
      "Ġpitch": 5226,
      "Ġpump": 5227,
      "Ġpipe": 5228,
      "Ġlem": 5229,
      "Ġlung": 5230,
      "Ġge": 5231,
      "Ġgun": 5232,
      "Ġgorgeous": 5233,
      "Ġnin": 5234,
      "Ġnap": 5235,
      "Ġnurse": 5236,
      "Ġinse": 5237,
      "Ġhamb": 5238,
      "Ġbeans": 5239,
      "Ġrefer": 5240,
      "ĠHall": 5241,
      "Ġmechan": 5242,
      "Ġweigh": 5243,
      "Ġweird": 5244,
      "check": 5245,
      "ĠAg": 5246,
      "ĠOp": 5247,
      "Ġstars": 5248,
      "Ġshipping": 5249,
      "acious": 5250,
      "oodles": 5251,
      "thlet": 5252,
      "ĠBir": 5253,
      "ppers": 5254,
      "ulate": 5255,
      "Ġworker": 5256,
      "ĠEve": 5257,
      "ĠEast": 5258,
      "ĠFill": 5259,
      "igning": 5260,
      "unior": 5261,
      "ums": 5262,
      "actory": 5263,
      "Ġarms": 5264,
      "Ġprem": 5265,
      "Ġadult": 5266,
      "redit": 5267,
      "Ġpartner": 5268,
      "Ġsmile": 5269,
      "Ġfinance": 5270,
      "Ġcontain": 5271,
      "onda": 5272,
      "Ġgrade": 5273,
      "Ġteeth": 5274,
      "Ġthoughtful": 5275,
      "Ġbelong": 5276,
      "tenance": 5277,
      "Ġinvoice": 5278,
      "Ġfriendship": 5279,
      "Ġapart": 5280,
      "Ġsigned": 5281,
      "Ġfarm": 5282,
      "leased": 5283,
      "Ġstrate": 5284,
      "Ġ45": 5285,
      "Ġ400": 5286,
      "Ġslight": 5287,
      "Ġbreaks": 5288,
      "Ġcooked": 5289,
      "Ġhotels": 5290,
      "Ġforever": 5291,
      "Ġforecast": 5292,
      "Ġcustoms": 5293,
      "Ġconcent": 5294,
      "Ġmainly": 5295,
      "Ġinconven": 5296,
      "Ġforeigners": 5297,
      "Ġprovides": 5298,
      "ĠJanet": 5299,
      "Ġ250": 5300,
      "Ġengaged": 5301,
      "Ġgrandmother": 5302,
      "Ġsteal": 5303,
      "Ġcorrectly": 5304,
      "Ġzero": 5305,
      "Ġtechnology": 5306,
      "Ġkilled": 5307,
      "Ġcalc": 5308,
      "Ġdeadline": 5309,
      "Ġmillions": 5310,
      "Ġsilver": 5311,
      "Ġoccup": 5312,
      "ĠLincoln": 5313,
      "Ġmembership": 5314,
      "ĠBarbie": 5315,
      "Ġromance": 5316,
      "Ġcommunication": 5317,
      "ĠCentral": 5318,
      "Ġlaughing": 5319,
      "Ġstrengths": 5320,
      "Ġseparate": 5321,
      "Ġscratch": 5322,
      "Ġentertainment": 5323,
      "Ġvillage": 5324,
      "Ġscholarship": 5325,
      "ĠMartin": 5326,
      "ĠRestaurant": 5327,
      "elievable": 5328,
      "Ġtongue": 5329,
      "In": 5330,
      "Track": 5331,
      "ao": 5332,
      "ciety": 5333,
      "iant": 5334,
      "iable": 5335,
      "iency": 5336,
      "lines": 5337,
      "zer": 5338,
      "ãĢ": 5339,
      "Ġ00": 5340,
      "Ġought": 5341,
      "Ġign": 5342,
      "ĠãĢ": 5343,
      "Ġathlet": 5344,
      "Ġyog": 5345,
      "Ġmort": 5346,
      "Ġcakes": 5347,
      "Ġhomet": 5348,
      "Ġburn": 5349,
      "Ġbars": 5350,
      "itan": 5351,
      "Ġfinger": 5352,
      "Ġdust": 5353,
      "Ġpink": 5354,
      "Ġpers": 5355,
      "Ġlines": 5356,
      "Ġnation": 5357,
      "arily": 5358,
      "etch": 5359,
      "edy": 5360,
      "Ġinf": 5361,
      "Ġinj": 5362,
      "Ġitself": 5363,
      "othing": 5364,
      "lder": 5365,
      "ldom": 5366,
      "Ġonto": 5367,
      "Ġcandy": 5368,
      "Ġcancer": 5369,
      "ĠOper": 5370,
      "ĠOsc": 5371,
      "ĠMo": 5372,
      "ĠMars": 5373,
      "rop": 5374,
      "roaches": 5375,
      "Ġlikely": 5376,
      "Ġshad": 5377,
      "Ġshif": 5378,
      "Ġshamp": 5379,
      "Ġshrimp": 5380,
      "ĠCons": 5381,
      "ĠCath": 5382,
      "ĠDis": 5383,
      "Ġsocc": 5384,
      "ĠNancy": 5385,
      "ĠTheir": 5386,
      "Ġexha": 5387,
      "ĠLaw": 5388,
      "ili": 5389,
      "Ġplac": 5390,
      "Ġoutstanding": 5391,
      "Ġupd": 5392,
      "ĠEight": 5393,
      "ĠPet": 5394,
      "Ġcoast": 5395,
      "Ġrug": 5396,
      "ĠForm": 5397,
      "Ġmoist": 5398,
      "hem": 5399,
      "Ġpret": 5400,
      "angzhou": 5401,
      "Ġfeelings": 5402,
      "Ġblond": 5403,
      "Ġ35": 5404,
      "Ġcontest": 5405,
      "Ġgrass": 5406,
      "cling": 5407,
      "cles": 5408,
      "Ġsalt": 5409,
      "Ġpassion": 5410,
      "Ġbooth": 5411,
      "Ġstruct": 5412,
      "Ġpossibility": 5413,
      "Ġtransl": 5414,
      "Ġapartments": 5415,
      "Ġpicked": 5416,
      "Ġmeter": 5417,
      "Ġvisitors": 5418,
      "Ġcaused": 5419,
      "Ġcris": 5420,
      "Ġdifficulties": 5421,
      "Ġstreets": 5422,
      "Ġfifth": 5423,
      "Ġcentral": 5424,
      "Ġdiscussion": 5425,
      "Ġheaven": 5426,
      "Ġphotograph": 5427,
      "Ġpromoted": 5428,
      "ĠDaddy": 5429,
      "ength": 5430,
      "Ġleaders": 5431,
      "Ġhorror": 5432,
      "Ġmode": 5433,
      "Ġfurnished": 5434,
      "Ġorganic": 5435,
      "Ġoperation": 5436,
      "Ġclimbing": 5437,
      "Ġ199": 5438,
      "Ġcloser": 5439,
      "Ġreached": 5440,
      "Ġcultural": 5441,
      "Ġsubjects": 5442,
      "ĠManager": 5443,
      "Ġanti": 5444,
      "ĠCorporation": 5445,
      "Ġelectricity": 5446,
      "ĠBritain": 5447,
      "ĠPersonal": 5448,
      "ĠMexico": 5449,
      "Ġladies": 5450,
      "ĠOtherwise": 5451,
      "Ġdomestic": 5452,
      "Ġmangoes": 5453,
      "Ġappetizer": 5454,
      "working": 5455,
      "ĠExpress": 5456,
      "Ġflexible": 5457,
      "ĠWebTrack": 5458,
      "roverted": 5459,
      "Ġbarbecue": 5460,
      "Ġlipstick": 5461,
      "Ġhometown": 5462,
      "Ġshampoo": 5463,
      "Ġsoccer": 5464,
      "ĠWebTracker": 5465,
      "500": 5466,
      "VD": 5467,
      "gant": 5468,
      "hour": 5469,
      "ik": 5470,
      "kins": 5471,
      "while": 5472,
      "yond": 5473,
      "zil": 5474,
      "inite": 5475,
      "Ġsout": 5476,
      "Ġwow": 5477,
      "Ġward": 5478,
      "ats": 5479,
      "Ġhill": 5480,
      "Ġhook": 5481,
      "Ġtowards": 5482,
      "Ġpenc": 5483,
      "Ġpath": 5484,
      "Ġpages": 5485,
      "Ġpants": 5486,
      "Ġpsych": 5487,
      "Ġlength": 5488,
      "Ġgambling": 5489,
      "Ġow": 5490,
      "Ġnor": 5491,
      "Ġnone": 5492,
      "Ġnoodles": 5493,
      "ĠTax": 5494,
      "ĠThough": 5495,
      "uted": 5496,
      "ĠSuch": 5497,
      "ĠSame": 5498,
      "ĠSanta": 5499,
      "rier": 5500,
      "illed": 5501,
      "ĠOut": 5502,
      "Ġneither": 5503,
      "ĠMel": 5504,
      "ĠCol": 5505,
      "ĠCredit": 5506,
      "Ġkiss": 5507,
      "adena": 5508,
      "ĠDam": 5509,
      "ĠDutch": 5510,
      "ĠDVD": 5511,
      "ĠBoy": 5512,
      "ĠNorth": 5513,
      "Ġsumm": 5514,
      "gee": 5515,
      "Ġalarm": 5516,
      "Ġprove": 5517,
      "iles": 5518,
      "ilton": 5519,
      "ĠGee": 5520,
      "Ġoutf": 5521,
      "Ġupstairs": 5522,
      "ĠEconom": 5523,
      "ĠPal": 5524,
      "ĠPardon": 5525,
      "ĠFl": 5526,
      "ĠFollow": 5527,
      "ĠJess": 5528,
      "Ġshoulder": 5529,
      "Ġlob": 5530,
      "Ġvoted": 5531,
      "Ġrole": 5532,
      "ousers": 5533,
      "Ġbush": 5534,
      "Ġbuff": 5535,
      "Ġtrousers": 5536,
      "Ġtells": 5537,
      "udy": 5538,
      "Ġprevent": 5539,
      "ĠHaw": 5540,
      "Ġproof": 5541,
      "Ġimm": 5542,
      "anging": 5543,
      "Ġbroth": 5544,
      "Ġlasts": 5545,
      "Ġcarr": 5546,
      "izzy": 5547,
      "Ġblind": 5548,
      "Ġblouse": 5549,
      "Ġdebit": 5550,
      "Ġrecogn": 5551,
      "Ġclassmates": 5552,
      "Ġdecis": 5553,
      "Ġeaten": 5554,
      "Ġscar": 5555,
      "Ġsets": 5556,
      "phere": 5557,
      "Ġ800": 5558,
      "Ġbegan": 5559,
      "Ġheading": 5560,
      "Ġvacu": 5561,
      "Ġcleaned": 5562,
      "Ġexercising": 5563,
      "Ġdeter": 5564,
      "Ġpreparing": 5565,
      "Ġjoining": 5566,
      "Ġawfully": 5567,
      "Ġprojects": 5568,
      "Ġwindows": 5569,
      "Ġthousands": 5570,
      "atively": 5571,
      "Ġvegetarian": 5572,
      "Ġpromote": 5573,
      "Ġgrowth": 5574,
      "Ġcollection": 5575,
      "Ġhorse": 5576,
      "Ġlaws": 5577,
      "Ġclubs": 5578,
      "Ġoperate": 5579,
      "Ġhumor": 5580,
      "Ġsolid": 5581,
      "Ġbreathing": 5582,
      "Ġkilling": 5583,
      "Ġrolls": 5584,
      "Ġcapital": 5585,
      "Ġbalcon": 5586,
      "Ġpicking": 5587,
      "Ġdraft": 5588,
      "Ġjournal": 5589,
      "Maybe": 5590,
      "Ġabsent": 5591,
      "ĠHuh": 5592,
      "ĠFinally": 5593,
      "Ġutilities": 5594,
      "Ġfrequently": 5595,
      "Ġcrying": 5596,
      "ĠApple": 5597,
      "Ġmassage": 5598,
      "ĠForeign": 5599,
      "ĠVISA": 5600,
      "Ġinflu": 5601,
      "ĠHopefully": 5602,
      "ĠBrazil": 5603,
      "Ġaddicted": 5604,
      "Ġpocket": 5605,
      "Ġprobation": 5606,
      "Ġcompensation": 5607,
      "Have": 5608,
      "LS": 5609,
      "cond": 5610,
      "fall": 5611,
      "four": 5612,
      "gon": 5613,
      "iang": 5614,
      "mos": 5615,
      "pre": 5616,
      "rd": 5617,
      "Ġtables": 5618,
      "erally": 5619,
      "Ġthick": 5620,
      "ushing": 5621,
      "ĠIT": 5622,
      "Ġwalt": 5623,
      "Ġmile": 5624,
      "Ġcit": 5625,
      "Ġhers": 5626,
      "itate": 5627,
      "Ġfro": 5628,
      "Ġfans": 5629,
      "Ġdent": 5630,
      "Ġpets": 5631,
      "Ġlon": 5632,
      "Ġgrew": 5633,
      "Ġna": 5634,
      "ĠWu": 5635,
      "ĠWin": 5636,
      "ĠWilson": 5637,
      "ĠTony": 5638,
      "Ġinfect": 5639,
      "Ġham": 5640,
      "ĠThink": 5641,
      "ĠYup": 5642,
      "ication": 5643,
      "Ġbeyond": 5644,
      "Ġrev": 5645,
      "Ġreward": 5646,
      "ĠHelp": 5647,
      "ĠHonda": 5648,
      "alty": 5649,
      "ĠSit": 5650,
      "ĠSun": 5651,
      "ĠSons": 5652,
      "ĠSever": 5653,
      "ĠSyd": 5654,
      "Ġstates": 5655,
      "Ġneg": 5656,
      "ĠMen": 5657,
      "ĠMill": 5658,
      "ĠMain": 5659,
      "Ġshout": 5660,
      "Ġsuc": 5661,
      "Ġchef": 5662,
      "Ġchops": 5663,
      "esting": 5664,
      "Ġexec": 5665,
      "ĠLong": 5666,
      "ĠLos": 5667,
      "Ġanybody": 5668,
      "Ġaltern": 5669,
      "Ġgoodness": 5670,
      "anda": 5671,
      "Ġupon": 5672,
      "ĠPe": 5673,
      "ĠJe": 5674,
      "Ġrose": 5675,
      "Ġenvy": 5676,
      "Ġbug": 5677,
      "Ġtruck": 5678,
      "ĠValent": 5679,
      "thern": 5680,
      "soci": 5681,
      "Ġ22": 5682,
      "Ġresources": 5683,
      "ode": 5684,
      "Ġwaitress": 5685,
      "Ġbookstore": 5686,
      "ĠRebec": 5687,
      "Ġfaith": 5688,
      "ĠStar": 5689,
      "ĠStep": 5690,
      "Ġhandling": 5691,
      "Ġhousehold": 5692,
      "ancing": 5693,
      "Ġdrives": 5694,
      "Ġskirts": 5695,
      "Ġsetting": 5696,
      "Ġtrainer": 5697,
      "Ġlisted": 5698,
      "Ġregret": 5699,
      "Ġregulations": 5700,
      "ĠAlthough": 5701,
      "Ġairmail": 5702,
      "Ġslot": 5703,
      "Ġslim": 5704,
      "Ġpossibly": 5705,
      "Ġsings": 5706,
      "Ġbanks": 5707,
      "Ġtrips": 5708,
      "Ġcorporation": 5709,
      "Ġqualities": 5710,
      "Ġemployed": 5711,
      "Ġcapt": 5712,
      "Ġelection": 5713,
      "Ġcrush": 5714,
      "Ġtourn": 5715,
      "Ġrecommendation": 5716,
      "Ġacceptable": 5717,
      "Ġrains": 5718,
      "Ġconsiderate": 5719,
      "Ġprogramm": 5720,
      "Ġprize": 5721,
      "Ġmemor": 5722,
      "inton": 5723,
      "Ġsunshine": 5724,
      "Ġdropped": 5725,
      "Ġbehav": 5726,
      "Ġinvestig": 5727,
      "Ġgrowing": 5728,
      "Ġstocks": 5729,
      "ĠUSD": 5730,
      "engers": 5731,
      "Ġmodels": 5732,
      "Ġlandsc": 5733,
      "Ġcarrying": 5734,
      "ertificates": 5735,
      "Ġbreathe": 5736,
      "Ġstressful": 5737,
      "Ġissues": 5738,
      "iquet": 5739,
      "ĠEmily": 5740,
      "Ġinstructions": 5741,
      "ĠIndian": 5742,
      "Ġnormally": 5743,
      "ĠBetter": 5744,
      "ĠSara": 5745,
      "Ġkilomet": 5746,
      "ĠMmmm": 5747,
      "ĠTravel": 5748,
      "Ġdestroy": 5749,
      "Ġcereal": 5750,
      "ĠElvin": 5751,
      "Ġjogging": 5752,
      "Ġfortune": 5753,
      "Ġplatform": 5754,
      "ĠSingle": 5755,
      "Ġannoying": 5756,
      "ĠLoan": 5757,
      "ĠGenerally": 5758,
      "Ġtheatre": 5759,
      "Ġdeduct": 5760,
      "Ġvaluable": 5761,
      "Ġvolunteer": 5762,
      "Ġinsect": 5763,
      "ĠBirth": 5764,
      "ĠSeveral": 5765,
      "ĠSydney": 5766,
      "ĠRebecca": 5767,
      "86": 5768,
      "IF": 5769,
      "bidden": 5770,
      "ges": 5771,
      "mill": 5772,
      "sp": 5773,
      "ux": 5774,
      "uate": 5775,
      "Ġ000": 5776,
      "ern": 5777,
      "ino": 5778,
      "Ġaward": 5779,
      "usi": 5780,
      "Ġwool": 5781,
      "atically": 5782,
      "Ġcord": 5783,
      "Ġcivil": 5784,
      "Ġbes": 5785,
      "Ġbend": 5786,
      "itar": 5787,
      "oring": 5788,
      "Ġfra": 5789,
      "Ġduck": 5790,
      "enge": 5791,
      "Ġgather": 5792,
      "Ġgross": 5793,
      "Ġoven": 5794,
      "Ġnons": 5795,
      "ĠWr": 5796,
      "ĠWomen": 5797,
      "ĠTian": 5798,
      "ĠYang": 5799,
      "iculous": 5800,
      "Ġforce": 5801,
      "Ġrear": 5802,
      "child": 5803,
      "ĠAM": 5804,
      "ĠSix": 5805,
      "elet": 5806,
      "Ġstood": 5807,
      "Ġstove": 5808,
      "ĠMarket": 5809,
      "ĠMountain": 5810,
      "Ġgoss": 5811,
      "ĠCertificate": 5812,
      "Ġjeal": 5813,
      "Ġwhom": 5814,
      "ĠNick": 5815,
      "ĠNope": 5816,
      "Ġuh": 5817,
      "Ġchina": 5818,
      "urt": 5819,
      "endar": 5820,
      "ĠLea": 5821,
      "Ġalum": 5822,
      "Ġalthough": 5823,
      "ĠGate": 5824,
      "ĠDoll": 5825,
      "Ġplates": 5826,
      "ateful": 5827,
      "ĠPat": 5828,
      "Ġcoach": 5829,
      "Ġroof": 5830,
      "Ġcompare": 5831,
      "Ġcomplex": 5832,
      "ĠFortunately": 5833,
      "ĠFlight": 5834,
      "iger": 5835,
      "igent": 5836,
      "ĠJen": 5837,
      "Ġcondu": 5838,
      "Ġconvin": 5839,
      "Ġfeed": 5840,
      "Ġcloud": 5841,
      "Ġclothing": 5842,
      "Ġmoon": 5843,
      "Ġque": 5844,
      "Ġquot": 5845,
      "reek": 5846,
      "Ġinterrupt": 5847,
      "Ġoverweight": 5848,
      "Ġtroub": 5849,
      "ĠVince": 5850,
      "Ġletting": 5851,
      "Ġ28": 5852,
      "ango": 5853,
      "Ġbrush": 5854,
      "Ġflies": 5855,
      "Ġunha": 5856,
      "Ġmanaged": 5857,
      "Ġaccommod": 5858,
      "Ġdeath": 5859,
      "Ġ32": 5860,
      "iously": 5861,
      "Ġgrateful": 5862,
      "velous": 5863,
      "Ġplanet": 5864,
      "Ġhearing": 5865,
      "Ġpassengers": 5866,
      "Ġpersonnel": 5867,
      "Ġbreast": 5868,
      "Ġbeds": 5869,
      "Ġfoundation": 5870,
      "Ġstands": 5871,
      "Ġemployment": 5872,
      "Ġcausing": 5873,
      "Ġcurtain": 5874,
      "Ġdepartments": 5875,
      "Ġelegant": 5876,
      "Ġrefresh": 5877,
      "Ġtasty": 5878,
      "Ġjoined": 5879,
      "Ġsuperior": 5880,
      "Ġparcel": 5881,
      "Ġcamping": 5882,
      "Ġdesigns": 5883,
      "Ġroads": 5884,
      "Then": 5885,
      "ĠJimmy": 5886,
      "Ġlowest": 5887,
      "Ġpepper": 5888,
      "Ġcollecting": 5889,
      "ĠClub": 5890,
      "Ġtrading": 5891,
      "Ġdeveloping": 5892,
      "ĠSteve": 5893,
      "Ġcompetitive": 5894,
      "Ġexception": 5895,
      "Ġdancer": 5896,
      "Ġcalendar": 5897,
      "Ġilleg": 5898,
      "Ġgarbage": 5899,
      "Ġeconomic": 5900,
      "Ġunfair": 5901,
      "Ġchallenge": 5902,
      "Ġearthqu": 5903,
      "ĠHarry": 5904,
      "Ġnegotiate": 5905,
      "Ġtextbook": 5906,
      "Ġcockroaches": 5907,
      "Ġbaseball": 5908,
      "ĠCenter": 5909,
      "Ġdetailed": 5910,
      "Ġsurface": 5911,
      "Ġdeparture": 5912,
      "Ġindependent": 5913,
      "Ġwaist": 5914,
      "Ġinitial": 5915,
      "ĠCollege": 5916,
      "Ġunbelievable": 5917,
      "Ġprocedure": 5918,
      "Ġaccomplish": 5919,
      "Ġsouvenirs": 5920,
      "ĠDrive": 5921,
      "ademic": 5922,
      "Ġjudge": 5923,
      "Ġdisagree": 5924,
      "Ġsofa": 5925,
      "ĠAngeles": 5926,
      "Ġthirsty": 5927,
      "Ġlemon": 5928,
      "ĠOpen": 5929,
      "Ġinconvenience": 5930,
      "ĠãĢĤ": 5931,
      "Ġexhausted": 5932,
      "Ġmoisturi": 5933,
      "Ġlobby": 5934,
      "Ġvacuum": 5935,
      "Ġbalcony": 5936,
      "condition": 5937,
      "mosphere": 5938,
      "Ġwaltz": 5939,
      "Ġlonely": 5940,
      "Ġsucceed": 5941,
      "ĠValentine": 5942,
      "ĠBirthday": 5943,
      "Ġbeside": 5944,
      "Ġjealous": 5945,
      "Ġunhappy": 5946,
      "13": 5947,
      "Well": 5948,
      "au": 5949,
      "bag": 5950,
      "boy": 5951,
      "gn": 5952,
      "hh": 5953,
      "husi": 5954,
      "ius": 5955,
      "iance": 5956,
      "no": 5957,
      "ok": 5958,
      "pes": 5959,
      "person": 5960,
      "rating": 5961,
      "what": 5962,
      "Ġtires": 5963,
      "ounter": 5964,
      "inct": 5965,
      "Ġthor": 5966,
      "Ġsorts": 5967,
      "Ġsizes": 5968,
      "isters": 5969,
      "Ġmp": 5970,
      "onst": 5971,
      "Ġhes": 5972,
      "Ġhar": 5973,
      "Ġhole": 5974,
      "Ġbachelor": 5975,
      "lliant": 5976,
      "ita": 5977,
      "Ġfright": 5978,
      "Ġfear": 5979,
      "Ġfiction": 5980,
      "Ġdip": 5981,
      "Ġdizzy": 5982,
      "enities": 5983,
      "enger": 5984,
      "Ġlack": 5985,
      "Ġlamp": 5986,
      "ĠâĢĵ": 5987,
      "Ġwealth": 5988,
      "ĠAC": 5989,
      "ĠAw": 5990,
      "enture": 5991,
      "ĠOb": 5992,
      "Ġstor": 5993,
      "Ġstew": 5994,
      "ĠMont": 5995,
      "ĠMarch": 5996,
      "Ġmys": 5997,
      "Ġseldom": 5998,
      "Ġshake": 5999,
      "Ġshown": 6000,
      "ĠCom": 6001,
      "ĠBri": 6002,
      "Ġjunior": 6003,
      "Ġsociety": 6004,
      "ĠYesterday": 6005,
      "Ġatmosphere": 6006,
      "Ġchose": 6007,
      "urb": 6008,
      "Ġbutt": 6009,
      "Ġaller": 6010,
      "iled": 6011,
      "ession": 6012,
      "Ġplug": 6013,
      "ĠPI": 6014,
      "ĠPass": 6015,
      "ĠPLS": 6016,
      "hern": 6017,
      "Ġrace": 6018,
      "ĠRed": 6019,
      "ĠRec": 6020,
      "Ġqueen": 6021,
      "obile": 6022,
      "Ġvan": 6023,
      "Ġvict": 6024,
      "oles": 6025,
      "Ġtwin": 6026,
      "Ġhero": 6027,
      "Ġsaving": 6028,
      "Ġimage": 6029,
      "Ġintell": 6030,
      "apes": 6031,
      "ĠIns": 6032,
      "Ġdev": 6033,
      "Ġfewer": 6034,
      "Ġrecon": 6035,
      "Ġrecover": 6036,
      "ĠCouldn": 6037,
      "Ġwaited": 6038,
      "Ġplanned": 6039,
      "Ġscary": 6040,
      "Ġrelieve": 6041,
      "Ġtalks": 6042,
      "Ġspecialty": 6043,
      "Ġreality": 6044,
      "Ġcolumn": 6045,
      "Ġsurg": 6046,
      "arently": 6047,
      "Ġfavorable": 6048,
      "ĠToky": 6049,
      "Ġcommitted": 6050,
      "ĠDoesn": 6051,
      "Ġflights": 6052,
      "Ġenthusi": 6053,
      "Ġpackages": 6054,
      "ĠAnne": 6055,
      "Ġdifficulty": 6056,
      "Ġrecommended": 6057,
      "Ġbroch": 6058,
      "Ġassure": 6059,
      "Ġwinds": 6060,
      "olly": 6061,
      "workers": 6062,
      "Ġreply": 6063,
      "Ġarriving": 6064,
      "intosh": 6065,
      "Ġposted": 6066,
      "Ġawesome": 6067,
      "Ġefforts": 6068,
      "Ġfallen": 6069,
      "Ġmidnight": 6070,
      "Ġpeel": 6071,
      "ĠAccord": 6072,
      "Ġdeveloped": 6073,
      "Ġleader": 6074,
      "Ġleading": 6075,
      "Ġeducational": 6076,
      "Ġsatisfactory": 6077,
      "Ġpattern": 6078,
      "Ġridiculous": 6079,
      "Ġwithdrawal": 6080,
      "Ġprinted": 6081,
      "Ġhanging": 6082,
      "Ġreduction": 6083,
      "Ġsmells": 6084,
      "ĠGuangzhou": 6085,
      "Ġscene": 6086,
      "Ġconfirmation": 6087,
      "Ġlargest": 6088,
      "ĠJulie": 6089,
      "ĠCarl": 6090,
      "Ġdemonst": 6091,
      "Ġengineer": 6092,
      "Ġjumped": 6093,
      "Ġbrilliant": 6094,
      "Ġappetite": 6095,
      "Ġdelayed": 6096,
      "Ġsuspect": 6097,
      "Ġspirit": 6098,
      "Ġfavourite": 6099,
      "Ġwireless": 6100,
      "ĠCharles": 6101,
      "Ġelectronic": 6102,
      "ĠÂ£": 6103,
      "Ġdumpl": 6104,
      "Ġfabulous": 6105,
      "Ġpostcards": 6106,
      "Ġrailway": 6107,
      "Ġcounsel": 6108,
      "Ġdiamond": 6109,
      "Ġmortgage": 6110,
      "Ġstructure": 6111,
      "Ġoutfit": 6112,
      "ĠLeave": 6113,
      "Ġaluminum": 6114,
      "Ġthorough": 6115,
      "ĠTokyo": 6116,
      "DD": 6117,
      "EL": 6118,
      "Just": 6119,
      "Oh": 6120,
      "can": 6121,
      "cin": 6122,
      "done": 6123,
      "fashion": 6124,
      "hu": 6125,
      "kin": 6126,
      "mind": 6127,
      "now": 6128,
      "oot": 6129,
      "rid": 6130,
      "rical": 6131,
      "size": 6132,
      "wood": 6133,
      "walk": 6134,
      "Ġties": 6135,
      "erable": 6136,
      "isc": 6137,
      "iser": 6138,
      "Ġairl": 6139,
      "Ġwoke": 6140,
      "antly": 6141,
      "Ġyard": 6142,
      "rev": 6143,
      "Ġmild": 6144,
      "Ġtoes": 6145,
      "Ġtoys": 6146,
      "Ġbare": 6147,
      "orters": 6148,
      "Ġdump": 6149,
      "Ġpad": 6150,
      "Ġporter": 6151,
      "Ġlid": 6152,
      "Ġlink": 6153,
      "Ġgown": 6154,
      "Ġoce": 6155,
      "Ġnamed": 6156,
      "Ġniece": 6157,
      "etics": 6158,
      "ĠTy": 6159,
      "ĠTina": 6160,
      "ĠThail": 6161,
      "icking": 6162,
      "Ġreference": 6163,
      "idents": 6164,
      "ĠAut": 6165,
      "ĠSer": 6166,
      "ĠSan": 6167,
      "ĠMad": 6168,
      "ĠMicro": 6169,
      "iry": 6170,
      "Ġsemin": 6171,
      "Ġsevent": 6172,
      "ĠDear": 6173,
      "stood": 6174,
      "ĠBea": 6175,
      "ĠBook": 6176,
      "ĠBang": 6177,
      "Ġjoke": 6178,
      "ĠNet": 6179,
      "Ġchin": 6180,
      "Ġchilly": 6181,
      "oph": 6182,
      "urning": 6183,
      "Ġexist": 6184,
      "ĠLaur": 6185,
      "ighted": 6186,
      "Ġalive": 6187,
      "ulance": 6188,
      "ĠGreek": 6189,
      "ĠNobody": 6190,
      "Ġplot": 6191,
      "Ġtools": 6192,
      "Ġamenities": 6193,
      "ĠEDD": 6194,
      "aint": 6195,
      "ĠPr": 6196,
      "Ġrow": 6197,
      "Ġrub": 6198,
      "Ġrating": 6199,
      "Ġcompar": 6200,
      "ĠFif": 6201,
      "ĠFantastic": 6202,
      "Ġconv": 6203,
      "ĠRel": 6204,
      "ĠRock": 6205,
      "Ġhowever": 6206,
      "ouses": 6207,
      "Ġenvelop": 6208,
      "Ġlottery": 6209,
      "Ġsafer": 6210,
      "Ġafterwards": 6211,
      "Ġguitar": 6212,
      "Ġpaycheck": 6213,
      "Ġintention": 6214,
      "erves": 6215,
      "Ġuncom": 6216,
      "Ġcontr": 6217,
      "class": 6218,
      "ĠKen": 6219,
      "Ġsuppli": 6220,
      "Ġpasses": 6221,
      "Ġdeserves": 6222,
      "Ġrap": 6223,
      "Ġemails": 6224,
      "Ġbreaking": 6225,
      "ups": 6226,
      "Ġfunction": 6227,
      "Ġmathem": 6228,
      "Ġturns": 6229,
      "Ġthroughout": 6230,
      "Ġspeakers": 6231,
      "Ġframe": 6232,
      "ĠAlt": 6233,
      "Ġcountryside": 6234,
      "Ġreturning": 6235,
      "Ġinterviews": 6236,
      "Ġcorporate": 6237,
      "Ġbirds": 6238,
      "Ġinstance": 6239,
      "Ġexamination": 6240,
      "Ġsites": 6241,
      "Ġcookies": 6242,
      "Ġmetal": 6243,
      "Ġshortly": 6244,
      "Ġassured": 6245,
      "Ġmaintenance": 6246,
      "Ġdefinite": 6247,
      "Ġlesson": 6248,
      "Ġrepay": 6249,
      "Ġmemo": 6250,
      "ysis": 6251,
      "Ġattending": 6252,
      "Ġdepending": 6253,
      "Ġconditioning": 6254,
      "Ġhonestly": 6255,
      "Ġtempt": 6256,
      "Ġtreatment": 6257,
      "Ġanswers": 6258,
      "Ġdrove": 6259,
      "Ġgeneration": 6260,
      "Ġarranged": 6261,
      "Ġdirections": 6262,
      "Ġdiving": 6263,
      "Ġpairs": 6264,
      "Ġsteps": 6265,
      "Ġlandl": 6266,
      "coming": 6267,
      "Ġcurrently": 6268,
      "Ġopera": 6269,
      "Ġpatience": 6270,
      "Ġapproval": 6271,
      "Ġlabel": 6272,
      "Ġburning": 6273,
      "Ġpulled": 6274,
      "Ġrelationships": 6275,
      "Ġcapable": 6276,
      "Ġshooting": 6277,
      "Ġflatter": 6278,
      "Ġchatting": 6279,
      "ĠMaria": 6280,
      "Ġpropose": 6281,
      "ĠIndeed": 6282,
      "ĠGerm": 6283,
      "ĠMacintosh": 6284,
      "Ġexperiences": 6285,
      "Ġmiserable": 6286,
      "Ġwooden": 6287,
      "Ġmarks": 6288,
      "Ġmarked": 6289,
      "Ġefficiency": 6290,
      "Ġadvantages": 6291,
      "Ġencourage": 6292,
      "Ġassigned": 6293,
      "Ġchemistry": 6294,
      "Ġarrested": 6295,
      "ĠCoffee": 6296,
      "Ġidentification": 6297,
      "Ġdrugs": 6298,
      "Ġreligious": 6299,
      "ĠSavings": 6300,
      "Ġanalysis": 6301,
      "Ġworkshop": 6302,
      "Ġbungee": 6303,
      "Ġtuition": 6304,
      "Ġmethods": 6305,
      "Ġstereo": 6306,
      "Ġtomato": 6307,
      "Ġcoupons": 6308,
      "ĠAfrica": 6309,
      "known": 6310,
      "Ġtarget": 6311,
      "ĠEspecially": 6312,
      "Ġdetective": 6313,
      "Ġstrategy": 6314,
      "Ġconcentrate": 6315,
      "ĠDamn": 6316,
      "Ġcarrots": 6317,
      "Ġkilometers": 6318,
      "Ġgossip": 6319,
      "Ġstorage": 6320,
      "ĠPIN": 6321,
      "fashioned": 6322,
      "minded": 6323,
      "ĠThailand": 6324,
      "ĠBeaut": 6325,
      "ĠLaura": 6326,
      "Ġuncomfortable": 6327,
      "Ġsuppliers": 6328,
      "12": 6329,
      "67": 6330,
      "Sm": 6331,
      "Where": 6332,
      "cious": 6333,
      "han": 6334,
      "iers": 6335,
      "jamin": 6336,
      "lin": 6337,
      "of": 6338,
      "oom": 6339,
      "ship": 6340,
      "tor": 6341,
      "ww": 6342,
      "west": 6343,
      "Ġtack": 6344,
      "Ġtips": 6345,
      "erob": 6346,
      "Ġthrew": 6347,
      "Ġthrill": 6348,
      "Ġah": 6349,
      "Ġau": 6350,
      "ashing": 6351,
      "Ġsac": 6352,
      "Ġsink": 6353,
      "ĠIm": 6354,
      "Ġwest": 6355,
      "Ġwise": 6356,
      "istics": 6357,
      "Ġmer": 6358,
      "Ġmur": 6359,
      "atics": 6360,
      "onse": 6361,
      "Ġcow": 6362,
      "itam": 6363,
      "Ġfiance": 6364,
      "Ġpour": 6365,
      "Ġpure": 6366,
      "Ġpun": 6367,
      "Ġpardon": 6368,
      "Ġlamb": 6369,
      "Ġgay": 6370,
      "Ġgroom": 6371,
      "omin": 6372,
      "ĠWood": 6373,
      "ĠTimes": 6374,
      "ĠThirty": 6375,
      "Ġisland": 6376,
      "ĠYi": 6377,
      "Ġbean": 6378,
      "Ġeager": 6379,
      "utes": 6380,
      "ida": 6381,
      "charg": 6382,
      "ĠAc": 6383,
      "ĠSl": 6384,
      "imb": 6385,
      "Ġstain": 6386,
      "Ġstole": 6387,
      "Ġneat": 6388,
      "ĠMus": 6389,
      "irley": 6390,
      "ĠCash": 6391,
      "ĠDa": 6392,
      "ĠDian": 6393,
      "ĠBack": 6394,
      "ĠBaker": 6395,
      "Ġheels": 6396,
      "ores": 6397,
      "Ġexit": 6398,
      "ĠGre": 6399,
      "ĠGames": 6400,
      "elle": 6401,
      "andy": 6402,
      "Ġspread": 6403,
      "ĠPol": 6404,
      "Ġours": 6405,
      "Ġracket": 6406,
      "Ġconclud": 6407,
      "ĠRy": 6408,
      "umping": 6409,
      "Ġvia": 6410,
      "Ġvoting": 6411,
      "reeze": 6412,
      "Ġovernight": 6413,
      "hew": 6414,
      "Ġsaved": 6415,
      "itty": 6416,
      "ittance": 6417,
      "ĠHaha": 6418,
      "Ġpron": 6419,
      "Ġ29": 6420,
      "anges": 6421,
      "Ġmornings": 6422,
      "Ġperman": 6423,
      "Ġresolution": 6424,
      "getic": 6425,
      "Ġmanners": 6426,
      "Ġidi": 6427,
      "Ġdeals": 6428,
      "Ġhike": 6429,
      "Ġhardware": 6430,
      "ĠUmm": 6431,
      "Ġleaking": 6432,
      "Ġclassic": 6433,
      "Ġphil": 6434,
      "Ġbooking": 6435,
      "ĠReg": 6436,
      "Ġcareless": 6437,
      "Ġcardboard": 6438,
      "gged": 6439,
      "clus": 6440,
      "Ġactual": 6441,
      "Ġhanded": 6442,
      "Ġsooner": 6443,
      "Ġpassenger": 6444,
      "Ġinvent": 6445,
      "Ġraised": 6446,
      "Ġskating": 6447,
      "Ġbringing": 6448,
      "ĠShirley": 6449,
      "icals": 6450,
      "Ġmarvelous": 6451,
      "Ġserving": 6452,
      "Ġtries": 6453,
      "Ġmush": 6454,
      "Ġprescribe": 6455,
      "Ġprompt": 6456,
      "Ġacademic": 6457,
      "Ġrealized": 6458,
      "Ġmatters": 6459,
      "Ġcredits": 6460,
      "Ġbird": 6461,
      "Ġwines": 6462,
      "Ġfiling": 6463,
      "Ġfilet": 6464,
      "Ġvacant": 6465,
      "Ġforest": 6466,
      "Ġsmoker": 6467,
      "Ġresponse": 6468,
      "Ġexercises": 6469,
      "Ġrainy": 6470,
      "Ġesc": 6471,
      "Ġcovers": 6472,
      "Ġcatching": 6473,
      "Ġallowance": 6474,
      "Ġattended": 6475,
      "Ġweights": 6476,
      "Ġdiscussed": 6477,
      "ĠJanuary": 6478,
      "Ġcharity": 6479,
      "ĠTwenty": 6480,
      "ĠZeal": 6481,
      "Ġtempor": 6482,
      "Ġtreated": 6483,
      "ĠBrad": 6484,
      "Ġeval": 6485,
      "Ġexplan": 6486,
      "Ġdesigner": 6487,
      "Ġmatches": 6488,
      "ĠNeither": 6489,
      "Ġcollections": 6490,
      "Ġfields": 6491,
      "Ġbenefic": 6492,
      "Ġgrandfather": 6493,
      "Ġcheapest": 6494,
      "Ġfruits": 6495,
      "Ġfigured": 6496,
      "Ġarrangement": 6497,
      "Ġarrangements": 6498,
      "box": 6499,
      "Ġripe": 6500,
      "Ġripped": 6501,
      "Ġanimal": 6502,
      "Ġriding": 6503,
      "Ġcloses": 6504,
      "Ġbothering": 6505,
      "annel": 6506,
      "Ġreduced": 6507,
      "ĠManagement": 6508,
      "ĠParker": 6509,
      "Ġbrain": 6510,
      "Ġbrave": 6511,
      "Ġcartons": 6512,
      "Ġcreated": 6513,
      "Ġenergetic": 6514,
      "Ġphysics": 6515,
      "ĠEuropean": 6516,
      "Ġdestination": 6517,
      "Ġbranches": 6518,
      "Ġautomatic": 6519,
      "Ġsamples": 6520,
      "Ġstrike": 6521,
      "Ġmeantime": 6522,
      "ĠBritish": 6523,
      "Ġorganization": 6524,
      "Ġconstru": 6525,
      "ĠBenjamin": 6526,
      "Ġcombination": 6527,
      "Ġplumbing": 6528,
      "Ġslee": 6529,
      "Ġsensible": 6530,
      "Ġaudience": 6531,
      "Ġcreate": 6532,
      "Ġmask": 6533,
      "ĠSchool": 6534,
      "Ġflavors": 6535,
      "Ġpolitical": 6536,
      "Ġbleeding": 6537,
      "Ġpuzz": 6538,
      "Ġambulance": 6539,
      "Ġenterprise": 6540,
      "storms": 6541,
      "Ġpredict": 6542,
      "Ġhistorical": 6543,
      "Ġtrend": 6544,
      "Ġmirror": 6545,
      "Ġrobbery": 6546,
      "Ġrepresentative": 6547,
      "Ġcotton": 6548,
      "Ġhamburger": 6549,
      "Ġpencil": 6550,
      "ĠTaxi": 6551,
      "ĠPalace": 6552,
      "ĠHawai": 6553,
      "Ġdecisions": 6554,
      "Ġbehavior": 6555,
      "Ġconvinced": 6556,
      "Ġillegal": 6557,
      "Ġearthquake": 6558,
      "Ġsurgery": 6559,
      "ĠAltadena": 6560,
      "Smith": 6561,
      "itamins": 6562,
      "ĠZealand": 6563,
      "18": 6564,
      "34": 6565,
      "95": 6566,
      "Any": 6567,
      "Please": 6568,
      "apt": 6569,
      "fts": 6570,
      "firm": 6571,
      "gin": 6572,
      "ged": 6573,
      "host": 6574,
      "ien": 6575,
      "long": 6576,
      "met": 6577,
      "mine": 6578,
      "moking": 6579,
      "pot": 6580,
      "round": 6581,
      "rings": 6582,
      "ument": 6583,
      "Ġtatt": 6584,
      "Ġtango": 6585,
      "eries": 6586,
      "oust": 6587,
      "inner": 6588,
      "Ġthunder": 6589,
      "ascin": 6590,
      "Ġsources": 6591,
      "Ġsisters": 6592,
      "ĠIB": 6593,
      "ĠIr": 6594,
      "assy": 6595,
      "ators": 6596,
      "Ġcro": 6597,
      "Ġhiring": 6598,
      "itter": 6599,
      "itute": 6600,
      "Ġfascin": 6601,
      "Ġdances": 6602,
      "Ġpam": 6603,
      "Ġgre": 6604,
      "Ġgrill": 6605,
      "arrow": 6606,
      "ett": 6607,
      "lead": 6608,
      "ĠThai": 6609,
      "ĠYellow": 6610,
      "Ġbeers": 6611,
      "Ġeast": 6612,
      "ĠHR": 6613,
      "ĠHilton": 6614,
      "Ġwears": 6615,
      "ĠAgency": 6616,
      "ĠSw": 6617,
      "rip": 6618,
      "illa": 6619,
      "ĠOak": 6620,
      "Ġstone": 6621,
      "ĠMid": 6622,
      "ĠMine": 6623,
      "ĠMiao": 6624,
      "roke": 6625,
      "Ġshock": 6626,
      "ĠCop": 6627,
      "ĠCIF": 6628,
      "Ġjet": 6629,
      "Ġwheel": 6630,
      "Ġwholes": 6631,
      "Ġsoap": 6632,
      "Ġund": 6633,
      "Ġupper": 6634,
      "Ġsung": 6635,
      "Ġchos": 6636,
      "Ġworn": 6637,
      "Ġheating": 6638,
      "Ġaspect": 6639,
      "endy": 6640,
      "ĠLake": 6641,
      "arts": 6642,
      "Ġneedn": 6643,
      "Ġoutgoing": 6644,
      "ĠET": 6645,
      "ĠEither": 6646,
      "ĠPay": 6647,
      "ĠJerry": 6648,
      "ĠJudy": 6649,
      "Ġclick": 6650,
      "Ġens": 6651,
      "Ġbull": 6652,
      "Ġtrash": 6653,
      "Ġtruly": 6654,
      "Ġsheets": 6655,
      "ĠChannel": 6656,
      "Ġgreatly": 6657,
      "Ġpregn": 6658,
      "aked": 6659,
      "Ġbrac": 6660,
      "Ġbridge": 6661,
      "Ġunited": 6662,
      "Ġwriter": 6663,
      "Ġmanagers": 6664,
      "ĠInst": 6665,
      "Ġblog": 6666,
      "Ġdeb": 6667,
      "ĠUntil": 6668,
      "Ġteen": 6669,
      "Ġscrew": 6670,
      "ĠKelly": 6671,
      "Ġsupper": 6672,
      "iverse": 6673,
      "Ġreliable": 6674,
      "Ġcleans": 6675,
      "Ġtrial": 6676,
      "Ġcouples": 6677,
      "Ġstranger": 6678,
      "ĠAsian": 6679,
      "Ġsli": 6680,
      "Ġslipped": 6681,
      "ivity": 6682,
      "Ġbanking": 6683,
      "ĠJohnny": 6684,
      "Ġpolite": 6685,
      "Ġwinning": 6686,
      "Ġqualify": 6687,
      "athy": 6688,
      "Ġcav": 6689,
      "Ġrental": 6690,
      "Ġrefuse": 6691,
      "criptions": 6692,
      "Ġpreparation": 6693,
      "Ġsym": 6694,
      "Ġprior": 6695,
      "Ġarrival": 6696,
      "Ġallows": 6697,
      "Ġfollowed": 6698,
      "ĠJanice": 6699,
      "ĠAha": 6700,
      "Ġsystems": 6701,
      "Ġballs": 6702,
      "Ġdistract": 6703,
      "Ġintroduced": 6704,
      "Ġleads": 6705,
      "Ġlanded": 6706,
      "Ġsteam": 6707,
      "Ġcompete": 6708,
      "Ġfreed": 6709,
      "Ġconnected": 6710,
      "Ġburger": 6711,
      "Ġsalads": 6712,
      "Ġprints": 6713,
      "Ġborrowed": 6714,
      "Ġcomplaints": 6715,
      "Ġreminds": 6716,
      "Ġreminding": 6717,
      "Ġnotebook": 6718,
      "Ġedge": 6719,
      "Ġedition": 6720,
      "Ġnutr": 6721,
      "Ġdocumentary": 6722,
      "Ġrobbed": 6723,
      "Ġcommunicate": 6724,
      "Ġlimited": 6725,
      "Ġnovels": 6726,
      "Ġpeaceful": 6727,
      "ĠLeo": 6728,
      "Ġflea": 6729,
      "Ġoverdraft": 6730,
      "Ġannounce": 6731,
      "Ġfolk": 6732,
      "Ġfrustrating": 6733,
      "ynasty": 6734,
      "ĠBasically": 6735,
      "pirin": 6736,
      "ĠAirlines": 6737,
      "Ġpremium": 6738,
      "Ġsouthern": 6739,
      "Ġbuffet": 6740,
      "Ġimmig": 6741,
      "Ġbrothers": 6742,
      "Ġinfluence": 6743,
      "Ġhesitate": 6744,
      "ĠBrian": 6745,
      "Ġbarely": 6746,
      "ĠSeriously": 6747,
      "Ġlandlord": 6748,
      "ĠRyan": 6749,
      "Ġpermanent": 6750,
      "Ġphilos": 6751,
      "ĠHawaii": 6752,
      "Ġchosen": 6753,
      "32": 6754,
      "40": 6755,
      "80": 6756,
      "eight": 6757,
      "for": 6758,
      "gl": 6759,
      "giving": 6760,
      "lt": 6761,
      "mber": 6762,
      "mission": 6763,
      "pres": 6764,
      "Ġtid": 6765,
      "Ġthreat": 6766,
      "Ġaerob": 6767,
      "antern": 6768,
      "reme": 6769,
      "atin": 6770,
      "Ġcate": 6771,
      "Ġcub": 6772,
      "Ġhip": 6773,
      "Ġtheory": 6774,
      "Ġbum": 6775,
      "Ġbab": 6776,
      "orate": 6777,
      "order": 6778,
      "Ġdim": 6779,
      "Ġdil": 6780,
      "Ġpant": 6781,
      "Ġpow": 6782,
      "Ġpul": 6783,
      "Ġpace": 6784,
      "Ġpeak": 6785,
      "Ġlux": 6786,
      "Ġgam": 6787,
      "Ġghost": 6788,
      "Ġank": 6789,
      "Ġnasty": 6790,
      "etic": 6791,
      "ĠTO": 6792,
      "ĠTv": 6793,
      "ĠTang": 6794,
      "ĠTalk": 6795,
      "ĠTeach": 6796,
      "Ġink": 6797,
      "levant": 6798,
      "Ġformer": 6799,
      "erely": 6800,
      "Ġreb": 6801,
      "ĠHol": 6802,
      "ĠHonest": 6803,
      "ĠHalf": 6804,
      "Ġdoz": 6805,
      "rial": 6806,
      "Ġstays": 6807,
      "ĠMag": 6808,
      "teries": 6809,
      "Ġsharing": 6810,
      "ĠCook": 6811,
      "ĠCap": 6812,
      "ĠCoke": 6813,
      "ĠDes": 6814,
      "amm": 6815,
      "Ġjoint": 6816,
      "Ġjazz": 6817,
      "Ġwhose": 6818,
      "ĠNBA": 6819,
      "Ġum": 6820,
      "Ġchap": 6821,
      "Ġheal": 6822,
      "rap": 6823,
      "ĠLA": 6824,
      "ĠLots": 6825,
      "Ġalb": 6826,
      "Ġpros": 6827,
      "Ġuseless": 6828,
      "ĠGold": 6829,
      "quis": 6830,
      "ĠPing": 6831,
      "Ġlogo": 6832,
      "ĠAnderson": 6833,
      "oline": 6834,
      "agon": 6835,
      "Ġtricks": 6836,
      "Ġsaves": 6837,
      "Ġarts": 6838,
      "ĠHaving": 6839,
      "Ġappeal": 6840,
      "soft": 6841,
      "Ġflash": 6842,
      "Ġhappier": 6843,
      "Ġresign": 6844,
      "Ġmustn": 6845,
      "ignon": 6846,
      "Ġunion": 6847,
      "Ġmonitor": 6848,
      "Ġbloss": 6849,
      "Ġnightm": 6850,
      "ĠAllen": 6851,
      "Ġrecy": 6852,
      "Ġdislike": 6853,
      "ilding": 6854,
      "ĠStars": 6855,
      "Ġhandbag": 6856,
      "Ġhighway": 6857,
      "Ġremove": 6858,
      "Ġspecially": 6859,
      "Ġrelief": 6860,
      "Ġemb": 6861,
      "Ġdifferently": 6862,
      "Ġtrained": 6863,
      "Ġsignature": 6864,
      "Ġfreezing": 6865,
      "ĠJoan": 6866,
      "Ġmusical": 6867,
      "Ġending": 6868,
      "Ġlawn": 6869,
      "rooms": 6870,
      "Ġentry": 6871,
      "Ġcauses": 6872,
      "Ġcleaner": 6873,
      "Ġsells": 6874,
      "Ġreflect": 6875,
      "Ġappreciated": 6876,
      "olley": 6877,
      "Ġhonors": 6878,
      "Ġcheating": 6879,
      "Ġcontracts": 6880,
      "ledg": 6881,
      "Ġcentury": 6882,
      "Ġattendant": 6883,
      "Ġblackout": 6884,
      "Ġcupboard": 6885,
      "Ġconvenience": 6886,
      "Ġreceipts": 6887,
      "Ġphotography": 6888,
      "Ġaffairs": 6889,
      "Ġvegetable": 6890,
      "Ġgenerous": 6891,
      "Ġstronger": 6892,
      "Ġelected": 6893,
      "Ġprofession": 6894,
      "Ġprofessors": 6895,
      "Ġaffordable": 6896,
      "Ġzone": 6897,
      "Ġdreamed": 6898,
      "Ġmotiv": 6899,
      "Ġstressed": 6900,
      "Ġimprovement": 6901,
      "Ġcomplaint": 6902,
      "Ġnaturally": 6903,
      "Ġgarlic": 6904,
      "Ġactivity": 6905,
      "Ġfighting": 6906,
      "ĠItaly": 6907,
      "Ġduties": 6908,
      "ĠAround": 6909,
      "Ġsteaks": 6910,
      "ipei": 6911,
      "Ġscores": 6912,
      "Ġantique": 6913,
      "Ġkilo": 6914,
      "Ġkilos": 6915,
      "Ġnegotiation": 6916,
      "Ġcreative": 6917,
      "Ġjokes": 6918,
      "Ġdecorating": 6919,
      "Ġautomatically": 6920,
      "Ġorganizing": 6921,
      "Ġlifest": 6922,
      "Ġargue": 6923,
      "Ġshuttle": 6924,
      "Ġfrequent": 6925,
      "Ġmanufactur": 6926,
      "Ġviolence": 6927,
      "ĠTaipei": 6928,
      "ĠWindows": 6929,
      "ĠSandals": 6930,
      "Ġbanquet": 6931,
      "Ġdivided": 6932,
      "Ġoutdoor": 6933,
      "Ġcheque": 6934,
      "Ġfolks": 6935,
      "ĠRomans": 6936,
      "Ġcircum": 6937,
      "Ġlecture": 6938,
      "Ġregarding": 6939,
      "ĠKorea": 6940,
      "Ġseventy": 6941,
      "ĠWilliam": 6942,
      "Ġobviously": 6943,
      "ĠContin": 6944,
      "Ġstrawberry": 6945,
      "Ġtablets": 6946,
      "Ġoccupation": 6947,
      "Ġshadow": 6948,
      "Ġcrisp": 6949,
      "Ġowner": 6950,
      "Ġdentist": 6951,
      "Ġinsects": 6952,
      "Ġcurtains": 6953,
      "Ġcounselor": 6954,
      "ĠMicrosoft": 6955,
      "Ġexplanation": 6956,
      "Ġtattoo": 6957,
      "ĠIBM": 6958,
      "ĠETV": 6959,
      "Ġfreedom": 6960,
      "presso": 6961,
      "Ġcateg": 6962,
      "Ġgamble": 6963,
      "olleyball": 6964,
      "17": 6965,
      "42": 6966,
      "65": 6967,
      "89": 6968,
      "Wh": 6969,
      "cking": 6970,
      "cery": 6971,
      "fers": 6972,
      "field": 6973,
      "gri": 6974,
      "life": 6975,
      "moon": 6976,
      "oe": 6977,
      "piece": 6978,
      "top": 6979,
      "water": 6980,
      "Ġuser": 6981,
      "Ġtan": 6982,
      "Ġtas": 6983,
      "Ġtiny": 6984,
      "Ġaid": 6985,
      "Ġsom": 6986,
      "Ġsource": 6987,
      "Ġwound": 6988,
      "istance": 6989,
      "oned": 6990,
      "Ġcertificates": 6991,
      "Ġtoward": 6992,
      "itors": 6993,
      "Ġlent": 6994,
      "Ġlying": 6995,
      "Ġgum": 6996,
      "Ġginger": 6997,
      "vember": 6998,
      "Ġnarrow": 6999,
      "oman": 7000,
      "ĠWish": 7001,
      "ĠWendy": 7002,
      "Ġhack": 7003,
      "Ġreimb": 7004,
      "Ġrelevant": 7005,
      "oosing": 7006,
      "Ġelder": 7007,
      "ĠHolly": 7008,
      "alian": 7009,
      "ĠSwe": 7010,
      "ĠSize": 7011,
      "ĠSales": 7012,
      "ĠMor": 7013,
      "ĠMing": 7014,
      "ĠMarg": 7015,
      "robe": 7016,
      "ĠCE": 7017,
      "ĠCant": 7018,
      "ĠCount": 7019,
      "ĠCup": 7020,
      "adies": 7021,
      "adium": 7022,
      "advant": 7023,
      "ĠDel": 7024,
      "acity": 7025,
      "ĠNan": 7026,
      "ĠNor": 7027,
      "Ġchew": 7028,
      "urred": 7029,
      "ending": 7030,
      "Ġexceed": 7031,
      "ĠLas": 7032,
      "ĠLater": 7033,
      "ĠLatin": 7034,
      "ĠLadies": 7035,
      "Ġprofic": 7036,
      "ĠNovember": 7037,
      "ĠEar": 7038,
      "ĠEric": 7039,
      "ĠPam": 7040,
      "ĠPost": 7041,
      "Ġcoins": 7042,
      "oster": 7043,
      "eps": 7044,
      "Ġrash": 7045,
      "ĠFlor": 7046,
      "ĠJill": 7047,
      "Ġfeature": 7048,
      "ares": 7049,
      "umber": 7050,
      "ishing": 7051,
      "Ġnewly": 7052,
      "Ġ1000": 7053,
      "Ġvase": 7054,
      "Ġvouch": 7055,
      "Ġventure": 7056,
      "Ġenroll": 7057,
      "Ġapparently": 7058,
      "Ġprison": 7059,
      "Ġfloors": 7060,
      "Ġbuyer": 7061,
      "Ġresol": 7062,
      "ervation": 7063,
      "arks": 7064,
      "Ġunex": 7065,
      "Ġunique": 7066,
      "Ġuniverse": 7067,
      "urnished": 7068,
      "Ġaccur": 7069,
      "ĠUnder": 7070,
      "Ġputs": 7071,
      "Ġdrama": 7072,
      "Ġdisadvant": 7073,
      "Ġleis": 7074,
      "Ġhousework": 7075,
      "ancies": 7076,
      "Ġserves": 7077,
      "ĠAnytime": 7078,
      "Ġregion": 7079,
      "Ġregards": 7080,
      "Ġcouch": 7081,
      "Ġ600": 7082,
      "Ġimpact": 7083,
      "Ġrealtor": 7084,
      "Ġexpectations": 7085,
      "Ġpositions": 7086,
      "Ġsuites": 7087,
      "Ġcashier": 7088,
      "Ġswear": 7089,
      "Ġdresses": 7090,
      "Ġwarmer": 7091,
      "Ġcurly": 7092,
      "Ġbillion": 7093,
      "Ġinternal": 7094,
      "Ġtours": 7095,
      "ughty": 7096,
      "Ġwindy": 7097,
      "Ġappointments": 7098,
      "Ġreturned": 7099,
      "Ġpainful": 7100,
      "Ġquicker": 7101,
      "Ġcheek": 7102,
      "Ġcheated": 7103,
      "Ġbuildings": 7104,
      "Ġsneak": 7105,
      "Ġsnacks": 7106,
      "Ġsidewalk": 7107,
      "Ġarrives": 7108,
      "Ġfastest": 7109,
      "ological": 7110,
      "Ġawake": 7111,
      "Ġprovided": 7112,
      "Ġcups": 7113,
      "bster": 7114,
      "Ġpressed": 7115,
      "Ġfalls": 7116,
      "Ġdiscounts": 7117,
      "ĠSpain": 7118,
      "Ġsurprising": 7119,
      "Ġmedication": 7120,
      "Ġpublicity": 7121,
      "ĠClass": 7122,
      "Ġenvironmental": 7123,
      "Ġsteamed": 7124,
      "Ġdreams": 7125,
      "Ġorganize": 7126,
      "Ġdrivers": 7127,
      "ocable": 7128,
      "Ġapproved": 7129,
      "Ġdrops": 7130,
      "iques": 7131,
      "Ġdeadlines": 7132,
      "Ġwebsites": 7133,
      "Ġprocessing": 7134,
      "Ġcomplaining": 7135,
      "hyd": 7136,
      "Ġhoneymoon": 7137,
      "Ġimmediate": 7138,
      "Ġcanceled": 7139,
      "priate": 7140,
      "Ġshoot": 7141,
      "Ġeditor": 7142,
      "Ġestimate": 7143,
      "Ġconfirmed": 7144,
      "Ġfacilities": 7145,
      "Ġbandages": 7146,
      "Ġinstructor": 7147,
      "Ġengineering": 7148,
      "ĠPlay": 7149,
      "Ġnuts": 7150,
      "Ġ::": 7151,
      "Ġtowel": 7152,
      "Ġtowels": 7153,
      "Ġbasement": 7154,
      "Ġmisunder": 7155,
      "Ġcooperate": 7156,
      "ĠCheer": 7157,
      "Ġexports": 7158,
      "ĠTravell": 7159,
      "Ġadmire": 7160,
      "ĠCalm": 7161,
      "Ġsandwiches": 7162,
      "Ġtoothache": 7163,
      "Ġassistance": 7164,
      "Ġassignment": 7165,
      "holders": 7166,
      "Ġselected": 7167,
      "ĠMexican": 7168,
      "Ġladder": 7169,
      "Ġlocked": 7170,
      "Ġsmoothly": 7171,
      "Ġsusp": 7172,
      "Ġspirits": 7173,
      "Ġanaly": 7174,
      "Ġworkshops": 7175,
      "Ġinquire": 7176,
      "Ġweaknesses": 7177,
      "month": 7178,
      "Ġgrocery": 7179,
      "ĠRussian": 7180,
      "ĠInteresting": 7181,
      "Ġfuel": 7182,
      "Ġliquor": 7183,
      "ĠMedium": 7184,
      "Ġadministration": 7185,
      "Ġcancelled": 7186,
      "Ġlungs": 7187,
      "ĠOpera": 7188,
      "Ġplaced": 7189,
      "Ġphotographs": 7190,
      "Ġwardrobe": 7191,
      "Ġrecognize": 7192,
      "Ġscarf": 7193,
      "Ġcitiz": 7194,
      "Ġherself": 7195,
      "Ġfrozen": 7196,
      "Ġrewarding": 7197,
      "Ġalternatives": 7198,
      "Ġtourniquet": 7199,
      "Ġprogrammes": 7200,
      "Ġreconfirm": 7201,
      "Ġdumplings": 7202,
      "Ġairline": 7203,
      "Ġmurder": 7204,
      "Ġpowder": 7205,
      "05": 7206,
      "19": 7207,
      "Good": 7208,
      "away": 7209,
      "but": 7210,
      "egr": 7211,
      "fu": 7212,
      "gic": 7213,
      "lie": 7214,
      "minton": 7215,
      "uc": 7216,
      "uation": 7217,
      "van": 7218,
      "xious": 7219,
      "Ġver": 7220,
      "Ġtank": 7221,
      "anley": 7222,
      "Ġsin": 7223,
      "Ġsigning": 7224,
      "Ġwipe": 7225,
      "anted": 7226,
      "Ġya": 7227,
      "reh": 7228,
      "atory": 7229,
      "Ġcuri": 7230,
      "Ġhide": 7231,
      "Ġhills": 7232,
      "Ġboo": 7233,
      "Ġbac": 7234,
      "Ġbail": 7235,
      "Ġbaking": 7236,
      "Ġbreeze": 7237,
      "itable": 7238,
      "Ġdu": 7239,
      "Ġdough": 7240,
      "Ġdread": 7241,
      "ingers": 7242,
      "Ġped": 7243,
      "Ġlas": 7244,
      "Ġgal": 7245,
      "Ġgap": 7246,
      "Ġgraph": 7247,
      "Ġoint": 7248,
      "Ġnails": 7249,
      "Ġnurs": 7250,
      "ĠTod": 7251,
      "ĠTitan": 7252,
      "keeping": 7253,
      "Ġreun": 7254,
      "Ġeh": 7255,
      "alled": 7256,
      "ĠAy": 7257,
      "ĠSum": 7258,
      "rif": 7259,
      "ĠOuch": 7260,
      "ĠMP": 7261,
      "ĠMuseum": 7262,
      "ĠIts": 7263,
      "Ġshave": 7264,
      "ĠYoung": 7265,
      "ĠWei": 7266,
      "ĠDEL": 7267,
      "ĠDinner": 7268,
      "ĠDalian": 7269,
      "stances": 7270,
      "seven": 7271,
      "section": 7272,
      "Ġjail": 7273,
      "Ġsoph": 7274,
      "ĠNorm": 7275,
      "ĠNah": 7276,
      "Ġchoosing": 7277,
      "Ġaspirin": 7278,
      "Ġcomedy": 7279,
      "raight": 7280,
      "ĠLa": 7281,
      "ĠLife": 7282,
      "ardess": 7283,
      "cted": 7284,
      "Ġspect": 7285,
      "ĠEasy": 7286,
      "ĠPart": 7287,
      "ĠPleased": 7288,
      "ĠFoods": 7289,
      "Ġshoulders": 7290,
      "Ġlover": 7291,
      "Ġlobster": 7292,
      "ieves": 7293,
      "Ġnewcom": 7294,
      "obe": 7295,
      "Ġvitamins": 7296,
      "Ġinterpre": 7297,
      "Ġoverall": 7298,
      "Ġtwist": 7299,
      "cknow": 7300,
      "ĠChan": 7301,
      "ĠVisa": 7302,
      "Ġbackpack": 7303,
      "ittee": 7304,
      "Ġlets": 7305,
      "Ġbrick": 7306,
      "ĠThanksgiving": 7307,
      "Ġflag": 7308,
      "Ġcarried": 7309,
      "Ġresident": 7310,
      "Ġintegr": 7311,
      "ĠDonald": 7312,
      "Ġuns": 7313,
      "ization": 7314,
      "atherine": 7315,
      "ĠUK": 7316,
      "ĠUse": 7317,
      "Ġclassroom": 7318,
      "Ġdisg": 7319,
      "Ġfinals": 7320,
      "Ġphones": 7321,
      "Ġ38": 7322,
      "Ġbadminton": 7323,
      "Ġgrind": 7324,
      "oons": 7325,
      "ĠState": 7326,
      "ĠStanley": 7327,
      "ĠStraight": 7328,
      "Ġ56": 7329,
      "ĠKim": 7330,
      "Ġoldest": 7331,
      "Ġremo": 7332,
      "Ġlearnt": 7333,
      "Ġpassing": 7334,
      "Ġpassword": 7335,
      "Ġsecure": 7336,
      "Ġdesire": 7337,
      "Ġimports": 7338,
      "Ġmaturity": 7339,
      "Ġtermin": 7340,
      "Ġdiscour": 7341,
      "Ġdiscovered": 7342,
      "Ġspeaker": 7343,
      "Ġsignific": 7344,
      "Ġmuscles": 7345,
      "Ġremembered": 7346,
      "Ġposters": 7347,
      "ĠAsia": 7348,
      "Ġretired": 7349,
      "Ġextent": 7350,
      "Ġextreme": 7351,
      "Ġcolored": 7352,
      "Ġbankrupt": 7353,
      "Ġadvise": 7354,
      "Ġadvanced": 7355,
      "Ġwaterfall": 7356,
      "Ġthirteen": 7357,
      "Ġwalks": 7358,
      "Ġfounded": 7359,
      "Ġemployers": 7360,
      "Ġswoll": 7361,
      "ĠSmoking": 7362,
      "Ġtraveled": 7363,
      "Ġtravelers": 7364,
      "Ġfactories": 7365,
      "Ġcrashed": 7366,
      "Ġrespond": 7367,
      "Ġsellers": 7368,
      "Ġsleepy": 7369,
      "Ġtasted": 7370,
      "Ġsixth": 7371,
      "Ġsymp": 7372,
      "Ġsymb": 7373,
      "Ġtesting": 7374,
      "Ġcolorful": 7375,
      "Ġprim": 7376,
      "Ġforeigner": 7377,
      "Ġpracticing": 7378,
      "Ġattendants": 7379,
      "clean": 7380,
      "Ġstuffed": 7381,
      "Ġeighty": 7382,
      "ĠGoing": 7383,
      "Ġheav": 7384,
      "ĠTwice": 7385,
      "pected": 7386,
      "overs": 7387,
      "Ġequally": 7388,
      "Ġadvertised": 7389,
      "ĠWithout": 7390,
      "ĠClaim": 7391,
      "Ġbrands": 7392,
      "Ġdieting": 7393,
      "Ġorganized": 7394,
      "Ġbeaches": 7395,
      "Ġhospitality": 7396,
      "Ġsolution": 7397,
      "Ġopinions": 7398,
      "Ġearliest": 7399,
      "meal": 7400,
      "Ġgrape": 7401,
      "Ġclosing": 7402,
      "Ġgasoline": 7403,
      "Ġcapacity": 7404,
      "Ġproposed": 7405,
      "ĠCarol": 7406,
      "ĠSeatt": 7407,
      "Ġfluently": 7408,
      "ĠMichelle": 7409,
      "Ġportion": 7410,
      "Ġpowerful": 7411,
      "Ġchampions": 7412,
      "ĠChequ": 7413,
      "ĠEliz": 7414,
      "Ġmuseums": 7415,
      "Ġdecorate": 7416,
      "ĠGrandma": 7417,
      "ĠPersonally": 7418,
      "Ġargument": 7419,
      "Ġpoison": 7420,
      "Ġcombined": 7421,
      "ĠPhil": 7422,
      "Ġappearance": 7423,
      "Ġpotato": 7424,
      "Ġslept": 7425,
      "Ġindependently": 7426,
      "Ġtailor": 7427,
      "Ġsuffered": 7428,
      "Ġreligion": 7429,
      "ĠRoberts": 7430,
      "ĠTermin": 7431,
      "Ġmasc": 7432,
      "Ġcruise": 7433,
      "Ġparticipate": 7434,
      "Ġcatalogue": 7435,
      "Ġessential": 7436,
      "Ġblanket": 7437,
      "Ġefficiently": 7438,
      "ĠRussia": 7439,
      "Ġprinciples": 7440,
      "looking": 7441,
      "Ġexpanding": 7442,
      "Ġembarrassing": 7443,
      "Ġpublished": 7444,
      "Ġeventually": 7445,
      "Ġninety": 7446,
      "ĠAgain": 7447,
      "Ġadults": 7448,
      "Ġcontains": 7449,
      "Ġslightly": 7450,
      "Ġignore": 7451,
      "Ġyoga": 7452,
      "Ġinjured": 7453,
      "ĠDisney": 7454,
      "Ġrugby": 7455,
      "Ġpassionate": 7456,
      "Ġnaughty": 7457,
      "Ġnegative": 7458,
      "Ġexecut": 7459,
      "ĠJean": 7460,
      "Ġcomplexion": 7461,
      "Ġtroubles": 7462,
      "Ġtextbooks": 7463,
      "ĠObama": 7464,
      "Ġmystery": 7465,
      "Ġbuttons": 7466,
      "Ġvictim": 7467,
      "Ġenthusiastic": 7468,
      "Ġbrochure": 7469,
      "revocable": 7470,
      "Ġocean": 7471,
      "Ġcontrary": 7472,
      "Ġmathematics": 7473,
      "ĠGermany": 7474,
      "ĠMusic": 7475,
      "ĠDiana": 7476,
      "Ġpamph": 7477,
      "Ġpregnant": 7478,
      "ĠHoliday": 7479,
      "Ġdozens": 7480,
      "ĠContinued": 7481,
      "ĠMargaret": 7482,
      "ĠCEO": 7483,
      "ĠFlorida": 7484,
      "ĠTraveller": 7485,
      "Ġointment": 7486,
      "ĠTodd": 7487,
      "ĠTitanic": 7488,
      "Ġswollen": 7489,
      "Ġsymbol": 7490,
      "ĠSeattle": 7491,
      "26": 7492,
      "39": 7493,
      "77": 7494,
      "78": 7495,
      "98": 7496,
      "AM": 7497,
      "CC": 7498,
      "II": 7499,
      "KE": 7500,
      "OB": 7501,
      "RE": 7502,
      "YZ": 7503,
      "aire": 7504,
      "bon": 7505,
      "dom": 7506,
      "fill": 7507,
      "gom": 7508,
      "gue": 7509,
      "nam": 7510,
      "oh": 7511,
      "put": 7512,
      "sir": 7513,
      "uous": 7514,
      "ucc": 7515,
      "vest": 7516,
      "well": 7517,
      "wear": 7518,
      "watch": 7519,
      "zes": 7520,
      "Ġted": 7521,
      "Ġtap": 7522,
      "oul": 7523,
      "Ġsour": 7524,
      "ĠIQ": 7525,
      "Ġwars": 7526,
      "Ġyen": 7527,
      "real": 7528,
      "rets": 7529,
      "Ġmouse": 7530,
      "Ġmaker": 7531,
      "Ġmignon": 7532,
      "onese": 7533,
      "onents": 7534,
      "Ġhel": 7535,
      "Ġbiz": 7536,
      "Ġfellow": 7537,
      "Ġfingers": 7538,
      "Ġdeck": 7539,
      "Ġdiss": 7540,
      "Ġdiction": 7541,
      "Ġping": 7542,
      "Ġpra": 7543,
      "Ġpier": 7544,
      "Ġlag": 7545,
      "Ġlous": 7546,
      "Ġloun": 7547,
      "Ġobs": 7548,
      "Ġnerve": 7549,
      "omes": 7550,
      "aron": 7551,
      "arry": 7552,
      "ĠTour": 7553,
      "ĠTower": 7554,
      "eday": 7555,
      "Ġitiner": 7556,
      "ĠThrough": 7557,
      "ician": 7558,
      "Ġep": 7559,
      "ĠHill": 7560,
      "Ġmel": 7561,
      "ching": 7562,
      "rific": 7563,
      "ĠOops": 7564,
      "elry": 7565,
      "Ġstroke": 7566,
      "ĠMust": 7567,
      "Ġgosh": 7568,
      "Ġshared": 7569,
      "Ġshorth": 7570,
      "Ġshorter": 7571,
      "ĠCV": 7572,
      "ĠComm": 7573,
      "ĠCross": 7574,
      "Ġking": 7575,
      "ĠDor": 7576,
      "ĠDuring": 7577,
      "lyn": 7578,
      "usting": 7579,
      "ĠBig": 7580,
      "ĠBeck": 7581,
      "ĠBroad": 7582,
      "Ġjack": 7583,
      "Ġwhe": 7584,
      "Ġwhisk": 7585,
      "ĠNine": 7586,
      "Ġsund": 7587,
      "Ġchill": 7588,
      "Ġchairs": 7589,
      "Ġexquis": 7590,
      "Ġsomehow": 7591,
      "ĠLing": 7592,
      "ĠLab": 7593,
      "ĠLucky": 7594,
      "Ġoral": 7595,
      "Ġuses": 7596,
      "ula": 7597,
      "ellery": 7598,
      "romise": 7599,
      "Ġspr": 7600,
      "Ġspacious": 7601,
      "ĠEll": 7602,
      "ĠEgy": 7603,
      "ainted": 7604,
      "aste": 7605,
      "ĠPick": 7606,
      "ĠPizza": 7607,
      "Ġcompared": 7608,
      "ĠFe": 7609,
      "ĠFriend": 7610,
      "ĠFoster": 7611,
      "ĠJord": 7612,
      "Ġconcept": 7613,
      "unci": 7614,
      "ĠRet": 7615,
      "ĠHealth": 7616,
      "Ġvolleyball": 7617,
      "agging": 7618,
      "Ġintersection": 7619,
      "Ġoverhead": 7620,
      "cket": 7621,
      "akers": 7622,
      "Ġadapt": 7623,
      "ptoms": 7624,
      "Ġguard": 7625,
      "abeth": 7626,
      "Ġ2000": 7627,
      "angers": 7628,
      "Ġbrake": 7629,
      "Ġpartners": 7630,
      "Ġflood": 7631,
      "Ġresource": 7632,
      "Ġintroverted": 7633,
      "Ġunn": 7634,
      "Ġbecomes": 7635,
      "Ġschem": 7636,
      "ĠInn": 7637,
      "Ġasks": 7638,
      "ĠWhenever": 7639,
      "Ġdehyd": 7640,
      "ointing": 7641,
      "Ġrecip": 7642,
      "ĠHigh": 7643,
      "Ġclassified": 7644,
      "Ġunderstood": 7645,
      "ĠRead": 7646,
      "Ġdifferences": 7647,
      "ĠStay": 7648,
      "ĠStill": 7649,
      "cloth": 7650,
      "Ġmale": 7651,
      "Ġ55": 7652,
      "ĠKitty": 7653,
      "Ġremittance": 7654,
      "Ġsalty": 7655,
      "Ġwatches": 7656,
      "Ġlearner": 7657,
      "Ġinvoking": 7658,
      "Ġrelatively": 7659,
      "Ġdeserved": 7660,
      "Ġimportance": 7661,
      "Ġcleared": 7662,
      "Ġraw": 7663,
      "Ġemph": 7664,
      "Ġinsured": 7665,
      "onsider": 7666,
      "Ġboots": 7667,
      "Ġmatt": 7668,
      "Ġlists": 7669,
      "Ġcostumes": 7670,
      "Ġfridge": 7671,
      "Ġbeautifully": 7672,
      "Ġchildhood": 7673,
      "grad": 7674,
      "Ġconserv": 7675,
      "Ġconsign": 7676,
      "ĠWhole": 7677,
      "Ġacqu": 7678,
      "Ġextend": 7679,
      "Ġinterviewed": 7680,
      "Ġbanker": 7681,
      "Ġsurround": 7682,
      "Ġcorn": 7683,
      "Ġinstit": 7684,
      "Ġcooker": 7685,
      "Ġvisitor": 7686,
      "Ġhealthier": 7687,
      "Ġvacancy": 7688,
      "Ġshorts": 7689,
      "Ġmedia": 7690,
      "proof": 7691,
      "Ġbegins": 7692,
      "Ġconfusing": 7693,
      "Ġreported": 7694,
      "Ġespresso": 7695,
      "Ġreporter": 7696,
      "Ġcoverage": 7697,
      "Ġpurs": 7698,
      "Ġpurple": 7699,
      "Ġtaxes": 7700,
      "ĠChristian": 7701,
      "Ġcooler": 7702,
      "ruit": 7703,
      "Ġdishonest": 7704,
      "Ġattendance": 7705,
      "inson": 7706,
      "Ġproviding": 7707,
      "Ġconditioner": 7708,
      "Ġmagic": 7709,
      "Ġworthwhile": 7710,
      "minals": 7711,
      "paid": 7712,
      "Ġmatched": 7713,
      "ĠComput": 7714,
      "Ġhunt": 7715,
      "Ġelectrical": 7716,
      "Ġintroduction": 7717,
      "Ġpercentage": 7718,
      "ĠTrading": 7719,
      "Ġimproved": 7720,
      "Ġgrandma": 7721,
      "ĠMostly": 7722,
      "Ġcompetent": 7723,
      "Ġ110": 7724,
      "Ġattracted": 7725,
      "Ġkiller": 7726,
      "Ġconnections": 7727,
      "Ġpurchasing": 7728,
      "Ġtaller": 7729,
      "Ġgrapes": 7730,
      "Ġaccidentally": 7731,
      "Ġ180": 7732,
      "Ġcelebration": 7733,
      "Ġpolling": 7734,
      "Ġcolleague": 7735,
      "screen": 7736,
      "Ġquarters": 7737,
      "Ġinvolves": 7738,
      "ĠArm": 7739,
      "ĠArt": 7740,
      "ĠAustralian": 7741,
      "Ġbuddy": 7742,
      "Ġbrakes": 7743,
      "ĠSeven": 7744,
      "Ġexhibits": 7745,
      "Ġexpression": 7746,
      "ĠXYZ": 7747,
      "Ġwrapped": 7748,
      "ĠCanadian": 7749,
      "ĠAccounting": 7750,
      "Ġspoil": 7751,
      "Ġloads": 7752,
      "Ġadmission": 7753,
      "Ġsafely": 7754,
      "Ġchallenges": 7755,
      "Ġsurfing": 7756,
      "ĠDevelop": 7757,
      "Ġconstantly": 7758,
      "Ġcandidates": 7759,
      "Ġtornad": 7760,
      "Ġpalm": 7761,
      "Ġcontribution": 7762,
      "Ġcontribute": 7763,
      "Ġestablished": 7764,
      "Ġharmful": 7765,
      "Ġhomes": 7766,
      "Ġnicer": 7767,
      "Ġoccasionally": 7768,
      "Ġstatus": 7769,
      "ĠFrancisco": 7770,
      "Ġbanan": 7771,
      "Ġflew": 7772,
      "Ġoutdoors": 7773,
      "Ġcheques": 7774,
      "Ġannounced": 7775,
      "ĠBuilding": 7776,
      "ĠRoman": 7777,
      "Ġcirculation": 7778,
      "Ġpilgri": 7779,
      "Ġinquiry": 7780,
      "Ġscientific": 7781,
      "Ġknocked": 7782,
      "ĠKorean": 7783,
      "Ġprinciple": 7784,
      "Ġcuis": 7785,
      "ĠWilliams": 7786,
      "Ġcosmetics": 7787,
      "Ġembarrassed": 7788,
      "Ġmulti": 7789,
      "ĠCPR": 7790,
      "Ġcrackers": 7791,
      "Ġmechanical": 7792,
      "Ġpersu": 7793,
      "Ġinfo": 7794,
      "ĠOscar": 7795,
      "Ġshift": 7796,
      "Ġsummers": 7797,
      "Ġshouting": 7798,
      "Ġstewardess": 7799,
      "ĠMontgom": 7800,
      "Ġporterhouse": 7801,
      "Ġrapid": 7802,
      "Ġfiancee": 7803,
      "Ġpronunci": 7804,
      "Ġtemporary": 7805,
      "Ġfascinating": 7806,
      "ĠOaks": 7807,
      "Ġwholesale": 7808,
      "Ġensure": 7809,
      "Ġbracelet": 7810,
      "Ġsymptoms": 7811,
      "Ġnutrition": 7812,
      "Ġankle": 7813,
      "ĠHonestly": 7814,
      "Ġlifestyle": 7815,
      "Ġcircumstances": 7816,
      "Ġsomeday": 7817,
      "ĠCantonese": 7818,
      "Ġunexpected": 7819,
      "Ġsneakers": 7820,
      "ĠCheques": 7821,
      "ĠElizabeth": 7822,
      "Ġlounge": 7823,
      "Ġshorthand": 7824,
      "ĠEgypt": 7825,
      "ĠJordan": 7826,
      "Ġdehydrated": 7827,
      "Ġemphas": 7828,
      "ĠMontgomery": 7829,
      "21": 7830,
      "76": 7831,
      "Al": 7832,
      "All": 7833,
      "Every": 7834,
      "Your": 7835,
      "corn": 7836,
      "eem": 7837,
      "fly": 7838,
      "ka": 7839,
      "len": 7840,
      "lict": 7841,
      "nity": 7842,
      "pong": 7843,
      "rot": 7844,
      "taking": 7845,
      "va": 7846,
      "virus": 7847,
      "wo": 7848,
      "wide": 7849,
      "yram": 7850,
      "ouquet": 7851,
      "Ġast": 7852,
      "ĠIKE": 7853,
      "Ġwid": 7854,
      "Ġwave": 7855,
      "Ġmic": 7856,
      "Ġmicro": 7857,
      "atmeal": 7858,
      "Ġcert": 7859,
      "Ġbind": 7860,
      "Ġbaker": 7861,
      "Ġbouquet": 7862,
      "Ġful": 7863,
      "Ġfert": 7864,
      "Ġpatch": 7865,
      "Ġparent": 7866,
      "Ġports": 7867,
      "Ġloo": 7868,
      "Ġlane": 7869,
      "Ġgig": 7870,
      "Ġnomin": 7871,
      "ĠWar": 7872,
      "ĠWars": 7873,
      "ĠWord": 7874,
      "ĠTon": 7875,
      "ĠTea": 7876,
      "ĠTerry": 7877,
      "ĠTiger": 7878,
      "otic": 7879,
      "icate": 7880,
      "icians": 7881,
      "Ġforced": 7882,
      "Ġrely": 7883,
      "Ġreject": 7884,
      "oog": 7885,
      "Ġdose": 7886,
      "Ġmeg": 7887,
      "Ġyourselves": 7888,
      "outs": 7889,
      "ĠSal": 7890,
      "ĠOld": 7891,
      "eland": 7892,
      "Ġstiff": 7893,
      "ĠMil": 7894,
      "ĠMoney": 7895,
      "ĠMother": 7896,
      "Ġseated": 7897,
      "Ġseasons": 7898,
      "Ġshade": 7899,
      "Ġshining": 7900,
      "ĠCustom": 7901,
      "ĠDone": 7902,
      "ĠDig": 7903,
      "sticks": 7904,
      "thony": 7905,
      "Ġabilities": 7906,
      "ĠBer": 7907,
      "ĠBal": 7908,
      "ĠBud": 7909,
      "Ġsocks": 7910,
      "Ġug": 7911,
      "Ġsuck": 7912,
      "Ġsuited": 7913,
      "anks": 7914,
      "opping": 7915,
      "ophy": 7916,
      "urities": 7917,
      "Ġcomments": 7918,
      "raham": 7919,
      "ilty": 7920,
      "ulated": 7921,
      "ĠGarden": 7922,
      "ells": 7923,
      "ureau": 7924,
      "Ġamend": 7925,
      "Ġspa": 7926,
      "Ġspin": 7927,
      "Ġspoke": 7928,
      "Ġspray": 7929,
      "ĠPan": 7930,
      "ĠPort": 7931,
      "venues": 7932,
      "Ġrot": 7933,
      "Ġrings": 7934,
      "ĠFar": 7935,
      "ĠField": 7936,
      "ĠFeel": 7937,
      "ĠJac": 7938,
      "Ġconvey": 7939,
      "unter": 7940,
      "ĠRon": 7941,
      "ĠRiver": 7942,
      "ĠRachel": 7943,
      "Ġclar": 7944,
      "Ġcliff": 7945,
      "Ġquitting": 7946,
      "Ġquote": 7947,
      "resp": 7948,
      "ĠAndrew": 7949,
      "olk": 7950,
      "olic": 7951,
      "Ġovercome": 7952,
      "Ġweekly": 7953,
      "Ġsheep": 7954,
      "ems": 7955,
      "Ġdaytime": 7956,
      "Ġprev": 7957,
      "bert": 7958,
      "Ġcourage": 7959,
      "Ġroommates": 7960,
      "ĠTherefore": 7961,
      "Ġguilty": 7962,
      "Ġhappiness": 7963,
      "Ġexpense": 7964,
      "Ġresch": 7965,
      "Ġintense": 7966,
      "arker": 7967,
      "Ġunable": 7968,
      "Ġmanic": 7969,
      "Ġaccent": 7970,
      "Ġaccum": 7971,
      "Ġaccidents": 7972,
      "ĠUgh": 7973,
      "ĠExcept": 7974,
      "ĠExchange": 7975,
      "Ġwherever": 7976,
      "Ġleaf": 7977,
      "Ġleak": 7978,
      "Ġdisk": 7979,
      "Ġfined": 7980,
      "Ġpharm": 7981,
      "onds": 7982,
      "irect": 7983,
      "Ġgramm": 7984,
      "Ġordering": 7985,
      "Ġhandy": 7986,
      "Ġhighlight": 7987,
      "ĠKar": 7988,
      "Ġsalaries": 7989,
      "week": 7990,
      "Ġrestrict": 7991,
      "ixed": 7992,
      "ĠNowadays": 7993,
      "Ġspecies": 7994,
      "Ġpersons": 7995,
      "Ġearrings": 7996,
      "Ġstopping": 7997,
      "Ġcostume": 7998,
      "Ġlively": 7999
    },
    "merges": [
      [
        "Ġ",
        "t"
      ],
      [
        "Ġ",
        "."
      ],
      [
        "e",
        "r"
      ],
      [
        "č",
        "Ċ"
      ],
      [
        "a",
        "n"
      ],
      [
        "Ġ",
        "<"
      ],
      [
        "o",
        "u"
      ],
      [
        "i",
        "s"
      ],
      [
        "i",
        "n"
      ],
      [
        "Ġt",
        "h"
      ],
      [
        "Ġ",
        "a"
      ],
      [
        "u",
        "s"
      ],
      [
        "a",
        "s"
      ],
      [
        "Ġ",
        "s"
      ],
      [
        "Ġ",
        "I"
      ],
      [
        "Ġ",
        "w"
      ],
      [
        "an",
        "t"
      ],
      [
        "Ġ",
        "y"
      ],
      [
        "Ġ",
        ","
      ],
      [
        "us",
        "er"
      ],
      [
        "is",
        "t"
      ],
      [
        "Ġy",
        "ou"
      ],
      [
        "as",
        "s"
      ],
      [
        "r",
        "e"
      ],
      [
        "ist",
        "ant"
      ],
      [
        "ass",
        "istant"
      ],
      [
        "Ġ",
        "m"
      ],
      [
        "a",
        "t"
      ],
      [
        "o",
        "n"
      ],
      [
        "Ġ",
        "c"
      ],
      [
        "Ġ",
        "h"
      ],
      [
        "Ġth",
        "e"
      ],
      [
        "Ġt",
        "o"
      ],
      [
        "Ġ",
        "b"
      ],
      [
        "Ġ",
        "?"
      ],
      [
        "l",
        "l"
      ],
      [
        "i",
        "t"
      ],
      [
        "o",
        "r"
      ],
      [
        "Ġ",
        "f"
      ],
      [
        "Ġ",
        "d"
      ],
      [
        "in",
        "g"
      ],
      [
        "e",
        "n"
      ],
      [
        "e",
        "s"
      ],
      [
        "Ġ",
        "p"
      ],
      [
        "Ġ",
        "l"
      ],
      [
        "Ġ",
        "g"
      ],
      [
        "v",
        "e"
      ],
      [
        "Ġ",
        "an"
      ],
      [
        "Ġ",
        "o"
      ],
      [
        "Ġ",
        "n"
      ],
      [
        "o",
        "m"
      ],
      [
        "Ġ",
        "W"
      ],
      [
        "a",
        "r"
      ],
      [
        "o",
        "w"
      ],
      [
        "e",
        "t"
      ],
      [
        "Ġ",
        "T"
      ],
      [
        "e",
        "d"
      ],
      [
        "Ġ",
        "in"
      ],
      [
        "a",
        "y"
      ],
      [
        "Ġ",
        "it"
      ],
      [
        "l",
        "e"
      ],
      [
        "Ġh",
        "a"
      ],
      [
        "ĠT",
        "h"
      ],
      [
        "Ġo",
        "f"
      ],
      [
        "Ġ",
        "is"
      ],
      [
        "Ġan",
        "d"
      ],
      [
        "â",
        "Ģ"
      ],
      [
        "Ġ",
        "âĢ"
      ],
      [
        "o",
        "t"
      ],
      [
        "Ġ",
        "Y"
      ],
      [
        "k",
        "e"
      ],
      [
        "i",
        "c"
      ],
      [
        "ĠâĢ",
        "Ļ"
      ],
      [
        "Ġb",
        "e"
      ],
      [
        "Ġf",
        "or"
      ],
      [
        "Ġ",
        "čĊ"
      ],
      [
        "'",
        "s"
      ],
      [
        "er",
        "e"
      ],
      [
        "l",
        "d"
      ],
      [
        "Ġ",
        "re"
      ],
      [
        "o",
        "o"
      ],
      [
        "Ġ",
        "e"
      ],
      [
        "Ġ",
        "on"
      ],
      [
        "Ġ",
        "H"
      ],
      [
        "Ġd",
        "o"
      ],
      [
        "Ġha",
        "ve"
      ],
      [
        "u",
        "t"
      ],
      [
        "g",
        "h"
      ],
      [
        "Ġth",
        "at"
      ],
      [
        "Ġm",
        "e"
      ],
      [
        "h",
        "at"
      ],
      [
        "v",
        "er"
      ],
      [
        "Ġw",
        "e"
      ],
      [
        "i",
        "d"
      ],
      [
        "a",
        "l"
      ],
      [
        "c",
        "h"
      ],
      [
        "ou",
        "ld"
      ],
      [
        "a",
        "ll"
      ],
      [
        "Ġ",
        "A"
      ],
      [
        "Ġl",
        "i"
      ],
      [
        "Ġ",
        "!"
      ],
      [
        "Ġyou",
        "r"
      ],
      [
        "ou",
        "t"
      ],
      [
        "Ġa",
        "re"
      ],
      [
        "gh",
        "t"
      ],
      [
        "Ġ",
        "S"
      ],
      [
        "en",
        "t"
      ],
      [
        "r",
        "i"
      ],
      [
        "Ġc",
        "an"
      ],
      [
        "'",
        "t"
      ],
      [
        "i",
        "m"
      ],
      [
        "i",
        "on"
      ],
      [
        "i",
        "ll"
      ],
      [
        "Ġ",
        "O"
      ],
      [
        "e",
        "l"
      ],
      [
        "Ġs",
        "t"
      ],
      [
        "om",
        "e"
      ],
      [
        "Ġn",
        "e"
      ],
      [
        "Ġ",
        "M"
      ],
      [
        "i",
        "r"
      ],
      [
        "r",
        "o"
      ],
      [
        "Ġm",
        "y"
      ],
      [
        "it",
        "h"
      ],
      [
        "t",
        "er"
      ],
      [
        "ĠI",
        "t"
      ],
      [
        "Ġg",
        "o"
      ],
      [
        "Ġli",
        "ke"
      ],
      [
        "Ġs",
        "e"
      ],
      [
        "Ġs",
        "h"
      ],
      [
        "ĠY",
        "ou"
      ],
      [
        "Ġ",
        "C"
      ],
      [
        "Ġ",
        "k"
      ],
      [
        "a",
        "d"
      ],
      [
        "ĠW",
        "hat"
      ],
      [
        "ĠW",
        "e"
      ],
      [
        "Ġ",
        "D"
      ],
      [
        "l",
        "y"
      ],
      [
        "Ġw",
        "ith"
      ],
      [
        "a",
        "c"
      ],
      [
        "s",
        "t"
      ],
      [
        "oo",
        "d"
      ],
      [
        "Ġth",
        "is"
      ],
      [
        "t",
        "h"
      ],
      [
        "n",
        "d"
      ],
      [
        "s",
        "e"
      ],
      [
        "us",
        "t"
      ],
      [
        "Ġa",
        "b"
      ],
      [
        "a",
        "m"
      ],
      [
        "Ġ",
        "B"
      ],
      [
        "Ġ",
        "j"
      ],
      [
        "in",
        "k"
      ],
      [
        "ou",
        "r"
      ],
      [
        "all",
        "y"
      ],
      [
        "Ġw",
        "h"
      ],
      [
        "Ġs",
        "o"
      ],
      [
        "Ġ",
        "N"
      ],
      [
        "ĠY",
        "es"
      ],
      [
        "i",
        "f"
      ],
      [
        "ver",
        "y"
      ],
      [
        "Ġa",
        "t"
      ],
      [
        "a",
        "ke"
      ],
      [
        "Ġab",
        "out"
      ],
      [
        "Ġ",
        "u"
      ],
      [
        "e",
        "c"
      ],
      [
        "Ġs",
        "u"
      ],
      [
        "Ġc",
        "h"
      ],
      [
        "Ġw",
        "ill"
      ],
      [
        "e",
        "a"
      ],
      [
        "Ġth",
        "ink"
      ],
      [
        "Ġd",
        "on"
      ],
      [
        "r",
        "y"
      ],
      [
        "Ġg",
        "et"
      ],
      [
        "Ġk",
        "n"
      ],
      [
        "Ġn",
        "ot"
      ],
      [
        "'",
        "m"
      ],
      [
        "an",
        "k"
      ],
      [
        "o",
        "p"
      ],
      [
        "c",
        "e"
      ],
      [
        "Ġkn",
        "ow"
      ],
      [
        "Ġw",
        "or"
      ],
      [
        "Ġh",
        "e"
      ],
      [
        "ĠTh",
        "at"
      ],
      [
        "ĠTh",
        "e"
      ],
      [
        "oo",
        "k"
      ],
      [
        "u",
        "r"
      ],
      [
        "Ġw",
        "as"
      ],
      [
        "o",
        "re"
      ],
      [
        "Ġb",
        "ut"
      ],
      [
        "es",
        "t"
      ],
      [
        "Ġse",
        "e"
      ],
      [
        "ĠH",
        "ow"
      ],
      [
        "ic",
        "e"
      ],
      [
        "b",
        "le"
      ],
      [
        "Ġa",
        "s"
      ],
      [
        "Ġth",
        "ere"
      ],
      [
        "ĠW",
        "h"
      ],
      [
        "as",
        "e"
      ],
      [
        "en",
        "d"
      ],
      [
        "Ġe",
        "x"
      ],
      [
        "Ġs",
        "ome"
      ],
      [
        "Ġc",
        "om"
      ],
      [
        "r",
        "a"
      ],
      [
        "p",
        "p"
      ],
      [
        "ri",
        "ght"
      ],
      [
        "im",
        "e"
      ],
      [
        "Ġa",
        "ll"
      ],
      [
        "g",
        "e"
      ],
      [
        "Ġ",
        "L"
      ],
      [
        "in",
        "d"
      ],
      [
        "Ġw",
        "hat"
      ],
      [
        "Ġw",
        "ant"
      ],
      [
        "'",
        "ll"
      ],
      [
        "i",
        "ght"
      ],
      [
        "at",
        "ion"
      ],
      [
        "Ġan",
        "y"
      ],
      [
        "Ġa",
        "l"
      ],
      [
        "Ġg",
        "ood"
      ],
      [
        "Ġ",
        "or"
      ],
      [
        "Ġon",
        "e"
      ],
      [
        "Ġj",
        "ust"
      ],
      [
        "Ġp",
        "ro"
      ],
      [
        "i",
        "l"
      ],
      [
        "Ġ",
        "right"
      ],
      [
        "Ġw",
        "ould"
      ],
      [
        "Ġ",
        "very"
      ],
      [
        "Ġ",
        "us"
      ],
      [
        "ar",
        "d"
      ],
      [
        "u",
        "l"
      ],
      [
        "ar",
        "t"
      ],
      [
        "Ġt",
        "ime"
      ],
      [
        "Ġ",
        "G"
      ],
      [
        "ĠD",
        "o"
      ],
      [
        "ĠWe",
        "ll"
      ],
      [
        "i",
        "ve"
      ],
      [
        "le",
        "ase"
      ],
      [
        "e",
        "ll"
      ],
      [
        "n",
        "t"
      ],
      [
        "ĠTh",
        "ank"
      ],
      [
        "on",
        "e"
      ],
      [
        "r",
        "om"
      ],
      [
        "an",
        "d"
      ],
      [
        "ĠN",
        "o"
      ],
      [
        "Ġwor",
        "k"
      ],
      [
        "es",
        "s"
      ],
      [
        "Ġne",
        "ed"
      ],
      [
        "Ġp",
        "l"
      ],
      [
        "Ġ",
        "out"
      ],
      [
        "q",
        "u"
      ],
      [
        "Ġto",
        "o"
      ],
      [
        "c",
        "t"
      ],
      [
        "Ġre",
        "ally"
      ],
      [
        "u",
        "re"
      ],
      [
        "Ġh",
        "ere"
      ],
      [
        "u",
        "ch"
      ],
      [
        "in",
        "e"
      ],
      [
        "at",
        "e"
      ],
      [
        "on",
        "g"
      ],
      [
        "er",
        "s"
      ],
      [
        "ĠO",
        "h"
      ],
      [
        "Ġa",
        "m"
      ],
      [
        "Ġu",
        "p"
      ],
      [
        "Ġs",
        "p"
      ],
      [
        "Ġm",
        "uch"
      ],
      [
        "Ġ",
        "E"
      ],
      [
        "a",
        "in"
      ],
      [
        "as",
        "t"
      ],
      [
        "m",
        "ent"
      ],
      [
        "Ġ",
        "P"
      ],
      [
        "Ġgo",
        "ing"
      ],
      [
        "d",
        "ay"
      ],
      [
        "Ġd",
        "id"
      ],
      [
        "Ġl",
        "ook"
      ],
      [
        "ĠB",
        "ut"
      ],
      [
        "h",
        "er"
      ],
      [
        "or",
        "t"
      ],
      [
        "Ġthe",
        "y"
      ],
      [
        "Ġ",
        "our"
      ],
      [
        "Ġt",
        "ake"
      ],
      [
        "Ġ",
        "if"
      ],
      [
        "an",
        "y"
      ],
      [
        "ac",
        "k"
      ],
      [
        "Ġc",
        "o"
      ],
      [
        "v",
        "en"
      ],
      [
        "o",
        "s"
      ],
      [
        "e",
        "p"
      ],
      [
        "ou",
        "nd"
      ],
      [
        "Ġ",
        "r"
      ],
      [
        "Ġf",
        "rom"
      ],
      [
        "Ġcom",
        "p"
      ],
      [
        "Ġ",
        "F"
      ],
      [
        "e",
        "ar"
      ],
      [
        "i",
        "g"
      ],
      [
        "Ġp",
        "lease"
      ],
      [
        "Ġ",
        "J"
      ],
      [
        "Ġc",
        "on"
      ],
      [
        "u",
        "n"
      ],
      [
        "el",
        "p"
      ],
      [
        "Ġh",
        "elp"
      ],
      [
        "Ġsh",
        "ould"
      ],
      [
        "ay",
        "s"
      ],
      [
        "Ġf",
        "e"
      ],
      [
        "Ġn",
        "ow"
      ],
      [
        "Ġa",
        "f"
      ],
      [
        "Ġ",
        "R"
      ],
      [
        "a",
        "re"
      ],
      [
        "Ġl",
        "o"
      ],
      [
        "i",
        "e"
      ],
      [
        "re",
        "at"
      ],
      [
        "Ġc",
        "l"
      ],
      [
        "u",
        "m"
      ],
      [
        "Ġm",
        "o"
      ],
      [
        "is",
        "h"
      ],
      [
        "Ġof",
        "f"
      ],
      [
        "Ġ",
        "qu"
      ],
      [
        "am",
        "e"
      ],
      [
        "Ġm",
        "ore"
      ],
      [
        "'",
        "ve"
      ],
      [
        "Ġthe",
        "m"
      ],
      [
        "k",
        "ing"
      ],
      [
        "Ġne",
        "w"
      ],
      [
        "ĠH",
        "e"
      ],
      [
        "re",
        "s"
      ],
      [
        "Ġg",
        "ot"
      ],
      [
        "Ġbe",
        "en"
      ],
      [
        "h",
        "ing"
      ],
      [
        "it",
        "e"
      ],
      [
        "ic",
        "k"
      ],
      [
        "th",
        "ing"
      ],
      [
        "'",
        "re"
      ],
      [
        "Ġh",
        "ow"
      ],
      [
        "Ġ",
        "1"
      ],
      [
        "it",
        "y"
      ],
      [
        "ĠA",
        "nd"
      ],
      [
        "o",
        "b"
      ],
      [
        "Ġ",
        "v"
      ],
      [
        "n",
        "ing"
      ],
      [
        "Ġa",
        "g"
      ],
      [
        "Ġ",
        "ro"
      ],
      [
        "Ġm",
        "ake"
      ],
      [
        "re",
        "e"
      ],
      [
        "ec",
        "t"
      ],
      [
        "ĠI",
        "s"
      ],
      [
        "ĠC",
        "an"
      ],
      [
        "Ġn",
        "o"
      ],
      [
        "om",
        "et"
      ],
      [
        "o",
        "l"
      ],
      [
        "Ġc",
        "ould"
      ],
      [
        "Ġ.",
        "."
      ],
      [
        "i",
        "es"
      ],
      [
        "ou",
        "nt"
      ],
      [
        "e",
        "op"
      ],
      [
        "ĠO",
        "K"
      ],
      [
        "us",
        "e"
      ],
      [
        "a",
        "g"
      ],
      [
        "eop",
        "le"
      ],
      [
        "'",
        "d"
      ],
      [
        "Ġ..",
        "."
      ],
      [
        "Ġin",
        "ter"
      ],
      [
        "ou",
        "s"
      ],
      [
        "Ġb",
        "y"
      ],
      [
        "Ġo",
        "ver"
      ],
      [
        "Ġwh",
        "en"
      ],
      [
        "p",
        "er"
      ],
      [
        "h",
        "e"
      ],
      [
        "e",
        "k"
      ],
      [
        "Ġh",
        "as"
      ],
      [
        "Ġt",
        "w"
      ],
      [
        "c",
        "k"
      ],
      [
        "Ġ",
        "en"
      ],
      [
        "r",
        "ow"
      ],
      [
        "Ġl",
        "ot"
      ],
      [
        "Ġp",
        "eople"
      ],
      [
        "Ġh",
        "er"
      ],
      [
        "Ġb",
        "us"
      ],
      [
        "Ġb",
        "u"
      ],
      [
        "Ġt",
        "r"
      ],
      [
        "ac",
        "t"
      ],
      [
        "Ġwe",
        "ek"
      ],
      [
        "Ġe",
        "very"
      ],
      [
        "Ġthe",
        "n"
      ],
      [
        "Ġc",
        "all"
      ],
      [
        "Ġsh",
        "e"
      ],
      [
        "ĠL",
        "et"
      ],
      [
        "Ġsu",
        "re"
      ],
      [
        "Ġs",
        "a"
      ],
      [
        "ou",
        "gh"
      ],
      [
        "Ġc",
        "ome"
      ],
      [
        "0",
        "0"
      ],
      [
        "Ġs",
        "omet"
      ],
      [
        "Ġt",
        "ell"
      ],
      [
        "e",
        "m"
      ],
      [
        "Ġa",
        "r"
      ],
      [
        "ir",
        "st"
      ],
      [
        "or",
        "ry"
      ],
      [
        "d",
        "er"
      ],
      [
        "ĠC",
        "h"
      ],
      [
        "Ġwe",
        "ll"
      ],
      [
        "Ġth",
        "ing"
      ],
      [
        "a",
        "ch"
      ],
      [
        "Ġb",
        "et"
      ],
      [
        "f",
        "er"
      ],
      [
        "Ġha",
        "d"
      ],
      [
        "ĠS",
        "o"
      ],
      [
        "a",
        "ble"
      ],
      [
        "Ġ",
        "V"
      ],
      [
        "ĠG",
        "ood"
      ],
      [
        "Ġg",
        "reat"
      ],
      [
        "Ġy",
        "ear"
      ],
      [
        "ĠM",
        "ay"
      ],
      [
        "Ġaf",
        "ter"
      ],
      [
        "a",
        "ge"
      ],
      [
        "Ġd",
        "ay"
      ],
      [
        "Ġb",
        "ack"
      ],
      [
        "u",
        "d"
      ],
      [
        "Ġl",
        "ong"
      ],
      [
        "Ġdo",
        "es"
      ],
      [
        "an",
        "ce"
      ],
      [
        "ĠA",
        "re"
      ],
      [
        "v",
        "ing"
      ],
      [
        "x",
        "t"
      ],
      [
        "Ġp",
        "re"
      ],
      [
        "a",
        "k"
      ],
      [
        "ea",
        "h"
      ],
      [
        "ĠM",
        "y"
      ],
      [
        "th",
        "er"
      ],
      [
        "b",
        "er"
      ],
      [
        "id",
        "e"
      ],
      [
        "Ġw",
        "ay"
      ],
      [
        "ble",
        "m"
      ],
      [
        "ĠThe",
        "y"
      ],
      [
        "ĠWh",
        "y"
      ],
      [
        "Ġpro",
        "blem"
      ],
      [
        "f",
        "f"
      ],
      [
        "o",
        "y"
      ],
      [
        "c",
        "c"
      ],
      [
        "Ġh",
        "im"
      ],
      [
        "Ġc",
        "our"
      ],
      [
        "it",
        "t"
      ],
      [
        "Ġs",
        "ir"
      ],
      [
        "Ġl",
        "et"
      ],
      [
        "Ġj",
        "ob"
      ],
      [
        "ĠH",
        "a"
      ],
      [
        "ic",
        "h"
      ],
      [
        "Ġw",
        "on"
      ],
      [
        "ĠI",
        "f"
      ],
      [
        "Ġa",
        "pp"
      ],
      [
        "Ġro",
        "om"
      ],
      [
        "ĠTh",
        "ere"
      ],
      [
        "Ġto",
        "day"
      ],
      [
        "Ġp",
        "r"
      ],
      [
        "Ġf",
        "irst"
      ],
      [
        "Ġ",
        "ll"
      ],
      [
        "Ġtw",
        "o"
      ],
      [
        "Ġa",
        "d"
      ],
      [
        "ĠTh",
        "is"
      ],
      [
        "Ġg",
        "ive"
      ],
      [
        "Ġon",
        "ly"
      ],
      [
        "p",
        "t"
      ],
      [
        "s",
        "o"
      ],
      [
        "u",
        "ally"
      ],
      [
        "p",
        "ort"
      ],
      [
        "ĠH",
        "ere"
      ],
      [
        "Ġsomet",
        "hing"
      ],
      [
        "Ġg",
        "u"
      ],
      [
        "ar",
        "y"
      ],
      [
        "ĠM",
        "r"
      ],
      [
        "ac",
        "e"
      ],
      [
        "Ġs",
        "ay"
      ],
      [
        "Ġt",
        "ry"
      ],
      [
        "Ġo",
        "ther"
      ],
      [
        "a",
        "b"
      ],
      [
        "Ġm",
        "any"
      ],
      [
        "Ġk",
        "ind"
      ],
      [
        "Ġ",
        "2"
      ],
      [
        "re",
        "d"
      ],
      [
        "Ġp",
        "ay"
      ],
      [
        "e",
        "f"
      ],
      [
        "Ġ",
        "im"
      ],
      [
        "ĠY",
        "eah"
      ],
      [
        "Ġcour",
        "se"
      ],
      [
        "an",
        "g"
      ],
      [
        "res",
        "s"
      ],
      [
        "t",
        "y"
      ],
      [
        "Ġ",
        "'"
      ],
      [
        "b",
        "e"
      ],
      [
        "ri",
        "end"
      ],
      [
        "ow",
        "n"
      ],
      [
        "or",
        "ning"
      ],
      [
        "ĠO",
        "k"
      ],
      [
        "one",
        "y"
      ],
      [
        "Ġfe",
        "el"
      ],
      [
        "Ġb",
        "r"
      ],
      [
        "Ġcomp",
        "any"
      ],
      [
        "ĠThank",
        "s"
      ],
      [
        "oo",
        "l"
      ],
      [
        "Ġp",
        "art"
      ],
      [
        "Ġf",
        "ind"
      ],
      [
        "ĠS",
        "ure"
      ],
      [
        "o",
        "se"
      ],
      [
        "at",
        "er"
      ],
      [
        "u",
        "e"
      ],
      [
        "ot",
        "her"
      ],
      [
        "Ġl",
        "ast"
      ],
      [
        "Ġm",
        "orning"
      ],
      [
        "Ġbet",
        "ter"
      ],
      [
        "Ġs",
        "orry"
      ],
      [
        "an",
        "s"
      ],
      [
        "a",
        "il"
      ],
      [
        "Ġne",
        "xt"
      ],
      [
        "Ġp",
        "er"
      ],
      [
        "Ġany",
        "thing"
      ],
      [
        "Ġf",
        "l"
      ],
      [
        "Ġme",
        "et"
      ],
      [
        "ec",
        "k"
      ],
      [
        "er",
        "t"
      ],
      [
        "Ġdid",
        "n"
      ],
      [
        "Ġha",
        "pp"
      ],
      [
        "Ġal",
        "so"
      ],
      [
        "Ġbu",
        "y"
      ],
      [
        "n",
        "g"
      ],
      [
        "i",
        "al"
      ],
      [
        "Ġc",
        "ar"
      ],
      [
        "Ġt",
        "ra"
      ],
      [
        "Ġex",
        "p"
      ],
      [
        "Ġre",
        "s"
      ],
      [
        "Ġlo",
        "ve"
      ],
      [
        "at",
        "ch"
      ],
      [
        "ad",
        "y"
      ],
      [
        "Ġin",
        "t"
      ],
      [
        "Ġ",
        "ke"
      ],
      [
        "er",
        "v"
      ],
      [
        "ou",
        "ght"
      ],
      [
        "ĠHa",
        "ve"
      ],
      [
        "Ġw",
        "ere"
      ],
      [
        "Ġe",
        "ven"
      ],
      [
        "ar",
        "k"
      ],
      [
        "e",
        "e"
      ],
      [
        "ĠD",
        "on"
      ],
      [
        "Ġth",
        "an"
      ],
      [
        "Ġm",
        "ust"
      ],
      [
        "itt",
        "le"
      ],
      [
        "w",
        "ay"
      ],
      [
        "ig",
        "n"
      ],
      [
        "Ġl",
        "ittle"
      ],
      [
        "ĠW",
        "ould"
      ],
      [
        "Ġu",
        "n"
      ],
      [
        "f",
        "ore"
      ],
      [
        "or",
        "row"
      ],
      [
        "a",
        "use"
      ],
      [
        "an",
[...]
