{
  "version": "1.0",
  "truncation": null,
  "padding": null,
  "added_tokens": [
    {
      "id": 0,
      "content": "<pad>",
      "single_word": false,
      "lstrip": false,
      "rstrip": false,
      "normalized": false,
      "special": true
    },
    {
      "id": 1,
      "content": "<s>",
      "single_word": false,
      "lstrip": false,
      "rstrip": false,
      "normalized": false,
      "special": true
    },
    {
      "id": 2,
      "content": "</s>",
      "single_word": false,
      "lstrip": false,
      "rstrip": false,
      "normalized": false,
      "special": true
    },
    {
      "id": 3,
      "content": "<unk>",
      "single_word": false,
      "lstrip": false,
      "rstrip": false,
      "normalized": false,
      "special": true
    },
    {
      "id": 4,
      "content": "<user>",
      "single_word": false,
      "lstrip": false,
      "rstrip": false,
      "normalized": false,
      "special": true
    },
    {
      "id": 5,
      "content": "<assistant>",
      "single_word": false,
      "lstrip": false,
      "rstrip": false,
      "normalized": false,
      "special": true
    }
  ],
  "normalizer": {
    "type": "NFKC"
  },
  "pre_tokenizer": {
    "type": "ByteLevel",
    "add_prefix_space": false,
    "trim_offsets": true,
    "use_regex": true
  },
  "post_processor": {
    "type": "TemplateProcessing",
    "single": [
      {
        "SpecialToken": {
          "id": "<s>",
          "type_id": 0
        }
      },
      {
        "Sequence": {
          "id": "A",
          "type_id": 0
        }
      },
      {
        "SpecialToken": {
          "id": "</s>",
          "type_id": 0
        }
      }
    ],
    "pair": [
      {
        "SpecialToken": {
          "id": "<s>",
          "type_id": 0
        }
      },
      {
        "Sequence": {
          "id": "A",
          "type_id": 0
        }
      },
      {
        "SpecialToken": {
          "id": "</s>",
          "type_id": 0
        }
      },
      {
        "SpecialToken": {
          "id": "<s>",
          "type_id": 0
        }
      },
      {
        "Sequence": {
          "id": "B",
          "type_id": 0
        }
      },
      {
        "SpecialToken": {
          "id": "</s>",
          "type_id": 0
        }
      }
    ],
    "special_tokens": {
      "</s>": {
        "id": "</s>",
        "ids": [
          2
        ],
        "tokens": [
          "</s>"
        ]
      },
      "<s>": {
        "id": "<s>",
        "ids": [
          1
        ],
        "tokens": [
          "<s>"
        ]
      }
    }
  },
  "decoder": null,
  "model": {
    "type": "BPE",
    "dropout": null,
    "unk_token": "<unk>",
    "continuing_subword_prefix": null,
    "end_of_word_suffix": null,
    "fuse_unk": false,
    "byte_fallback": false,
    "ignore_merges": false,
    "vocab": {
      "<pad>": 0,
      "<s>": 1,
      "</s>": 2,
      "<unk>": 3,
      "<user>": 4,
      "<assistant>": 5,
      "!": 6,
      "\"": 7,
      "#": 8,
      "$": 9,
      "%": 10,
      "&": 11,
      "'": 12,
      "(": 13,
      ")": 14,
      "*": 15,
      "+": 16,
      ",": 17,
      "-": 18,
      ".": 19,
      "/": 20,
      "0": 21,
      "1": 22,
      "2": 23,
      "3": 24,
      "4": 25,
      "5": 26,
      "6": 27,
      "7": 28,
      "8": 29,
      "9": 30,
      ":": 31,
      ";": 32,
      "<": 33,
      "=": 34,
      ">": 35,
      "?": 36,
      "@": 37,
      "A": 38,
      "B": 39,
      "C": 40,
      "D": 41,
      "E": 42,
      "F": 43,
      "G": 44,
      "H": 45,
      "I": 46,
      "J": 47,
      "K": 48,
      "L": 49,
      "M": 50,
      "N": 51,
      "O": 52,
      "P": 53,
      "Q": 54,
      "R": 55,
      "S": 56,
      "T": 57,
      "U": 58,
      "V": 59,
      "W": 60,
      "X": 61,
      "Y": 62,
      "Z": 63,
      "[": 64,
      "\\": 65,
      "]": 66,
      "_": 67,
      "`": 68,
      "a": 69,
      "b": 70,
      "c": 71,
      "d": 72,
      "e": 73,
      "f": 74,
      "g": 75,
      "h": 76,
      "i": 77,
      "j": 78,
      "k": 79,
      "l": 80,
      "m": 81,
      "n": 82,
      "o": 83,
      "p": 84,
      "q": 85,
      "r": 86,
      "s": 87,
      "t": 88,
      "u": 89,
      "v": 90,
      "w": 91,
      "x": 92,
      "y": 93,
      "z": 94,
      "~": 95,
      "£": 96,
      "¥": 97,
      "°": 98,
      "²": 99,
      "Â": 100,
      "â": 101,
      "ã": 102,
      "ĉ": 103,
      "Ċ": 104,
      "č": 105,
      "Ġ": 106,
      "ġ": 107,
      "Ģ": 108,
      "ģ": 109,
      "Ĥ": 110,
      "ĵ": 111,
      "Ķ": 112,
      "ĺ": 113,
      "Ļ": 114,
      "ľ": 115,
      "Ŀ": 116,
      "Ġt": 117,
      "čĊ": 118,
      "he": 119,
      "Ġa": 120,
      "in": 121,
      "er": 122,
      "Ġthe": 123,
      "Ġo": 124,
      "re": 125,
      "on": 126,
      "st": 127,
      "an": 128,
      "Ġw": 129,
      "at": 130,
      "en": 131,
      "ou": 132,
      "Ġs": 133,
      "it": 134,
      "Ġc": 135,
      "Ġof": 136,
      "Ġ.": 137,
      "Ġb": 138,
      "Ġp": 139,
      "Ġto": 140,
      "Ġ<": 141,
      "Ġm": 142,
      "Ġf": 143,
      "or": 144,
      "as": 145,
      "Ġan": 146,
      "is": 147,
      "ed": 148,
      "ĠI": 149,
      "es": 150,
      "Ġin": 151,
      "ll": 152,
      "Ġd": 153,
      "ion": 154,
      "ing": 155,
      "us": 156,
      "Ġand": 157,
      "Ġth": 158,
      "ar": 159,
      "Ġh": 160,
      "ic": 161,
      "Ġy": 162,
      "ant": 163,
      "si": 164,
      "Ġl": 165,
      "om": 166,
      "Ġn": 167,
      "Ġbe": 168,
      "ent": 169,
      "Ġyou": 170,
      "Ġ,": 171,
      "ve": 172,
      "user": 173,
      "Ġre": 174,
      "al": 175,
      "sist": 176,
      "Ġe": 177,
      "sistant": 178,
      "assistant": 179,
      "Ġg": 180,
      "ur": 181,
      "le": 182,
      "ĠT": 183,
      "Ġ?": 184,
      "ro": 185,
      "ct": 186,
      "ut": 187,
      "Ġfor": 188,
      "ation": 189,
      "Ġit": 190,
      "ĠčĊ": 191,
      "Ġis": 192,
      "ver": 193,
      "Ġthat": 194,
      "Ġha": 195,
      "ow": 196,
      "ce": 197,
      "ld": 198,
      "ot": 199,
      "et": 200,
      "ĠW": 201,
      "ay": 202,
      "im": 203,
      "Ġwh": 204,
      "Ġon": 205,
      "ly": 206,
      "se": 207,
      "ig": 208,
      "ĠS": 209,
      "ment": 210,
      "ĠA": 211,
      "Ġhave": 212,
      "ith": 213,
      "Ġwe": 214,
      "ir": 215,
      "ill": 216,
      "un": 217,
      "Ġcon": 218,
      "Ġwith": 219,
      "ch": 220,
      "Ġpro": 221,
      "id": 222,
      "ĠThe": 223,
      "res": 224,
      "ke": 225,
      "ould": 226,
      "ĠC": 227,
      "ad": 228,
      "Ġsu": 229,
      "Ġour": 230,
      "Ġst": 231,
      "Ġas": 232,
      "Ġex": 233,
      "Ġhe": 234,
      "Ġne": 235,
      "Ġare": 236,
      "all": 237,
      "oo": 238,
      "ter": 239,
      "Ġcom": 240,
      "Ġde": 241,
      "Ġby": 242,
      "Ġme": 243,
      "il": 244,
      "ht": 245,
      "Ġthis": 246,
      "ess": 247,
      "ate": 248,
      "if": 249,
      "Ġsh": 250,
      "'s": 251,
      "ain": 252,
      "Ġdo": 253,
      "ust": 254,
      "her": 255,
      "end": 256,
      "Ġse": 257,
      "ri": 258,
      "ul": 259,
      "op": 260,
      "oun": 261,
      "ĠY": 262,
      "Ġnot": 263,
      "Ġwill": 264,
      "Ġat": 265,
      "ĠH": 266,
      "Ġr": 267,
      "ore": 268,
      "âĢ": 269,
      "ĠâĢ": 270,
      "ort": 271,
      "ge": 272,
      "ĠâĢĻ": 273,
      "ich": 274,
      "Ġcan": 275,
      "pp": 276,
      "ble": 277,
      "am": 278,
      "ect": 279,
      "ight": 280,
      "ĠM": 281,
      "Ġwhich": 282,
      "ĠTh": 283,
      "rom": 284,
      "der": 285,
      "Ġli": 286,
      "ong": 287,
      "Ġor": 288,
      "ity": 289,
      "ĠO": 290,
      "Ġun": 291,
      "ĠG": 292,
      "qu": 293,
      "Ġso": 294,
      "ĠIt": 295,
      "ĠB": 296,
      "Ġall": 297,
      "est": 298,
      "ers": 299,
      "and": 300,
      "ies": 301,
      "Ġj": 302,
      "Ġgo": 303,
      "Ġbeen": 304,
      "ĠN": 305,
      "th": 306,
      "ome": 307,
      "ĠWe": 308,
      "Ġhas": 309,
      "Ġyour": 310,
      "Ġwor": 311,
      "art": 312,
      "ĠD": 313,
      "ry": 314,
      "Ġwas": 315,
      "ear": 316,
      "ra": 317,
      "ĠWh": 318,
      "up": 319,
      "Ġfrom": 320,
      "very": 321,
      "out": 322,
      "ive": 323,
      "ress": 324,
      "Ġla": 325,
      "ol": 326,
      "ea": 327,
      "reat": 328,
      "os": 329,
      "Ġmy": 330,
      "mer": 331,
      "ally": 332,
      "Ġab": 333,
      "Ġ!": 334,
      "ice": 335,
      "Ġv": 336,
      "Ġk": 337,
      "ure": 338,
      "'t": 339,
      "ood": 340,
      "ations": 341,
      "ff": 342,
      "ĠSt": 343,
      "00": 344,
      "Ġch": 345,
      "em": 346,
      "ount": 347,
      "vern": 348,
      "Ġtheir": 349,
      "Ġal": 350,
      "Ġ1": 351,
      "ates": 352,
      "ist": 353,
      "ard": 354,
      "ac": 355,
      "Ġad": 356,
      "Ġbut": 357,
      "ake": 358,
      "ary": 359,
      "vernment": 360,
      "ther": 361,
      "ost": 362,
      "Ġup": 363,
      "Ġlike": 364,
      "ions": 365,
      "our": 366,
      "Ġus": 367,
      "Ġim": 368,
      "per": 369,
      "iv": 370,
      "Ġyear": 371,
      "Ġthere": 372,
      "ime": 373,
      "iz": 374,
      "ci": 375,
      "bl": 376,
      "ĠP": 377,
      "Ġshould": 378,
      "Ġag": 379,
      "ose": 380,
      "Ġen": 381,
      "ĠU": 382,
      "ĠF": 383,
      "ie": 384,
      "ous": 385,
      "Ġwould": 386,
      "Ġany": 387,
      "able": 388,
      "Ġam": 389,
      "Ġinter": 390,
      "ĠWhat": 391,
      "um": 392,
      "Ġthey": 393,
      "ep": 394,
      "Ġsp": 395,
      "oug": 396,
      "Ġres": 397,
      "king": 398,
      "ĠYou": 399,
      "ance": 400,
      "ĠGo": 401,
      "Ġthem": 402,
      "ĠUn": 403,
      "Ġtr": 404,
      "one": 405,
      "ĠStates": 406,
      "Ġmore": 407,
      "ase": 408,
      "ere": 409,
      "Ġexp": 410,
      "cc": 411,
      "Ġcomp": 412,
      "Ġabout": 413,
      "now": 414,
      "Ġwhe": 415,
      "ĠE": 416,
      "Ġpe": 417,
      "ited": 418,
      "Ġpl": 419,
      "Ġapp": 420,
      "ank": 421,
      "Ġtime": 422,
      "Ġone": 423,
      "Ġimp": 424,
      "ans": 425,
      "ĠIn": 426,
      "ence": 427,
      "Ġfa": 428,
      "ud": 429,
      "ĠGovernment": 430,
      "Ġknow": 431,
      "Ġcont": 432,
      "ink": 433,
      "ire": 434,
      "Ġman": 435,
      "are": 436,
      "Ġpeop": 437,
      "meric": 438,
      "Ġsome": 439,
      "Ġother": 440,
      "Ġjust": 441,
      "Ġits": 442,
      "ade": 443,
      "ĠL": 444,
      "ĠAmeric": 445,
      "ue": 446,
      "Ġright": 447,
      "Ġpeople": 448,
      "ĠYes": 449,
      "Ġper": 450,
      "ind": 451,
      "ction": 452,
      "du": 453,
      "ĠR": 454,
      "Ġinc": 455,
      "ound": 456,
      "ven": 457,
      "Ġcount": 458,
      "Ġget": 459,
      "ish": 460,
      "Ġwho": 461,
      "ĠCong": 462,
      "Ġar": 463,
      "ĠThat": 464,
      "pt": 465,
      "Ġgood": 466,
      "Ġrec": 467,
      "Ġout": 468,
      "Ġoff": 469,
      "Ġwork": 470,
      "ĠCongress": 471,
      "Ġcomm": 472,
      "Ġdis": 473,
      "Ġnow": 474,
      "Ġgreat": 475,
      "ine": 476,
      "Ġthink": 477,
      "Ġneed": 478,
      "Ġpart": 479,
      "Ġno": 480,
      "pl": 481,
      "ree": 482,
      "Ġwhat": 483,
      "Ġpre": 484,
      "Ġcl": 485,
      "ber": 486,
      "ast": 487,
      "ĠAn": 488,
      "'m": 489,
      "ens": 490,
      "ĠUnited": 491,
      "erv": 492,
      "ĠJ": 493,
      "uch": 494,
      "Ġle": 495,
      "ition": 496,
      "Ġint": 497,
      "ult": 498,
      "age": 499,
      "Ġif": 500,
      "ag": 501,
      "Ġnew": 502,
      "Ġvery": 503,
      "Ġqu": 504,
      "Ġunder": 505,
      "Ġdon": 506,
      "ated": 507,
      "ell": 508,
      "Ġsee": 509,
      "ough": 510,
      "ĠBut": 511,
      "Ġthese": 512,
      "Ġwant": 513,
      "ubl": 514,
      "el": 515,
      "Ġ$": 516,
      "Ġbet": 517,
      "Ġthan": 518,
      "Ġmust": 519,
      "ĠHow": 520,
      "ublic": 521,
      "ap": 522,
      "Ġmay": 523,
      "Ġsuch": 524,
      "ass": 525,
      "ck": 526,
      "resent": 527,
      "Ġwere": 528,
      "ame": 529,
      "Ġmuch": 530,
      "Ġind": 531,
      "fer": 532,
      "Ġhere": 533,
      "ec": 534,
      "ign": 535,
      "ook": 536,
      "Ġevery": 537,
      "Ġsub": 538,
      "ip": 539,
      "ren": 540,
      "ces": 541,
      "Ġco": 542,
      "tain": 543,
      "sel": 544,
      "Ġrep": 545,
      "Ġupon": 546,
      "Ġtoo": 547,
      "Ġcountry": 548,
      "Ġpr": 549,
      "Ġmade": 550,
      "'ll": 551,
      "Ġeff": 552,
      "--": 553,
      "Ġact": 554,
      "Ġhad": 555,
      "od": 556,
      "ays": 557,
      "ject": 558,
      "Ġlast": 559,
      "ise": 560,
      "Ġta": 561,
      "ĠNo": 562,
      "Ġlaw": 563,
      "Ġinterest": 564,
      "ted": 565,
      "Ġmake": 566,
      "use": 567,
      "Ġover": 568,
      "Ġfe": 569,
      "Ġonly": 570,
      "Ġsa": 571,
      "Ġthose": 572,
      "ĠAnd": 573,
      "lp": 574,
      "Ġacc": 575,
      "eral": 576,
      "act": 577,
      "Ġtake": 578,
      "wn": 579,
      "Ġhelp": 580,
      "fore": 581,
      "ving": 582,
      "Ġwhen": 583,
      "ments": 584,
      "ru": 585,
      "oy": 586,
      "ack": 587,
      "ite": 588,
      "ĠThis": 589,
      "Ġtw": 590,
      "000": 591,
      "Ġprov": 592,
      "day": 593,
      "ational": 594,
      "ful": 595,
      "lease": 596,
      "ĠDo": 597,
      "ĠWell": 598,
      "Ġpublic": 599,
      "orm": 600,
      "Ġagain": 601,
      "Ġma": 602,
      "so": 603,
      "Ġrel": 604,
      "ial": 605,
      "omm": 606,
      "Ġpow": 607,
      "cess": 608,
      "ĠThank": 609,
      "Ġhis": 610,
      "con": 611,
      "Ġwar": 612,
      "Ġdid": 613,
      "ution": 614,
      "Ġhow": 615,
      "Ġlo": 616,
      "iss": 617,
      "ory": 618,
      "Ġaf": 619,
      "Ġatt": 620,
      "Ġreally": 621,
      "ious": 622,
      "rit": 623,
      "Ġwell": 624,
      "ty": 625,
      "hing": 626,
      "ities": 627,
      "irst": 628,
      "hed": 629,
      "red": 630,
      "Ġrem": 631,
      "Ġbec": 632,
      "Ġmost": 633,
      "ĠOh": 634,
      "Ġbr": 635,
      "Ġbus": 636,
      "Ġcould": 637,
      "ob": 638,
      "ile": 639,
      "Ġgoing": 640,
      "ang": 641,
      "Ġinto": 642,
      "Ġyears": 643,
      "Ġgr": 644,
      "Ġreg": 645,
      "Ġ2": 646,
      "ide": 647,
      "Ġpresent": 648,
      "we": 649,
      "cial": 650,
      "Ġlong": 651,
      "Ġimport": 652,
      "oin": 653,
      "Ġalso": 654,
      "ict": 655,
      "ĠAmerican": 656,
      "row": 657,
      "ach": 658,
      "ab": 659,
      "Ġ18": 660,
      "ual": 661,
      "ning": 662,
      "reas": 663,
      "pos": 664,
      "Ġcour": 665,
      "ull": 666,
      "Ġmany": 667,
      "Ġem": 668,
      "Ġpol": 669,
      "ope": 670,
      "ord": 671,
      "Ġext": 672,
      "ced": 673,
      "av": 674,
      "ild": 675,
      "Ġtwo": 676,
      "stit": 677,
      "Ġserv": 678,
      "Ġpur": 679,
      "ause": 680,
      "arge": 681,
      "Ġsupp": 682,
      "Ġpos": 683,
      "get": 684,
      "Ġworld": 685,
      "Ġpay": 686,
      "ings": 687,
      "Ġbu": 688,
      "Ġro": 689,
      "ĠCh": 690,
      "Ġdif": 691,
      "Ġfirst": 692,
      "Ġdec": 693,
      "ures": 694,
      "Ġob": 695,
      "Ġcall": 696,
      "hen": 697,
      "uring": 698,
      "cy": 699,
      "Ġher": 700,
      "Ġnecess": 701,
      "form": 702,
      "ention": 703,
      "Ġprodu": 704,
      "Ġown": 705,
      "Ġdef": 706,
      "ady": 707,
      "ail": 708,
      "Ġresp": 709,
      "Ġplease": 710,
      "sider": 711,
      "Ġprog": 712,
      "ical": 713,
      "Ġlook": 714,
      "Ġent": 715,
      "tle": 716,
      "'ve": 717,
      "itiz": 718,
      "eace": 719,
      "Ġdes": 720,
      "Ġsec": 721,
      "Ġfore": 722,
      "Ġest": 723,
      "Ġafter": 724,
      "Ġway": 725,
      "iness": 726,
      "ange": 727,
      "ark": 728,
      "ands": 729,
      "Ġbefore": 730,
      "ĠHe": 731,
      "Ġter": 732,
      "Ġpeace": 733,
      "ex": 734,
      "Ġconsider": 735,
      "Ġleg": 736,
      "igh": 737,
      "ick": 738,
      "ĠSo": 739,
      "ĠThey": 740,
      "Ġthen": 741,
      "ace": 742,
      "ract": 743,
      "Ġpower": 744,
      "Ġsy": 745,
      "ĠThere": 746,
      "Ġcitiz": 747,
      "sid": 748,
      "'re": 749,
      "ĠIf": 750,
      "ily": 751,
      "ts": 752,
      "vel": 753,
      "Ġcome": 754,
      "ors": 755,
      "urn": 756,
      "Ġgive": 757,
      "ween": 758,
      "Ġcontin": 759,
      "..": 760,
      "Ġday": 761,
      "Ġappro": 762,
      "ward": 763,
      "ved": 764,
      "Ġbel": 765,
      "Ġbetween": 766,
      "ific": 767,
      "Ġmo": 768,
      "thing": 769,
      "ves": 770,
      "Ġmat": 771,
      "Ġadv": 772,
      "uth": 773,
      "rough": 774,
      "Ġ3": 775,
      "ĠV": 776,
      "ommend": 777,
      "Ġrecommend": 778,
      "Ġuse": 779,
      "Ġcar": 780,
      "ĠCan": 781,
      "riend": 782,
      "ought": 783,
      "ied": 784,
      "Ġrece": 785,
      "Ġshall": 786,
      "Ġfar": 787,
      "Ġgen": 788,
      "Ġdut": 789,
      "ĠIs": 790,
      "Ġtreat": 791,
      "Ġend": 792,
      "own": 793,
      "Ġgovernment": 794,
      "blem": 795,
      "ertain": 796,
      "Ġear": 797,
      "Ġmeet": 798,
      "Ġproblem": 799,
      "Ġrequ": 800,
      "any": 801,
      "omet": 802,
      "Ġjob": 803,
      "Ġche": 804,
      "Ġgot": 805,
      "min": 806,
      "its": 807,
      "Ġdep": 808,
      "Ġmin": 809,
      "Ġsame": 810,
      "Ġhim": 811,
      "Ġthrough": 812,
      "Ġsubject": 813,
      "Ġwhere": 814,
      "oney": 815,
      "conom": 816,
      "Ġshe": 817,
      "Ġgu": 818,
      "abl": 819,
      "cal": 820,
      "artment": 821,
      "stem": 822,
      "ents": 823,
      "ĠAmerica": 824,
      "Ġfin": 825,
      "Ġlea": 826,
      "Ġbusiness": 827,
      "Ġsystem": 828,
      "Ġke": 829,
      "ool": 830,
      "Ġlet": 831,
      "Ġsure": 832,
      "Ġbetter": 833,
      "ission": 834,
      "Ġeconom": 835,
      "Ġcourse": 836,
      "Ġmon": 837,
      "Ġrest": 838,
      "cl": 839,
      "ually": 840,
      "ug": 841,
      "Ġcitizens": 842,
      "Ġdoes": 843,
      "Ġeffect": 844,
      "Ġservice": 845,
      "isl": 846,
      "Ġwithout": 847,
      "ĠLet": 848,
      "Ġprom": 849,
      "ished": 850,
      "ense": 851,
      "rib": 852,
      "und": 853,
      "oth": 854,
      "Ġaff": 855,
      "xt": 856,
      "Ġcond": 857,
      "Ġadd": 858,
      "sible": 859,
      "Ġfriend": 860,
      "uthor": 861,
      "Ġset": 862,
      "Ġstill": 863,
      "stru": 864,
      "mit": 865,
      "ret": 866,
      "ility": 867,
      "Ġback": 868,
      "Ġprot": 869,
      "Ġeven": 870,
      "ting": 871,
      "Ġcare": 872,
      "here": 873,
      "Ġmoney": 874,
      "ek": 875,
      "Ġauthor": 876,
      "Ġop": 877,
      "Ġoffic": 878,
      "Ġorder": 879,
      "Ġnational": 880,
      "Ġforeign": 881,
      "Ġconf": 882,
      "Ġac": 883,
      "Ġ...": 884,
      "Ġfl": 885,
      "Ġsomet": 886,
      "Ġagainst": 887,
      "Ġsay": 888,
      "self": 889,
      "Ġtax": 890,
      "ond": 891,
      "orts": 892,
      "'d": 893,
      "Ġnext": 894,
      "ploy": 895,
      "icult": 896,
      "ating": 897,
      "iew": 898,
      "ative": 899,
      "Ġsm": 900,
      "Ġfree": 901,
      "Ġbelie": 902,
      "Ġweek": 903,
      "ury": 904,
      "Ġpass": 905,
      "ĠOK": 906,
      "Ġinv": 907,
      "ision": 908,
      "other": 909,
      "Ġstr": 910,
      "Ġduring": 911,
      "Ġlarge": 912,
      "Ġcommer": 913,
      "Ġspe": 914,
      "ines": 915,
      "og": 916,
      "Ġlot": 917,
      "Ġnum": 918,
      "ute": 919,
      "ways": 920,
      "Ġhome": 921,
      "ef": 922,
      "Ġdist": 923,
      "Ġtoday": 924,
      "Ġnecessary": 925,
      "Ġhapp": 926,
      "ular": 927,
      "Ġquest": 928,
      "Ġbest": 929,
      "ized": 930,
      "Ġlegisl": 931,
      "Ġproper": 932,
      "Ġprotect": 933,
      "ne": 934,
      "Ġimportant": 935,
      "Ġtell": 936,
      "ĠOur": 937,
      "ason": 938,
      "Ġresult": 939,
      "ram": 940,
      "ple": 941,
      "ĠMay": 942,
      "Ġbl": 943,
      "Ġdem": 944,
      "Ġbecause": 945,
      "Ġkind": 946,
      "Ġ19": 947,
      "Ġhope": 948,
      "ife": 949,
      "ave": 950,
      "Ġfind": 951,
      "ak": 952,
      "stitution": 953,
      "ars": 954,
      "ia": 955,
      "ian": 956,
      "Ġfull": 957,
      "Ġtrans": 958,
      "Ġpolic": 959,
      "erson": 960,
      "ater": 961,
      "ĠMy": 962,
      "Ġmil": 963,
      "hip": 964,
      "Ġhigh": 965,
      "Ġnations": 966,
      "ĠEx": 967,
      "Ġamount": 968,
      "Ġdiffer": 969,
      "Ġmonth": 970,
      "Ġsur": 971,
      "way": 972,
      "ĠMr": 973,
      "ries": 974,
      "Ġfeel": 975,
      "Ġmen": 976,
      "Ġgiv": 977,
      "Ġmain": 978,
      "Ġask": 979,
      "Ġcommun": 980,
      "Ġboth": 981,
      "Ġcons": 982,
      "te": 983,
      "orry": 984,
      "Ġeach": 985,
      "Ġredu": 986,
      "Ġestabl": 987,
      "ici": 988,
      "sive": 989,
      "Ġdire": 990,
      "Ġev": 991,
      "Ġnumber": 992,
      "ĠGood": 993,
      "Ġwon": 994,
      "Ġdown": 995,
      "ration": 996,
      "Ġlit": 997,
      "Ġequ": 998,
      "Ġprin": 999,
      "Ġchar": 1000,
      "Ġalways": 1001,
      "Ġsc": 1002,
      "cept": 1003,
      "Ġperson": 1004,
      "pri": 1005,
      "Ġnever": 1006,
      "oint": 1007,
      "Ġbeing": 1008,
      "Ġform": 1009,
      "Ġcor": 1010,
      "Ġins": 1011,
      "als": 1012,
      "ince": 1013,
      "Ġfam": 1014,
      "ĠDep": 1015,
      "ency": 1016,
      "Ġret": 1017,
      "ready": 1018,
      "alth": 1019,
      "aim": 1020,
      "Ġimpro": 1021,
      "ĠCon": 1022,
      "Ġmight": 1023,
      "pose": 1024,
      "Ġprev": 1025,
      "Ġopp": 1026,
      "Ġwhile": 1027,
      "bor": 1028,
      "Ġsch": 1029,
      "ĠSec": 1030,
      "Ġmor": 1031,
      "rease": 1032,
      "ired": 1033,
      "Ġfo": 1034,
      "Ġalready": 1035,
      "Ġdet": 1036,
      "ever": 1037,
      "Ġpri": 1038,
      "Ġput": 1039,
      "Ġtry": 1040,
      "Ġ\"": 1041,
      "Ġexist": 1042,
      "Ġlaws": 1043,
      "Ġplan": 1044,
      "Ġdisc": 1045,
      "Ġreport": 1046,
      "ently": 1047,
      "ouse": 1048,
      "Ġincreas": 1049,
      "ederal": 1050,
      "ĠWhy": 1051,
      "vers": 1052,
      "Ġplace": 1053,
      "Ġemploy": 1054,
      "eah": 1055,
      "ize": 1056,
      "Ġfact": 1057,
      "old": 1058,
      "Ġsomething": 1059,
      "ness": 1060,
      "Ġnation": 1061,
      "edi": 1062,
      "bt": 1063,
      "hes": 1064,
      "Ġpolicy": 1065,
      "Ġfew": 1066,
      "Ġkeep": 1067,
      "ĠAre": 1068,
      "Ġass": 1069,
      "ession": 1070,
      "Ġschool": 1071,
      "ng": 1072,
      "Ġdoll": 1073,
      "Ġocc": 1074,
      "Ġbill": 1075,
      "Ġshow": 1076,
      "Ġlittle": 1077,
      "ĠState": 1078,
      "Ġcost": 1079,
      "Ġdel": 1080,
      "Ġsir": 1081,
      "imes": 1082,
      "Ġprogram": 1083,
      "Ġmeas": 1084,
      "Ġsal": 1085,
      "ices": 1086,
      "ĠHere": 1087,
      "ten": 1088,
      "gan": 1089,
      "Ġconc": 1090,
      "ĠInd": 1091,
      "Ġchild": 1092,
      "Ġroom": 1093,
      "ather": 1094,
      "Ġfav": 1095,
      "Ġpa": 1096,
      "Ġless": 1097,
      "Ġreason": 1098,
      "ĠWhen": 1099,
      "Ġmeans": 1100,
      "Ġyet": 1101,
      "Ġwithin": 1102,
      "ital": 1103,
      "Ġann": 1104,
      "ortun": 1105,
      "Ġmark": 1106,
      "Ġseem": 1107,
      "Ġthings": 1108,
      "be": 1109,
      "Ġincrease": 1110,
      "Ġprinci": 1111,
      "Ġval": 1112,
      "Ġappropri": 1113,
      "Ġthree": 1114,
      "gether": 1115,
      "Ġclass": 1116,
      "Ġcompany": 1117,
      "ided": 1118,
      "Ġtreaty": 1119,
      "Ġll": 1120,
      "lf": 1121,
      "Ġmill": 1122,
      "ĠFederal": 1123,
      "Ġduty": 1124,
      "ĠTo": 1125,
      "ĠAll": 1126,
      "ken": 1127,
      "ither": 1128,
      "Ġdone": 1129,
      "Ġhard": 1130,
      "velop": 1131,
      "ix": 1132,
      "Ġfound": 1133,
      "Ġcoll": 1134,
      "Ġexpend": 1135,
      "Ġser": 1136,
      "Ġcent": 1137,
      "Ġmet": 1138,
      "ately": 1139,
      "selves": 1140,
      "itions": 1141,
      "ĠK": 1142,
      "exic": 1143,
      "ives": 1144,
      "ĠMexic": 1145,
      "Ġattention": 1146,
      "Ġben": 1147,
      "Ġel": 1148,
      "ock": 1149,
      "Ġclaim": 1150,
      "Ġindust": 1151,
      "Ġintern": 1152,
      "Ġrespect": 1153,
      "ĠDepartment": 1154,
      "less": 1155,
      "ues": 1156,
      "Ġbuy": 1157,
      "Ġanything": 1158,
      "Ġ5": 1159,
      "Ġcertain": 1160,
      "ĠAs": 1161,
      "Ġ'": 1162,
      "Ġmilit": 1163,
      "ner": 1164,
      "Ġbelieve": 1165,
      "ĠSp": 1166,
      "ounds": 1167,
      "Ġcle": 1168,
      "sident": 1169,
      "Ġever": 1170,
      "Ġsever": 1171,
      "led": 1172,
      "Ġtrade": 1173,
      "Ġcap": 1174,
      "ged": 1175,
      "Ġfre": 1176,
      "Ġstart": 1177,
      "Ġimm": 1178,
      "Ġinterests": 1179,
      "oc": 1180,
      "Ġanother": 1181,
      "ĠYeah": 1182,
      "ĠFor": 1183,
      "ages": 1184,
      "Ġgeneral": 1185,
      "ances": 1186,
      "Ġlegislation": 1187,
      "Ġstate": 1188,
      "ĠOk": 1189,
      "ĠRep": 1190,
      "orrow": 1191,
      "Ġlife": 1192,
      "Ġdevelop": 1193,
      "Ġchange": 1194,
      "ĠThanks": 1195,
      "Ġsmall": 1196,
      "ĠSure": 1197,
      "Ġele": 1198,
      "Ġrespon": 1199,
      "Ġmatter": 1200,
      "ern": 1201,
      "reasury": 1202,
      "Ġview": 1203,
      "stand": 1204,
      "Ġwhole": 1205,
      "Ġrelations": 1206,
      "man": 1207,
      "les": 1208,
      "Ġpract": 1209,
      "Ġfut": 1210,
      "Ġoper": 1211,
      "vest": 1212,
      "ivil": 1213,
      "port": 1214,
      "Ġexper": 1215,
      "ft": 1216,
      "ably": 1217,
      "ms": 1218,
      "Ġopen": 1219,
      "road": 1220,
      "ĠBrit": 1221,
      "Ġcountries": 1222,
      "gest": 1223,
      "air": 1224,
      "Ġreal": 1225,
      "Ġaction": 1226,
      "Ġlove": 1227,
      "Ġton": 1228,
      "Ġproduct": 1229,
      "ee": 1230,
      "ization": 1231,
      "Ġcomple": 1232,
      "Ġdirect": 1233,
      "Ġreven": 1234,
      "Ġgrow": 1235,
      "Ġsucc": 1236,
      "Ġbenef": 1237,
      "pe": 1238,
      "Ġincl": 1239,
      "retary": 1240,
      "Ġwr": 1241,
      "ending": 1242,
      "Ġmorning": 1243,
      "Ġfuture": 1244,
      "Ġmean": 1245,
      "Ġcr": 1246,
      "Ġcheck": 1247,
      "ait": 1248,
      "urity": 1249,
      "Ġdidn": 1250,
      "Ġsorry": 1251,
      "Ġpriv": 1252,
      "fact": 1253,
      "ĠTreasury": 1254,
      "minist": 1255,
      "Ġpast": 1256,
      "alk": 1257,
      "Ġstand": 1258,
      "Ġbank": 1259,
      "ĠPre": 1260,
      "Ġfavor": 1261,
      "uc": 1262,
      "Ġbring": 1263,
      "Ġcontro": 1264,
      "ants": 1265,
      "to": 1266,
      "Ġhon": 1267,
      "Ġexpendit": 1268,
      "Ġpros": 1269,
      "Ġsoon": 1270,
      "Ġobject": 1271,
      "ceed": 1272,
      "Ġpossible": 1273,
      "urren": 1274,
      "Ġpropos": 1275,
      "Ġcas": 1276,
      "Ġbas": 1277,
      "ĠNot": 1278,
      "Ġid": 1279,
      "ulation": 1280,
      "Ġdollars": 1281,
      "ected": 1282,
      "ried": 1283,
      "Ġte": 1284,
      "urther": 1285,
      "Ġhaving": 1286,
      "Ġtogether": 1287,
      "Ġstud": 1288,
      "avy": 1289,
      "atis": 1290,
      "ural": 1291,
      "Ġconv": 1292,
      "Ġworking": 1293,
      "Ġconsideration": 1294,
      "got": 1295,
      "Ġinform": 1296,
      "Ġrights": 1297,
      "Ġpres": 1298,
      "Ġquestion": 1299,
      "ĠOf": 1300,
      "Ġinf": 1301,
      "Ġspecial": 1302,
      "Ġdiff": 1303,
      "Ġinclud": 1304,
      "Ġtra": 1305,
      "til": 1306,
      "Ġpurpose": 1307,
      "Ġdays": 1308,
      "ĠHave": 1309,
      "ĠRe": 1310,
      "Ġsupport": 1311,
      "Ġmilitary": 1312,
      "Ġsuccess": 1313,
      "ĠSecretary": 1314,
      "ience": 1315,
      "Ġcivil": 1316,
      "Ġpost": 1317,
      "Ġsug": 1318,
      "Ġstren": 1319,
      "Ġseveral": 1320,
      "pr": 1321,
      "Ġthank": 1322,
      "ĠShe": 1323,
      "orth": 1324,
      "Ġexer": 1325,
      "Ġ4": 1326,
      "ĠDon": 1327,
      "Ġaccount": 1328,
      "su": 1329,
      "Ġprogress": 1330,
      "iod": 1331,
      "Ġold": 1332,
      "Ġfurther": 1333,
      "Ġbuild": 1334,
      "Ġsl": 1335,
      "Ġlim": 1336,
      "Ġname": 1337,
      "imin": 1338,
      "ĠGreat": 1339,
      "ĠWould": 1340,
      "ended": 1341,
      "Ġnear": 1342,
      "Ġsaid": 1343,
      "Ġcommerce": 1344,
      "Ġav": 1345,
      "Ġhealth": 1346,
      "Ġstreng": 1347,
      "Ġagree": 1348,
      "Ġperiod": 1349,
      "Ġwhy": 1350,
      "ived": 1351,
      "Ġremain": 1352,
      "Ġcondition": 1353,
      "Ġimprove": 1354,
      "Ġsince": 1355,
      "Ġmar": 1356,
      "ĠAt": 1357,
      "sib": 1358,
      "Ġoffice": 1359,
      "Ġsecure": 1360,
      "Ġdifficult": 1361,
      "Ġfis": 1362,
      "atch": 1363,
      "Ġlead": 1364,
      "Ġdoing": 1365,
      "ember": 1366,
      "ĠPresident": 1367,
      "Ġfood": 1368,
      "Ġplay": 1369,
      "Ġnat": 1370,
      "Ġsum": 1371,
      "kes": 1372,
      "irc": 1373,
      "Ġph": 1374,
      "Ġexam": 1375,
      "Ġtaken": 1376,
      "Ġsatis": 1377,
      "Ġnice": 1378,
      "Ġprice": 1379,
      "Ġmind": 1380,
      "Ġsuff": 1381,
      "Ġgl": 1382,
      "Ġforce": 1383,
      "Ġregard": 1384,
      "Ġmarket": 1385,
      "tic": 1386,
      "Ġgiven": 1387,
      "ered": 1388,
      "ĠNe": 1389,
      "Ġdou": 1390,
      "Ġca": 1391,
      "osed": 1392,
      "Ġdifferent": 1393,
      "Ġfr": 1394,
      "Ġenj": 1395,
      "ecut": 1396,
      "ĠUnion": 1397,
      "mitted": 1398,
      "por": 1399,
      "ĠBy": 1400,
      "Ġpartic": 1401,
      "Ġestablish": 1402,
      "iet": 1403,
      "Ġtom": 1404,
      "lic": 1405,
      "Ġorgan": 1406,
      "Ġpowers": 1407,
      "Ġmaintain": 1408,
      "Ġinvest": 1409,
      "Ġrev": 1410,
      "Ġbeg": 1411,
      "ooking": 1412,
      "Ġrepresent": 1413,
      "Ġuntil": 1414,
      "Ġthought": 1415,
      "Ġhand": 1416,
      "ĠAmericans": 1417,
      "ina": 1418,
      "just": 1419,
      "Ġopportun": 1420,
      "Ġamong": 1421,
      "Ġlate": 1422,
      "Ġlabor": 1423,
      "ĠMexico": 1424,
      "Ġeconomic": 1425,
      "ĠWhere": 1426,
      "ĠFr": 1427,
      "Ġsuggest": 1428,
      "Ġbig": 1429,
      "Ġfund": 1430,
      "eak": 1431,
      "ĠVe": 1432,
      "Ġtonight": 1433,
      "Ġsign": 1434,
      "struction": 1435,
      "ivid": 1436,
      "Ġsaf": 1437,
      "Ġenjoy": 1438,
      "ared": 1439,
      "Ġmaking": 1440,
      "Ġfriends": 1441,
      "Ġsim": 1442,
      "Ġjud": 1443,
      "Ġcontinue": 1444,
      "Ġidea": 1445,
      "Ġchildren": 1446,
      "Ġcred": 1447,
      "Ġland": 1448,
      "Ġnight": 1449,
      "ality": 1450,
      "ĠAl": 1451,
      "Ġtea": 1452,
      "Ġtomorrow": 1453,
      "Ġinst": 1454,
      "ĠAr": 1455,
      "ĠHell": 1456,
      "most": 1457,
      "Ġed": 1458,
      "arch": 1459,
      "Ġstrong": 1460,
      "ĠJust": 1461,
      "Ġofficers": 1462,
      "ĠHello": 1463,
      "Ġeng": 1464,
      "ib": 1465,
      "alf": 1466,
      "ĠOn": 1467,
      "Ġcirc": 1468,
      "Ġcommission": 1469,
      "Ġsecurity": 1470,
      "Ġ6": 1471,
      "ĠDid": 1472,
      "Ġ-": 1473,
      "Ġes": 1474,
      "Ġbo": 1475,
      "Ġhour": 1476,
      "Ġcharact": 1477,
      "Ġable": 1478,
      "Ġprosper": 1479,
      "ork": 1480,
      "Ġcontinu": 1481,
      "Ġfiscal": 1482,
      "Ġpop": 1483,
      "ĠNow": 1484,
      "oura": 1485,
      "Ġmom": 1486,
      "Ġaround": 1487,
      "Ġexerc": 1488,
      "ources": 1489,
      "ĠThese": 1490,
      "Ġcurren": 1491,
      "Ġtoward": 1492,
      "Ġhum": 1493,
      "Ġref": 1494,
      "Ġduties": 1495,
      "Ġren": 1496,
      "Ġtrain": 1497,
      "Ġbecome": 1498,
      "bers": 1499,
      "eneral": 1500,
      "Ġexpenditures": 1501,
      "Ġeas": 1502,
      "llow": 1503,
      "Ġeconomy": 1504,
      "Ġbad": 1505,
      "Ġhowever": 1506,
      "Ġelse": 1507,
      "ĠEng": 1508,
      "Ġauthority": 1509,
      "ĠEur": 1510,
      "Ġdebt": 1511,
      "Ġpolit": 1512,
      "Ġmess": 1513,
      "utes": 1514,
      "ference": 1515,
      "ĠComm": 1516,
      "Ġfreed": 1517,
      "ath": 1518,
      "Ġhist": 1519,
      "ened": 1520,
      "Ġcharacter": 1521,
      "ctions": 1522,
      "my": 1523,
      "Ġlear": 1524,
      "Ġindivid": 1525,
      "Ġadminist": 1526,
      "Ġprep": 1527,
      "Ġaccom": 1528,
      "Ġsession": 1529,
      "Ġste": 1530,
      "ĠEurope": 1531,
      "Ġread": 1532,
      "ief": 1533,
      "ĠConstitution": 1534,
      "Ġcontrol": 1535,
      "Ġwait": 1536,
      "Ġcase": 1537,
      "Ġdr": 1538,
      "Ġsit": 1539,
      "Ġtrue": 1540,
      "Ġrevenue": 1541,
      "empt": 1542,
      "ecutive": 1543,
      "Ġestim": 1544,
      "Ġreturn": 1545,
      "eg": 1546,
      "Ġ30": 1547,
      "Ġwrong": 1548,
      "ĠWith": 1549,
      "cially": 1550,
      "essel": 1551,
      "ection": 1552,
      "Ġindividual": 1553,
      "goti": 1554,
      "Ġvessel": 1555,
      "aren": 1556,
      "Ġafford": 1557,
      "Ġfollow": 1558,
      "Ġbook": 1559,
      "Ġunderstand": 1560,
      "Ġprotection": 1561,
      "ph": 1562,
      "ier": 1563,
      "Ġnav": 1564,
      "ully": 1565,
      "come": 1566,
      "Ġthus": 1567,
      "Ġprof": 1568,
      "ield": 1569,
      "epend": 1570,
      "Ġprovide": 1571,
      "Ġgener": 1572,
      "Ġur": 1573,
      "Ġfour": 1574,
      "ised": 1575,
      "Ġthemselves": 1576,
      "inese": 1577,
      "ences": 1578,
      "Ġlocal": 1579,
      "ub": 1580,
      "Ġliber": 1581,
      "Ġadop": 1582,
      "Ġquite": 1583,
      "Ġfreedom": 1584,
      "Ġothers": 1585,
      "Ġinformation": 1586,
      "Ġfail": 1587,
      "ritory": 1588,
      "Ġserious": 1589,
      "ĠEngl": 1590,
      "Ġspir": 1591,
      "Ġprivate": 1592,
      "Ġleave": 1593,
      "Ġaddition": 1594,
      "atives": 1595,
      "Ġincreased": 1596,
      "erve": 1597,
      "ister": 1598,
      "ĠRepublic": 1599,
      "isions": 1600,
      "by": 1601,
      "rict": 1602,
      "ĠCould": 1603,
      "ĠChinese": 1604,
      "Ġsk": 1605,
      "Ġpromot": 1606,
      "anc": 1607,
      "Ġtot": 1608,
      "Ġleft": 1609,
      "Ġthing": 1610,
      "Ġturn": 1611,
      "Ġenough": 1612,
      "ensive": 1613,
      "Ġfine": 1614,
      "Ġeduc": 1615,
      "ĠHi": 1616,
      "Ġwhether": 1617,
      "ricult": 1618,
      "Ġbre": 1619,
      "ety": 1620,
      "Ġcredit": 1621,
      "Ġready": 1622,
      "ĠNew": 1623,
      "ody": 1624,
      "Ġconditions": 1625,
      "Ġcol": 1626,
      "idence": 1627,
      "fully": 1628,
      "ton": 1629,
      "Ġreceived": 1630,
      "Ġlooking": 1631,
      "Ġparty": 1632,
      "ude": 1633,
      "Ġnegoti": 1634,
      "Ġhold": 1635,
      "Ġcalled": 1636,
      "Ġimmedi": 1637,
      "Ġearly": 1638,
      "ilities": 1639,
      "Ġfun": 1640,
      "Ġstop": 1641,
      "ĠChina": 1642,
      "Ġship": 1643,
      "Ġdom": 1644,
      "ides": 1645,
      "Ġcommit": 1646,
      "Ġhar": 1647,
      "Ġprob": 1648,
      "Ġused": 1649,
      "Ġenter": 1650,
      "Ġmeasures": 1651,
      "Ġshort": 1652,
      "Ġline": 1653,
      "ĠNation": 1654,
      "Ġfamily": 1655,
      "utions": 1656,
      "ĠThen": 1657,
      "oss": 1658,
      "Ġcompet": 1659,
      "ĠPlease": 1660,
      "Ġenc": 1661,
      "Ġmem": 1662,
      "Ġonce": 1663,
      "igation": 1664,
      "Ġhuman": 1665,
      "Ġoften": 1666,
      "Ġcut": 1667,
      "Ġcard": 1668,
      "ĠSen": 1669,
      "Ġago": 1670,
      "udget": 1671,
      "Ġcommon": 1672,
      "Ġresponsib": 1673,
      "ying": 1674,
      "Ġinternational": 1675,
      "cond": 1676,
      "Ġdang": 1677,
      "Ġindepend": 1678,
      "ĠSh": 1679,
      "Ġdeal": 1680,
      "Ġinfl": 1681,
      "Ġneeds": 1682,
      "ges": 1683,
      "ĠAf": 1684,
      "Ġbegin": 1685,
      "Ġmoment": 1686,
      "Ġspirit": 1687,
      "ps": 1688,
      "Ġeither": 1689,
      "Ġexperience": 1690,
      "Ġhig": 1691,
      "Ġstay": 1692,
      "Ġlive": 1693,
      "Ġ10": 1694,
      "pecially": 1695,
      "jor": 1696,
      "ert": 1697,
      "Ġpaid": 1698,
      "ression": 1699,
      "Ġtimes": 1700,
      "for": 1701,
      "no": 1702,
      "une": 1703,
      "Ġrequire": 1704,
      "Ġhouse": 1705,
      "Ġcommercial": 1706,
      "ons": 1707,
      "ught": 1708,
      "ivers": 1709,
      "Ġinsur": 1710,
      "Ġdue": 1711,
      "Ġadvant": 1712,
      "ising": 1713,
      "Ġaway": 1714,
      "Ġjustice": 1715,
      "atic": 1716,
      "stant": 1717,
      "Ġdeter": 1718,
      "iol": 1719,
      "Ġlands": 1720,
      "Ġearn": 1721,
      "Ġred": 1722,
      "ipt": 1723,
      "Ġ7": 1724,
      "Ġmonths": 1725,
      "ressed": 1726,
      "Ġport": 1727,
      "raid": 1728,
      "Ġpolitical": 1729,
      "cuse": 1730,
      "Ġplac": 1731,
      "Ġprosperity": 1732,
      "Ġvessels": 1733,
      "ger": 1734,
      "the": 1735,
      "Ġprevent": 1736,
      "Ġcity": 1737,
      "Ġcommunic": 1738,
      "ĠEnglish": 1739,
      "Ġafraid": 1740,
      "ss": 1741,
      "Ġsecond": 1742,
      "Ġvis": 1743,
      "Ġvalue": 1744,
      "Ġmove": 1745,
      "Ġsing": 1746,
      "Ġmajor": 1747,
      "Ġreceipt": 1748,
      "icient": 1749,
      "Ġopportunity": 1750,
      "gy": 1751,
      "Ġclaims": 1752,
      "not": 1753,
      "cted": 1754,
      "Ġdepend": 1755,
      "Ġwater": 1756,
      "Ġhear": 1757,
      "Ġcarry": 1758,
      "airs": 1759,
      "Ġparticular": 1760,
      "Ġespecially": 1761,
      "Ġlow": 1762,
      "Ġcoming": 1763,
      "Ġimportance": 1764,
      "Ġwonder": 1765,
      "Ġseems": 1766,
      "Ġclear": 1767,
      "Ġnothing": 1768,
      "Ġten": 1769,
      "ĠNavy": 1770,
      "Ġalmost": 1771,
      "Ġdefense": 1772,
      "Ġsettle": 1773,
      "Ġproperty": 1774,
      "Ġthir": 1775,
      "ogn": 1776,
      "Ġtotal": 1777,
      "Ġair": 1778,
      "Ġeverything": 1779,
      "Ġhot": 1780,
      "leas": 1781,
      "Ġisn": 1782,
      "Ġfair": 1783,
      "Ġhistory": 1784,
      "Ġproducts": 1785,
      "Ġpat": 1786,
      "ified": 1787,
      "equ": 1788,
      "Ġcre": 1789,
      "Ġconn": 1790,
      "Ġeffort": 1791,
      "Ġexisting": 1792,
      "Ġcapital": 1793,
      "Ġtri": 1794,
      "Ġfive": 1795,
      "Ġtherefore": 1796,
      "Ġfaith": 1797,
      "Ġpret": 1798,
      "Ġaccept": 1799,
      "Ġdecl": 1800,
      "Ġdoesn": 1801,
      "Ġmillion": 1802,
      "Ġ8": 1803,
      "Ġvar": 1804,
      "Ġreserv": 1805,
      "Ġexpect": 1806,
      "Ġrecogn": 1807,
      "Ġaccord": 1808,
      "Ġdri": 1809,
      "Ġrun": 1810,
      "Ġcontract": 1811,
      "Ġmeeting": 1812,
      "Ġpo": 1813,
      "Ġposition": 1814,
      "Ġobl": 1815,
      "Ġviol": 1816,
      "Ġarm": 1817,
      "Ġrate": 1818,
      "ĠJune": 1819,
      "uly": 1820,
      "Ġopin": 1821,
      "outh": 1822,
      "Ġbudget": 1823,
      "ike": 1824,
      "Ġchang": 1825,
      "Ġexercise": 1826,
      "Ġclose": 1827,
      "side": 1828,
      "ove": 1829,
      "Ġhalf": 1830,
      "sequ": 1831,
      "new": 1832,
      "ĠReally": 1833,
      "Ġtalk": 1834,
      "ooper": 1835,
      "Ġhappy": 1836,
      "Ġdeli": 1837,
      "Ġmessage": 1838,
      "Ġitself": 1839,
      "ples": 1840,
      "ĠMaybe": 1841,
      "Ġsounds": 1842,
      "Ġyes": 1843,
      "ior": 1844,
      "ufact": 1845,
      "Ġsuper": 1846,
      "ourage": 1847,
      "Ġlearn": 1848,
      "ension": 1849,
      "Ġappre": 1850,
      "ĠSenate": 1851,
      "Ġra": 1852,
      "Ġallow": 1853,
      "Ġspeak": 1854,
      "Ġemb": 1855,
      "Ġheard": 1856,
      "Ġproblems": 1857,
      "hib": 1858,
      "lcome": 1859,
      "ery": 1860,
      "Ġprovision": 1861,
      "Ġresources": 1862,
      "enty": 1863,
      "Ġconcl": 1864,
      "ont": 1865,
      "ross": 1866,
      "Ġexcept": 1867,
      "Ġlist": 1868,
      "Ġoffer": 1869,
      "Ġmanufact": 1870,
      "Ġentire": 1871,
      "Ġcause": 1872,
      "Ġmer": 1873,
      "Ġreform": 1874,
      "Ġ189": 1875,
      "Ġaccompl": 1876,
      "ined": 1877,
      "Ġjobs": 1878,
      "land": 1879,
      "itable": 1880,
      "Ġcooper": 1881,
      "Ġdemand": 1882,
      "irm": 1883,
      "iding": 1884,
      "Ġhonor": 1885,
      "Ġgreater": 1886,
      "Ġstep": 1887,
      "isd": 1888,
      "Ġquestions": 1889,
      "Ġsent": 1890,
      "ism": 1891,
      "ential": 1892,
      "Ġhaven": 1893,
      "ustom": 1894,
      "ral": 1895,
      "Ġlater": 1896,
      "Ġleast": 1897,
      "Ġresults": 1898,
      "Ġwatch": 1899,
      "ĠWar": 1900,
      "ĠInter": 1901,
      "Ġdevelopment": 1902,
      "Ġbrought": 1903,
      "Ġagricult": 1904,
      "ored": 1905,
      "Ġstrength": 1906,
      "ys": 1907,
      "50": 1908,
      "Ġbal": 1909,
      "ained": 1910,
      "Ġtrib": 1911,
      "inking": 1912,
      "Ġbro": 1913,
      "ories": 1914,
      "Ġforces": 1915,
      "Ġthough": 1916,
      "Ġafterno": 1917,
      "Ġdanger": 1918,
      "Ġener": 1919,
      "Ġgetting": 1920,
      "Ġartic": 1921,
      "aged": 1922,
      "ĠExcuse": 1923,
      "Ġeducation": 1924,
      "Ġve": 1925,
      "Ġperman": 1926,
      "Ġcases": 1927,
      "Ġcomplete": 1928,
      "fect": 1929,
      "Ġrequired": 1930,
      "Ġafternoon": 1931,
      "Ġfac": 1932,
      "ĠPro": 1933,
      "Ġagg": 1934,
      "ĠTer": 1935,
      "ĠAct": 1936,
      "Ġcharge": 1937,
      "enses": 1938,
      "Ġefforts": 1939,
      "Ġgrad": 1940,
      "ipp": 1941,
      "Ġarr": 1942,
      "Ġindustry": 1943,
      "Ġiss": 1944,
      "ĠBe": 1945,
      "ĠArmy": 1946,
      "Ġgre": 1947,
      "Ġmeasure": 1948,
      "uck": 1949,
      "Ġmater": 1950,
      "Ġavail": 1951,
      "val": 1952,
      "Ġequal": 1953,
      "Ġconcern": 1954,
      "Ġperform": 1955,
      "uses": 1956,
      "Ġseen": 1957,
      "Ġadjust": 1958,
      "cent": 1959,
      "eal": 1960,
      "Ġtest": 1961,
      "Ġhop": 1962,
      "Ġannual": 1963,
      "Ġ(": 1964,
      "Ġbit": 1965,
      "amp": 1966,
      "chie": 1967,
      "Ġremember": 1968,
      "Ġbur": 1969,
      "Ġinstit": 1970,
      "idd": 1971,
      "Ġconstruction": 1972,
      "ulations": 1973,
      "Ġusually": 1974,
      "Ġmillions": 1975,
      "Ġeasy": 1976,
      "ident": 1977,
      "Ġcannot": 1978,
      "Ġabs": 1979,
      "ĠBritain": 1980,
      "Ġminutes": 1981,
      "Ġeffective": 1982,
      "Ġself": 1983,
      "olution": 1984,
      "ĠIndian": 1985,
      "Ġbor": 1986,
      "ĠYour": 1987,
      "Ġsend": 1988,
      "Ġwhose": 1989,
      "rug": 1990,
      "Ġproduction": 1991,
      "Ġestablished": 1992,
      "iff": 1993,
      "hod": 1994,
      "Ġpoint": 1995,
      "ption": 1996,
      "Ġaid": 1997,
      "Ġfamil": 1998,
      "allen": 1999,
      "Ġdrink": 2000,
      "asion": 2001,
      "Ġconvention": 2002,
      "ĠCommission": 2003,
      "Ġ9": 2004,
      "Ġcreat": 2005,
      "iting": 2006,
      "Ġmov": 2007,
      "ĠSpain": 2008,
      "ians": 2009,
      "Ġachie": 2010,
      "Ġprovided": 2011,
      "iction": 2012,
      "aut": 2013,
      "Ġenl": 2014,
      "Ġap": 2015,
      "ellow": 2016,
      "Ġprobably": 2017,
      "Ġtar": 2018,
      "Ġeat": 2019,
      "Ġliving": 2020,
      "ĠAny": 2021,
      "Ġguess": 2022,
      "Ġpassed": 2023,
      "Ġcustom": 2024,
      "ĠGeneral": 2025,
      "Ġmod": 2026,
      "Ġresponsibility": 2027,
      "Ġdin": 2028,
      "ĠEvery": 2029,
      "Ġadministration": 2030,
      "ric": 2031,
      "Ġconstitution": 2032,
      "Ġcomput": 2033,
      "Ġinterested": 2034,
      "Ġpleas": 2035,
      "ĠBritish": 2036,
      "Ġnearly": 2037,
      "Ġtrust": 2038,
      "Ġmethod": 2039,
      "Ġdispos": 2040,
      "Ġthreat": 2041,
      "aw": 2042,
      "Ġincluding": 2043,
      "Ġbuilding": 2044,
      "Ġhead": 2045,
      "Ġdepos": 2046,
      "Ġsatisf": 2047,
      "app": 2048,
      "arter": 2049,
      "where": 2050,
      "Ġwom": 2051,
      "Ġdate": 2052,
      "ability": 2053,
      "Ġappropriations": 2054,
      "rem": 2055,
      "Ġbeaut": 2056,
      "Ġgir": 2057,
      "Ġproposed": 2058,
      "uan": 2059,
      "Ġforward": 2060,
      "icket": 2061,
      "Ġinj": 2062,
      "itude": 2063,
      "Ġlight": 2064,
      "Ġestablishment": 2065,
      "Ġopinion": 2066,
      "Ġtaking": 2067,
      "reg": 2068,
      "Ġappoint": 2069,
      "oice": 2070,
      "uss": 2071,
      "Ġabroad": 2072,
      "Ġterritory": 2073,
      "Ġfriendly": 2074,
      "oh": 2075,
      "Ġinstru": 2076,
      "ĠWas": 2077,
      "Ġ20": 2078,
      "Ġpayment": 2079,
      "Ġreduction": 2080,
      "Ġnatural": 2081,
      "Ġworry": 2082,
      "aps": 2083,
      "Ġterms": 2084,
      "ĠHouse": 2085,
      "Ġpercent": 2086,
      "Ġdra": 2087,
      "ics": 2088,
      "ĠExecutive": 2089,
      "Ġgrowth": 2090,
      "ctor": 2091,
      "Ġinvol": 2092,
      ".\"": 2093,
      "Ġparen": 2094,
      "Ġneigh": 2095,
      "ĠOkay": 2096,
      "Ġdoubt": 2097,
      "Ġess": 2098,
      "Ġprinciples": 2099,
      "ires": 2100,
      "uation": 2101,
      "Ġbeh": 2102,
      "Ġcondu": 2103,
      "ume": 2104,
      "Ġface": 2105,
      "Ġmoder": 2106,
      "Ġticket": 2107,
      "ĠAd": 2108,
      "Ġposs": 2109,
      "iciency": 2110,
      "Ġty": 2111,
      "Ġunf": 2112,
      "estic": 2113,
      "ask": 2114,
      "Ġproceed": 2115,
      "ferred": 2116,
      "Ġsix": 2117,
      "Ġyoung": 2118,
      "ĠWill": 2119,
      "Ġexc": 2120,
      "Ġgold": 2121,
      "Ġlooks": 2122,
      "Ġtem": 2123,
      "uted": 2124,
      "Ġrail": 2125,
      "Ġinteresting": 2126,
      "Ġpurch": 2127,
      "Ġadditional": 2128,
      "Ġearnest": 2129,
      "men": 2130,
      "Ġfield": 2131,
      "Ġnor": 2132,
      "Ġdev": 2133,
      "Ġmail": 2134,
      "Ġextra": 2135,
      "Ġdetail": 2136,
      "lands": 2137,
      "Ġthanks": 2138,
      "ured": 2139,
      "Ġheld": 2140,
      "Ġdesign": 2141,
      "Ġstat": 2142,
      "Ġapplic": 2143,
      "ĠJan": 2144,
      "Ġbreak": 2145,
      "action": 2146,
      "rup": 2147,
      "Ġmis": 2148,
      "apan": 2149,
      "Ġobtain": 2150,
      "Ġcommunity": 2151,
      "Ġreceipts": 2152,
      "Ġwish": 2153,
      "Ġfix": 2154,
      "bit": 2155,
      "Ġri": 2156,
      "ĠCom": 2157,
      "Ġdeg": 2158,
      "aster": 2159,
      "ification": 2160,
      "Ġdinner": 2161,
      "cher": 2162,
      "pect": 2163,
      "inary": 2164,
      "Ġprovisions": 2165,
      "lfare": 2166,
      "Ġdi": 2167,
      "Ġdiscuss": 2168,
      "Ġavailable": 2169,
      "Ġfill": 2170,
      "Ġshop": 2171,
      "Ġsol": 2172,
      "ointed": 2173,
      "Ġfarm": 2174,
      "undred": 2175,
      "Ġbillion": 2176,
      "Ġsingle": 2177,
      "wise": 2178,
      "Ġsound": 2179,
      "Ġpress": 2180,
      "ĠJapan": 2181,
      "Ġmaterial": 2182,
      "cing": 2183,
      "go": 2184,
      "tion": 2185,
      "Ġfully": 2186,
      "Ġpretty": 2187,
      "Ġsurpl": 2188,
      "over": 2189,
      "ination": 2190,
      "Ġsense": 2191,
      "Ġcompl": 2192,
      "Ġrender": 2193,
      "Ġminister": 2194,
      "Ġarrange": 2195,
      "Ġought": 2196,
      "Ġworth": 2197,
      "Ġside": 2198,
      "imate": 2199,
      "Ġsw": 2200,
      "Ġdomestic": 2201,
      "Ġwelfare": 2202,
      "Ġspec": 2203,
      "Ġstandard": 2204,
      "Ġenergy": 2205,
      "Ġmed": 2206,
      "Ġpursu": 2207,
      "Ġnecessity": 2208,
      "ead": 2209,
      "Ġconsequ": 2210,
      "iful": 2211,
      "ester": 2212,
      "Ġenfor": 2213,
      "Ġparties": 2214,
      "Ġextent": 2215,
      "Ġhundred": 2216,
      "Ġperfect": 2217,
      "Ġbar": 2218,
      "Ġhands": 2219,
      "ĠSome": 2220,
      "Ġrat": 2221,
      "Ġmyself": 2222,
      "Ġaffairs": 2223,
      "Ġprograms": 2224,
      "mp": 2225,
      "Ġwin": 2226,
      "Ġadequ": 2227,
      "Ġinflu": 2228,
      "Ġsil": 2229,
      "Ġfight": 2230,
      "sia": 2231,
      "poses": 2232,
      "Ġprompt": 2233,
      "Ġactually": 2234,
      "Ġpermanent": 2235,
      "cies": 2236,
      "of": 2237,
      "Ġwent": 2238,
      "ature": 2239,
      "Ġlost": 2240,
      "Ġrap": 2241,
      "aries": 2242,
      "Ġrates": 2243,
      "Ġdisp": 2244,
      "Ġpurposes": 2245,
      "Ġfurn": 2246,
      "Ġexact": 2247,
      "Ġworks": 2248,
      "Ġadvance": 2249,
      "Ġvarious": 2250,
      "Ġinstitutions": 2251,
      "Ġexch": 2252,
      "ains": 2253,
      "Ġvol": 2254,
      "Ġnews": 2255,
      "Ġcover": 2256,
      "Ġdepartment": 2257,
      "Ġhours": 2258,
      "Ġtariff": 2259,
      "ev": 2260,
      "ĠOne": 2261,
      "Ġcircum": 2262,
      "ring": 2263,
      "Ġdest": 2264,
      "Ġprices": 2265,
      "ĠHey": 2266,
      "Ġreceive": 2267,
      "Ġfront": 2268,
      "Ġnaval": 2269,
      "Ġrather": 2270,
      "Ġfinan": 2271,
      "ĠMiss": 2272,
      "Ġcontrib": 2273,
      "Ġglad": 2274,
      "time": 2275,
      "Ġbound": 2276,
      "Ġexcl": 2277,
      "Ġenact": 2278,
      "ourse": 2279,
      "Ġinterv": 2280,
      "Ġtook": 2281,
      "Ġbanks": 2282,
      "Ġill": 2283,
      "Ġjoin": 2284,
      "Ġdesire": 2285,
      "arily": 2286,
      "atever": 2287,
      "acific": 2288,
      "Ġappear": 2289,
      "Ġphone": 2290,
      "Ġdetermin": 2291,
      "oose": 2292,
      "Ġexpl": 2293,
      "Ġrenew": 2294,
      "mber": 2295,
      "Ġtransport": 2296,
      "Ġoperation": 2297,
      "Ġpar": 2298,
      "Ġtold": 2299,
      "Ġmiss": 2300,
      "Ġcomb": 2301,
      "Ġneeded": 2302,
      "Ġmakes": 2303,
      "Ġincreasing": 2304,
      "ĠFrance": 2305,
      "Ġcontinued": 2306,
      "Ġcomputer": 2307,
      "Ġparents": 2308,
      "Ġcircumst": 2309,
      "ds": 2310,
      "head": 2311,
      "reet": 2312,
      "Ġwelcome": 2313,
      "Ġalone": 2314,
      "Ġgovernments": 2315,
      "Ġsatisfact": 2316,
      "Ġoblig": 2317,
      "ĠWashing": 2318,
      "aring": 2319,
      "Ġprefer": 2320,
      "Ġevening": 2321,
      "Ġprinciple": 2322,
      "Ġagreement": 2323,
      "ging": 2324,
      "Ġassist": 2325,
      "Ġchallen": 2326,
      "Ġalong": 2327,
      "Ġinterc": 2328,
      "ĠGovernments": 2329,
      "Ġclean": 2330,
      "Ġenterpr": 2331,
      "Ġmus": 2332,
      "ĠWashington": 2333,
      "Ġimprovement": 2334,
      "Ġsettlement": 2335,
      "Ġrapid": 2336,
      "pro": 2337,
      "ering": 2338,
      "Ġproject": 2339,
      "Ġcoast": 2340,
      "Ġcurrent": 2341,
      "Ġfamilies": 2342,
      "ai": 2343,
      "cell": 2344,
      "ĠWest": 2345,
      "iday": 2346,
      "omes": 2347,
      "Ġgrat": 2348,
      "Ġhost": 2349,
      "Ġconfidence": 2350,
      "Ġinsurance": 2351,
      "inite": 2352,
      "ager": 2353,
      "ohn": 2354,
      "den": 2355,
      "Ġintercourse": 2356,
      "Ġfit": 2357,
      "Ġsurplus": 2358,
      "work": 2359,
      "Ġwise": 2360,
      "olog": 2361,
      "agement": 2362,
      "Ġacqu": 2363,
      "ĠIndians": 2364,
      "Ġmere": 2365,
      "Ġvot": 2366,
      "Ġ12": 2367,
      "Ġsafe": 2368,
      "Ġbeautiful": 2369,
      "Ġir": 2370,
      "ann": 2371,
      "Ġlives": 2372,
      "ffee": 2373,
      "Ġexpected": 2374,
      "ift": 2375,
      "ists": 2376,
      "Ġlonger": 2377,
      "Ġpersons": 2378,
      "ling": 2379,
      "olute": 2380,
      "ĠCol": 2381,
      "Ġsave": 2382,
      "Ġcorpor": 2383,
      "ĠJohn": 2384,
      "Ġadequate": 2385,
      "Ġce": 2386,
      "Ġthous": 2387,
      "Ġessential": 2388,
      "ible": 2389,
      "Ġoccasion": 2390,
      "ĠJuly": 2391,
      "Ġsubmitted": 2392,
      "Ġappreci": 2393,
      "rat": 2394,
      "Ġseat": 2395,
      "Ġattempt": 2396,
      "Ġroad": 2397,
      "Ġpopulation": 2398,
      "Ġmembers": 2399,
      "Ġadvantage": 2400,
      "az": 2401,
      "Ġenem": 2402,
      "rench": 2403,
      "Ġcurrency": 2404,
      "Ġtend": 2405,
      "Ġsci": 2406,
      "urb": 2407,
      "ops": 2408,
      "Ġknown": 2409,
      "ĠLook": 2410,
      "Ġsupply": 2411,
      "Ġindustri": 2412,
      "Ġfinancial": 2413,
      "haps": 2414,
      "anch": 2415,
      "Ġbond": 2416,
      "Ġdiv": 2417,
      "ĠCub": 2418,
      "ached": 2419,
      "Ġpersonal": 2420,
      "Ġoccup": 2421,
      "Ġpractic": 2422,
      "Ġoperations": 2423,
      "Ġestimated": 2424,
      "ror": 2425,
      "Ġourselves": 2426,
      "Ġsocial": 2427,
      "Ġhonest": 2428,
      "ĠPer": 2429,
      "Ġfast": 2430,
      "Ġissue": 2431,
      "30": 2432,
      "Ġaw": 2433,
      "Ġsold": 2434,
      "Ġimmediate": 2435,
      "Ġcircumstances": 2436,
      "itation": 2437,
      "Ġbir": 2438,
      "Ġheart": 2439,
      "Ġquarter": 2440,
      "ient": 2441,
      "atter": 2442,
      "unch": 2443,
      "Ġmach": 2444,
      "Ġprevious": 2445,
      "Ġboard": 2446,
      "Ġadopted": 2447,
      "ĠAfter": 2448,
      "Ġtal": 2449,
      "ash": 2450,
      "ĠWhich": 2451,
      "ĠWho": 2452,
      "Ġrecently": 2453,
      "Ġhigher": 2454,
      "aste": 2455,
      "Ġweekend": 2456,
      "Ġ194": 2457,
      "Ġtravel": 2458,
      "Ġportion": 2459,
      "Ġstock": 2460,
      "Ġunivers": 2461,
      "ership": 2462,
      "Ġchance": 2463,
      "Ġobs": 2464,
      "Ġschools": 2465,
      "bors": 2466,
      "then": 2467,
      "ony": 2468,
      "Ġcoun": 2469,
      "icial": 2470,
      "Ġ15": 2471,
      "Ġcoffee": 2472,
      "Ġletter": 2473,
      "Ġbenefits": 2474,
      "ĠNational": 2475,
      "ĠFrom": 2476,
      "Ġarri": 2477,
      "Ġrecord": 2478,
      "Ġacts": 2479,
      "Ġtaxes": 2480,
      "Ġappropriation": 2481,
      "aur": 2482,
      "Ġer": 2483,
      "str": 2484,
      "Ġreduced": 2485,
      "Ġpaper": 2486,
      "Ġbenefit": 2487,
      "ned": 2488,
      "ping": 2489,
      "encies": 2490,
      "Ġexpenses": 2491,
      "Ġcash": 2492,
      "rown": 2493,
      "Ġimpos": 2494,
      "Ġgoods": 2495,
      "Ġrecent": 2496,
      "Ġevil": 2497,
      "Ġengaged": 2498,
      "ĠSorry": 2499,
      "Ġdeem": 2500,
      "Ġgrant": 2501,
      "Ġbasis": 2502,
      "ax": 2503,
      "Ġ--": 2504,
      "chn": 2505,
      "ĠWhile": 2506,
      "Ġservices": 2507,
      "Ġships": 2508,
      "ees": 2509,
      "ĠMarch": 2510,
      "Ġexpensive": 2511,
      "Ġrelief": 2512,
      "Ġsatisfactory": 2513,
      "Ġthinking": 2514,
      "room": 2515,
      "ĠSuch": 2516,
      "Ġconstant": 2517,
      "Ġru": 2518,
      "though": 2519,
      "Ġremo": 2520,
      "Ġgirl": 2521,
      "par": 2522,
      "Ġfall": 2523,
      "Ġstri": 2524,
      "ilar": 2525,
      "izing": 2526,
      "Ġprocess": 2527,
      "ĠGer": 2528,
      "artments": 2529,
      "ĠPacific": 2530,
      "ĠFrench": 2531,
      "Ġsubjects": 2532,
      "Ġvisit": 2533,
      "sw": 2534,
      "Ġincome": 2535,
      "Ġuseful": 2536,
      "Ġappointment": 2537,
      "used": 2538,
      "Ġachieve": 2539,
      "Ġyourself": 2540,
      "Ġsomeone": 2541,
      "anced": 2542,
      "Ġleaving": 2543,
      "Ġspeed": 2544,
      "Ġteacher": 2545,
      "Ġencourage": 2546,
      "eed": 2547,
      "io": 2548,
      "hest": 2549,
      "ises": 2550,
      "ify": 2551,
      "Ġproviding": 2552,
      "Ġofficial": 2553,
      "Ġdemoc": 2554,
      "Ġemployment": 2555,
      "Ġahead": 2556,
      "ream": 2557,
      "rist": 2558,
      "Ġide": 2559,
      "Ġwalk": 2560,
      "resp": 2561,
      "Ġshare": 2562,
      "Ġenv": 2563,
      "Ġtrou": 2564,
      "Ġexample": 2565,
      "ege": 2566,
      "Ġspend": 2567,
      "Ġthroughout": 2568,
      "Ġfinal": 2569,
      "Ġcareful": 2570,
      "Ġconstitutional": 2571,
      "Ġfellow": 2572,
      "Ġreach": 2573,
      "ĠMary": 2574,
      "Ġapply": 2575,
      "Ġauthorized": 2576,
      "Ġexhib": 2577,
      "Ġcame": 2578,
      "ulated": 2579,
      "Ġpresented": 2580,
      "Ġsett": 2581,
      "Ġreduce": 2582,
      "Ġcooperation": 2583,
      "Ġindustrial": 2584,
      "dra": 2585,
      "right": 2586,
      "ĠSouth": 2587,
      "ĠCome": 2588,
      "Ġinterview": 2589,
      "ially": 2590,
      "yond": 2591,
      "Ġansw": 2592,
      "Ġcomes": 2593,
      "Ġweeks": 2594,
      "Ġorganization": 2595,
      "Ġbalance": 2596,
      "Ġdegree": 2597,
      "Ġtro": 2598,
      "Ġcal": 2599,
      "Ġmut": 2600,
      "Ġconstit": 2601,
      "acy": 2602,
      "Ġproduce": 2603,
      "Ġtable": 2604,
      "Ġok": 2605,
      "arant": 2606,
      "Ġsho": 2607,
      "Ġvac": 2608,
      "usive": 2609,
      "Ġwhom": 2610,
      "igin": 2611,
      "Ġtechn": 2612,
      "Ġsilver": 2613,
      "br": 2614,
      "Ġfoot": 2615,
      "10": 2616,
      "Ġrecommended": 2617,
      "Ġdirection": 2618,
      "Ġgrowing": 2619,
      "with": 2620,
      "anies": 2621,
      "Ġfort": 2622,
      "Ġefficiency": 2623,
      "Ġdecision": 2624,
      "Ġasked": 2625,
      "Ġcertainly": 2626,
      "Ġfavorable": 2627,
      "Ġmovie": 2628,
      "esterday": 2629,
      "uded": 2630,
      "Ġaccording": 2631,
      "Ġformer": 2632,
      "Ġsea": 2633,
      "ĠFirst": 2634,
      "Ġpreserv": 2635,
      "Ġobligations": 2636,
      "Ġbirth": 2637,
      "crib": 2638,
      "Ġmag": 2639,
      "Ġlines": 2640,
      "Ġconsist": 2641,
      "Ġconven": 2642,
      "Ġexceed": 2643,
      "Ġclot": 2644,
      "Ġsituation": 2645,
      "Ġchoose": 2646,
      "Ġappl": 2647,
      "ishing": 2648,
      "Ġcourt": 2649,
      "Ġstudy": 2650,
      "Ġavo": 2651,
      "oup": 2652,
      "usion": 2653,
      "Ġey": 2654,
      "ulf": 2655,
      "Ġpossess": 2656,
      "ening": 2657,
      "ĠDe": 2658,
      "Ġlaid": 2659,
      "Ġwomen": 2660,
      "Ġbed": 2661,
      "Ġeveryone": 2662,
      "Ġcalling": 2663,
      "Ġsuccessful": 2664,
      "Ġskill": 2665,
      "Ġtransportation": 2666,
      "Ġgra": 2667,
      "ids": 2668,
      "Ġdelay": 2669,
      "Ġbeyond": 2670,
      "Ġorigin": 2671,
      "Ġcold": 2672,
      "ĠRepresent": 2673,
      "Ġsafety": 2674,
      "Ġenforce": 2675,
      "anish": 2676,
      "Ġappointed": 2677,
      "Ġlevel": 2678,
      "Ġhappened": 2679,
      "Ġmusic": 2680,
      "isp": 2681,
      "arr": 2682,
      "Ġloss": 2683,
      "ĠWow": 2684,
      "ders": 2685,
      "Ġbusy": 2686,
      "Ġsale": 2687,
      "Ġstrengthen": 2688,
      "ON": 2689,
      "cu": 2690,
      "lict": 2691,
      "Ġports": 2692,
      "Ġeight": 2693,
      "ĠAb": 2694,
      "ĠMon": 2695,
      "Ġsales": 2696,
      "Ġsimilar": 2697,
      "reme": 2698,
      "body": 2699,
      "eb": 2700,
      "ĠTex": 2701,
      "ĠMe": 2702,
      "ĠPost": 2703,
      "Ġquick": 2704,
      "Ġattack": 2705,
      "Ġrecommendations": 2706,
      "urea": 2707,
      "Ġ188": 2708,
      "Ġextended": 2709,
      "Ġsurve": 2710,
      "Ġgiving": 2711,
      "Ġoccur": 2712,
      "Ġda": 2713,
      "iment": 2714,
      "Ġcourts": 2715,
      "Ġimmediately": 2716,
      "Ġexec": 2717,
      "ource": 2718,
      "Ġsaving": 2719,
      "inc": 2720,
      "Ġsus": 2721,
      "itive": 2722,
      "Ġbody": 2723,
      "aint": 2724,
      "Ġord": 2725,
      "Ġregular": 2726,
      "Ġdesir": 2727,
      "Ġplaces": 2728,
      "Ġmodern": 2729,
      "Ġwithdra": 2730,
      "ĠDoes": 2731,
      "Ġreasonable": 2732,
      "Ġcentury": 2733,
      "Ġindependent": 2734,
      "Ġinfluence": 2735,
      "ĠRepresentatives": 2736,
      "Ġsell": 2737,
      "Ġnotes": 2738,
      "Ġtwenty": 2739,
      "sig": 2740,
      "sec": 2741,
      "Ġweather": 2742,
      "Ġplans": 2743,
      "Ġcollege": 2744,
      "Ġsummer": 2745,
      "Ġpopular": 2746,
      "Ġtraining": 2747,
      "Ġindependence": 2748,
      "ming": 2749,
      "enn": 2750,
      "Ġdeep": 2751,
      "Ġabove": 2752,
      "Ġgreatly": 2753,
      "Ġrecommendation": 2754,
      "Ġsufficient": 2755,
      "Ġdeposit": 2756,
      "gent": 2757,
      "Ġyesterday": 2758,
      "Ġluck": 2759,
      "Ġund": 2760,
      "Ġcompanies": 2761,
      "ishment": 2762,
      "Ġparts": 2763,
      "Ġquality": 2764,
      "Ġdefic": 2765,
      "Ġcrime": 2766,
      "Ġinstead": 2767,
      "ĠCertain": 2768,
      "Ġundert": 2769,
      "Ġactiv": 2770,
      "Ġdecided": 2771,
      "Ġguarant": 2772,
      "Ġbelieved": 2773,
      "Ġenterprise": 2774,
      "Ġpick": 2775,
      "imum": 2776,
      "Ġmaybe": 2777,
      "Ġsaw": 2778,
      "angu": 2779,
      "Ġfeeling": 2780,
      "Ġharm": 2781,
      "Ġwife": 2782,
      "Ġvast": 2783,
      "Ġexpand": 2784,
      "Ġworkers": 2785,
      "Ġcitizen": 2786,
      "ifications": 2787,
      "Ġrestaur": 2788,
      "Ġtrying": 2789,
      "oud": 2790,
      "ĠSm": 2791,
      "Ġwealth": 2792,
      "irt": 2793,
      "employ": 2794,
      "ĠRus": 2795,
      "Ġseek": 2796,
      "ecause": 2797,
      "Ġactual": 2798,
      "Ġbeginning": 2799,
      "Ġhur": 2800,
      "ffice": 2801,
      "Ġ186": 2802,
      "ledge": 2803,
      "12": 2804,
      "ĠSee": 2805,
      "Ġpromise": 2806,
      "Ġapplication": 2807,
      "iance": 2808,
      "ĠDuring": 2809,
      "Ġpermit": 2810,
      "Ġconduct": 2811,
      "Ġbonds": 2812,
      "Ġfif": 2813,
      "ĠTom": 2814,
      "ĠApr": 2815,
      "Ġrul": 2816,
      "umb": 2817,
      "ept": 2818,
      "Ġtrad": 2819,
      "Ġtrip": 2820,
      "Ġtroops": 2821,
      "ĠApril": 2822,
      "line": 2823,
      "ison": 2824,
      "ffic": 2825,
      "plom": 2826,
      "Ġending": 2827,
      "ĠCuba": 2828,
      "umer": 2829,
      "read": 2830,
      "Ġtop": 2831,
      "rodu": 2832,
      "Ġchoice": 2833,
      "Ġacross": 2834,
      "Ġliberty": 2835,
      "gle": 2836,
      "Ġcop": 2837,
      "Ġfil": 2838,
      "Ġjur": 2839,
      "Ġcommand": 2840,
      "Ġconflict": 2841,
      "Ġnature": 2842,
      "Ġut": 2843,
      "Ġemer": 2844,
      "Ġemployees": 2845,
      "Ġprincip": 2846,
      "Ġpromote": 2847,
      "Ġpleasure": 2848,
      "atest": 2849,
      "Ġwilling": 2850,
      "osp": 2851,
      "ĠRight": 2852,
      "Ġobjects": 2853,
      "Ġgreatest": 2854,
      "Ġmethods": 2855,
      "Ġtempor": 2856,
      "Ġexchange": 2857,
      "ĠYork": 2858,
      "ĠMa": 2859,
      "Ġamend": 2860,
      "Ġsometimes": 2861,
      "Ġcollect": 2862,
      "respond": 2863,
      "mm": 2864,
      "oard": 2865,
      "uary": 2866,
      "ulate": 2867,
      "Ġability": 2868,
      "ape": 2869,
      "Ġflight": 2870,
      "Ġserve": 2871,
      "certain": 2872,
      "rible": 2873,
      "ĠHis": 2874,
      "ames": 2875,
      "Ġmanner": 2876,
      "ĠSpanish": 2877,
      "ĠIntern": 2878,
      "Ġvolun": 2879,
      "ins": 2880,
      "Ġcities": 2881,
      "Ġbag": 2882,
      "Ġworked": 2883,
      "Ġsupposed": 2884,
      "Ġtreaties": 2885,
      "Ġprepared": 2886,
      "uff": 2887,
      "Ġtou": 2888,
      "Ġtask": 2889,
      "Ġwhatever": 2890,
      "ĠUnder": 2891,
      "Ġexpress": 2892,
      "Ġdisch": 2893,
      "Ġcosts": 2894,
      "standing": 2895,
      "ament": 2896,
      "ched": 2897,
      "Ġboss": 2898,
      "Ġhous": 2899,
      "aining": 2900,
      "hern": 2901,
      "Ġseven": 2902,
      "Ġground": 2903,
      "Ġcorrespond": 2904,
      "Ġhighest": 2905,
      "Ġapartment": 2906,
      "Ġdiplom": 2907,
      "gment": 2908,
      "vision": 2909,
      "Ġlegislative": 2910,
      "Ġinternal": 2911,
      "Ġteam": 2912,
      "Ġcommunication": 2913,
      "Ġthird": 2914,
      "pany": 2915,
      "ifying": 2916,
      "ĠCertainly": 2917,
      "ĠBecause": 2918,
      "raz": 2919,
      "Ġwants": 2920,
      "Ġabsolute": 2921,
      "ĠTexas": 2922,
      "Ġfel": 2923,
      "ĠSept": 2924,
      "Ġpropose": 2925,
      "Ġsele": 2926,
      "acity": 2927,
      "Ġfinally": 2928,
      "ĠJanuary": 2929,
      "arger": 2930,
      "leep": 2931,
      "Ġsust": 2932,
      "ously": 2933,
      "Ġbranch": 2934,
      "ĠSeptember": 2935,
      "hat": 2936,
      "urs": 2937,
      "Ġstreet": 2938,
      "Ġexecutive": 2939,
      "Ġshown": 2940,
      "Ġsole": 2941,
      "Ġmanager": 2942,
      "ĠActually": 2943,
      "Ġissu": 2944,
      "ĠAg": 2945,
      "Ġdoctor": 2946,
      "Ġspending": 2947,
      "Ġevent": 2948,
      "aff": 2949,
      "iar": 2950,
      "Ġaver": 2951,
      "Ġlarger": 2952,
      "ĠEast": 2953,
      "Ġintell": 2954,
      "Ġsuppl": 2955,
      "Ġdefinite": 2956,
      "Ġcorre": 2957,
      "Ġarticles": 2958,
      "Ġwrit": 2959,
      "Ġcou": 2960,
      "Ġpun": 2961,
      "Ġforget": 2962,
      "ecess": 2963,
      "Ġsmo": 2964,
      "Ġstarted": 2965,
      "Ġhoped": 2966,
      "iers": 2967,
      "Ġbought": 2968,
      "Ġmanagement": 2969,
      "Ġresponsible": 2970,
      "Ġrevenues": 2971,
      "Ġdifficulties": 2972,
      "Ġtraffic": 2973,
      "Ġcommitted": 2974,
      "Ġswe": 2975,
      "Ġsize": 2976,
      "orn": 2977,
      "Ġyuan": 2978,
      "Ġlangu": 2979,
      "Ġconference": 2980,
      "Ġstates": 2981,
      "Ġunemploy": 2982,
      "Ġintrodu": 2983,
      "Ġwanted": 2984,
      "Ġpractical": 2985,
      "Ġconnection": 2986,
      "Ġsatisfaction": 2987,
      "Ġreached": 2988,
      "Ġemployed": 2989,
      "Ġpractice": 2990,
      "Ġbooks": 2991,
      "ĠĠ": 2992,
      "enced": 2993,
      "Ġunless": 2994,
      "Ġsche": 2995,
      "Ġlimits": 2996,
      "Ġreservation": 2997,
      "Ġchanges": 2998,
      "Ġneighbor": 2999,
      "esides": 3000,
      "ingu": 3001,
      "Ġcauses": 3002,
      "Ġcompetition": 3003,
      "hold": 3004,
      "mission": 3005,
      "aration": 3006,
      "iring": 3007,
      "racy": 3008,
      "ĠFine": 3009,
      "Ġfunds": 3010,
      "Ġtribes": 3011,
      "ober": 3012,
      "Ġwind": 3013,
      "Ġvig": 3014,
      "Ġexpense": 3015,
      "Ġcompens": 3016,
      "Ġrepe": 3017,
      "Ġaffect": 3018,
      "Ġdifference": 3019,
      "ĠMexican": 3020,
      "Ġmarkets": 3021,
      "iddle": 3022,
      "Ġcreated": 3023,
      "Ġfra": 3024,
      "vere": 3025,
      "umed": 3026,
      "Ġkept": 3027,
      "Ġbless": 3028,
      "Ġhotel": 3029,
      "ush": 3030,
      "ilt": 3031,
      "ĠPh": 3032,
      "Ġremed": 3033,
      "Ġmerch": 3034,
      "AT": 3035,
      "Ġmention": 3036,
      "ese": 3037,
      "Ġpreced": 3038,
      "isdom": 3039,
      "General": 3040,
      "Ġsac": 3041,
      "Ġden": 3042,
      "Ġweight": 3043,
      "Ġaddress": 3044,
      "Ġadvantages": 3045,
      "Ġagriculture": 3046,
      "The": 3047,
      "ron": 3048,
      "Ġcult": 3049,
      "Ġfear": 3050,
      "Ġinit": 3051,
      "oming": 3052,
      "ĠWor": 3053,
      "Ġknowledge": 3054,
      "Ġtele": 3055,
      "Ġjurisd": 3056,
      "Ġwisdom": 3057,
      "ctive": 3058,
      "ĠMany": 3059,
      "Ġarbit": 3060,
      "Ġcarried": 3061,
      "Ġminute": 3062,
      "Ġdistrib": 3063,
      "Ġdisturb": 3064,
      "Ġclasses": 3065,
      "Ġdirected": 3066,
      "Ġallowed": 3067,
      "20": 3068,
      "Ġarms": 3069,
      "Ġorganized": 3070,
      "Ġaccomplished": 3071,
      "11": 3072,
      "band": 3073,
      "Ġlose": 3074,
      "Ġstation": 3075,
      "Ġsepar": 3076,
      "Ġoutside": 3077,
      "Ġextension": 3078,
      "Ġterror": 3079,
      "Ġrule": 3080,
      "Ġmutual": 3081,
      "Ġrestaurant": 3082,
      "Ġprincipal": 3083,
      "Ġz": 3084,
      "ĠSince": 3085,
      "Ġloan": 3086,
      "ĠAdminist": 3087,
      "ung": 3088,
      "Ġsuit": 3089,
      "ĠNorth": 3090,
      "ĠGod": 3091,
      "Ġinsp": 3092,
      "Ġagricultural": 3093,
      "Ġrailroad": 3094,
      "Ġexactly": 3095,
      "pet": 3096,
      "Ġcamp": 3097,
      "Ġpie": 3098,
      "Ġmot": 3099,
      "Ġaren": 3100,
      "ĠChrist": 3101,
      "Ġcapacity": 3102,
      "Ġlimited": 3103,
      "Ġsusp": 3104,
      "ator": 3105,
      "Ġstrug": 3106,
      "ĠDist": 3107,
      "Ġauthorities": 3108,
      "Ġflow": 3109,
      "Ġmiles": 3110,
      "Ġbasic": 3111,
      "Ġcreate": 3112,
      "Ġtried": 3113,
      "Ġpoin": 3114,
      "Ġrese": 3115,
      "Ġexcell": 3116,
      "Ġindividuals": 3117,
      "Ġthirty": 3118,
      "Ġdestro": 3119,
      "Ġtalking": 3120,
      "Ġexecution": 3121,
      "Ġjurisdiction": 3122,
      "ah": 3123,
      "Ġways": 3124,
      "Ġmother": 3125,
      "ifest": 3126,
      "Ġdocu": 3127,
      "Ġseason": 3128,
      "Ġvital": 3129,
      "Ġrequest": 3130,
      "Ġunderstanding": 3131,
      "Ġdrive": 3132,
      "onment": 3133,
      "Ġweak": 3134,
      "Ġart": 3135,
      "Ġsubstant": 3136,
      "Ġviews": 3137,
      "Ġsecured": 3138,
      "Ġrepresentatives": 3139,
      "Ġclothes": 3140,
      "aking": 3141,
      "Ġislands": 3142,
      "ressive": 3143,
      "Ġsection": 3144,
      "Ġgovern": 3145,
      "Ġdemands": 3146,
      "Ġcommunities": 3147,
      "Ġarticle": 3148,
      "Ġenemy": 3149,
      "oor": 3150,
      "ĠTw": 3151,
      "Ġprosec": 3152,
      "Ġordinary": 3153,
      "Ġproport": 3154,
      "Ġarea": 3155,
      "Ġqual": 3156,
      "Ġrent": 3157,
      "Ġsteam": 3158,
      "Ġplaced": 3159,
      "ĠTerritory": 3160,
      "Ġtrouble": 3161,
      "Ġemerg": 3162,
      "Ġfelt": 3163,
      "vereign": 3164,
      "cri": 3165,
      "Ġ%": 3166,
      "Ġage": 3167,
      "Ġwat": 3168,
      "Ġchief": 3169,
      "Ġ100": 3170,
      "ext": 3171,
      "Ġcompleted": 3172,
      "Ġwrite": 3173,
      "Ġparticip": 3174,
      "Ġliberal": 3175,
      "anches": 3176,
      "jing": 3177,
      "riot": 3178,
      "ama": 3179,
      "Ġ187": 3180,
      "Ġinvite": 3181,
      "Ġprivile": 3182,
      "ĠEuropean": 3183,
      "Ġdeemed": 3184,
      "ium": 3185,
      "Ġboy": 3186,
      "Ġpen": 3187,
      "Ġrout": 3188,
      "Ġdemon": 3189,
      "Ġmatters": 3190,
      "Ġlimit": 3191,
      "Ġjudgment": 3192,
      "Ġadjustment": 3193,
      "Ġreci": 3194,
      "wards": 3195,
      "Ġrequires": 3196,
      "ĠFriday": 3197,
      "Ġobserv": 3198,
      "Ġdesirable": 3199,
      "ĠDistrict": 3200,
      "aper": 3201,
      "Ġwage": 3202,
      "eaking": 3203,
      "ĠPar": 3204,
      "Ġenable": 3205,
      "Ġtermin": 3206,
      "Ġ50": 3207,
      "Ġmarried": 3208,
      "Ġmaintained": 3209,
      "Ġsimple": 3210,
      "hab": 3211,
      "viet": 3212,
      "Ġgone": 3213,
      "ĠCent": 3214,
      "Ġnotice": 3215,
      "Ġsoci": 3216,
      "Ġbranches": 3217,
      "Ġentit": 3218,
      "Ġearnestly": 3219,
      "It": 3220,
      "Ġsan": 3221,
      "Ġsays": 3222,
      "Ġpack": 3223,
      "ĠNations": 3224,
      "Ġrespective": 3225,
      "Ġdeficit": 3226,
      "ĠSmith": 3227,
      "Ġintellig": 3228,
      "ney": 3229,
      "Ġbased": 3230,
      "Ġnavigation": 3231,
      "Ġsteps": 3232,
      "Ġperformance": 3233,
      "Ġimpossible": 3234,
      "ĠAdministration": 3235,
      "Ġ;": 3236,
      "Ġbroad": 3237,
      "Ġvict": 3238,
      "Ġattend": 3239,
      "Ġpeaceful": 3240,
      "tofore": 3241,
      "Ġwonderful": 3242,
      "Ġpatriot": 3243,
      "rehen": 3244,
      "Ġwords": 3245,
      "Ġpec": 3246,
      "els": 3247,
      "Ġconsiderable": 3248,
      "ĠSoviet": 3249,
      "Ġimmig": 3250,
      "Ġimprovements": 3251,
      "Ġbirthday": 3252,
      "Ġapplied": 3253,
      "fort": 3254,
      "Ġfirm": 3255,
      "Ġones": 3256,
      "Ġwest": 3257,
      "Ġ11": 3258,
      "Ġimper": 3259,
      "Ġlegal": 3260,
      "ball": 3261,
      "rimin": 3262,
      "Ġgave": 3263,
      "Ġwouldn": 3264,
      "Ġreports": 3265,
      "ritories": 3266,
      "Ġconsidered": 3267,
      "Ġoffices": 3268,
      "Ġshows": 3269,
      "Ġdeliver": 3270,
      "oll": 3271,
      "rest": 3272,
      "vert": 3273,
      "Ġcong": 3274,
      "iform": 3275,
      "Ġmanifest": 3276,
      "Ġactive": 3277,
      "Ġextend": 3278,
      "Ġevents": 3279,
      "Ġcarrying": 3280,
      "Ġraise": 3281,
      "Ġtown": 3282,
      "Ġfather": 3283,
      "ĠTr": 3284,
      "Ġareas": 3285,
      "Ġsovereign": 3286,
      "Ġsubmit": 3287,
      "Ġissued": 3288,
      "gage": 3289,
      "Ġsick": 3290,
      "Ġsource": 3291,
      "Ġpict": 3292,
      "Ġfle": 3293,
      "Ġnone": 3294,
      "Ġheavy": 3295,
      "ĠOr": 3296,
      "Ġheretofore": 3297,
      "Ġguard": 3298,
      "Ġdistrict": 3299,
      "Ġkinds": 3300,
      "Ġanswer": 3301,
      "Ġpoints": 3302,
      "hood": 3303,
      "Ġgame": 3304,
      "Ġattain": 3305,
      "Ġuns": 3306,
      "empl": 3307,
      "Ġchallenge": 3308,
      "Ġtemporary": 3309,
      "atory": 3310,
      "Ġdream": 3311,
      "Ġhosp": 3312,
      "Ġwhite": 3313,
      "Ġpayments": 3314,
      "Ġadded": 3315,
      "Ġparticularly": 3316,
      "Ġrules": 3317,
      "ER": 3318,
      "rant": 3319,
      "reed": 3320,
      "Ġdress": 3321,
      "Ġlunch": 3322,
      "Ġhair": 3323,
      "ili": 3324,
      "Ġuniform": 3325,
      "raph": 3326,
      "Ġ25": 3327,
      "Ġterrible": 3328,
      "tenance": 3329,
      "ancing": 3330,
      "Ġpurchas": 3331,
      "ĠPhil": 3332,
      "ped": 3333,
      "attle": 3334,
      "Ġsqu": 3335,
      "icious": 3336,
      "ĠTV": 3337,
      "rop": 3338,
      "Ġweap": 3339,
      "resh": 3340,
      "Ġ200": 3341,
      "Ġcolor": 3342,
      "Ġnegotiations": 3343,
      "Ġdepends": 3344,
      "Ġinvolved": 3345,
      "25": 3346,
      "antic": 3347,
      "Ġforgot": 3348,
      "ironment": 3349,
      "Ġneither": 3350,
      "Ġdeb": 3351,
      "Ġtakes": 3352,
      "Ġrelation": 3353,
      "Ġcouldn": 3354,
      "Ġearl": 3355,
      "Ġopportunities": 3356,
      "Ġresearch": 3357,
      "ijing": 3358,
      "ĠOct": 3359,
      "Ġelection": 3360,
      "Ġfavorite": 3361,
      "Ġremains": 3362,
      "ĠBeijing": 3363,
      "arrass": 3364,
      "Ġgun": 3365,
      "ĠLast": 3366,
      "uel": 3367,
      "Ġpolice": 3368,
      "Ġblood": 3369,
      "Ġthousand": 3370,
      "Ġappreciate": 3371,
      "Ġsleep": 3372,
      "Ġisland": 3373,
      "tern": 3374,
      "Ġgoal": 3375,
      "Ġvalu": 3376,
      "Ġdirectly": 3377,
      "Ġfacilities": 3378,
      "Ġassistance": 3379,
      "Ġwithdraw": 3380,
      "Ġaut": 3381,
      "Ġreb": 3382,
      "ĠCal": 3383,
      "Ġotherwise": 3384,
      "Ġregulations": 3385,
      "Ġbuilt": 3386,
      "Ġhappen": 3387,
      "Ġcrimin": 3388,
      "Ġurge": 3389,
      "Ġconcluded": 3390,
      "Ġfixed": 3391,
      "ply": 3392,
      "atur": 3393,
      "Ġsun": 3394,
      "Ġkids": 3395,
      "Ġindic": 3396,
      "Ġcoin": 3397,
      "Ġofficer": 3398,
      "Ġannoun": 3399,
      "Ġteach": 3400,
      "bye": 3401,
      "Ġembarrass": 3402,
      "Ġshopping": 3403,
      "Ġenvironment": 3404,
      "ĠOctober": 3405,
      "Ġfulf": 3406,
      "ĠAm": 3407,
      "ĠCl": 3408,
      "Ġkill": 3409,
      "emn": 3410,
      "ugust": 3411,
      "Ġmaintenance": 3412,
      "Ġnegotiation": 3413,
      "Ġpurchase": 3414,
      "40": 3415,
      "Ġder": 3416,
      "Ġhus": 3417,
      "Ġwear": 3418,
      "Ġconstru": 3419,
      "ĠCor": 3420,
      "Ġstra": 3421,
      "ĠMore": 3422,
      "Ġrestrict": 3423,
      "Ġgives": 3424,
      "Ġconsum": 3425,
      "Ġelect": 3426,
      "Ġexpenditure": 3427,
      "Ġdangerous": 3428,
      "Ġboundary": 3429,
      "Ġmerely": 3430,
      "Ġavoid": 3431,
      "ureau": 3432,
      "Ġfulfill": 3433,
      "18": 3434,
      "Ġsen": 3435,
      "Ġdecide": 3436,
      "Ġdifferences": 3437,
      "Ġequally": 3438,
      "Ġstudents": 3439,
      "Ġwaiting": 3440,
      "Ġdestroy": 3441,
      "Ġproportion": 3442,
      "Ġwaste": 3443,
      "ats": 3444,
      "Ġfig": 3445,
      "ĠAugust": 3446,
      "ĠThose": 3447,
      "Ġpred": 3448,
      "Ġgenerally": 3449,
      "Ġbot": 3450,
      "Ġdam": 3451,
      "ets": 3452,
      "ĠPe": 3453,
      "Ġefficient": 3454,
      "ĠCanad": 3455,
      "Ġflag": 3456,
      "Ġinjur": 3457,
      "Ġsources": 3458,
      "Ġmist": 3459,
      "cean": 3460,
      "cember": 3461,
      "adam": 3462,
      "Ġbelong": 3463,
      "Ġhighly": 3464,
      "Ġretire": 3465,
      "Ġdollar": 3466,
      "Ġdouble": 3467,
      "Ġexclusive": 3468,
      "ology": 3469,
      "Ġdiplomatic": 3470,
      "Ġcompensation": 3471,
      "13": 3472,
      "60": 3473,
      "iver": 3474,
      "Ġpain": 3475,
      "Ġjoint": 3476,
      "Ġrelax": 3477,
      "Ġadvice": 3478,
      "ĠVery": 3479,
      "Ġfinished": 3480,
      "Ġpreserve": 3481,
      "Ġdisposition": 3482,
      "Ġcorrect": 3483,
      "Ġult": 3484,
      "Ġmount": 3485,
      "Ġnon": 3486,
      "Ġwasn": 3487,
      "Ġcontempl": 3488,
      "Ġindustries": 3489,
      "Ġfriendship": 3490,
      "Ġcommissioners": 3491,
      "ĠQ": 3492,
      "ators": 3493,
      "Ġpark": 3494,
      "isan": 3495,
      "Ġsuc": 3496,
      "Ġgoes": 3497,
      "Ġobv": 3498,
      "Ġproduced": 3499,
      "Ġlower": 3500,
      "Ġspecific": 3501,
      "Ġtouch": 3502,
      "ĠWorld": 3503,
      "Ġhusband": 3504,
      "45": 3505,
      "Ġtired": 3506,
      "ane": 3507,
      "eng": 3508,
      "astic": 3509,
      "Ġsalary": 3510,
      "Ġbehind": 3511,
      "ĠDecember": 3512,
      "Ġaverage": 3513,
      "Ġsucceed": 3514,
      "Ġfru": 3515,
      "Ġitem": 3516,
      "Ġ17": 3517,
      "Ġexpedi": 3518,
      "ĠLond": 3519,
      "Ġblack": 3520,
      "Ġinvestment": 3521,
      "Ġtype": 3522,
      "Ġcorporations": 3523,
      "Ġsurvey": 3524,
      "ĠLondon": 3525,
      "15": 3526,
      "apt": 3527,
      "bur": 3528,
      "lear": 3529,
      "Ġsty": 3530,
      "ticip": 3531,
      "Ġcouple": 3532,
      "ION": 3533,
      "Ġoil": 3534,
      "Ġcrit": 3535,
      "ervice": 3536,
      "arent": 3537,
      "Ġcolon": 3538,
      "Ġarrangement": 3539,
      "Ġwinter": 3540,
      "Ġ)": 3541,
      "Ġanticip": 3542,
      "Ġstip": 3543,
      "Ġmoral": 3544,
      "Ġrevolution": 3545,
      "Ġestimates": 3546,
      "Ġentitled": 3547,
      "ties": 3548,
      "Ġball": 3549,
      "ĠMost": 3550,
      "Ġtruth": 3551,
      "Ġcomprehen": 3552,
      "soci": 3553,
      "Ġnecessarily": 3554,
      "Ġforest": 3555,
      "Ġapproach": 3556,
      "Ġarmed": 3557,
      "Ġdetails": 3558,
      "ĠRussia": 3559,
      "Ġunemployment": 3560,
      "orough": 3561,
      "imately": 3562,
      "Ġasking": 3563,
      "Ġneut": 3564,
      "Ġalthough": 3565,
      "Ġspace": 3566,
      "Ġpolicies": 3567,
      "Ġexistence": 3568,
      "Ġvote": 3569,
      "Ġsettled": 3570,
      "Ġiniti": 3571,
      "Ġexcellent": 3572,
      "lor": 3573,
      "Ġdimin": 3574,
      "Ġthorough": 3575,
      "Ġlay": 3576,
      "Ġreferred": 3577,
      "ĠMed": 3578,
      "Ġsuppose": 3579,
      "akes": 3580,
      "Ġmajority": 3581,
      "Ġmedical": 3582,
      "Ġsociety": 3583,
      "Ġtour": 3584,
      "lly": 3585,
      "ĠSounds": 3586,
      "Ġdoor": 3587,
      "ival": 3588,
      "Ġspeaking": 3589,
      "Ġincon": 3590,
      "Ġrelie": 3591,
      "Ġentertain": 3592,
      "Ġgratifying": 3593,
      "Ġrecipro": 3594,
      "Ġexpressed": 3595,
      "Ġperhaps": 3596,
      "Ġ183": 3597,
      "Ġapproved": 3598,
      "Ġdiscrimin": 3599,
      "Ġcirculation": 3600,
      "Ġlanguage": 3601,
      "Ġdemonstr": 3602,
      "af": 3603,
      "Ġpot": 3604,
      "ĠTake": 3605,
      "Ġstore": 3606,
      "esty": 3607,
      "ĠEm": 3608,
      "Ġfinish": 3609,
      "Ġlargely": 3610,
      "Ġfacts": 3611,
      "Ġconcerned": 3612,
      "Ġrapidly": 3613,
      "Ġabsolutely": 3614,
      "46": 3615,
      "gr": 3616,
      "ĠZ": 3617,
      "Ġcents": 3618,
      "Ġbear": 3619,
      "ĠTod": 3620,
      "ĠSatur": 3621,
      "Ġprocl": 3622,
      "Ġrecon": 3623,
      "Ġtreatment": 3624,
      "Ġearth": 3625,
      "Ġgradu": 3626,
      "Ġconvenient": 3627,
      "Ġcatch": 3628,
      "Ġdrug": 3629,
      "Ġsuitable": 3630,
      "ulating": 3631,
      "ensions": 3632,
      "Ġquiet": 3633,
      "Ġproud": 3634,
      "Ġtransfer": 3635,
      "Ġchanged": 3636,
      "Ġpreceding": 3637,
      "Ġmass": 3638,
      "Ġapparent": 3639,
      "ĠLeg": 3640,
      "Ġbecame": 3641,
      "Ġextensive": 3642,
      "Ġkey": 3643,
      "Ġfailed": 3644,
      "Ġcustoms": 3645,
      "ashion": 3646,
      "ĠGerm": 3647,
      "Ġamendment": 3648,
      "inguished": 3649,
      "Ġweapons": 3650,
      "ked": 3651,
      "overy": 3652,
      "Ġcook": 3653,
      "Ġlately": 3654,
      "sem": 3655,
      "Ġcivilization": 3656,
      "Ġscience": 3657,
      "Ġdemocracy": 3658,
      "Ġsavings": 3659,
      "Ġemergency": 3660,
      "Ġcert": 3661,
      "Ġban": 3662,
      "arm": 3663,
      "iforn": 3664,
      "Ġrace": 3665,
      "Ġresort": 3666,
      "ĠNothing": 3667,
      "Ġfollowed": 3668,
      "Ġaccepted": 3669,
      "Ġgranted": 3670,
      "Ġeyes": 3671,
      "ĠCaliforn": 3672,
      "ha": 3673,
      "ks": 3674,
      "inations": 3675,
      "Ġwages": 3676,
      "Ġpending": 3677,
      "Ġfresh": 3678,
      "ower": 3679,
      "Ġcomfort": 3680,
      "Ġguy": 3681,
      "Ġconfirm": 3682,
      "Ġbox": 3683,
      "Ġpromptly": 3684,
      "gu": 3685,
      "state": 3686,
      "Ġinsist": 3687,
      "cel": 3688,
      "cious": 3689,
      "Ġacres": 3690,
      "teen": 3691,
      "Ġimproved": 3692,
      "ĠAfric": 3693,
      "23": 3694,
      "iest": 3695,
      "Ġinhab": 3696,
      "Ġlatter": 3697,
      "Ġrich": 3698,
      "Ġdisapp": 3699,
      "Ġloans": 3700,
      "ugh": 3701,
      "Ġtaxation": 3702,
      "Ġprevail": 3703,
      "Ġprior": 3704,
      "Ġencoura": 3705,
      "Ġuniversity": 3706,
      "Ġoccurred": 3707,
      "16": 3708,
      "But": 3709,
      "Ġresist": 3710,
      "Ġaband": 3711,
      "Ġanyone": 3712,
      "Ġpowerful": 3713,
      "Ġorders": 3714,
      "Ġrelationship": 3715,
      "Ġinclude": 3716,
      "Ġsuggestions": 3717,
      "Ġburden": 3718,
      "Ġobtained": 3719,
      "Ġvacation": 3720,
      "Ġenforcement": 3721,
      "Ġhousing": 3722,
      "ship": 3723,
      "Ġcool": 3724,
      "Ġfire": 3725,
      "Ġindu": 3726,
      "Ġhol": 3727,
      "Ġagreed": 3728,
      "Ġregion": 3729,
      "Ġregret": 3730,
      "Ġpaying": 3731,
      "Ġentered": 3732,
      "Ġstrict": 3733,
      "Ġnumbers": 3734,
      "uclear": 3735,
      "Ġinflation": 3736,
      "Ġaggreg": 3737,
      "Ġworthy": 3738,
      "Ġpracticable": 3739,
      "ses": 3740,
      "Ġbra": 3741,
      "iger": 3742,
      "ĠAust": 3743,
      "Ġprohib": 3744,
      "ĠPan": 3745,
      "Ġfloor": 3746,
      "Ġcivilized": 3747,
      "Ġenjoyed": 3748,
      "Ġpoor": 3749,
      "Ġcopy": 3750,
      "Ġvaluable": 3751,
      "ĠSaturday": 3752,
      "Ġhate": 3753,
      "omb": 3754,
      "raq": 3755,
      "osing": 3756,
      "Ġimposed": 3757,
      "Ġevidence": 3758,
      "Ġassur": 3759,
      "ortunately": 3760,
      "Ġopened": 3761,
      "Ġclearly": 3762,
      "Ġdeliber": 3763,
      "Ġfraud": 3764,
      "28": 3765,
      "70": 3766,
      "You": 3767,
      "arged": 3768,
      "vember": 3769,
      "ĠItal": 3770,
      "Ġ14": 3771,
      "Ġagents": 3772,
      "Ġexped": 3773,
      "Ġpled": 3774,
      "ĠNovember": 3775,
      "Ġrestr": 3776,
      "Ġurgent": 3777,
      "Ġrendered": 3778,
      "ĠIraq": 3779,
      "Ġreference": 3780,
      "ĠTheir": 3781,
      "ĠCour": 3782,
      "Ġallies": 3783,
      "dule": 3784,
      "Ġloc": 3785,
      "Ġcontinent": 3786,
      "Ġinvited": 3787,
      "aken": 3788,
      "Ġreasons": 3789,
      "Ġapprehen": 3790,
      "Ġconstantly": 3791,
      "cription": 3792,
      "ĠToday": 3793,
      "75": 3794,
      "ches": 3795,
      "son": 3796,
      "Ġsinc": 3797,
      "Ġ13": 3798,
      "iving": 3799,
      "Ġindeed": 3800,
      "Ġprospect": 3801,
      "Ġmachine": 3802,
      "ĠCentral": 3803,
      "Ġhospital": 3804,
      "29": 3805,
      "EN": 3806,
      "ĠSomet": 3807,
      "ĠOffice": 3808,
      "ĠGr": 3809,
      "Ġapproval": 3810,
      "Ġrestor": 3811,
      "Ġsurpr": 3812,
      "Ġ40": 3813,
      "Ġremaining": 3814,
      "Ġpromotion": 3815,
      "Ġrecognized": 3816,
      "Ġveter": 3817,
      "Ġmaterials": 3818,
      "Ġobvious": 3819,
      "500": 3820,
      "cle": 3821,
      "rary": 3822,
      "Ġhomes": 3823,
      "ĠAcc": 3824,
      "ĠBesides": 3825,
      "eav": 3826,
      "Ġadj": 3827,
      "ĠFeb": 3828,
      "ĠJack": 3829,
      "Ġleaders": 3830,
      "Ġentirely": 3831,
      "Ġsupplies": 3832,
      "ĠLegisl": 3833,
      ",\"": 3834,
      "mark": 3835,
      "Ġcourage": 3836,
      "Ġmine": 3837,
      "Ġexport": 3838,
      "Ġexports": 3839,
      "ruary": 3840,
      "Ġhimself": 3841,
      "clock": 3842,
      "Ġplanning": 3843,
      "Ġengine": 3844,
      "Ġstatute": 3845,
      "Ġquickly": 3846,
      "26": 3847,
      "80": 3848,
      "Ġcord": 3849,
      "Ġcand": 3850,
      "ĠBank": 3851,
      "icken": 3852,
      "Ġamounted": 3853,
      "Ġcharged": 3854,
      "Ġvalues": 3855,
      "Ġgeneration": 3856,
      "Ġviolence": 3857,
      "ĠProv": 3858,
      "Ġdetermination": 3859,
      "Ġremedy": 3860,
      "ĠCalifornia": 3861,
      "lantic": 3862,
      "Ġant": 3863,
      "Ġreserve": 3864,
      "Ġrelig": 3865,
      "Ġendeav": 3866,
      "Ġcheap": 3867,
      "Ġminimum": 3868,
      "Ġglob": 3869,
      "Ġadoption": 3870,
      "Ġlearned": 3871,
      "Ġburd": 3872,
      "Ġdraw": 3873,
      "ĠFebruary": 3874,
      "ey": 3875,
      "Ġwine": 3876,
      "ene": 3877,
      "Ġnuclear": 3878,
      "ĠSir": 3879,
      "Ġrain": 3880,
      "Ġgets": 3881,
      "ĠKing": 3882,
      "Ġprepare": 3883,
      "Ġfollowing": 3884,
      "Ġriver": 3885,
      "19": 3886,
      "Ġinqu": 3887,
      "Ġascertain": 3888,
      "ansion": 3889,
      "ĠLi": 3890,
      "Ġpossib": 3891,
      "Ġslow": 3892,
      "Ġstead": 3893,
      "Ġreading": 3894,
      "Ġfailure": 3895,
      "ĠAnything": 3896,
      "ĠCompany": 3897,
      "Ġfighting": 3898,
      "ĠGermany": 3899,
      "We": 3900,
      "bted": 3901,
      "ua": 3902,
      "Ġsister": 3903,
      "osition": 3904,
      "Ġindemn": 3905,
      "Ġconsent": 3906,
      "Ġpostal": 3907,
      "Ġrecognize": 3908,
      "Ġdischarge": 3909,
      "Ġdocuments": 3910,
      "master": 3911,
      "ny": 3912,
      "Ġcru": 3913,
      "orial": 3914,
      "istic": 3915,
      "Ġpeoples": 3916,
      "Ġterm": 3917,
      "Ġmarked": 3918,
      "Ġconnected": 3919,
      "Ġconsequence": 3920,
      "Ġsubstantial": 3921,
      "ĠTwo": 3922,
      "stood": 3923,
      "Ġrepl": 3924,
      "Ġprove": 3925,
      "ĠHa": 3926,
      "ĠGu": 3927,
      "Ġlearning": 3928,
      "Ġrunning": 3929,
      "Ġfarmers": 3930,
      "Ġmedic": 3931,
      "ĠCourt": 3932,
      "Ġtit": 3933,
      "Ġaim": 3934,
      "ining": 3935,
      "Ġanim": 3936,
      "ishes": 3937,
      "amation": 3938,
      "Ġusing": 3939,
      "Ġpermitted": 3940,
      "Ġstrate": 3941,
      "Ġfrequ": 3942,
      "Ġdifficulty": 3943,
      "Ġplaying": 3944,
      "Ġinvestigation": 3945,
      "Ġreview": 3946,
      "Ġrecognition": 3947,
      "Ġvigor": 3948,
      "com": 3949,
      "iary": 3950,
      "jesty": 3951,
      "na": 3952,
      "rate": 3953,
      "int": 3954,
      "Ġmission": 3955,
      "Ġnet": 3956,
      "Ġdestruction": 3957,
      "Ġunn": 3958,
      "Ġsoil": 3959,
      "ards": 3960,
      "Ġappropriate": 3961,
      "Ġrefle": 3962,
      "ĠPhilipp": 3963,
      "ding": 3964,
      "ze": 3965,
      "rees": 3966,
      "Ġmedi": 3967,
      "Ġresid": 3968,
      "ĠBob": 3969,
      "Ġpartn": 3970,
      "cks": 3971,
      "Ġhelping": 3972,
      "Ġimports": 3973,
      "Ġdiscount": 3974,
      "Ġhealthy": 3975,
      "Ġcapt": 3976,
      "Ġconclusion": 3977,
      "ĠAbout": 3978,
      "Ġdefinitely": 3979,
      "oke": 3980,
      "Ġcur": 3981,
      "Ġdance": 3982,
      "arag": 3983,
      "Ġassoci": 3984,
      "Ġris": 3985,
      "ĠNic": 3986,
      "Ġfundament": 3987,
      "Ġdetermined": 3988,
      "Ġskills": 3989,
      "Ġactivities": 3990,
      "mas": 3991,
      "Ġyeah": 3992,
      "Ġrefer": 3993,
      "ĠSup": 3994,
      "Ġrise": 3995,
      "ĠMar": 3996,
      "Ġabund": 3997,
      "bled": 3998,
      "Ġeverywhere": 3999,
      "Ġproved": 4000,
      "Ġattract": 4001,
      "Ġroll": 4002,
      "Ġdepartments": 4003,
      "Ġkeeping": 4004,
      "Ġstatement": 4005,
      "Ġopening": 4006,
      "Ġmanufactures": 4007,
      "Ġaccomplish": 4008,
      "Ġcompletely": 4009,
      "Ġschedule": 4010,
      "sh": 4011,
      "Ġsort": 4012,
      "Ġinev": 4013,
      "Ġhor": 4014,
      "iments": 4015,
      "ters": 4016,
      "Ġnote": 4017,
      "Ġagencies": 4018,
      "Ġplain": 4019,
      "Ġproperly": 4020,
      "Ġforms": 4021,
      "Ġbills": 4022,
      "ĠAtlantic": 4023,
      "ĠShould": 4024,
      "Ġembra": 4025,
      "Ġbrother": 4026,
      "Ġfrontier": 4027,
      "Ġappears": 4028,
      "ĠWestern": 4029,
      "ĠParis": 4030,
      "Ġstraight": 4031,
      "more": 4032,
      "mine": 4033,
      "rust": 4034,
      "Ġwide": 4035,
      "ale": 4036,
      "Ġforb": 4037,
      "Ġstru": 4038,
      "Ġassem": 4039,
      "Ġdeath": 4040,
      "apers": 4041,
      "Ġ21": 4042,
      "Ġelimin": 4043,
      "Ġsimply": 4044,
      "Ġjudicial": 4045,
      "ĠColumb": 4046,
      "Ġsacr": 4047,
      "43": 4048,
      "rated": 4049,
      "ancy": 4050,
      "Ġcup": 4051,
      "Ġfashion": 4052,
      "Ġstuff": 4053,
      "Ġshipp": 4054,
      "ople": 4055,
      "Ġ16": 4056,
      "ĠPort": 4057,
      "Ġexpansion": 4058,
      "cknow": 4059,
      "Ġsecuring": 4060,
      "Ġ190": 4061,
      "Ġobligation": 4062,
      "Ġevils": 4063,
      "ĠNicarag": 4064,
      "Ġpension": 4065,
      "Ġadvert": 4066,
      "Ġresolution": 4067,
      "Ġcontest": 4068,
      "anged": 4069,
      "Ġregulation": 4070,
      "Ġdecisions": 4071,
      "Ġdefend": 4072,
      "Ġblock": 4073,
      "Ġequip": 4074,
      "Ġincluded": 4075,
      "Ġaggression": 4076,
      "idding": 4077,
      "ĠPerhaps": 4078,
      "Ġabandon": 4079,
      "ded": 4080,
      "rants": 4081,
      "atures": 4082,
      "outhern": 4083,
      "Ġremove": 4084,
      "ĠBye": 4085,
      "Ġwatching": 4086,
      "rupt": 4087,
      "Ġpecul": 4088,
      "Ġcomprehensive": 4089,
      "cil": 4090,
      "Ġacknow": 4091,
      "cture": 4092,
      "eter": 4093,
      "ĠChe": 4094,
      "ĠHer": 4095,
      "Ġunion": 4096,
      "ĠBureau": 4097,
      "Ġanyway": 4098,
      "Ġinteg": 4099,
      "Ġcitizenship": 4100,
      "Ġpassage": 4101,
      "ĠSecurity": 4102,
      "Ġhistor": 4103,
      "Ġhumanity": 4104,
      "Ġrequirements": 4105,
      "Ġcounter": 4106,
      "Ġpeculiar": 4107,
      "Ġmiddle": 4108,
      "ots": 4109,
      "Ġdog": 4110,
      "Ġenabl": 4111,
      "Ġrepeal": 4112,
      "Ġgrand": 4113,
      "Ġconsiderations": 4114,
      "Ġsymp": 4115,
      "Ġsuggested": 4116,
      "Ġexception": 4117,
      "Ġmovies": 4118,
      "Ġdevot": 4119,
      "Ġdesigned": 4120,
      "Ġcele": 4121,
      "Ġstruggle": 4122,
      "Ġitems": 4123,
      "90": 4124,
      "Ġbell": 4125,
      "ĠWait": 4126,
      "Ġexcess": 4127,
      "ilit": 4128,
      "Ġlibr": 4129,
      "ĠIts": 4130,
      "Ġword": 4131,
      "Ġchicken": 4132,
      "Ġalike": 4133,
      "ounded": 4134,
      "Ġsigned": 4135,
      "Ġdealing": 4136,
      "Ġpressure": 4137,
      "ĠMajesty": 4138,
      "Ġwaters": 4139,
      "ĠCanada": 4140,
      "Ġinhabit": 4141,
      "Ġburdens": 4142,
      "17": 4143,
      "Ġson": 4144,
      "issi": 4145,
      "entions": 4146,
      "Ġonline": 4147,
      "Ġdead": 4148,
      "ĠWelcome": 4149,
      "Ġknew": 4150,
      "Ġcarefully": 4151,
      "Ġneighbors": 4152,
      "Ġswim": 4153,
      "Ġcertific": 4154,
      "IB": 4155,
      "Ġstim": 4156,
      "ĠYet": 4157,
      "Ġsports": 4158,
      "Ġcompar": 4159,
      "Ġadvanced": 4160,
      "Ġeffects": 4161,
      "Ġleadership": 4162,
      "Ġresponsibilities": 4163,
      "Ġdeclared": 4164,
      "ĠJapanese": 4165,
      "Ġscient": 4166,
      "ĠChristmas": 4167,
      "ĠColumbia": 4168,
      "iqu": 4169,
      "ores": 4170,
      "Ġsought": 4171,
      "Ġcam": 4172,
      "urning": 4173,
      "Ġstated": 4174,
      "Ġrad": 4175,
      "Ġwholly": 4176,
      "Ġintended": 4177,
      "cont": 4178,
      "Ġended": 4179,
      "Ġhappiness": 4180,
      "Ġbeneficial": 4181,
      "Ġstudent": 4182,
      "Ġregarded": 4183,
      "Ġcontinuing": 4184,
      "Ġcontracts": 4185,
      "ĠMonday": 4186,
      "Ġtradition": 4187,
      "ĠInternational": 4188,
      "ĠPanama": 4189,
      "24": 4190,
      "AL": 4191,
      "Ġi": 4192,
      "Ġwall": 4193,
      "Ġled": 4194,
      "Ġgift": 4195,
      "Ġdear": 4196,
      "ĠSte": 4197,
      "Ġadapt": 4198,
      "ouses": 4199,
      "Ġoffered": 4200,
      "Ġaccum": 4201,
      "Ġrepresentative": 4202,
      "Ġturned": 4203,
      "Ġinstructions": 4204,
      "Ġstandards": 4205,
      "Ġconsequences": 4206,
      "Ġideas": 4207,
      "Ġvolunte": 4208,
      "Ġwindow": 4209,
      "mn": 4210,
      "wh": 4211,
      "Ġbattle": 4212,
      "ented": 4213,
      "lement": 4214,
      "ĠTon": 4215,
      "ĠAsia": 4216,
      "ird": 4217,
      "ĠCar": 4218,
      "ĠNice": 4219,
      "Ġarmy": 4220,
      "Ġguest": 4221,
      "Ġrealize": 4222,
      "Ġexamination": 4223,
      "Ġveget": 4224,
      "Ġextraord": 4225,
      "Ġnewsp": 4226,
      "Ġthousands": 4227,
      "Ġokay": 4228,
      "Ġretirement": 4229,
      "Ġaggregate": 4230,
      "Ġveterans": 4231,
      "co": 4232,
      "eem": 4233,
      "iable": 4234,
      "ased": 4235,
      "Ġgas": 4236,
      "Ġstaff": 4237,
      "Ġmeant": 4238,
      "Ġkit": 4239,
      "Ġadmit": 4240,
      "Ġspent": 4241,
      "Ġspring": 4242,
      "Ġcontact": 4243,
      "Ġpassport": 4244,
      "Ġdistin": 4245,
      "Ġbringing": 4246,
      "Ġphot": 4247,
      "ĠTerritories": 4248,
      "Ġprojects": 4249,
      "Ġharmony": 4250,
      "fast": 4251,
      "Ġnine": 4252,
      "ĠTell": 4253,
      "Ġassig": 4254,
      "ĠEven": 4255,
      "ĠEmp": 4256,
      "Ġhelped": 4257,
      "ograph": 4258,
      "Ġstanding": 4259,
      "ĠAlright": 4260,
      "Ġcommitte": 4261,
      "ĠShall": 4262,
      "Ġcommunicated": 4263,
      "Ġsupervision": 4264,
      "Ġhonorable": 4265,
      "ĠAgricult": 4266,
      "Ġunnecess": 4267,
      "dden": 4268,
      "ratic": 4269,
      "organ": 4270,
      "Ġded": 4271,
      "Ġcanal": 4272,
      "ĠBill": 4273,
      "Ġindisp": 4274,
      "Ġ185": 4275,
      "Ġscar": 4276,
      "Ġhandle": 4277,
      "Ġwoman": 4278,
      "Ġenacted": 4279,
      "Ġdaily": 4280,
      "Ġcorrespondence": 4281,
      "Ġdistribution": 4282,
      "Ġsincere": 4283,
      "ĠTonight": 4284,
      "63": 4285,
      "ients": 4286,
      "Ġtor": 4287,
      "Ġforth": 4288,
      "ades": 4289,
      "Ġsudden": 4290,
      "Ġlikely": 4291,
      "Ġunderstood": 4292,
      "Ġgroup": 4293,
      "Ġbusinesses": 4294,
      "Ġdistant": 4295,
      "Ġinstance": 4296,
      "Ġfunctions": 4297,
      "Ġissues": 4298,
      "Ġtickets": 4299,
      "cribe": 4300,
      "Ġmagn": 4301,
      "umerous": 4302,
      "14": 4303,
      "IC": 4304,
      "chen": 4305,
      "ones": 4306,
      "leg": 4307,
      "Ġproof": 4308,
      "ppi": 4309,
      "ache": 4310,
      "Ġadmitted": 4311,
      "Ġincident": 4312,
      "elled": 4313,
      "Ġmoving": 4314,
      "Ġsaying": 4315,
      "Ġfoundation": 4316,
      "Ġdeveloped": 4317,
      "Ġproposal": 4318,
      "Ġmaintaining": 4319,
      "Ġrevision": 4320,
      "Ġbehalf": 4321,
      "Ġdiscussion": 4322,
      "ĠMississi": 4323,
      "ĠGerman": 4324,
      "Ġfundamental": 4325,
      "ĠMississippi": 4326,
      "Ġmult": 4327,
      "ĠSun": 4328,
      "pped": 4329,
      "Ġworse": 4330,
      "Ġadm": 4331,
      "Ġusual": 4332,
      "Ġdise": 4333,
      "Ġmax": 4334,
      "Ġremind": 4335,
      "Ġdistinguished": 4336,
      "ĠDepartments": 4337,
      "Ġcris": 4338,
      "Ġsuggestion": 4339,
      "ĠInterior": 4340,
      "Ġexciting": 4341,
      "Ġfruit": 4342,
      "Ġextraordinary": 4343,
      "nd": 4344,
      "Ġscal": 4345,
      "Ġhit": 4346,
      "Ġours": 4347,
      "ĠMom": 4348,
      "Ġresol": 4349,
      "Ġplenty": 4350,
      "Ġperpet": 4351,
      "atively": 4352,
      "Ġexists": 4353,
      "Ġexperi": 4354,
      "Ġaccounts": 4355,
      "Ġmovement": 4356,
      "Ġpoll": 4357,
      "Ġcalc": 4358,
      "Ġstyle": 4359,
      "76": 4360,
      "sif": 4361,
      "ĠService": 4362,
      "ĠNor": 4363,
      "Ġshouldn": 4364,
      "adequ": 4365,
      "Ġrelating": 4366,
      "Ġconsol": 4367,
      "Ġincreases": 4368,
      "ĠKore": 4369,
      "Ġbegun": 4370,
      "Ġexcited": 4371,
      "Ġsustained": 4372,
      "Ġarbitration": 4373,
      "Ġkitchen": 4374,
      "Ġindispens": 4375,
      "cking": 4376,
      "Ġsight": 4377,
      "Ġbab": 4378,
      "Ġhu": 4379,
      "Ġyield": 4380,
      "Ġreward": 4381,
      "Ġample": 4382,
      "Ġresume": 4383,
      "Ġcommend": 4384,
      "Ġequality": 4385,
      "Ġstronger": 4386,
      "Ġseriously": 4387,
      "ĠPeople": 4388,
      "Ġinhabitants": 4389,
      "Ġfish": 4390,
      "Ġinadequ": 4391,
      "ica": 4392,
      "ĠAh": 4393,
      "Ġsoft": 4394,
      "Ġcomplic": 4395,
      "Ġaccess": 4396,
      "Ġproductive": 4397,
      "ĠAlthough": 4398,
      "Ġdelivery": 4399,
      "Ġlisten": 4400,
      "Ġsoldiers": 4401,
      "Ġremoved": 4402,
      "Ġremoval": 4403,
      "Ġpreservation": 4404,
      "ĠPostmaster": 4405,
      "ATION": 4406,
      "Ġsanction": 4407,
      "Ġcrisis": 4408,
      "enth": 4409,
      "Ġstability": 4410,
      "ĠBel": 4411,
      "Ġvirt": 4412,
      "Ġspread": 4413,
      "ĠRIB": 4414,
      "Ġprec": 4415,
      "Ġregist": 4416,
      "abor": 4417,
      "Ġrestore": 4418,
      "Ġlots": 4419,
      "Ġassure": 4420,
      "Ġestimate": 4421,
      "Ġpursued": 4422,
      "cribed": 4423,
      "ĠNicaragua": 4424,
      "Ġsympath": 4425,
      "Ġunnecessary": 4426,
      "79": 4427,
      "ites": 4428,
      "Ġleng": 4429,
      "Ġnorth": 4430,
      "uting": 4431,
      "ĠMem": 4432,
      "Ġunited": 4433,
      "ĠWhite": 4434,
      "Ġens": 4435,
      "Ġserved": 4436,
      "Ġseemed": 4437,
      "Ġinstall": 4438,
      "Ġaccordance": 4439,
      "Ġoccupation": 4440,
      "Ġsolemn": 4441,
      "Ġpicture": 4442,
      "Ġearlier": 4443,
      "Ġlibrary": 4444,
      "gic": 4445,
      "rity": 4446,
      "set": 4447,
      "Ġpan": 4448,
      "iced": 4449,
      "Ġnavy": 4450,
      "Ġagency": 4451,
      "Ġarrest": 4452,
      "Ġlegit": 4453,
      "Ġlargest": 4454,
      "Ġconcent": 4455,
      "Ġleading": 4456,
      "Ġadministr": 4457,
      "Ġcongrat": 4458,
      "ughter": 4459,
      "ĠSometimes": 4460,
      "Ġindispensable": 4461,
      "78": 4462,
      "bs": 4463,
      "uct": 4464,
      "uild": 4465,
      "reen": 4466,
      "Ġborrow": 4467,
      "omin": 4468,
      "Ġgoals": 4469,
      "Ġkidding": 4470,
      "Ġimag": 4471,
      "Ġamaz": 4472,
      "ĠRo": 4473,
      "Ġrepublic": 4474,
      "ritorial": 4475,
      "Ġcontinues": 4476,
      "Ġcars": 4477,
      "ables": 4478,
      "Ġcareer": 4479,
      "Ġinternet": 4480,
      "Ġproposals": 4481,
      "ĠOnly": 4482,
      "Ġsteady": 4483,
      "Ġraised": 4484,
      "Ġtechnology": 4485,
      "razy": 4486,
      "48": 4487,
      "55": 4488,
      "icable": 4489,
      "Ġrecovery": 4490,
      "Ġcalls": 4491,
      "itizens": 4492,
      "Ġbuying": 4493,
      "ocol": 4494,
      "Ġlovely": 4495,
      "Ġoriginal": 4496,
      "Ġcultiv": 4497,
      "Ġindemnity": 4498,
      "AR": 4499,
      "hm": 4500,
      "Ġmadam": 4501,
      "eder": 4502,
      "Ġnorm": 4503,
      "ĠMan": 4504,
      "Ġunl": 4505,
      "ĠUS": 4506,
      "ĠRes": 4507,
      "ĠRiver": 4508,
      "Ġoutl": 4509,
      "Ġextreme": 4510,
      "Ġmoved": 4511,
      "Ġresulted": 4512,
      "Ġformed": 4513,
      "Ġfamous": 4514,
      "ĠSecond": 4515,
      "Ġengage": 4516,
      "Ġprofession": 4517,
      "Ġshoes": 4518,
      "ĠEmpire": 4519,
      "33": 4520,
      "gg": 4521,
      "ler": 4522,
      "itime": 4523,
      "Ġshape": 4524,
      "Ġplant": 4525,
      "Ġdispl": 4526,
      "Ġdetermine": 4527,
      "Ġsolution": 4528,
      "Ġsteadily": 4529,
      "Ġlength": 4530,
      "AN": 4531,
      "de": 4532,
      "Ġcrazy": 4533,
      "Ġanx": 4534,
      "Ġnumerous": 4535,
      "Ġreorgan": 4536,
      "ĠSan": 4537,
      "uls": 4538,
      "ĠDad": 4539,
      "Ġclos": 4540,
      "ĠJim": 4541,
      "Ġprovides": 4542,
      "Ġwars": 4543,
      "Ġemph": 4544,
      "Ġconcer": 4545,
      "Ġsuffered": 4546,
      "Ġprosperous": 4547,
      "iversity": 4548,
      "Ġreforms": 4549,
      "Ġbroken": 4550,
      "Ġborder": 4551,
      "Ġencouragement": 4552,
      "aign": 4553,
      "pon": 4554,
      "pay": 4555,
      "Ġaward": 4556,
      "Ġpounds": 4557,
      "Ġdict": 4558,
      "sian": 4559,
      "ĠTH": 4560,
      "Ġseas": 4561,
      "rief": 4562,
      "ĠBraz": 4563,
      "that": 4564,
      "Ġabol": 4565,
      "Ġchann": 4566,
      "Ġargu": 4567,
      "Ġprem": 4568,
      "Ġseeing": 4569,
      "Ġbecomes": 4570,
      "Ġbelief": 4571,
      "Ġgenerous": 4572,
      "Ġinsurre": 4573,
      "Ġsatisfied": 4574,
      "Ġtyp": 4575,
      "Ġarrangements": 4576,
      "Ġlucky": 4577,
      "Ġseparate": 4578,
      "Ġholiday": 4579,
      "ĠBrazil": 4580,
      "42": 4581,
      "off": 4582,
      "rad": 4583,
      "Ġocean": 4584,
      "Ġwed": 4585,
      "Ġpath": 4586,
      "Ġmun": 4587,
      "Ġmob": 4588,
      "Ġfat": 4589,
      "Ġdish": 4590,
      "ĠMs": 4591,
      "ĠMark": 4592,
      "Ġlie": 4593,
      "Ġliqu": 4594,
      "ĠOther": 4595,
      "ĠBoard": 4596,
      "ĠDav": 4597,
      "Ġthereby": 4598,
      "Ġattitude": 4599,
      "ĠSocial": 4600,
      "Ġlatest": 4601,
      "Ġeasily": 4602,
      "Ġafforded": 4603,
      "Ġhostile": 4604,
      "Ġroads": 4605,
      "Ġvolunt": 4606,
      "Ġintelligence": 4607,
      "year": 4608,
      "Ġtaste": 4609,
      "iny": 4610,
      "icy": 4611,
      "Ġgrown": 4612,
      "Ġunp": 4613,
      "ĠIslands": 4614,
      "Ġprotected": 4615,
      "Ġmilitia": 4616,
      "Ġconviction": 4617,
      "Ġphys": 4618,
      "Ġcaused": 4619,
      "Ġtrial": 4620,
      "Ġenactment": 4621,
      "Ġgirls": 4622,
      "Ġmagaz": 4623,
      "Ġpunishment": 4624,
      "Ġcampaign": 4625,
      "Ġpiece": 4626,
      "Ġimmigration": 4627,
      "oking": 4628,
      "Ġbase": 4629,
      "ication": 4630,
      "Ġmeat": 4631,
      "Ġsearch": 4632,
      "ĠFin": 4633,
      "ump": 4634,
      "Ġprim": 4635,
      "Ġextending": 4636,
      "Ġfarmer": 4637,
      "Ġcharges": 4638,
      "Ġjudges": 4639,
      "Ġconnect": 4640,
      "Ġinstrument": 4641,
      "Ġcriminal": 4642,
      "Ġequipment": 4643,
      "Ġacknowled": 4644,
      "93": 4645,
      "idently": 4646,
      "ĠNext": 4647,
      "Ġattended": 4648,
      "Ġbecoming": 4649,
      "Ġcheaper": 4650,
      "Ġcollection": 4651,
      "Ġsmaller": 4652,
      "Ġstrongly": 4653,
      "ĠRepublics": 4654,
      "Ġdriving": 4655,
      "Ġmode": 4656,
      "Ġthreatened": 4657,
      "Ġpossession": 4658,
      "Ġproceedings": 4659,
      "ĠĠĠĠ": 4660,
      "Ġrepeated": 4661,
      "Ġmedicine": 4662,
      "Ġtitle": 4663,
      "Ġscale": 4664,
      "Ġlegitimate": 4665,
      "Ġsoup": 4666,
      "Ġmur": 4667,
      "owed": 4668,
      "under": 4669,
      "Ġsup": 4670,
      "Ġdoct": 4671,
      "ĠGe": 4672,
      "ĠNever": 4673,
      "Ġjustify": 4674,
      "Ġpair": 4675,
      "Ġstudying": 4676,
      "Ġexercised": 4677,
      "emption": 4678,
      "Ġprofits": 4679,
      "Ġadopt": 4680,
      "Ġtribun": 4681,
      "Ġdisposed": 4682,
      "Ġtemper": 4683,
      "ĠCommer": 4684,
      "Ġrailroads": 4685,
      "ĠMembers": 4686,
      "Ġowe": 4687,
      "Ġtwice": 4688,
      "Ġgrou": 4689,
      "Ġ24": 4690,
      "Ġconfident": 4691,
      "Ġassured": 4692,
      "Ġrooms": 4693,
      "Ġsuffer": 4694,
      "Ġcontinuance": 4695,
      "Ġprofit": 4696,
      "Ġwondering": 4697,
      "Ġviolation": 4698,
      "appy": 4699,
      "Ġfifty": 4700,
      "een": 4701,
      "eness": 4702,
      "Ġdign": 4703,
      "Ġlic": 4704,
      "Ġgall": 4705,
      "Ġgames": 4706,
      "ightened": 4707,
      "Ġunjust": 4708,
      "cient": 4709,
      "Ġinterstate": 4710,
      "Ġcontrary": 4711,
      "Ġdesk": 4712,
      "Ġdeserv": 4713,
      "Ġdeserve": 4714,
      "Ġsystems": 4715,
      "Ġblue": 4716,
      "Ġsurv": 4717,
      "ĠMrs": 4718,
      "Ġinsure": 4719,
      "Ġshowing": 4720,
      "Ġrepresented": 4721,
      "Ġdangers": 4722,
      "Ġmanufactur": 4723,
      "Ġborn": 4724,
      "Ġfortun": 4725,
      "Ġpenal": 4726,
      "95": 4727,
      "me": 4728,
      "inced": 4729,
      "Ġwid": 4730,
      "Ġthrow": 4731,
      "Ġretain": 4732,
      "ĠBl": 4733,
      "artisan": 4734,
      "cie": 4735,
      "Ġcompared": 4736,
      "Ġconsular": 4737,
      "Ġhardly": 4738,
      "Ġenlarge": 4739,
      "Ġguarantee": 4740,
      "Ġinspection": 4741,
      "Ġamazing": 4742,
      "ES": 4743,
      "OR": 4744,
      "ew": 4745,
      "Ġsides": 4746,
      "Ġcat": 4747,
      "ĠHaw": 4748,
      "Ġquant": 4749,
      "Ġherewith": 4750,
      "Ġwarm": 4751,
      "Ġdefe": 4752,
      "Ġdesired": 4753,
      "exp": 4754,
      "Ġadvis": 4755,
      "Ġpassing": 4756,
      "Ġestablishing": 4757,
      "Ġesc": 4758,
      "Ġgreen": 4759,
      "government": 4760,
      "Ġratified": 4761,
      "Ġenemies": 4762,
      "Ġmerchant": 4763,
      "Ġintegrity": 4764,
      "Ġadministrative": 4765,
      "Ġinsurrection": 4766,
      "ien": 4767,
      "Ġcable": 4768,
      "Ġhither": 4769,
      "Ġconform": 4770,
      "idation": 4771,
      "quest": 4772,
      "cipl": 4773,
      "Ġamb": 4774,
      "Ġacting": 4775,
      "Ġmonop": 4776,
      "Ġtransmitted": 4777,
      "Ġcorner": 4778,
      "Ġassume": 4779,
      "Ġassumed": 4780,
      "ĠSpeak": 4781,
      "Ġproposition": 4782,
      "Ġmessages": 4783,
      "ĠCommun": 4784,
      "Ġreturned": 4785,
      "Ġinjury": 4786,
      "Ġcontribute": 4787,
      "Ġarrived": 4788,
      "Ġteachers": 4789,
      "isphere": 4790,
      "Ġfilm": 4791,
      "Ġrestoration": 4792,
      "Ġglobal": 4793,
      "Ġmedium": 4794,
      "Ġbaby": 4795,
      "Ġgroups": 4796,
      "Th": 4797,
      "Ġign": 4798,
      "sthm": 4799,
      "Ġinstitution": 4800,
      "ically": 4801,
      "Ġbegan": 4802,
      "Ġrising": 4803,
      "Ġinterference": 4804,
      "Ġappeal": 4805,
      "ĠRec": 4806,
      "Ġfee": 4807,
      "Ġsurely": 4808,
      "Ġeffected": 4809,
      "Ġspecie": 4810,
      "Ġconserv": 4811,
      "Ġslight": 4812,
      "Ġenlist": 4813,
      "Ġbreakfast": 4814,
      "Ġfurnished": 4815,
      "Ġrenewed": 4816,
      "ĠColomb": 4817,
      "Ġactivity": 4818,
      "Ġwestern": 4819,
      "Ġendeavor": 4820,
      "ĠKorea": 4821,
      "IN": 4822,
      "five": 4823,
      "rel": 4824,
      "Ġsand": 4825,
      "isen": 4826,
      "Ġreject": 4827,
      "Ġforty": 4828,
      "verty": 4829,
      "lying": 4830,
      "Ġpropri": 4831,
      "ĠCo": 4832,
      "term": 4833,
      "aches": 4834,
      "izations": 4835,
      "Ġcommence": 4836,
      "Ġgrants": 4837,
      "iciently": 4838,
      "Ġplane": 4839,
      "together": 4840,
      "Ġeasier": 4841,
      "Ġpoverty": 4842,
      "Ġfootball": 4843,
      "Ġrepeat": 4844,
      "Ġbott": 4845,
      "ĠAgriculture": 4846,
      "Ġwedding": 4847,
      "22": 4848,
      "mail": 4849,
      "nam": 4850,
      "oices": 4851,
      "Ġaug": 4852,
      "Ġbrief": 4853,
      "eded": 4854,
      "Ġgain": 4855,
      "Ġconfer": 4856,
      "ĠHowever": 4857,
      "Ġaccident": 4858,
      "Ġmatch": 4859,
      "Ġordered": 4860,
      "Ġamounting": 4861,
      "Ġformal": 4862,
      "Ġjudge": 4863,
      "Ġpreparation": 4864,
      "Ġcreation": 4865,
      "Ġdrawn": 4866,
      "Ġconducted": 4867,
      "Ġbanking": 4868,
      "ĠAfrica": 4869,
      "Ġcordial": 4870,
      "ĠTHE": 4871,
      "65": 4872,
      "lin": 4873,
      "tor": 4874,
      "Ġice": 4875,
      "inent": 4876,
      "Ġoh": 4877,
      "Ġsong": 4878,
      "Ġsouth": 4879,
      "Ġagent": 4880,
      "ago": 4881,
      "Ġdesp": 4882,
      "Ġdepart": 4883,
      "Ġrestored": 4884,
      "Ġurged": 4885,
      "Ġholding": 4886,
      "Ġredeem": 4887,
      "Ġadjusted": 4888,
      "Ġundertaken": 4889,
      "Ġblessings": 4890,
      "Ġcontemplated": 4891,
      "after": 4892,
      "ĠHawai": 4893,
      "ĠSpeaker": 4894,
      "What": 4895,
      "city": 4896,
      "Ġbreat": 4897,
      "Ġbath": 4898,
      "orthern": 4899,
      "Ġlack": 4900,
      "osen": 4901,
      "bles": 4902,
      "Ġinterp": 4903,
      "Ġobst": 4904,
      "Ġbelow": 4905,
      "Ġrequis": 4906,
      "lfriend": 4907,
      "Ġmaritime": 4908,
      "Ġsuffering": 4909,
      "Ġfairly": 4910,
      "Ġdetailed": 4911,
      "Ġrivers": 4912,
      "Ġquarters": 4913,
      "Ġneighborhood": 4914,
      "Ġprivilege": 4915,
      "27": 4916,
      "era": 4917,
      "Ġstar": 4918,
      "Ġdiss": 4919,
      "Ġclock": 4920,
      "Ġprison": 4921,
      "ommod": 4922,
      "Ġends": 4923,
      "Ġaffected": 4924,
      "Ġcentral": 4925,
      "Ġcompletion": 4926,
      "Ġprofess": 4927,
      "Ġratification": 4928,
      "Ġdemocratic": 4929,
      "Ġpossessions": 4930,
      "Ġwriting": 4931,
      "Ġaffecting": 4932,
      "Ġmentioned": 4933,
      "Ġexpedient": 4934,
      "Ġhistoric": 4935,
      "Ġbelliger": 4936,
      "Ġmaximum": 4937,
      "ĠDavid": 4938,
      "Ġdignity": 4939,
      "47": 4940,
      "98": 4941,
      "jud": 4942,
      "Ġwit": 4943,
      "ases": 4944,
      "Ġexecut": 4945,
      "Ġsem": 4946,
      "Ġunw": 4947,
      "ĠWhatever": 4948,
      "eag": 4949,
      "ĠPr": 4950,
      "Ġspo": 4951,
      "Ġjustly": 4952,
      "Ġaccommod": 4953,
      "Ġimported": 4954,
      "Ġguys": 4955,
      "Ġreported": 4956,
      "Ġincludes": 4957,
      "Ġsla": 4958,
      "Ġinvestig": 4959,
      "Ġinstances": 4960,
      "Ġmember": 4961,
      "Ġdemanded": 4962,
      "Ġbroke": 4963,
      "Ġgirlfriend": 4964,
      "Ġcovered": 4965,
      "Ġhostilities": 4966,
      "Ġpredecess": 4967,
      "haust": 4968,
      "ux": 4969,
      "Ġinside": 4970,
      "using": 4971,
      "Ġnerv": 4972,
      "Ġrank": 4973,
      "Ġyours": 4974,
      "Ġknows": 4975,
      "Ġarising": 4976,
      "Ġwarrant": 4977,
      "Ġlooked": 4978,
      "Ġinvitation": 4979,
      "Ġdeveloping": 4980,
      "Ġbuildings": 4981,
      "iety": 4982,
      "Ġcompetent": 4983,
      "Ġconcerns": 4984,
      "Ġlevels": 4985,
      "Ġpatriotic": 4986,
      "burse": 4987,
      "Ġinitiative": 4988,
      "ĠGeor": 4989,
      "han": 4990,
      "Ġtough": 4991,
      "Ġtempt": 4992,
      "Ġcher": 4993,
      "Ġmort": 4994,
      "Ġfederal": 4995,
      "ĠIsthm": 4996,
      "riage": 4997,
      "ĠGive": 4998,
      "Ġchosen": 4999,
      "ĠEach": 5000,
      "Ġarise": 5001,
      "Ġintention": 5002,
      "Ġsubs": 5003,
      "Ġsubsid": 5004,
      "Ġsubsequ": 5005,
      "Ġdecade": 5006,
      "versy": 5007,
      "Ġconcert": 5008,
      "Ġsuccessfully": 5009,
      "Ġtrained": 5010,
      "Ġcounsel": 5011,
      "ĠInternet": 5012,
      "Ġsmoking": 5013,
      "Ġprivileges": 5014,
      "Ġdelivered": 5015,
      "Ġsovereignty": 5016,
      "Ġcomfortable": 5017,
      "Ġassurance": 5018,
      "Ġscientific": 5019,
      "ĠSunday": 5020,
      "Ġaugment": 5021,
      "inter": 5022,
      "Ġpet": 5023,
      "Ġdiet": 5024,
      "Ġeast": 5025,
      "verted": 5026,
      "key": 5027,
      "Ġstable": 5028,
      "Ġhero": 5029,
      "Ġdeleg": 5030,
      "Ġsections": 5031,
      "Ġround": 5032,
      "amber": 5033,
      "ĠGet": 5034,
      "Ġvoice": 5035,
      "Ġquit": 5036,
      "Ġremark": 5037,
      "ordin": 5038,
      "Ġexisted": 5039,
      "Ġexperiment": 5040,
      "Ġcontroversy": 5041,
      "Ġcommitment": 5042,
      "Ġhopes": 5043,
      "Ġcomplain": 5044,
      "Ġconsistent": 5045,
      "Ġeye": 5046,
      "Ġfifteen": 5047,
      "Ġderived": 5048,
      "Ġcelebr": 5049,
      "Ġinadequate": 5050,
      "Ġobstac": 5051,
      "eff": 5052,
      "Ġrig": 5053,
      "Ġthereof": 5054,
      "Ġanywhere": 5055,
      "Ġtran": 5056,
      "Ġdiscipl": 5057,
      "Ġpresident": 5058,
      "Ġclosed": 5059,
      "Ġhelpful": 5060,
      "Ġ22": 5061,
      "Ġcourses": 5062,
      "Ġtaxpay": 5063,
      "Ġglass": 5064,
      "Ġreturns": 5065,
      "Ġskin": 5066,
      "Ġcuts": 5067,
      "Ġfooting": 5068,
      "Ġexceeding": 5069,
      "Ġhurry": 5070,
      "Ġselection": 5071,
      "Ġpackage": 5072,
      "Ġvictory": 5073,
      "Ġannounce": 5074,
      "Ġinconven": 5075,
      "Ġinquir": 5076,
      "ĠSupreme": 5077,
      "che": 5078,
      "lo": 5079,
      "uit": 5080,
      "ander": 5081,
      "Ġsn": 5082,
      "Ġpull": 5083,
      "Ġegg": 5084,
      "Ġstress": 5085,
      "Ġstory": 5086,
      "ĠBar": 5087,
      "Ġworried": 5088,
      "oles": 5089,
      "Ġaltern": 5090,
      "Ġadmission": 5091,
      "Ġfault": 5092,
      "ĠLike": 5093,
      "Ġwhenever": 5094,
      "Ġfinance": 5095,
      "Ġhappens": 5096,
      "Ġfinding": 5097,
      "Ġchecked": 5098,
      "Ġinformed": 5099,
      "Ġsafeg": 5100,
      "Ġmerit": 5101,
      "Ġcreating": 5102,
      "ruption": 5103,
      "withstanding": 5104,
      "Ġrelieve": 5105,
      "Ġapprehens": 5106,
      "Ġabundant": 5107,
      "Ġstructure": 5108,
      "ĠCommerce": 5109,
      "Ġhitherto": 5110,
      "Ġsafegu": 5111,
      "Ġ/": 5112,
      "Ġwal": 5113,
      "Ġcross": 5114,
      "Ġmid": 5115,
      "let": 5116,
      "ĠSant": 5117,
      "Ġproced": 5118,
      "ida": 5119,
      "Ġabuses": 5120,
      "Ġenorm": 5121,
      "ĠEn": 5122,
      "Ġimpart": 5123,
      "Ġcontained": 5124,
      "Ġsaved": 5125,
      "Ġgrounds": 5126,
      "Ġrequiring": 5127,
      "Ġdiscover": 5128,
      "Ġwrongs": 5129,
      "Ġperformed": 5130,
      "ĠEverything": 5131,
      "Ġofficials": 5132,
      "Ġbedroom": 5133,
      "Ġdaughter": 5134,
      "Ġcolonies": 5135,
      "Ġrisk": 5136,
      "Ġtraditional": 5137,
      "35": 5138,
      "96": 5139,
      "hai": 5140,
      "inces": 5141,
      "Ġdro": 5142,
      "unk": 5143,
      "Ġexhaust": 5144,
      "ifice": 5145,
      "ulous": 5146,
      "ĠHmm": 5147,
      "Ġride": 5148,
      "ĠDay": 5149,
      "bling": 5150,
      "Ġsomewhere": 5151,
      "Ġcommenced": 5152,
      "Ġclub": 5153,
      "Ġseeking": 5154,
      "Ġrepair": 5155,
      "Ġrelative": 5156,
      "Ġtelling": 5157,
      "Ġrealized": 5158,
      "Ġdependent": 5159,
      "Ġreservations": 5160,
      "Ġcomplaint": 5161,
      "Ġfurnish": 5162,
      "Ġexhibit": 5163,
      "Ġdamage": 5164,
      "Ġinjurious": 5165,
      "ĠGrand": 5166,
      "Ġmurder": 5167,
      "Ġcake": 5168,
      "Ġbeer": 5169,
      "ĠTues": 5170,
      "ĠTai": 5171,
      "ĠCity": 5172,
      "ĠOver": 5173,
      "Ġaltogether": 5174,
      "Ġanymore": 5175,
      "uding": 5176,
      "Ġclimate": 5177,
      "Ġintend": 5178,
      "Ġpresents": 5179,
      "Ġdecrease": 5180,
      "ĠViet": 5181,
      "Ġminor": 5182,
      "Ġresulting": 5183,
      "Ġconsult": 5184,
      "Ġfounded": 5185,
      "Ġcenter": 5186,
      "Ġoperate": 5187,
      "Ġmeaning": 5188,
      "ĠAlask": 5189,
      "Ġcustomers": 5190,
      "Ġinjuries": 5191,
      "Ġenabled": 5192,
      "ĠIsthmus": 5193,
      "21": 5194,
      "ole": 5195,
      "Ġow": 5196,
      "iter": 5197,
      "Ġbeef": 5198,
      "Ġeating": 5199,
      "ĠMike": 5200,
      "ĠBoth": 5201,
      "isters": 5202,
      "ĠAnother": 5203,
      "eless": 5204,
      "Ġpride": 5205,
      "Ġguide": 5206,
      "Ġconfidently": 5207,
      "Ġflood": 5208,
      "Ġreducing": 5209,
      "Ġputting": 5210,
      "Ġelected": 5211,
      "Ġagreements": 5212,
      "Ġaccompany": 5213,
      "Ġbread": 5214,
      "Ġcompetitive": 5215,
      "Ġopinions": 5216,
      "Ġmanufacturing": 5217,
      "ĠAnyway": 5218,
      "Ġpractically": 5219,
      "Ġmachin": 5220,
      "Ġcorresponding": 5221,
      "Ġsweet": 5222,
      "Ġintroduce": 5223,
      "Ġparticipation": 5224,
      "Ġcoinage": 5225,
      "Ġfigure": 5226,
      "Ġneutral": 5227,
      "ĠMedic": 5228,
      "Ġcandid": 5229,
      "Ġshipping": 5230,
      "Ġswimming": 5231,
      "Ġscarce": 5232,
      "Ġemphas": 5233,
      "aug": 5234,
      "bly": 5235,
      "tt": 5236,
      "uous": 5237,
      "Ġlug": 5238,
      "Ġrange": 5239,
      "ĠThus": 5240,
      "ĠPl": 5241,
      "ĠFlor": 5242,
      "Ġincent": 5243,
      "Ġbrand": 5244,
      "Ġgovernmental": 5245,
      "retion": 5246,
      "Ġdistress": 5247,
      "Ġamounts": 5248,
      "Ġcapable": 5249,
      "Ġmarketing": 5250,
      "phone": 5251,
      "Ġeducational": 5252,
      "Ġprobable": 5253,
      "Ġbalanced": 5254,
      "Ġdeposits": 5255,
      "Ġ1947": 5256,
      "Ġguns": 5257,
      "ĠAmong": 5258,
      "Ġrestrictions": 5259,
      "Ġproclamation": 5260,
      "Ġmachinery": 5261,
      "How": 5262,
      "cer": 5263,
      "Ġpensions": 5264,
      "Ġmouth": 5265,
      "Ġfost": 5266,
      "ĠID": 5267,
      "Ġdry": 5268,
      "entle": 5269,
      "ĠTur": 5270,
      "ote": 5271,
      "see": 5272,
      "ateful": 5273,
      "Ġrid": 5274,
      "izes": 5275,
      "Ġarisen": 5276,
      "Ġoutstanding": 5277,
      "oyal": 5278,
      "Ġowners": 5279,
      "Ġadvoc": 5280,
      "class": 5281,
      "Ġsupported": 5282,
      "Ġdomin": 5283,
      "Ġprevented": 5284,
      "Ġrecords": 5285,
      "Ġhurt": 5286,
      "Ġultimately": 5287,
      "Ġanticipated": 5288,
      "Ġdrugs": 5289,
      "Ġdisease": 5290,
      "Ġconcerning": 5291,
      "Ġnervous": 5292,
      "ault": 5293,
      "bed": 5294,
      "dy": 5295,
      "inet": 5296,
      "att": 5297,
      "urch": 5298,
      "urred": 5299,
      "iration": 5300,
      "aded": 5301,
      "Ġsums": 5302,
      "ĠHar": 5303,
      "ĠMiddle": 5304,
      "Ġunus": 5305,
      "Ġjour": 5306,
      "asters": 5307,
      "Ġcoal": 5308,
      "Ġovertime": 5309,
      "Ġemp": 5310,
      "Ġwherever": 5311,
      "Ġsurren": 5312,
      "Ġannually": 5313,
      "Ġappropriated": 5314,
      "Ġ500": 5315,
      "Ġpractices": 5316,
      "Ġmarine": 5317,
      "Ġrefund": 5318,
      "Ġfunction": 5319,
      "Ġchanging": 5320,
      "Ġsuperior": 5321,
      "Ġsentiment": 5322,
      "Ġfamiliar": 5323,
      "Ġsolve": 5324,
      "Ġchallenges": 5325,
      "Ġroute": 5326,
      "Ġmistake": 5327,
      "Ġinevitable": 5328,
      "Ġvegetables": 5329,
      "Ġcomplicated": 5330,
      "Ġanxious": 5331,
      "ĠTuesday": 5332,
      "Ġluggage": 5333,
      "ware": 5334,
      "rew": 5335,
      "Ġband": 5336,
      "ĠSus": 5337,
      "Ġconferred": 5338,
      "ado": 5339,
      "ading": 5340,
      "Ġrural": 5341,
      "ĠOF": 5342,
      "Ġju": 5343,
      "Ġexpression": 5344,
      "Ġcomprom": 5345,
      "ĠRic": 5346,
      "Ġprejud": 5347,
      "ensus": 5348,
      "Ġpromised": 5349,
      "arsh": 5350,
      "urrence": 5351,
      "Ġredress": 5352,
      "Ġdrinks": 5353,
      "Ġnaturalization": 5354,
      "ĠJane": 5355,
      "Ġshores": 5356,
      "Ġdemonstrated": 5357,
      "Ġexpedition": 5358,
      "ĠAccord": 5359,
      "ĠSteven": 5360,
      "Ġpropriety": 5361,
      "ĠMedicare": 5362,
      "38": 5363,
      "44": 5364,
      "ray": 5365,
      "Ġtim": 5366,
      "asions": 5367,
      "ĠIm": 5368,
      "ĠSam": 5369,
      "ĠOreg": 5370,
      "Ġlabors": 5371,
      "ĠStreet": 5372,
      "Ġeverybody": 5373,
      "ipartisan": 5374,
      "Ġsail": 5375,
      "anghai": 5376,
      "Ġregions": 5377,
      "Ġsupplement": 5378,
      "Ġforever": 5379,
      "Ġleaves": 5380,
      "Ġdiscretion": 5381,
      "Ġfactory": 5382,
      "Ġfavored": 5383,
      "Ġseries": 5384,
      "Ġolder": 5385,
      "Ġurg": 5386,
      "Ġharbors": 5387,
      "Ġportions": 5388,
      "Ġairport": 5389,
      "Ġfaithful": 5390,
      "Ġrailway": 5391,
      "Ġacquis": 5392,
      "Ġdeeply": 5393,
      "Ġutmost": 5394,
      "Ġdistricts": 5395,
      "Ġdebts": 5396,
      "Ġcritical": 5397,
      "Ġassigned": 5398,
      "Ġnormal": 5399,
      "Ġtranqu": 5400,
      "Ġsurrender": 5401,
      "ĠOregon": 5402,
      "68": 5403,
      "Ġcra": 5404,
      "Ġcrow": 5405,
      "Ġpapers": 5406,
      "Ġdark": 5407,
      "icip": 5408,
      "ĠSw": 5409,
      "Ġstands": 5410,
      "ĠThrough": 5411,
      "Ġlies": 5412,
      "Ġlikes": 5413,
      "Ġuncertain": 5414,
      "Ġoffers": 5415,
      "Ġcommod": 5416,
      "Ġactions": 5417,
      "Ġsav": 5418,
      "Ġrelated": 5419,
      "Ġdefect": 5420,
      "Ġtransact": 5421,
      "Ġelections": 5422,
      "Ġfisher": 5423,
      "Ġborders": 5424,
      "Ġachieved": 5425,
      "Ġadvancement": 5426,
      "Ġarrive": 5427,
      "Ġdenied": 5428,
      "Ġencouraging": 5429,
      "Ġinduce": 5430,
      "ĠLegislature": 5431,
      "Ġsacrifice": 5432,
      "Ġreorganization": 5433,
      "Ġcooking": 5434,
      "antastic": 5435,
      "ley": 5436,
      "ĠSe": 5437,
      "Ġnegle": 5438,
      "amed": 5439,
      "ĠThree": 5440,
      "Ġunity": 5441,
      "Ġtruly": 5442,
      "Ġplants": 5443,
      "ankind": 5444,
      "Ġarts": 5445,
      "elve": 5446,
      "Ġsubway": 5447,
      "Ġprud": 5448,
      "Ġfees": 5449,
      "Ġgrateful": 5450,
      "Ġpositive": 5451,
      "Ġdepression": 5452,
      "Ġtaxi": 5453,
      "Ġslave": 5454,
      "Ġ60": 5455,
      "Ġfaster": 5456,
      "Ġgrave": 5457,
      "Ġroutes": 5458,
      "Ġcertificates": 5459,
      "Ġsympathy": 5460,
      "Ġdisplay": 5461,
      "Ġwitness": 5462,
      "anim": 5463,
      "Ġwild": 5464,
      "iture": 5465,
      "Ġduly": 5466,
      "icate": 5467,
      "Ġbearing": 5468,
      "Ġforced": 5469,
      "otent": 5470,
      "Ġmeal": 5471,
      "Ġshr": 5472,
      "izz": 5473,
      "ĠLou": 5474,
      "ĠLabor": 5475,
      "ĠRem": 5476,
      "ptions": 5477,
      "Ġpurs": 5478,
      "Ġpositions": 5479,
      "Ġdecent": 5480,
      "Ġapprove": 5481,
      "Ġcollected": 5482,
      "Ġcolleag": 5483,
      "Ġexpended": 5484,
      "Ġrespecting": 5485,
      "Ġsevere": 5486,
      "Ġgenerations": 5487,
      "Ġparking": 5488,
      "Ġsustain": 5489,
      "Ġterrorists": 5490,
      "ĠQu": 5491,
      "Ġneutr": 5492,
      "Ġreciprocal": 5493,
      "Ġguests": 5494,
      "Ġnewspaper": 5495,
      "Ġmunicip": 5496,
      "ĠFlorida": 5497,
      "ĠSusan": 5498,
      "IS": 5499,
      "hy": 5500,
      "rid": 5501,
      "yn": 5502,
      "Ġet": 5503,
      "ĠHot": 5504,
      "ĠDem": 5505,
      "eping": 5506,
      "Ġrecl": 5507,
      "Ġgrade": 5508,
      "Ġrole": 5509,
      "ĠCanal": 5510,
      "Ġchecking": 5511,
      "version": 5512,
      "Ġannex": 5513,
      "Ġstarting": 5514,
      "Ġconvinced": 5515,
      "Ġfourth": 5516,
      "Ġtotally": 5517,
      "Ġnegotiated": 5518,
      "Ġshipment": 5519,
      "Ġgradually": 5520,
      "Ġenlarged": 5521,
      "Ġcustomer": 5522,
      "Ġcoverage": 5523,
      "Ġcombined": 5524,
      "Ġcombination": 5525,
      "Ġtechnical": 5526,
      "Ġstipulations": 5527,
      "ĠAustral": 5528,
      "ĠItaly": 5529,
      "enez": 5530,
      "Ġpartnership": 5531,
      "Ġensure": 5532,
      "Ġslavery": 5533,
      "ares": 5534,
      "oly": 5535,
      "rine": 5536,
      "Ġbipartisan": 5537,
      "Ġancient": 5538,
      "Ġhi": 5539,
      "Ġhung": 5540,
      "ĠWang": 5541,
      "seas": 5542,
      "umption": 5543,
      "ĠUniversity": 5544,
      "Ġsubstit": 5545,
      "Ġ28": 5546,
      "Ġfinances": 5547,
      "Ġmenu": 5548,
      "ĠGoodbye": 5549,
      "Ġrespects": 5550,
      "Ġsettlements": 5551,
      "Ġreserved": 5552,
      "Ġaccomplishment": 5553,
      "Ġenlightened": 5554,
      "Ġultimate": 5555,
      "Ġentertained": 5556,
      "ground": 5557,
      "Ġpledge": 5558,
      "Ġreligious": 5559,
      "Ġreflect": 5560,
      "ĠPhilippines": 5561,
      "Ġexperienced": 5562,
      "Ġscarcely": 5563,
      "67": 5564,
      "And": 5565,
      "aid": 5566,
      "cation": 5567,
      "wan": 5568,
      "oubted": 5569,
      "Ġinaug": 5570,
      "Ġbeach": 5571,
      "roll": 5572,
      "Ġproc": 5573,
      "Ġaspect": 5574,
      "Ġunable": 5575,
      "Ġje": 5576,
      "istan": 5577,
      "irect": 5578,
      "Ġlev": 5579,
      "ĠEngland": 5580,
      "ĠShanghai": 5581,
      "Ġcream": 5582,
      "Ġcooperate": 5583,
      "Ġbarg": 5584,
      "Ġtendency": 5585,
      "Ġdivision": 5586,
      "Ġaware": 5587,
      "Ġpreserved": 5588,
      "Ġwritten": 5589,
      "Ġvigil": 5590,
      "Ġsacred": 5591,
      "Ġprosecution": 5592,
      "Ġadapted": 5593,
      "Ġcommittee": 5594,
      "enezuel": 5595,
      "99": 5596,
      "gin": 5597,
      "Ġtill": 5598,
      "Ġtall": 5599,
      "Ġtast": 5600,
      "rep": 5601,
      "atin": 5602,
      "Ġpers": 5603,
      "Ġmankind": 5604,
      "Ġfram": 5605,
      "ĠIr": 5606,
      "Ġdrop": 5607,
      "Ġgar": 5608,
      "ims": 5609,
      "Ġworst": 5610,
      "eared": 5611,
      "Ġchocol": 5612,
      "peror": 5613,
      "ĠPark": 5614,
      "Ġdisaster": 5615,
      "Ġcode": 5616,
      "Ġfeatures": 5617,
      "Ġtwelve": 5618,
      "Ġbrings": 5619,
      "Ġ27": 5620,
      "ĠVenezuel": 5621,
      "ĠIsn": 5622,
      "Ġauthorizing": 5623,
      "Ġtransit": 5624,
      "Ġmarriage": 5625,
      "Ġstopped": 5626,
      "Ġlowest": 5627,
      "ĠCommissioner": 5628,
      "Ġilleg": 5629,
      "Ġspeedy": 5630,
      "Ġexpanding": 5631,
      "Ġstrugg": 5632,
      "Ġanimals": 5633,
      "Ġprofessional": 5634,
      "Ġtribunal": 5635,
      "ĠColombia": 5636,
      "Ġcommencement": 5637,
      "Ġpursue": 5638,
      "isers": 5639,
      "Ġlif": 5640,
      "Ġlend": 5641,
      "Ġgy": 5642,
      "Ġconcess": 5643,
      "Ġhes": 5644,
      "ĠDan": 5645,
      "Ġperil": 5646,
      "Ġcler": 5647,
      "Ġemig": 5648,
      "Ġsecret": 5649,
      "Ġreceiving": 5650,
      "Ġforeigners": 5651,
      "Ġprotecting": 5652,
      "iana": 5653,
      "Ġliter": 5654,
      "Ġelement": 5655,
      "Ġelements": 5656,
      "ĠWithout": 5657,
      "Ġharbor": 5658,
      "Ġcards": 5659,
      "ĠAfg": 5660,
      "Ġcommunications": 5661,
      "Ġ80": 5662,
      "Ġmanufacture": 5663,
      "regard": 5664,
      "Ġinstructed": 5665,
      "Ġpressing": 5666,
      "Ġexplain": 5667,
      "Ġwisely": 5668,
      "Ġlosses": 5669,
      "enny": 5670,
      "Ġautom": 5671,
      "ĠCorpor": 5672,
      "Ġcloser": 5673,
      "Ġenormous": 5674,
      "So": 5675,
      "onna": 5676,
      "Ġsnow": 5677,
      "Ġcell": 5678,
      "ĠII": 5679,
      "Ġinjust": 5680,
      "ows": 5681,
      "chan": 5682,
      "idable": 5683,
      "ĠCivil": 5684,
      "Ġsolic": 5685,
      "ĠDef": 5686,
      "Ġamicable": 5687,
      "Ġimpose": 5688,
      "Ġcontra": 5689,
      "Ġoverseas": 5690,
      "ĠVice": 5691,
      "Ġauthorize": 5692,
      "ĠIndeed": 5693,
      "being": 5694,
      "Ġsugar": 5695,
      "ĠAttor": 5696,
      "Ġpromoting": 5697,
      "Ġeffectively": 5698,
      "Ġletters": 5699,
      "Ġachievement": 5700,
      "Ġundertaking": 5701,
      "Ġtelephone": 5702,
      "Ġpatriotism": 5703,
      "Ġmountain": 5704,
      "Ġdiscrimination": 5705,
      "ĠEmperor": 5706,
      "Ġcalculated": 5707,
      "Ġhuge": 5708,
      "uilding": 5709,
      "Ġdiscipline": 5710,
      "ĠVietnam": 5711,
      "Ġmunicipal": 5712,
      "iant": 5713,
      "vant": 5714,
      "Ġburea": 5715,
      "Ġfal": 5716,
      "Ġhire": 5717,
      "Ġhang": 5718,
      "Ġgross": 5719,
      "verse": 5720,
      "ĠFour": 5721,
      "ĠEar": 5722,
      "ĠChile": 5723,
      "Ġconsidering": 5724,
      "Ġsometime": 5725,
      "Ġdelicious": 5726,
      "Ġident": 5727,
      "Ġremained": 5728,
      "Ġcaught": 5729,
      "ĠJustice": 5730,
      "ĠDidn": 5731,
      "Ġaccomp": 5732,
      "Ġselfish": 5733,
      "Ġfilled": 5734,
      "Ġhundreds": 5735,
      "Ġdispute": 5736,
      "Ġcorporation": 5737,
      "Ġcease": 5738,
      "Ġundoubted": 5739,
      "Ġflowers": 5740,
      "Ġflex": 5741,
      "Ġsquad": 5742,
      "Ġsquare": 5743,
      "sified": 5744,
      "Ġvoluntary": 5745,
      "Ġphysical": 5746,
      "ĠTaiwan": 5747,
      "ĠAlaska": 5748,
      "Ġacquisition": 5749,
      "ĠAttorney": 5750,
      "nel": 5751,
      "sy": 5752,
      "hel": 5753,
      "heren": 5754,
      "Ġtool": 5755,
      "Ġmix": 5756,
      "icted": 5757,
      "imb": 5758,
      "Ġwebs": 5759,
      "ĠCap": 5760,
      "Ġexcuse": 5761,
      "ĠMad": 5762,
      "ĠMake": 5763,
      "ĠBet": 5764,
      "rage": 5765,
      "Ġimpressed": 5766,
      "Ġdisregard": 5767,
      "Ġprecious": 5768,
      "ipotent": 5769,
      "anges": 5770,
      "Ġrob": 5771,
      "....": 5772,
      "Ġtreated": 5773,
      "Ġscope": 5774,
      "Ġcomplex": 5775,
      "Ġenjoyment": 5776,
      "Ġdriver": 5777,
      "Ġraising": 5778,
      "Ġ1890": 5779,
      "Ġillust": 5780,
      "Ġacquired": 5781,
      "Ġzeal": 5782,
      "Ġpictures": 5783,
      "iliation": 5784,
      "ĠMoreover": 5785,
      "Ġreplace": 5786,
      "Ġneutrality": 5787,
      "ĠDemoc": 5788,
      "Ġhungry": 5789,
      "ĠAfghan": 5790,
      "100": 5791,
      "IT": 5792,
      "zen": 5793,
      "Ġwool": 5794,
      "orter": 5795,
      "Ġnative": 5796,
      "urally": 5797,
      "Ġhab": 5798,
      "Ġshirt": 5799,
      "ria": 5800,
      "Ġring": 5801,
      "Ġliked": 5802,
      "Ġspot": 5803,
      "Ġplen": 5804,
      "Ġdishes": 5805,
      "Ġclas": 5806,
      "issions": 5807,
      "aves": 5808,
      "Ġmath": 5809,
      "Ġconfined": 5810,
      "Ġcorps": 5811,
      "Ġfoc": 5812,
      "Ġsalad": 5813,
      "ĠRev": 5814,
      "Ġsumm": 5815,
      "theless": 5816,
      "Ġdeclare": 5817,
      "Ġexpectation": 5818,
      "Ġvolume": 5819,
      "Ġuniversal": 5820,
      "Ġstrengthened": 5821,
      "Ġselected": 5822,
      "Ġkilled": 5823,
      "Ġreciprocity": 5824,
      "Ġbrave": 5825,
      "Ġquantity": 5826,
      "ĠHawaii": 5827,
      "49": 5828,
      "If": 5829,
      "board": 5830,
      "lers": 5831,
      "ino": 5832,
      "Ġcot": 5833,
      "Ġbon": 5834,
      "Ġbother": 5835,
      "orable": 5836,
      "Ġgonna": 5837,
      "urities": 5838,
      "illy": 5839,
      "Ġmechan": 5840,
      "ĠHouses": 5841,
      "Ġunits": 5842,
      "Ġexposed": 5843,
      "Ġperf": 5844,
      "ĠCongrat": 5845,
      "ĠAnn": 5846,
      "aging": 5847,
      "ips": 5848,
      "ĠConference": 5849,
      "Ġelev": 5850,
      "Ġnaturally": 5851,
      "Ġinvested": 5852,
      "Ġfunny": 5853,
      "Ġfacilit": 5854,
      "ipped": 5855,
      "Ġ90": 5856,
      "ĠEveryone": 5857,
      "Ġconstitute": 5858,
      "ĠCorps": 5859,
      "Ġdestroyed": 5860,
      "ENT": 5861,
      "Ġrequisite": 5862,
      "Ġunusual": 5863,
      "ĠLouis": 5864,
      "85": 5865,
      "Ġwood": 5866,
      "Ġbull": 5867,
      "Ġpure": 5868,
      "Ġpaint": 5869,
      "Ġfile": 5870,
      "Ġfallen": 5871,
      "order": 5872,
      "Ġstations": 5873,
      "Ġhem": 5874,
      "Ġrush": 5875,
      "Ġensu": 5876,
      "Ġjustified": 5877,
      "Ġacted": 5878,
      "Ġlasting": 5879,
      "Ġfeet": 5880,
      "Ġ23": 5881,
      "position": 5882,
      "Ġsecretary": 5883,
      "Ġafterwards": 5884,
      "Ġsmart": 5885,
      "Ġreductions": 5886,
      "ĠCont": 5887,
      "Ġimmense": 5888,
      "Ġresponse": 5889,
      "Ġcontroll": 5890,
      "Ġobjection": 5891,
      "Ġrefused": 5892,
      "Ġpromoted": 5893,
      "Ġharder": 5894,
      "Ġstaying": 5895,
      "Ġvisited": 5896,
      "going": 5897,
      "Ġwithdrawn": 5898,
      "Ġhouses": 5899,
      "Ġintelligent": 5900,
      "Ġattained": 5901,
      "Ġannounced": 5902,
      "Ġaccompanying": 5903,
      "Ġetc": 5904,
      "Ġplenipotent": 5905,
      "four": 5906,
      "nes": 5907,
      "vey": 5908,
      "Ġstick": 5909,
      "ilst": 5910,
      "ĠâĢĿ": 5911,
      "ĠBudget": 5912,
      "Ġalright": 5913,
      "ivity": 5914,
      "Ġtherein": 5915,
      "Ġenh": 5916,
      "Ġcompelled": 5917,
      "Ġdiscont": 5918,
      "Ġdepri": 5919,
      "Ġinvasion": 5920,
      "ĠConf": 5921,
      "ibility": 5922,
      "Ġsitting": 5923,
      "Ġfollows": 5924,
      "Ġbooked": 5925,
      "Ġdomain": 5926,
      "Ġshortly": 5927,
      "Ġabsence": 5928,
      "Ġgratitude": 5929,
      "Ġoccupied": 5930,
      "ĠPeru": 5931,
      "Ġcouncil": 5932,
      "Ġconstitu": 5933,
      "Ġmotor": 5934,
      "Ġobserved": 5935,
      "Ġearliest": 5936,
      "Ġgraduate": 5937,
      "Ġfrequent": 5938,
      "Ġattractive": 5939,
      "Ġmeantime": 5940,
      "Ġinquiry": 5941,
      "ĠRico": 5942,
      "Ġtransactions": 5943,
      "Ġinjustice": 5944,
      "77": 5945,
      "fl": 5946,
      "tail": 5947,
      "ongest": 5948,
      "Ġcro": 5949,
      "Ġcig": 5950,
      "Ġdess": 5951,
      "ional": 5952,
      "Ġhoney": 5953,
      "Ġsuits": 5954,
      "Ġstage": 5955,
      "riers": 5956,
      "ĠBr": 5957,
      "ĠBrown": 5958,
      "Ġlab": 5959,
      "ĠGovern": 5960,
      "Ġrecover": 5961,
      "ĠJo": 5962,
      "Ġproducing": 5963,
      "Ġfeelings": 5964,
      "Ġobjectives": 5965,
      "Ġpresence": 5966,
      "Ġpostage": 5967,
      "Ġbigger": 5968,
      "Ġsignific": 5969,
      "Ġprofitable": 5970,
      "Ġmemory": 5971,
      "Ġlights": 5972,
      "Ġinvolve": 5973,
      "Ġfields": 5974,
      "Ġfurniture": 5975,
      "Ġexplan": 5976,
      "Ġsafely": 5977,
      "Ġusefulness": 5978,
      "Ġweakness": 5979,
      "Ġterminated": 5980,
      "Ġimmigrants": 5981,
      "Ġpotential": 5982,
      "Ġlocated": 5983,
      "Ġascertained": 5984,
      "Ġstrategy": 5985,
      "Ġadvertise": 5986,
      "while": 5987,
      "Ġprimary": 5988,
      "Ġlicense": 5989,
      "Ġwalking": 5990,
      "Ġprocedure": 5991,
      "Ġinaugur": 5992,
      "Ġgym": 5993,
      "house": 5994,
      "limin": 5995,
      "upp": 5996,
      "west": 5997,
      "what": 5998,
      "Ġcab": 5999,
      "Ġtoler": 6000,
      "Ġmaster": 6001,
      "Ġdur": 6002,
      "Ġloyal": 6003,
      "ĠSouthern": 6004,
      "ador": 6005,
      "Ġrare": 6006,
      "ĠMor": 6007,
      "Ġunh": 6008,
      "ĠGulf": 6009,
      "ĠDE": 6010,
      "Ġvision": 6011,
      "Ġchamp": 6012,
      "Ġchoices": 6013,
      "aced": 6014,
      "ĠPa": 6015,
      "umn": 6016,
      "Ġworker": 6017,
      "Ġwarning": 6018,
      "Ġ26": 6019,
      "Ġtransferred": 6020,
      "Ġopposition": 6021,
      "Ġkeeps": 6022,
      "Ġclaimed": 6023,
      "Ġrespectfully": 6024,
      "Ġprescription": 6025,
      "Ġposts": 6026,
      "Ġrepresentation": 6027,
      "Ġrefr": 6028,
      "Ġnegotiate": 6029,
      "Ġredemption": 6030,
      "Ġirre": 6031,
      "Ġseats": 6032,
      "Ġpreviously": 6033,
      "Ġspeedily": 6034,
      "Ġideals": 6035,
      "Ġparticipate": 6036,
      "Ġmanifested": 6037,
      "Ġpurchasing": 6038,
      "Ġcamera": 6039,
      "Ġbottom": 6040,
      "ordinate": 6041,
      "Ġcompromise": 6042,
      "ĠVenezuela": 6043,
      "ĠCongratulations": 6044,
      "back": 6045,
      "cast": 6046,
      "uce": 6047,
      "ato": 6048,
      "itate": 6049,
      "Ġbesides": 6050,
      "Ġpac": 6051,
      "Ġfell": 6052,
      "Ġinn": 6053,
      "Ġham": 6054,
      "etary": 6055,
      "ĠApp": 6056,
      "ills": 6057,
      "Ġstood": 6058,
      "ĠThurs": 6059,
      "Ġunb": 6060,
      "ĠUm": 6061,
      "ansas": 6062,
      "ĠRio": 6063,
      "Ġindul": 6064,
      "Ġhelps": 6065,
      "Ġterritories": 6066,
      "ĠKe": 6067,
      "Ġmoderate": 6068,
      "Ġdisputes": 6069,
      "Ġcombinations": 6070,
      "Ġideal": 6071,
      "Ġdelayed": 6072,
      "Ġdischarged": 6073,
      "Ġscheme": 6074,
      "Ġtelevision": 6075,
      "Ġmotives": 6076,
      "Ġforgotten": 6077,
      "Ġbottle": 6078,
      "Ġforests": 6079,
      "Ġpossibility": 6080,
      "Ġexecuted": 6081,
      "Ġchocolate": 6082,
      "41": 6083,
      "Office": 6084,
      "XX": 6085,
      "nis": 6086,
      "Ġpity": 6087,
      "Ġlift": 6088,
      "Ġstores": 6089,
      "Ġheav": 6090,
      "ilization": 6091,
      "ĠMount": 6092,
      "Ġunanim": 6093,
      "ĠBer": 6094,
      "Ġabuse": 6095,
      "Ġperse": 6096,
      "Ġdiscl": 6097,
      "Ġattach": 6098,
      "Ġdecades": 6099,
      "Ġ300": 6100,
      "Ġchem": 6101,
      "Ġscen": 6102,
      "Ġoccasions": 6103,
      "Ġexert": 6104,
      "Ġlimitation": 6105,
      "Ġdoubted": 6106,
      "ĠFrank": 6107,
      "Ġpolitics": 6108,
      "Ġdeclaration": 6109,
      "Ġinvolving": 6110,
      "Ġexcite": 6111,
      "Ġmissed": 6112,
      "Ġsurprise": 6113,
      "Ġrolls": 6114,
      "Ġacknowledged": 6115,
      "Ġcolleagues": 6116,
      "Ġhabits": 6117,
      ".,": 6118,
      "RO": 6119,
      "do": 6120,
      "nment": 6121,
      "nage": 6122,
      "Ġvest": 6123,
      "Ġtie": 6124,
      "Ġturning": 6125,
      "anied": 6126,
      "Ġsouthern": 6127,
      "Ġfantastic": 6128,
      "Ġing": 6129,
      "ara": 6130,
      "adem": 6131,
      "ĠYuan": 6132,
      "ĠMuch": 6133,
      "ĠNet": 6134,
      "ĠFore": 6135,
      "ĠLaw": 6136,
      "venue": 6137,
      "Ġdisag": 6138,
      "actly": 6139,
      "Ġremote": 6140,
      "Ġregulate": 6141,
      "Ġherself": 6142,
      "Ġministers": 6143,
      "Ġrests": 6144,
      "ĠExactly": 6145,
      "Ġmonthly": 6146,
      "Ġpersonnel": 6147,
      "Ġsufficiently": 6148,
      "Ġfrank": 6149,
      "atically": 6150,
      "Ġvariety": 6151,
      "Ġboring": 6152,
      "Ġapart": 6153,
      "Ġacquies": 6154,
      "Ġiron": 6155,
      "Ġfortifications": 6156,
      "Ġstreets": 6157,
      "ique": 6158,
      "Ġdistinct": 6159,
      "Ġsafeguard": 6160,
      "ĠAccording": 6161,
      "ĠHotel": 6162,
      "69": 6163,
      "dom": 6164,
      "pir": 6165,
      "Ġtext": 6166,
      "eds": 6167,
      "ett": 6168,
      "ĠAN": 6169,
      "idents": 6170,
      "Ġassistant": 6171,
      "Ġnoticed": 6172,
      "Ġrice": 6173,
      "Ġlikewise": 6174,
      "Ġages": 6175,
      "Ġcompact": 6176,
      "ĠEl": 6177,
      "Ġmanage": 6178,
      "Ġprelimin": 6179,
      "Ġsafer": 6180,
      "abilities": 6181,
      "Ġownership": 6182,
      "Ġdeficiency": 6183,
      "Ġendang": 6184,
      "Ġhomework": 6185,
      "Ġmilk": 6186,
      "Ġconsumer": 6187,
      "aimed": 6188,
      "Ġchecks": 6189,
      "Ġprescribed": 6190,
      "ĠReg": 6191,
      "Ġplayer": 6192,
      "Ġfunding": 6193,
      "Ġtennis": 6194,
      "Ġgrades": 6195,
      "Ġmaterially": 6196,
      "goes": 6197,
      "Ġcontributions": 6198,
      "Ġ1946": 6199,
      "Ġobserve": 6200,
      "Ġsettlers": 6201,
      "Ġchiefly": 6202,
      "Ġwithdrawal": 6203,
      "Ġconstructive": 6204,
      "Ġelectric": 6205,
      "Ġfigures": 6206,
      "ĠItalian": 6207,
      "Ġrestrain": 6208,
      "Ġcruisers": 6209,
      "ĠPortug": 6210,
      "ĠRoom": 6211,
      "Ġchannels": 6212,
      "Ġenlisted": 6213,
      "Ġfalse": 6214,
      "fare": 6215,
      "wide": 6216,
      "ster": 6217,
      "Ġcast": 6218,
      "ching": 6219,
      "Ġexempt": 6220,
      "Ġsev": 6221,
      "ĠHong": 6222,
      "ĠMich": 6223,
      "ĠBay": 6224,
      "andise": 6225,
      "ĠPeter": 6226,
      "Ġspare": 6227,
      "Ġimpression": 6228,
      "Ġpartisan": 6229,
      "Ġfever": 6230,
      "Ġnecessities": 6231,
      "Ġrespond": 6232,
      "Ġsecurities": 6233,
      "Ġsym": 6234,
      "Ġapprox": 6235,
      "Ġsubjected": 6236,
      "Ġpromises": 6237,
      "Ġstrange": 6238,
      "Ġdistance": 6239,
      "iances": 6240,
      "Ġmainly": 6241,
      "Ġemployer": 6242,
      "Ġsalaries": 6243,
      "Ġbiggest": 6244,
      "ĠOnce": 6245,
      "Ġcircuit": 6246,
      "Ġreserves": 6247,
      "Ġmodel": 6248,
      "Ġheads": 6249,
      "Ġproceeding": 6250,
      "Ġirr": 6251,
      "Ġattempted": 6252,
      "Ġdivided": 6253,
      "Ġqualified": 6254,
      "Ġdreams": 6255,
      "ĠHaving": 6256,
      "Ġmagnitude": 6257,
      "Ġpremium": 6258,
      "Ġmanufacturers": 6259,
      "Ġinterpret": 6260,
      "ĠGeorge": 6261,
      "Ġillegal": 6262,
      "Ġhemisphere": 6263,
      "iation": 6264,
      "med": 6265,
      "hered": 6266,
      "inqu": 6267,
      "Ġtheory": 6268,
      "Ġwishes": 6269,
      "Ġsinking": 6270,
      "itably": 6271,
      "Ġdied": 6272,
      "Ġdancing": 6273,
      "Ġge": 6274,
      "ĠAir": 6275,
      "ĠYear": 6276,
      "Ġnotwithstanding": 6277,
      "ĠHope": 6278,
      "Ġvide": 6279,
      "Ġalien": 6280,
      "Ġrecall": 6281,
      "ĠJul": 6282,
      "Ġhereafter": 6283,
      "Ġprogressive": 6284,
      "Ġeconomical": 6285,
      "Ġmoneys": 6286,
      "ĠExp": 6287,
      "Ġsurr": 6288,
      "Ġcharter": 6289,
      "Ġimproving": 6290,
      "Ġemployers": 6291,
      "Ġobjective": 6292,
      "Ġplayed": 6293,
      "Ġorganizations": 6294,
      "Ġinvestments": 6295,
      "Ġrevol": 6296,
      "Ġaffords": 6297,
      "ĠBefore": 6298,
      "rupted": 6299,
      "Ġperfectly": 6300,
      "Ġhostility": 6301,
      "Ġcorporate": 6302,
      "Ġstrike": 6303,
      "Ġexhibits": 6304,
      "Ġsurveys": 6305,
      "Ġmerchandise": 6306,
      "Ġdocument": 6307,
      "Ġfleet": 6308,
      "Ġcriminals": 6309,
      "Ġcritic": 6310,
      "Ġgraduated": 6311,
      "Ġstrategic": 6312,
      "ĠBelg": 6313,
      "ĠFinally": 6314,
      "Ġescape": 6315,
      "Ġsemester": 6316,
      "Ġpredecessor": 6317,
      "Ġapprehension": 6318,
      "entlemen": 6319,
      "Ġjuice": 6320,
      "ĠRemember": 6321,
      "Ġcotton": 6322,
      "ĠThursday": 6323,
      "Americ": 6324,
      "aired": 6325,
      "light": 6326,
      "ued": 6327,
      "vention": 6328,
      "Ġtreas": 6329,
      "Ġaside": 6330,
      "Ġpic": 6331,
      "Ġmas": 6332,
      "arian": 6333,
      "Ġhob": 6334,
      "illity": 6335,
      "Ġconced": 6336,
      "iled": 6337,
      "Ġshut": 6338,
      "ĠThird": 6339,
      "Ġalleg": 6340,
      "Ġamity": 6341,
      "Ġdisburse": 6342,
      "ague": 6343,
      "ĠChief": 6344,
      "Ġdefenses": 6345,
      "Ġsmell": 6346,
      "Ġtonnage": 6347,
      "Ġproductions": 6348,
      "Ġcommissioner": 6349,
      "Ġdrinking": 6350,
      "Ġlocalities": 6351,
      "Ġentering": 6352,
      "Ġsentiments": 6353,
      "Ġgradual": 6354,
      "Ġapolog": 6355,
      "Ġpleased": 6356,
      "Ġcontribution": 6357,
      "Ġdivor": 6358,
      "Ġconstituted": 6359,
      "Ġsmoke": 6360,
      "Ġsubstantially": 6361,
      "Ġmountains": 6362,
      "Ġconfirmed": 6363,
      "ĠPhilippine": 6364,
      "Ġenlargement": 6365,
      "Ġimpartial": 6366,
      "Ġaccompanied": 6367,
      "ĠPaul": 6368,
      "UR": 6369,
      "friend": 6370,
      "rance": 6371,
      "town": 6372,
      "vis": 6373,
      "itor": 6374,
      "Ġfishing": 6375,
      "Ġnar": 6376,
      "utation": 6377,
      "lymp": 6378,
      "ĠHappy": 6379,
      "ĠOlymp": 6380,
      "Ġunav": 6381,
      "Ġunexp": 6382,
      "Ġuses": 6383,
      "cience": 6384,
      "iel": 6385,
      "Ġspl": 6386,
      "Ġspicy": 6387,
      "ĠRich": 6388,
      "Ġincurred": 6389,
      "useum": 6390,
      "Ġcheer": 6391,
      "undry": 6392,
      "Ġlegislature": 6393,
      "Ġexamine": 6394,
      "Ġregards": 6395,
      "Ġnights": 6396,
      "Ġviolent": 6397,
      "Ġcooperative": 6398,
      "Ġhoping": 6399,
      "Ġpleasant": 6400,
      "Ġunfortunately": 6401,
      "Ġratifications": 6402,
      "Ġenterprises": 6403,
      "Ġfalling": 6404,
      "Ġenvoy": 6405,
      "Ġaccordingly": 6406,
      "Ġbags": 6407,
      "Ġintroduced": 6408,
      "Ġneighboring": 6409,
      "Ġrebell": 6410,
      "Ġexpediency": 6411,
      "Ġwidely": 6412,
      "Ġargument": 6413,
      "Ġconservation": 6414,
      "Ġtranquillity": 6415,
      "ĠAustralia": 6416,
      "Ġwebsite": 6417,
      "58": 6418,
      "That": 6419,
      "Ġtight": 6420,
      "Ġang": 6421,
      "isc": 6422,
      "Ġhat": 6423,
      "utary": 6424,
      "ĠSy": 6425,
      "Ġneg": 6426,
      "ifts": 6427,
      "ĠMc": 6428,
      "ĠMadam": 6429,
      "Ġresource": 6430,
      "ĠEconom": 6431,
      "anship": 6432,
      "ĠLatin": 6433,
      "Ġindirect": 6434,
      "iously": 6435,
      "ictions": 6436,
      "Ġadvances": 6437,
      "ortunate": 6438,
      "Ġsupporting": 6439,
      "Ġminds": 6440,
      "ĠFranc": 6441,
      "Ġcredits": 6442,
      "ĠAlso": 6443,
      "Ġreadily": 6444,
      "Ġcolored": 6445,
      "Ġexpectations": 6446,
      "Ġappointments": 6447,
      "Ġmails": 6448,
      "Ġjoined": 6449,
      "olutely": 6450,
      "Ġtraveling": 6451,
      "Ġstriking": 6452,
      "Ġpreserving": 6453,
      "Ġavoided": 6454,
      "Ġutter": 6455,
      "Ġsensible": 6456,
      "Ġthoroughly": 6457,
      "Ġassurances": 6458,
      "Ġadjour": 6459,
      "Ġpartners": 6460,
      "Ġabandoned": 6461,
      "Ġvolunteers": 6462,
      "Ġtemperature": 6463,
      "Ġadvisable": 6464,
      "Ġundoubtedly": 6465,
      "Ġpreliminary": 6466,
      "ech": 6467,
      "vag": 6468,
      "Ġawards": 6469,
      "Ġsad": 6470,
      "arations": 6471,
      "Ġbeat": 6472,
      "Ġreleas": 6473,
      "uniary": 6474,
      "Ġconce": 6475,
      "Ġstorm": 6476,
      "Ġstream": 6477,
      "ĠThom": 6478,
      "ĠGree": 6479,
      "Ġwash": 6480,
      "rap": 6481,
      "aces": 6482,
      "ĠRel": 6483,
      "odies": 6484,
      "Ġbright": 6485,
      "Ġsuppression": 6486,
      "Ġaddressed": 6487,
      "Ġstayed": 6488,
      "Ġpreventing": 6489,
      "Ġfaithfully": 6490,
      "Ġdecline": 6491,
      "Ġdeclined": 6492,
      "Ġtests": 6493,
      "Ġcomputers": 6494,
      "Ġdisposal": 6495,
      "Ġpursuance": 6496,
      "Ġawait": 6497,
      "Ġ1945": 6498,
      "Ġera": 6499,
      "ĠRussian": 6500,
      "Ġpieces": 6501,
      "Ġtermination": 6502,
      "Ġpecuniary": 6503,
      "Ġteaching": 6504,
      "Ġmistakes": 6505,
      "Ġencouraged": 6506,
      "ĠProvinces": 6507,
      "Ġreligion": 6508,
      "Ġfrequently": 6509,
      "Ġdevoted": 6510,
      "Ġpollution": 6511,
      "Ġimagine": 6512,
      "Ġtypes": 6513,
      "ĠCommunist": 6514,
      "Ġbelligerent": 6515,
      "Ġremarkable": 6516,
      "Ġtaxpayers": 6517,
      "ĠTurkey": 6518,
      "Ġensuing": 6519,
      "Ġdessert": 6520,
      "MENT": 6521,
      "gents": 6522,
      "long": 6523,
      "Ġsou": 6524,
      "Ġpal": 6525,
      "orpor": 6526,
      "Ġdad": 6527,
      "omic": 6528,
      "Ġnose": 6529,
      "Ġgard": 6530,
      "urate": 6531,
      "Ġisol": 6532,
      "Ġhabit": 6533,
      "ĠSea": 6534,
      "adays": 6535,
      "Ġshar": 6536,
      "ĠThough": 6537,
      "ĠGen": 6538,
      "Ġabst": 6539,
      "Ġchat": 6540,
      "Ġchurch": 6541,
      "Ġupward": 6542,
      "Ġupset": 6543,
      "iveness": 6544,
      "Ġinterf": 6545,
      "Ġcontains": 6546,
      "ĠCongressional": 6547,
      "Ġlob": 6548,
      "hedul": 6549,
      "Ġmostly": 6550,
      "Ġdescribe": 6551,
      "Ġreception": 6552,
      "Ġmineral": 6553,
      "iciary": 6554,
      "Ġschedul": 6555,
      "Ġopposed": 6556,
      "Ġemployee": 6557,
      "Ġconcur": 6558,
      "Ġpreparing": 6559,
      "Ġpermanently": 6560,
      "idden": 6561,
      "Ġthreaten": 6562,
      "Ġpursuits": 6563,
      "Ġcoasts": 6564,
      "Ġruin": 6565,
      "Ġexhibition": 6566,
      "sight": 6567,
      "Ġculture": 6568,
      "Ġsteamers": 6569,
      "Ġsenior": 6570,
      "Ġrelieved": 6571,
      "Ġanti": 6572,
      "Ġvigorous": 6573,
      "rusted": 6574,
      "Ġcelebrate": 6575,
      "Ġcrowded": 6576,
      "Ġpersu": 6577,
      "Ġtools": 6578,
      "ĠAfghanistan": 6579,
      "ĠConfeder": 6580,
      "Ġcigare": 6581,
      "66": 6582,
      "He": 6583,
      "cot": 6584,
      "iam": 6585,
      "war": 6586,
      "Ġwa": 6587,
      "Ġwake": 6588,
      "itors": 6589,
      "Ġbind": 6590,
      "Ġpubl": 6591,
      "Ġpool": 6592,
      "Ġfool": 6593,
      "Ġanal": 6594,
      "Ġthr": 6595,
      "Ġlosing": 6596,
      "enture": 6597,
      "Ġyouth": 6598,
      "Ġrelease": 6599,
      "aling": 6600,
      "Ġgained": 6601,
      "rol": 6602,
      "ĠWed": 6603,
      "irts": 6604,
      "Ġprop": 6605,
      "ĠGreen": 6606,
      "Ġinterior": 6607,
      "uming": 6608,
      "Ġcomposed": 6609,
      "Ġincomes": 6610,
      "cessive": 6611,
      "Ġovercome": 6612,
      "ĠTherefore": 6613,
      "Ġ31": 6614,
      "Ġequitable": 6615,
      "Ġasser": 6616,
      "Ġannivers": 6617,
      "Ġfreight": 6618,
      "Ġtons": 6619,
      "Ġbask": 6620,
      "Ġtrack": 6621,
      "Ġphil": 6622,
      "Ġsimpl": 6623,
      "Ġprofound": 6624,
      "Ġinsurgents": 6625,
      "Ġclosely": 6626,
      "Ġmerits": 6627,
      "Ġunfortunate": 6628,
      "Ġproceeded": 6629,
      "Ġextravag": 6630,
      "Ġstatus": 6631,
      "initely": 6632,
      "anna": 6633,
      "Ġundertake": 6634,
      "Ġpunish": 6635,
      "Ġconsumers": 6636,
      "Ġconsumption": 6637,
      "Ġboxes": 6638,
      "Ġmulti": 6639,
      "Ġobstacles": 6640,
      "Ġincentives": 6641,
      "ĠIran": 6642,
      "ĠAND": 6643,
      "Ġinterfere": 6644,
      ".--": 6645,
      "73": 6646,
      "bre": 6647,
      "ius": 6648,
      "Ġties": 6649,
      "ata": 6650,
      "Ġpound": 6651,
      "Ġpush": 6652,
      "Ġdig": 6653,
      "Ġhom": 6654,
      "Ġnut": 6655,
      "Ġep": 6656,
      "uries": 6657,
      "ĠSal": 6658,
      "Ġsteak": 6659,
      "Ġexcessive": 6660,
      "ĠâĢľ": 6661,
      "ĠMac": 6662,
      "Ġlived": 6663,
      "ĠPol": 6664,
      "agers": 6665,
      "ĠOhio": 6666,
      "aching": 6667,
      "Ġemail": 6668,
      "Ġterritorial": 6669,
      "Ġrecommending": 6670,
      "Ġfarms": 6671,
      "Ġsurf": 6672,
      "Ġmetals": 6673,
      "ĠKong": 6674,
      "Ġclaimants": 6675,
      "Ġstarts": 6676,
      "Ġstudied": 6677,
      "Ġconventions": 6678,
      "Ġexaminations": 6679,
      "Ġsignal": 6680,
      "Ġrefuse": 6681,
      "Ġreadjust": 6682,
      "thening": 6683,
      "Ġvisiting": 6684,
      "Ġexpecting": 6685,
      "Ġrailways": 6686,
      "Ġapplying": 6687,
      "Ġteleg": 6688,
      "Ġwatched": 6689,
      "Ġresistance": 6690,
      "ĠAccount": 6691,
      "Ġresolve": 6692,
      "Ġinconvenience": 6693,
      "Ġalternative": 6694,
      "Ġurgently": 6695,
      "ĠRevolution": 6696,
      "ĠFrancis": 6697,
      "),": 6698,
      "88": 6699,
      "vation": 6700,
      "whel": 6701,
      "itte": 6702,
      "Ġcart": 6703,
      "Ġwithhold": 6704,
      "Ġshot": 6705,
      "ĠHon": 6706,
      "amps": 6707,
      "Ġunwise": 6708,
      "Ġjeal": 6709,
      "Ġuseless": 6710,
      "ĠFellow": 6711,
      "umber": 6712,
      "Ġcontent": 6713,
      "Ġpersist": 6714,
      "Ġperce": 6715,
      "Ġindef": 6716,
      "Ġwarfare": 6717,
      "Ġentry": 6718,
      "Ġdescription": 6719,
      "Ġpeacetime": 6720,
      "structive": 6721,
      "Ġinviting": 6722,
      "Ġhappily": 6723,
      "Ġhopeful": 6724,
      "Ġtransaction": 6725,
      "Ġfactor": 6726,
      "Ġhardship": 6727,
      "Ġreality": 6728,
      "Ġfrust": 6729,
      "Ġcolors": 6730,
      "force": 6731,
      "Ġmodification": 6732,
      "Ġbeauty": 6733,
      "Ġproceeds": 6734,
      "Ġsixty": 6735,
      "Ġsolid": 6736,
      "Ġhearts": 6737,
      "Ġmachines": 6738,
      "Ġexceeded": 6739,
      "Ġselling": 6740,
      "Ġgovernor": 6741,
      "Ġtowns": 6742,
      "Ġdiminished": 6743,
      "ĠAfrican": 6744,
      "ĠAustria": 6745,
      "Ġdeliberations": 6746,
      "Ġsurprised": 6747,
      "Ġengagements": 6748,
      "Ġmagazines": 6749,
      "Ġdoctrine": 6750,
      "ĠBarb": 6751,
      "Ġjourney": 6752,
      "Ġannexation": 6753,
      "Ġangry": 6754,
      "ĠWednes": 6755,
      "__": 6756,
      "mo": 6757,
      "oked": 6758,
      "ĠX": 6759,
      "eration": 6760,
      "ouri": 6761,
      "Ġbid": 6762,
      "Ġmood": 6763,
      "Ġfought": 6764,
      "oms": 6765,
      "Ġnames": 6766,
      "Ġrely": 6767,
      "ĠWere": 6768,
      "ĠSay": 6769,
      "ĠSever": 6770,
      "Ġstom": 6771,
      "Ġdestructive": 6772,
      "ounter": 6773,
      "ĠHoney": 6774,
      "ĠDen": 6775,
      "ĠPeace": 6776,
      "ĠUh": 6777,
      "ĠUpon": 6778,
      "ĠFive": 6779,
      "Ġexposition": 6780,
      "Ġincorpor": 6781,
      "Ġoffense": 6782,
      "Ġoverwhel": 6783,
      "Ġwhereby": 6784,
      "Ġprotest": 6785,
      "Ġflour": 6786,
      "Ġstrongest": 6787,
      "Ġequival": 6788,
      "Ġprint": 6789,
      "Ġimproper": 6790,
      "Ġsalutary": 6791,
      "Ġperiods": 6792,
      "Ġframe": 6793,
      "Ġestablishments": 6794,
      "Ġcompete": 6795,
      "Ġ70": 6796,
      "Ġvisa": 6797,
      "Ġlistening": 6798,
      "Ġstatutes": 6799,
      "Ġmissi": 6800,
      "Ġappreciation": 6801,
      "ebted": 6802,
      "Ġguaranty": 6803,
      "Ġsolely": 6804,
      "They": 6805,
      "Ġsuspended": 6806,
      "Ġfirmly": 6807,
      "Ġimperative": 6808,
      "Ġdisappointed": 6809,
      "Ġcomparatively": 6810,
      "Ġradio": 6811,
      "Ġvolunteer": 6812,
      "Ġunpre": 6813,
      "Ġfortunate": 6814,
      "ĠBlack": 6815,
      "Ġconformity": 6816,
      "Ġsubsequent": 6817,
      "Ġinnoc": 6818,
      "Ġvideo": 6819,
      "ĠWednesday": 6820,
      "citizens": 6821,
      "gies": 6822,
      "nic": 6823,
      "power": 6824,
      "uity": 6825,
      "wor": 6826,
      "Ġbount": 6827,
      "Ġhast": 6828,
      "Ġwholes": 6829,
      "ĠSix": 6830,
      "Ġmeals": 6831,
      "enda": 6832,
      "ĠHel": 6833,
      "Ġcancel": 6834,
      "ĠDel": 6835,
      "Ġkn": 6836,
      "Ġalive": 6837,
      "acco": 6838,
      "Ġagenda": 6839,
      "Ġconting": 6840,
      "Ġrecession": 6841,
      "Ġindebted": 6842,
      "Ġeveryday": 6843,
      "ipe": 6844,
      "Ġcoat": 6845,
      "Ġlock": 6846,
      "Ġ29": 6847,
      "Ġrock": 6848,
      "Ġfeels": 6849,
      "Ġoppos": 6850,
      "Ġfactories": 6851,
      "Ġdoubtless": 6852,
      "Ġyounger": 6853,
      "Ġcompliance": 6854,
      "Ġenforced": 6855,
      "Ġbarb": 6856,
      "Ġarrival": 6857,
      "ĠAbs": 6858,
      "Ġexpanded": 6859,
      "Ġbaggage": 6860,
      "Ġsweater": 6861,
      "Ġunemployed": 6862,
      "Ġdisturbed": 6863,
      "Ġindicated": 6864,
      "Ġinduced": 6865,
      "Ġlocation": 6866,
      "Ġassembled": 6867,
      "Ġsacrific": 6868,
      "Ġdishon": 6869,
      "Ġgallant": 6870,
      "Ġdefeat": 6871,
      "Thank": 6872,
      "Ġdeparture": 6873,
      "Ġcherish": 6874,
      "Ġrigid": 6875,
      "Ġeggs": 6876,
      "Ġfocus": 6877,
      "American": 6878,
      "Ġanniversary": 6879,
      "OM": 6880,
      "but": 6881,
      "ta": 6882,
      "uations": 6883,
      "Ġcry": 6884,
      "Ġfly": 6885,
      "Ġdram": 6886,
      "Ġlad": 6887,
      "oman": 6888,
      "Ġnurs": 6889,
      "Ġnorthern": 6890,
      "illing": 6891,
      "unction": 6892,
      "advant": 6893,
      "Ġstories": 6894,
      "iling": 6895,
      "Ġshared": 6896,
      "Ġunit": 6897,
      "Ġunequ": 6898,
      "establ": 6899,
      "Ġalter": 6900,
      "cip": 6901,
      "ĠUnf": 6902,
      "ĠLu": 6903,
      "Ġclimb": 6904,
      "Ġtaught": 6905,
      "Ġpresentation": 6906,
      "cedented": 6907,
      "Ġmines": 6908,
      "Ġbackground": 6909,
      "aker": 6910,
      "Ġevident": 6911,
      "Ġassert": 6912,
      "Ġcrimes": 6913,
      "Ġarmies": 6914,
      "Ġtarget": 6915,
      "Ġpursuit": 6916,
      "Ġexchanged": 6917,
      "Ġdestiny": 6918,
      "Ġcleaning": 6919,
      "Ġoccupy": 6920,
      "Ġcalm": 6921,
      "Ġconvenience": 6922,
      "Ġdeficits": 6923,
      "Ġamendments": 6924,
      "Ġobservance": 6925,
      "Ġslowly": 6926,
      "Ġembraced": 6927,
      "Ġforbear": 6928,
      "ilitary": 6929,
      "Ġstimulate": 6930,
      "Ġprecise": 6931,
      "Ġregistration": 6932,
      "Ġmonopoly": 6933,
      "Ġbathroom": 6934,
      "Ġspoken": 6935,
      "ĠImper": 6936,
      "Ġvigilance": 6937,
      "ĠLouisiana": 6938,
      "Ġcrops": 6939,
      "Ġpersever": 6940,
      "ĠAbsolutely": 6941,
      "Do": 6942,
      "ky": 6943,
      "like": 6944,
      "ners": 6945,
      "ero": 6946,
      "anders": 6947,
      "Ġbi": 6948,
      "Ġbatter": 6949,
      "oring": 6950,
      "isive": 6951,
      "Ġhun": 6952,
      "Ġloud": 6953,
      "vell": 6954,
      "rog": 6955,
      "eth": 6956,
      "imp": 6957,
      "aine": 6958,
      "ĠâĢĶ": 6959,
      "estival": 6960,
      "Ġhasn": 6961,
      "Ġwashing": 6962,
      "istics": 6963,
      "uman": 6964,
      "Ġimpair": 6965,
      "ĠLo": 6966,
      "ĠLake": 6967,
      "ĠRE": 6968,
      "Ġincom": 6969,
      "Ġpartial": 6970,
      "Ġclients": 6971,
      "Ġ180": 6972,
      "Ġentrance": 6973,
      "Ġ35": 6974,
      "Ġmonetary": 6975,
      "Ġprotective": 6976,
      "Ġreturning": 6977,
      "Ġshowed": 6978,
      "Ġreasonably": 6979,
      "Ġcasual": 6980,
      "Ġstrengthening": 6981,
      "Ġleads": 6982,
      "Ġelsewhere": 6983,
      "Ġholds": 6984,
      "Ġhumane": 6985,
      "Ġtalked": 6986,
      "Ġ1899": 6987,
      "Ġveto": 6988,
      "Ġabsor": 6989,
      "Ġobtaining": 6990,
      "ĠMissouri": 6991,
      "Ġcontributed": 6992,
      "Ġcombat": 6993,
      "Ġceased": 6994,
      "Ġcollective": 6995,
      "Ġsuspension": 6996,
      "Ġqualifications": 6997,
      "Ġstipulated": 6998,
      "Ġdemonstrate": 6999,
      "intend": 7000,
      "Ġmagazine": 7001,
      "Ġcommodities": 7002,
      "ĠBerlin": 7003,
      "ĠPortugal": 7004,
      "Ġapologize": 7005,
      "Ġrebellion": 7006,
      "Ġbasket": 7007,
      "Ġstomach": 7008,
      "ĠUnfortunately": 7009,
      "ĠImperial": 7010,
      "89": 7011,
      "ST": 7012,
      "fe": 7013,
      "uh": 7014,
      "uate": 7015,
      "zing": 7016,
      "erable": 7017,
      "ana": 7018,
      "Ġtow": 7019,
      "usal": 7020,
      "arging": 7021,
      "ĠTe": 7022,
      "ĠSim": 7023,
      "irty": 7024,
      "Ġheat": 7025,
      "Ġdozen": 7026,
      "Ġseiz": 7027,
      "ĠNear": 7028,
      "Ġkil": 7029,
      "ĠPu": 7030,
      "ĠFif": 7031,
      "Ġappet": 7032,
      "Ġperm": 7033,
      "ĠRail": 7034,
      "ĠRock": 7035,
      "Ġdisadvant": 7036,
      "Ġnobody": 7037,
      "Ġbrid": 7038,
      "Ġregulating": 7039,
      "Ġservants": 7040,
      "Ġsetting": 7041,
      "Ġflu": 7042,
      "Ġscr": 7043,
      "Ġscore": 7044,
      "Ġdirections": 7045,
      "ĠPresid": 7046,
      "Ġlaborers": 7047,
      "Ġadministered": 7048,
      "Ġmovements": 7049,
      "Ġthreats": 7050,
      "Ġunfair": 7051,
      "Ġdiscussed": 7052,
      "Ġdispatch": 7053,
      "ĠCuban": 7054,
      "Ġoriginally": 7055,
      "Ġattacks": 7056,
      "Ġregularly": 7057,
      "Ġtrading": 7058,
      "Ġmerchants": 7059,
      "Ġprosecuted": 7060,
      "Ġpurchased": 7061,
      "Ġtouching": 7062,
      "Ġinevitably": 7063,
      "Ġvirtue": 7064,
      "Ġsupreme": 7065,
      "ĠCorporation": 7066,
      "Ġplenipotentiary": 7067,
      "Ġnarrow": 7068,
      "ĠSeveral": 7069,
      "Ġequivalent": 7070,
      "300": 7071,
      "bo": 7072,
      "hand": 7073,
      "ixt": 7074,
      "ront": 7075,
      "Ġ0": 7076,
      "erity": 7077,
      "Ġbodies": 7078,
      "Ġmap": 7079,
      "isle": 7080,
      "eding": 7081,
      "Ġinse": 7082,
      "Ġinequ": 7083,
      "usiness": 7084,
      "Ġnamed": 7085,
      "Ġhaz": 7086,
      "Ġhall": 7087,
      "ĠAc": 7088,
      "Ġconquest": 7089,
      "idel": 7090,
      "opard": 7091,
      "ĠBen": 7092,
      "Ġalle": 7093,
      "Ġallot": 7094,
      "ĠDr": 7095,
      "Ġlaundry": 7096,
      "eable": 7097,
      "Ġkid": 7098,
      "Ġ150": 7099,
      "ĠFo": 7100,
      "Ġsport": 7101,
      "Ġfab": 7102,
      "ĠChar": 7103,
      "Ġterr": 7104,
      "Ġorderly": 7105,
      "Ġspeech": 7106,
      "ĠKansas": 7107,
      "Ġcruel": 7108,
      "Ġbankrupt": 7109,
      "Ġreadiness": 7110,
      "Ġpatience": 7111,
      "Ġ1891": 7112,
      "ĠProf": 7113,
      "Ġspeculation": 7114,
      "Ġrenewal": 7115,
      "anny": 7116,
      "Ġerr": 7117,
      "Ġreaching": 7118,
      "Ġcollecting": 7119,
      "Ġembarrassment": 7120,
      "Ġbelonging": 7121,
      "Ġsucceeded": 7122,
      "Ġprevailed": 7123,
      "Ġpledged": 7124,
      "Ġrestraint": 7125,
      "Ġrepublican": 7126,
      "Ġexhausted": 7127,
      "Ġprudent": 7128,
      "Ġdisagree": 7129,
      "Ġunprecedented": 7130,
      "Ġinnocent": 7131,
      "36": 7132,
      "bably": 7133,
      "gue": 7134,
      "put": 7135,
      "sp": 7136,
      "uine": 7137,
      "uated": 7138,
      "well": 7139,
      "Ġoption": 7140,
      "Ġpays": 7141,
      "Ġineff": 7142,
      "ĠWall": 7143,
      "ĠSch": 7144,
      "Ġwearing": 7145,
      "ĠMmm": 7146,
      "Ġunite": 7147,
      "ĠDes": 7148,
      "olic": 7149,
      "umes": 7150,
      "umph": 7151,
      "Ġfax": 7152,
      "Ġintrusted": 7153,
      "Ġcountrymen": 7154,
      "anging": 7155,
      "Ġgenuine": 7156,
      "Ġenduring": 7157,
      "Ġdepre": 7158,
      "Ġblow": 7159,
      "Ġequity": 7160,
      "Ġoppression": 7161,
      "edience": 7162,
      "Ġmarks": 7163,
      "Ġcivilian": 7164,
      "Ġfoods": 7165,
      "ĠWithin": 7166,
      "ĠProg": 7167,
      "Ġinvolves": 7168,
      "Ġdevol": 7169,
      "Ġdevised": 7170,
      "Ġapplicable": 7171,
      "Ġdegrees": 7172,
      "Ġratio": 7173,
      "Ġboundaries": 7174,
      "Ġconflicts": 7175,
      "Ġtasks": 7176,
      "ĠEastern": 7177,
      "Ġsteamship": 7178,
      "burg": 7179,
      "Ġcolonial": 7180,
      "ĠLegislation": 7181,
      "ĠProvidence": 7182,
      "Ġeliminate": 7183,
      "Ġconsolid": 7184,
      "Ġsoftware": 7185,
      "Ġdeserves": 7186,
      "Ġneglect": 7187,
      "izza": 7188,
      "ĠGovernor": 7189,
      "book": 7190,
      "Ġtu": 7191,
      "Ġaud": 7192,
      "Ġbow": 7193,
      "Ġnomin": 7194,
      "lex": 7195,
      "Ġneck": 7196,
      "alled": 7197,
      "ĠHond": 7198,
      "rages": 7199,
      "Ġvill": 7200,
      "istry": 7201,
      "ardon": 7202,
      "ĠPC": 7203,
      "Ġspect": 7204,
      "Ġrecru": 7205,
      "ĠJud": 7206,
      "ĠJenny": 7207,
      "Ġsubsist": 7208,
      "Ġcock": 7209,
      "Ġfeature": 7210,
      "Ġregulated": 7211,
      "Ġimportation": 7212,
      "Ġdecisive": 7213,
      "Ġobstru": 7214,
      "icks": 7215,
      "Ġflat": 7216,
      "Ġtransition": 7217,
      "Ġhighway": 7218,
      "Ġconsul": 7219,
      "Ġprevention": 7220,
      "orthy": 7221,
      "Ġremainder": 7222,
      "Ġtowards": 7223,
      "Ġcontracted": 7224,
      "Ġaggressive": 7225,
      "Ġinstituted": 7226,
      "Ġthreatening": 7227,
      "Ġpercentage": 7228,
      "Ġfitting": 7229,
      "Ġselect": 7230,
      "Ġintroduction": 7231,
      "Ġcampus": 7232,
      "Ġqualities": 7233,
      "Ġboyfriend": 7234,
      "Ġembarrassments": 7235,
      "Ġcertificate": 7236,
      "Ġradical": 7237,
      "Ġtorn": 7238,
      "Ġarrested": 7239,
      "ĠĠĠĠĠĠĠĠ": 7240,
      "Ġprisoners": 7241,
      "Ġowing": 7242,
      "Ġprejudice": 7243,
      "ĠKeep": 7244,
      "Ġopposite": 7245,
      "Ġalleged": 7246,
      "aving": 7247,
      "ls": 7248,
      "Ġ:": 7249,
      "Ġver": 7250,
      "inder": 7251,
      "atible": 7252,
      "Ġsam": 7253,
      "Ġcensus": 7254,
      "Ġ..": 7255,
      "Ġpage": 7256,
      "Ġfan": 7257,
      "Ġfried": 7258,
      "orious": 7259,
      "Ġinstruction": 7260,
      "ushed": 7261,
      "alt": 7262,
      "roke": 7263,
      "illed": 7264,
      "Ġstup": 7265,
      "Ġran": 7266,
      "ĠBu": 7267,
      "Ġthereon": 7268,
      "Ġappe": 7269,
      "Ġappeared": 7270,
      "Ġsomewhat": 7271,
      "ĠRed": 7272,
      "Ġnowadays": 7273,
      "Ġnoise": 7274,
      "Ġattending": 7275,
      "Ġserving": 7276,
      "ĠChamber": 7277,
      "Ġdefray": 7278,
      "Ġadvised": 7279,
      "Ġdepred": 7280,
      "Ġeconomies": 7281,
      "Ġfreely": 7282,
      "Ġbenefic": 7283,
      "Ġsooner": 7284,
      "Ġorganize": 7285,
      "Ġtrains": 7286,
      "Ġsteel": 7287,
      "Ġcreditors": 7288,
      "Ġplacing": 7289,
      "Ġhearing": 7290,
      "ĠTerritorial": 7291,
      "ipping": 7292,
      "Ġborne": 7293,
      "Ġdraft": 7294,
      "Ġdiscussions": 7295,
      "Ġuniversities": 7296,
      "Ġpossessed": 7297,
      "Ġexecute": 7298,
      "ĠTomorrow": 7299,
      "Ġtemporarily": 7300,
      "holders": 7301,
      "Ġdeny": 7302,
      "Ġimperfect": 7303,
      "ternal": 7304,
      "Ġassociations": 7305,
      "Ġadmir": 7306,
      "Ġconsolidation": 7307,
      "Ġpenalties": 7308,
      "Ġmonopol": 7309,
      "Ġaccommodation": 7310,
      "interest": 7311,
      "Ġdefects": 7312,
      "Ġstruggling": 7313,
      "Ġsquadron": 7314,
      "Ġvested": 7315,
      "Ġgeograph": 7316,
      "ĠThomas": 7317,
      "200": 7318,
      "37": 7319,
      "97": 7320,
      "how": 7321,
      "know": 7322,
      "service": 7323,
      "Ġmad": 7324,
      "Ġfuel": 7325,
      "usions": 7326,
      "icago": 7327,
      "Ġgri": 7328,
      "oos": 7329,
      "ĠMin": 7330,
      "Ġbutton": 7331,
      "Ġspr": 7332,
      "Ġcompass": 7333,
      "Ġimpressive": 7334,
      "Ġfare": 7335,
      "Ġincred": 7336,
      "Ġoffenses": 7337,
      "Ġcommanders": 7338,
      "Ġclause": 7339,
      "Ġlawful": 7340,
      "Ġlawless": 7341,
      "acket": 7342,
      "Ġloved": 7343,
      "Ġloves": 7344,
      "Ġdefin": 7345,
      "Ġadvancing": 7346,
      "Ġgenius": 7347,
      "Ġearning": 7348,
      "Ġeffectual": 7349,
      "Ġblind": 7350,
      "Ġ1900": 7351,
      "ĠConvention": 7352,
      "Ġlessons": 7353,
      "Ġpresumed": 7354,
      "Ġnearby": 7355,
      "ĠNeither": 7356,
      "Ġjudicious": 7357,
      "Ġboats": 7358,
      "ĠCommitte": 7359,
      "Ġcommitments": 7360,
      "Ġcutting": 7361,
      "Ġcommunicate": 7362,
      "Ġdependence": 7363,
      "Ġacceptance": 7364,
      "Ġinjured": 7365,
      "Ġconsequent": 7366,
      "Ġbarriers": 7367,
      "Ġinfluences": 7368,
      "rats": 7369,
      "Ġlimitations": 7370,
      "Ġunsett": 7371,
      "Ġdebate": 7372,
      "aneous": 7373,
      "Ġdiminish": 7374,
      "Ġapparently": 7375,
      "Ġpriorities": 7376,
      "Ġrestoring": 7377,
      "market": 7378,
      "Ġabundance": 7379,
      "Ġdogs": 7380,
      "Ġcommittees": 7381,
      "Ġdedu": 7382,
      "Ġcultivation": 7383,
      "Ġtimber": 7384,
      "Ġconstituents": 7385,
      "Ġapproximately": 7386,
      "Ġirrigation": 7387,
      "Ġtelegraph": 7388,
      "31": 7389,
      "Can": 7390,
      "IL": 7391,
      "aments": 7392,
      "free": 7393,
      "gn": 7394,
      "lines": 7395,
      "Ġtree": 7396,
      "Ġtrem": 7397,
      "Ġtrees": 7398,
      "Ġaided": 7399,
      "inently": 7400,
      "erry": 7401,
      "erem": 7402,
      "Ġbike": 7403,
      "Ġpm": 7404,
      "Ġdial": 7405,
      "Ġlux": 7406,
      "Ġeager": 7407,
      "Ġgather": 7408,
      "ĠToo": 7409,
      "ĠWhe": 7410,
      "ĠSand": 7411,
      "allel": 7412,
      "ĠHold": 7413,
      "Ġrom": 7414,
      "ĠMess": 7415,
      "Ġuncon": 7416,
      "ĠPat": 7417,
      "ĠEdu": 7418,
      "Ġoffend": 7419,
      "Ġextrad": 7420,
      "aval": 7421,
      "ĠChicago": 7422,
      "Ġobedience": 7423,
      "racted": 7424,
      "Ġadding": 7425,
      "Ġspecially": 7426,
      "Ġblame": 7427,
      "Ġconscious": 7428,
      "Ġannoy": 7429,
      "urrent": 7430,
      "Ġstudies": 7431,
      "Ġslaves": 7432,
      "Ġmarry": 7433,
      "Ġcontrols": 7434,
      "Ġcrew": 7435,
      "Ġ1898": 7436,
      "Ġtribute": 7437,
      "ucky": 7438,
      "Ġheadache": 7439,
      "Ġmoderation": 7440,
      "workers": 7441,
      "Ġhonestly": 7442,
      "Ġstocks": 7443,
      "Ġtroubles": 7444,
      "Ġcommanding": 7445,
      "ĠAgain": 7446,
      "Ġlanguages": 7447,
      "Ġdisturbances": 7448,
      "Ġrequested": 7449,
      "Ġfruits": 7450,
      "Ġapproaching": 7451,
      "ĠKingdom": 7452,
      "Ġdevotion": 7453,
      "Ġnewspapers": 7454,
      "Ġphotos": 7455,
      "Ġcultivate": 7456,
      "Ġfisheries": 7457,
      "Ġsubstitute": 7458,
      "Ġconcession": 7459,
      "Ġhesitate": 7460,
      "Ġpacking": 7461,
      "ĠDenmark": 7462,
      "working": 7463,
      "BA": 7464,
      "ED": 7465,
      "May": 7466,
      "ael": 7467,
      "eper": 7468,
      "zy": 7469,
      "Ġsending": 7470,
      "itch": 7471,
      "Ġcrop": 7472,
      "Ġfol": 7473,
      "arling": 7474,
      "icle": 7475,
      "icated": 7476,
      "entially": 7477,
      "Ġgains": 7478,
      "ĠWon": 7479,
      "irgin": 7480,
      "ĠColl": 7481,
      "Ġbye": 7482,
      "iles": 7483,
      "Ġatomic": 7484,
      "ĠHague": 7485,
      "ĠMaster": 7486,
      "ĠOcean": 7487,
      "earing": 7488,
      "oln": 7489,
      "Ġadult": 7490,
      "Ġagitation": 7491,
      "Ġenumer": 7492,
      "udes": 7493,
      "Ġcontain": 7494,
      "arest": 7495,
      "ĠList": 7496,
      "Ġreck": 7497,
      "place": 7498,
      "Ġnewly": 7499,
      "Ġsubordinate": 7500,
      "Ġbuses": 7501,
      "Ġregister": 7502,
      "Ġroot": 7503,
      "ĠIsland": 7504,
      "Ġcheese": 7505,
      "ĠExper": 7506,
      "Ġnevertheless": 7507,
      "Ġshower": 7508,
      "Ġdelicate": 7509,
      "Ġeleven": 7510,
      "Ġobjections": 7511,
      "Ġpostpon": 7512,
      "Ġaccounting": 7513,
      "Ġenjoying": 7514,
      "ĠArgent": 7515,
      "Ġaffordable": 7516,
      "Ġencounter": 7517,
      "Ġ75": 7518,
      "Ġarmaments": 7519,
      "Ġsuperintend": 7520,
      "Ġ1892": 7521,
      "ysis": 7522,
      "ĠCommissioners": 7523,
      "Ġfitness": 7524,
      "Ġsoldier": 7525,
      "Ġgranting": 7526,
      "Ġachievements": 7527,
      "Ġmutually": 7528,
      "incoln": 7529,
      "Ġsupplied": 7530,
      "Ġdisturbance": 7531,
      "Ġgoverned": 7532,
      "Ġrestriction": 7533,
      "Ġconsumm": 7534,
      "Ġfulfillment": 7535,
      "Ġrelaxed": 7536,
      "Ġproclaimed": 7537,
      "Ġrelationships": 7538,
      "Ġpossibly": 7539,
      "Ġsuddenly": 7540,
      "Ġregistered": 7541,
      "Ġextremely": 7542,
      "Ġchannel": 7543,
      "Ġrepeatedly": 7544,
      "Ġmidst": 7545,
      "Ġdropped": 7546,
      "Ġclassified": 7547,
      "Ġsignificant": 7548,
      "ĠRichard": 7549,
      "Ġoverwhelming": 7550,
      "idelity": 7551,
      "In": 7552,
      "half": 7553,
      "nal": 7554,
      "ok": 7555,
      "point": 7556,
      "sc": 7557,
      "Ġtheater": 7558,
      "Ġcy": 7559,
      "Ġcession": 7560,
      "Ġbureau": 7561,
      "Ġmarsh": 7562,
      "Ġflying": 7563,
      "sies": 7564,
      "ental": 7565,
      "aled": 7566,
      "ĠTry": 7567,
      "ĠTax": 7568,
      "roach": 7569,
      "ĠWood": 7570,
      "Ġexig": 7571,
      "ila": 7572,
      "ilty": 7573,
      "endous": 7574,
      "Ġseam": 7575,
      "ective": 7576,
      "Ġjam": 7577,
      "olars": 7578,
      "Ġchamber": 7579,
      "Ġthereto": 7580,
      "ĠPerson": 7581,
      "Ġplastic": 7582,
      "ĠLand": 7583,
      "ĠLincoln": 7584,
      "Ġoffensive": 7585,
      "Ġnovel": 7586,
      "Ġintim": 7587,
      "Ġeman": 7588,
      "Ġdecor": 7589,
      "Ġcarpet": 7590,
      "Ġmeetings": 7591,
      "Ġguided": 7592,
      "Ġguilty": 7593,
      "Ġstrang": 7594,
      "Ġstrife": 7595,
      "Ġtransmission": 7596,
      "Ġmenace": 7597,
      "Ġconscience": 7598,
      "Ġpersonally": 7599,
      "Ġformidable": 7600,
      "Ġinspect": 7601,
      "Ġlesson": 7602,
      "Ġcenters": 7603,
      "Ġrespected": 7604,
      "ĠSurely": 7605,
      "Ġrefusal": 7606,
      "Ġbadly": 7607,
      "Ġsatisfy": 7608,
      "Ġparent": 7609,
      "Ġdesigns": 7610,
      "Ġmisunder": 7611,
      "Ġmembership": 7612,
      "Ġfilms": 7613,
      "Ġvictims": 7614,
      "Ġguarded": 7615,
      "Ġpurchases": 7616,
      "ĠClaim": 7617,
      "Ġprohibit": 7618,
      "Ġdeliberate": 7619,
      "Ġadjud": 7620,
      "Ġaugmented": 7621,
      "Ġdelegates": 7622,
      "Ġjeopard": 7623,
      "ĠDaniel": 7624,
      "ĠNether": 7625,
      "Ġinterpretation": 7626,
      "Ġmassive": 7627,
      "Ġallegiance": 7628,
      "Ġreleased": 7629,
      "Ġgarden": 7630,
      "Ġlobby": 7631,
      "break": 7632,
      "Ġunsettled": 7633,
      "39": 7634,
      "cend": 7635,
      "ris": 7636,
      "tw": 7637,
      "erto": 7638,
      "Ġwanna": 7639,
      "Ġsle": 7640,
      "Ġsake": 7641,
      "Ġmile": 7642,
      "Ġmuseum": 7643,
      "Ġfidelity": 7644,
      "ĠIN": 7645,
      "ĠIll": 7646,
      "ĠTime": 7647,
      "Ġstor": 7648,
      "Ġhell": 7649,
      "Ġsharing": 7650,
      "Ġseized": 7651,
      "rav": 7652,
      "raise": 7653,
      "ĠPri": 7654,
      "ĠFurther": 7655,
      "Ġamended": 7656,
      "Ġcommissions": 7657,
      "Ġlease": 7658,
      "Ġintr": 7659,
      "Ġquot": 7660,
      "Ġpray": 7661,
      "Ġovert": 7662,
      "Ġsuppress": 7663,
      "...": 7664,
      "Ġeffectually": 7665,
      "Ġconfron": 7666,
      "Ġinvent": 7667,
      "Ġtransl": 7668,
      "Ġscared": 7669,
      "Ġassault": 7670,
      "Ġclassroom": 7671,
      "Ġexpert": 7672,
      "Ġproductivity": 7673,
      "Ġsky": 7674,
      "Ġpatient": 7675,
      "Ġconclude": 7676,
      "Ġbrown": 7677,
      "Ġstrive": 7678,
      "Ġharmon": 7679,
      "Ġdistributed": 7680,
      "Ġboys": 7681,
      "Ġbelongs": 7682,
      "Ġexclusively": 7683,
      "Ġpainful": 7684,
      "Ġrevolutionary": 7685,
      "ĠZh": 7686,
      "Ġstrictly": 7687,
      "Ġengineers": 7688,
      "Ġglobe": 7689,
      "Ġresidence": 7690,
      "Ġhuh": 7691,
      "Ġpreca": 7692,
      "ING": 7693,
      "Ġsandw": 7694,
      "Ġconferences": 7695,
      "ĠEarth": 7696,
      "Ġmixed": 7697,
      "Ġfacilitate": 7698,
      "Ġheavily": 7699,
      "Ġexertions": 7700,
      "ĠBelgium": 7701,
      "Ġjealous": 7702,
      "ĠPuerto": 7703,
      "ĠEducation": 7704,
      "ĠNetherlands": 7705,
      "32": 7706,
      "aires": 7707,
      "mind": 7708,
      "rd": 7709,
      "van": 7710,
      "held": 7711,
      "Ġaisle": 7712,
      "Ġsilly": 7713,
      "itals": 7714,
      "Ġburn": 7715,
      "isa": 7716,
      "Ġinher": 7717,
      "Ġinno": 7718,
      "roe": 7719,
      "Ġconvey": 7720,
      "Ġstamp": 7721,
      "Ġstamps": 7722,
      "ulent": 7723,
      "ambers": 7724,
      "Ġunpro": 7725,
      "ĠBusiness": 7726,
      "ĠNorthern": 7727,
      "ĠStill": 7728,
      "ĠPret": 7729,
      "ĠUs": 7730,
      "Ġspoke": 7731,
      "Ġresumed": 7732,
      "Ġexpiration": 7733,
      "Ġimpl": 7734,
      "Ġpartner": 7735,
      "Ġreputation": 7736,
      "Ġrelinqu": 7737,
      "Ġattached": 7738,
      "redit": 7739,
      "Ġcargoes": 7740,
      "Ġconfront": 7741,
      "Ġfluct": 7742,
      "Ġpassion": 7743,
      "Ġlegislatures": 7744,
      "Ġretard": 7745,
      "Ġbillions": 7746,
      "Ġdelays": 7747,
      "Ġconciliation": 7748,
      "ĠTogether": 7749,
      "ĠKen": 7750,
      "Ġoperating": 7751,
      "Ġrepresents": 7752,
      "Ġjudiciary": 7753,
      "Ġcirculating": 7754,
      "Ġexercising": 7755,
      "Ġaffording": 7756,
      "Ġnavig": 7757,
      "Ġtriumph": 7758,
      "Ġviolations": 7759,
      "Ġconclusive": 7760,
      "Ġoffering": 7761,
      "Ġfaced": 7762,
      "Ġremembered": 7763,
      "Ġdoubtful": 7764,
      "Ġfurnishes": 7765,
      "ological": 7766,
      "Ġcalam": 7767,
      "Ġformerly": 7768,
      "sign": 7769,
      "Ġconflicting": 7770,
      "Ġinitial": 7771,
      "Ġnetwork": 7772,
      "Ġhorrible": 7773,
      "Ġcongratulate": 7774,
      "Ġretained": 7775,
      "Ġrejected": 7776,
      "Ġredeemed": 7777,
      "Ġcomplaints": 7778,
      "Ġreclamation": 7779,
      "Ġprocure": 7780,
      "Ġbonus": 7781,
      "Ġbullion": 7782,
      "Ġmultipl": 7783,
      "known": 7784,
      "Citizens": 7785,
      "ham": 7786,
      "lia": 7787,
      "law": 7788,
      "ma": 7789,
      "mar": 7790,
      "pread": 7791,
      "rane": 7792,
      "Ġtren": 7793,
      "inued": 7794,
      "stration": 7795,
      "Ġwast": 7796,
      "Ġwides": 7797,
      "Ġsite": 7798,
      "Ġtooth": 7799,
      "Ġfert": 7800,
      "orily": 7801,
      "essive": 7802,
      "Ġinfer": 7803,
      "Ġdivid": 7804,
      "Ġdread": 7805,
      "inger": 7806,
      "usp": 7807,
      "Ġlat": 7808,
      "Ġlady": 7809,
      "Ġgam": 7810,
      "ĠTay": 7811,
      "ĠTra": 7812,
      "lder": 7813,
      "ĠWork": 7814,
      "Ġwhilst": 7815,
      "ĠSer": 7816,
      "irds": 7817,
      "idays": 7818,
      "ĠCath": 7819,
      "Ġstret": 7820,
      "Ġaspir": 7821,
      "Ġheight": 7822,
      "Ġshock": 7823,
      "pping": 7824,
      "ĠMilitary": 7825,
      "Ġunt": 7826,
      "oston": 7827,
      "ĠPublic": 7828,
      "Ġcommander": 7829,
      "Ġdisabl": 7830,
      "Ġgreatness": 7831,
      "Ġclosing": 7832,
      "Ġpron": 7833,
      "Ġgrass": 7834,
      "Ġpayable": 7835,
      "Ġdesires": 7836,
      "ĠHealth": 7837,
      "ĠVirgin": 7838,
      "Ġdepressed": 7839,
      "ribly": 7840,
      "ĠExcell": 7841,
      "Ġscene": 7842,
      "Ġplanned": 7843,
      "Ġannum": 7844,
      "Ġstatements": 7845,
      "Ġexperts": 7846,
      "Ġ45": 7847,
      "Ġmarch": 7848,
      "Ġglory": 7849,
      "Ġorganic": 7850,
      "Ġsigns": 7851,
      "Ġliberties": 7852,
      "Ġbegins": 7853,
      "Ġexceptions": 7854,
      "Ġ1893": 7855,
      "Ġ1897": 7856,
      "Ġveh": 7857,
      "Ġfacility": 7858,
      "Ġmodifications": 7859,
      "Ġapplications": 7860,
      "Ġrival": 7861,
      "Ġexchanges": 7862,
      "Ġintervention": 7863,
      "Ġexplo": 7864,
      "Ġvoted": 7865,
      "Ġvoting": 7866,
      "Ġattempts": 7867,
      "Ġawful": 7868,
      "attered": 7869,
      "Ġerection": 7870,
      "Ġexhibited": 7871,
      "Ġanswered": 7872,
      "ĠMonica": 7873,
      "ĠMean": 7874,
      "Ġundue": 7875,
      "Ġpermitting": 7876,
      "Ġcopies": 7877,
      "Ġattainment": 7878,
      "Ġkilling": 7879,
      "Ġconstruct": 7880,
      "ĠCanadian": 7881,
      "engers": 7882,
      "Ġprohibition": 7883,
      "Ġcapture": 7884,
      "ĠSuper": 7885,
      "Ġsincerely": 7886,
      "ĠBelie": 7887,
      "ĠGrande": 7888,
      "Ġuncertainty": 7889,
      "Ġshrink": 7890,
      "ĠMadrid": 7891,
      "Ġunhappy": 7892,
      "Ġforbearance": 7893,
      "Ġstupid": 7894,
      "Ġincredible": 7895,
      "Ġextradition": 7896,
      "liament": 7897,
      "Ġwidespread": 7898,
      "400": 7899,
      "74": 7900,
      "IG": 7901,
      "case": 7902,
      "field": 7903,
      "gments": 7904,
      "moking": 7905,
      "night": 7906,
      "uge": 7907,
      "Ġausp": 7908,
      "income": 7909,
      "reaching": 7910,
      "stairs": 7911,
      "Ġwro": 7912,
      "Ġwet": 7913,
      "Ġcin": 7914,
      "Ġbold": 7915,
      "Ġbomb": 7916,
      "Ġtoast": 7917,
      "ede": 7918,
      "Ġlying": 7919,
      "Ġrein": 7920,
      "Ġgifts": 7921,
      "leans": 7922,
      "ĠTa": 7923,
      "ĠTreat": 7924,
      "ĠWil": 7925,
      "Ġconcept": 7926,
      "Ġconstr": 7927,
      "ada": 7928,
      "ĠHem": 7929,
      "Ġcancell": 7930,
      "ĠMos": 7931,
      "Ġliability": 7932,
      "Ġuncle": 7933,
      "ĠGot": 7934,
      "ĠDoming": 7935,
      "ĠDomin": 7936,
      "Ġalarm": 7937,
      "Ġads": 7938,
      "ĠPal": 7939,
      "Ġresumption": 7940,
      "ĠUntil": 7941,
      "Ġsomebody": 7942,
      "ĠLee": 7943,
      "Ġincidents": 7944,
      "Ġarch": 7945,
      "Ġoutbreak": 7946,
      "Ġdisarm": 7947,
      "Ġintimate": 7948,
      "Ġsauce": 7949,
      "Ġeminently": 7950,
      "Ġdecreas": 7951,
      "Ġdefensive": 7952,
      "Ġpromising": 7953,
      "Ġtransmit": 7954,
      "Ġscrup": 7955,
      "Ġretired": 7956,
      "Ġcostly": 7957,
      "Ġvalid": 7958,
      "Ġfoundations": 7959,
      "lessly": 7960,
      "Ġleader": 7961,
      "Ġregarding": 7962,
      "Ġsites": 7963,
      "ĠRepublicans": 7964,
      "Ġski": 7965,
      "Ġearned": 7966,
      "Ġfairness": 7967,
      "Ġacceptable": 7968,
      "Ġdriven": 7969,
      "Ġsupermarket": 7970,
      "Ġallowance": 7971,
      "Ġenergies": 7972,
      "ĠProbably": 7973,
      "Ġgraduation": 7974,
      "Ġgrew": 7975,
      "Ġtrusts": 7976,
      "Ġdeposited": 7977,
      "Ġnaturalized": 7978,
      "Ġtyr": 7979,
      "Ġdesignated": 7980,
      "Ġdiver": 7981,
      "Ġfrontiers": 7982,
      "Ġdetermining": 7983,
      "Ġacquire": 7984,
      "Ġirrit": 7985,
      "Ġtender": 7986,
      "Ġrulers": 7987,
      "Ġeventually": 7988,
      "Ġsuspic": 7989,
      "Ġemergencies": 7990,
      "Ġfathers": 7991,
      "ĠOrleans": 7992,
      "pedo": 7993,
      "Ġinconsist": 7994,
      "Ġelimination": 7995,
      "Ġpeculiarly": 7996,
      "Ġwalls": 7997,
      "ĠCarol": 7998,
      "Ġtorpedo": 7999
    },
    "merges": [
      [
        "Ġ",
        "t"
      ],
      [
        "č",
        "Ċ"
      ],
      [
        "h",
        "e"
      ],
      [
        "Ġ",
        "a"
      ],
      [
        "i",
        "n"
      ],
      [
        "e",
        "r"
      ],
      [
        "Ġt",
        "he"
      ],
      [
        "Ġ",
        "o"
      ],
      [
        "r",
        "e"
      ],
      [
        "o",
        "n"
      ],
      [
        "s",
        "t"
      ],
      [
        "a",
        "n"
      ],
      [
        "Ġ",
        "w"
      ],
      [
        "a",
        "t"
      ],
      [
        "e",
        "n"
      ],
      [
        "o",
        "u"
      ],
      [
        "Ġ",
        "s"
      ],
      [
        "i",
        "t"
      ],
      [
        "Ġ",
        "c"
      ],
      [
        "Ġo",
        "f"
      ],
      [
        "Ġ",
        "."
      ],
      [
        "Ġ",
        "b"
      ],
      [
        "Ġ",
        "p"
      ],
      [
        "Ġt",
        "o"
      ],
      [
        "Ġ",
        "<"
      ],
      [
        "Ġ",
        "m"
      ],
      [
        "Ġ",
        "f"
      ],
      [
        "o",
        "r"
      ],
      [
        "a",
        "s"
      ],
      [
        "Ġa",
        "n"
      ],
      [
        "i",
        "s"
      ],
      [
        "e",
        "d"
      ],
      [
        "Ġ",
        "I"
      ],
      [
        "e",
        "s"
      ],
      [
        "Ġ",
        "in"
      ],
      [
        "l",
        "l"
      ],
      [
        "Ġ",
        "d"
      ],
      [
        "i",
        "on"
      ],
      [
        "in",
        "g"
      ],
      [
        "u",
        "s"
      ],
      [
        "Ġan",
        "d"
      ],
      [
        "Ġt",
        "h"
      ],
      [
        "a",
        "r"
      ],
      [
        "Ġ",
        "h"
      ],
      [
        "i",
        "c"
      ],
      [
        "Ġ",
        "y"
      ],
      [
        "an",
        "t"
      ],
      [
        "s",
        "i"
      ],
      [
        "Ġ",
        "l"
      ],
      [
        "o",
        "m"
      ],
      [
        "Ġ",
        "n"
      ],
      [
        "Ġb",
        "e"
      ],
      [
        "en",
        "t"
      ],
      [
        "Ġy",
        "ou"
      ],
      [
        "Ġ",
        ","
      ],
      [
        "v",
        "e"
      ],
      [
        "us",
        "er"
      ],
      [
        "Ġ",
        "re"
      ],
      [
        "a",
        "l"
      ],
      [
        "si",
        "st"
      ],
      [
        "Ġ",
        "e"
      ],
      [
        "sist",
        "ant"
      ],
      [
        "as",
        "sistant"
      ],
      [
        "Ġ",
        "g"
      ],
      [
        "u",
        "r"
      ],
      [
        "l",
        "e"
      ],
      [
        "Ġ",
        "T"
      ],
      [
        "Ġ",
        "?"
      ],
      [
        "r",
        "o"
      ],
      [
        "c",
        "t"
      ],
      [
        "u",
        "t"
      ],
      [
        "Ġf",
        "or"
      ],
      [
        "at",
        "ion"
      ],
      [
        "Ġ",
        "it"
      ],
      [
        "Ġ",
        "čĊ"
      ],
      [
        "Ġ",
        "is"
      ],
      [
        "v",
        "er"
      ],
      [
        "Ġth",
        "at"
      ],
      [
        "Ġh",
        "a"
      ],
      [
        "o",
        "w"
      ],
      [
        "c",
        "e"
      ],
      [
        "l",
        "d"
      ],
      [
        "o",
        "t"
      ],
      [
        "e",
        "t"
      ],
      [
        "Ġ",
        "W"
      ],
      [
        "a",
        "y"
      ],
      [
        "i",
        "m"
      ],
      [
        "Ġw",
        "h"
      ],
      [
        "Ġo",
        "n"
      ],
      [
        "l",
        "y"
      ],
      [
        "s",
        "e"
      ],
      [
        "i",
        "g"
      ],
      [
        "Ġ",
        "S"
      ],
      [
        "m",
        "ent"
      ],
      [
        "Ġ",
        "A"
      ],
      [
        "Ġha",
        "ve"
      ],
      [
        "it",
        "h"
      ],
      [
        "Ġw",
        "e"
      ],
      [
        "i",
        "r"
      ],
      [
        "i",
        "ll"
      ],
      [
        "u",
        "n"
      ],
      [
        "Ġc",
        "on"
      ],
      [
        "Ġw",
        "ith"
      ],
      [
        "c",
        "h"
      ],
      [
        "Ġp",
        "ro"
      ],
      [
        "i",
        "d"
      ],
      [
        "ĠT",
        "he"
      ],
      [
        "re",
        "s"
      ],
      [
        "k",
        "e"
      ],
      [
        "ou",
        "ld"
      ],
      [
        "Ġ",
        "C"
      ],
      [
        "a",
        "d"
      ],
      [
        "Ġs",
        "u"
      ],
      [
        "Ġo",
        "ur"
      ],
      [
        "Ġ",
        "st"
      ],
      [
        "Ġa",
        "s"
      ],
      [
        "Ġe",
        "x"
      ],
      [
        "Ġ",
        "he"
      ],
      [
        "Ġn",
        "e"
      ],
      [
        "Ġa",
        "re"
      ],
      [
        "a",
        "ll"
      ],
      [
        "o",
        "o"
      ],
      [
        "t",
        "er"
      ],
      [
        "Ġc",
        "om"
      ],
      [
        "Ġd",
        "e"
      ],
      [
        "Ġb",
        "y"
      ],
      [
        "Ġm",
        "e"
      ],
      [
        "i",
        "l"
      ],
      [
        "h",
        "t"
      ],
      [
        "Ġth",
        "is"
      ],
      [
        "es",
        "s"
      ],
      [
        "at",
        "e"
      ],
      [
        "i",
        "f"
      ],
      [
        "Ġs",
        "h"
      ],
      [
        "'",
        "s"
      ],
      [
        "a",
        "in"
      ],
      [
        "Ġd",
        "o"
      ],
      [
        "u",
        "st"
      ],
      [
        "he",
        "r"
      ],
      [
        "en",
        "d"
      ],
      [
        "Ġs",
        "e"
      ],
      [
        "r",
        "i"
      ],
      [
        "u",
        "l"
      ],
      [
        "o",
        "p"
      ],
      [
        "ou",
        "n"
      ],
      [
        "Ġ",
        "Y"
      ],
      [
        "Ġn",
        "ot"
      ],
      [
        "Ġw",
        "ill"
      ],
      [
        "Ġa",
        "t"
      ],
      [
        "Ġ",
        "H"
      ],
      [
        "Ġ",
        "r"
      ],
      [
        "o",
        "re"
      ],
      [
        "â",
        "Ģ"
      ],
      [
        "Ġ",
        "âĢ"
      ],
      [
        "or",
        "t"
      ],
      [
        "g",
        "e"
      ],
      [
        "ĠâĢ",
        "Ļ"
      ],
      [
        "ic",
        "h"
      ],
      [
        "Ġc",
        "an"
      ],
      [
        "p",
        "p"
      ],
      [
        "b",
        "le"
      ],
      [
        "a",
        "m"
      ],
      [
        "e",
        "ct"
      ],
      [
        "ig",
        "ht"
      ],
      [
        "Ġ",
        "M"
      ],
      [
        "Ġwh",
        "ich"
      ],
      [
        "ĠT",
        "h"
      ],
      [
        "r",
        "om"
      ],
      [
        "d",
        "er"
      ],
      [
        "Ġl",
        "i"
      ],
      [
        "on",
        "g"
      ],
      [
        "Ġo",
        "r"
      ],
      [
        "it",
        "y"
      ],
      [
        "Ġ",
        "O"
      ],
      [
        "Ġ",
        "un"
      ],
      [
        "Ġ",
        "G"
      ],
      [
        "q",
        "u"
      ],
      [
        "Ġs",
        "o"
      ],
      [
        "ĠI",
        "t"
      ],
      [
        "Ġ",
        "B"
      ],
      [
        "Ġa",
        "ll"
      ],
      [
        "e",
        "st"
      ],
      [
        "er",
        "s"
      ],
      [
        "an",
        "d"
      ],
      [
        "i",
        "es"
      ],
      [
        "Ġ",
        "j"
      ],
      [
        "Ġg",
        "o"
      ],
      [
        "Ġbe",
        "en"
      ],
      [
        "Ġ",
        "N"
      ],
      [
        "t",
        "h"
      ],
      [
        "om",
        "e"
      ],
      [
        "ĠW",
        "e"
      ],
      [
        "Ġh",
        "as"
      ],
      [
        "Ġyou",
        "r"
      ],
      [
        "Ġw",
        "or"
      ],
      [
        "ar",
        "t"
      ],
      [
        "Ġ",
        "D"
      ],
      [
        "r",
        "y"
      ],
      [
        "Ġw",
        "as"
      ],
      [
        "e",
        "ar"
      ],
      [
        "r",
        "a"
      ],
      [
        "ĠW",
        "h"
      ],
      [
        "u",
        "p"
      ],
      [
        "Ġf",
        "rom"
      ],
      [
        "ver",
        "y"
      ],
      [
        "ou",
        "t"
      ],
      [
        "i",
        "ve"
      ],
      [
        "res",
        "s"
      ],
      [
        "Ġl",
        "a"
      ],
      [
        "o",
        "l"
      ],
      [
        "e",
        "a"
      ],
      [
        "re",
        "at"
      ],
      [
        "o",
        "s"
      ],
      [
        "Ġm",
        "y"
      ],
      [
        "m",
        "er"
      ],
      [
        "all",
        "y"
      ],
      [
        "Ġa",
        "b"
      ],
      [
        "Ġ",
        "!"
      ],
      [
        "ic",
        "e"
      ],
      [
        "Ġ",
        "v"
      ],
      [
        "Ġ",
        "k"
      ],
      [
        "u",
        "re"
      ],
      [
        "'",
        "t"
      ],
      [
        "oo",
        "d"
      ],
      [
        "ation",
        "s"
      ],
      [
        "f",
        "f"
      ],
      [
        "ĠS",
        "t"
      ],
      [
        "0",
        "0"
      ],
      [
        "Ġc",
        "h"
      ],
      [
        "e",
        "m"
      ],
      [
        "oun",
        "t"
      ],
      [
        "ver",
        "n"
      ],
      [
        "Ġthe",
        "ir"
      ],
      [
        "Ġa",
        "l"
      ],
      [
        "Ġ",
        "1"
      ],
      [
        "at",
        "es"
      ],
      [
        "i",
        "st"
      ],
      [
        "ar",
        "d"
      ],
      [
        "a",
        "c"
      ],
      [
        "Ġa",
        "d"
      ],
      [
        "Ġb",
        "ut"
      ],
      [
        "a",
        "ke"
      ],
      [
        "ar",
        "y"
      ],
      [
        "vern",
        "ment"
      ],
      [
        "t",
        "her"
      ],
      [
        "o",
        "st"
      ],
      [
        "Ġ",
        "up"
      ],
      [
        "Ġli",
        "ke"
      ],
      [
        "ion",
        "s"
      ],
      [
        "ou",
        "r"
      ],
      [
        "Ġ",
        "us"
      ],
      [
        "Ġ",
        "im"
      ],
      [
        "p",
        "er"
      ],
      [
        "i",
        "v"
      ],
      [
        "Ġy",
        "ear"
      ],
      [
        "Ġthe",
        "re"
      ],
      [
        "im",
        "e"
      ],
      [
        "i",
        "z"
      ],
      [
        "c",
        "i"
      ],
      [
        "b",
        "l"
      ],
      [
        "Ġ",
        "P"
      ],
      [
        "Ġsh",
        "ould"
      ],
      [
        "Ġa",
        "g"
      ],
      [
        "o",
        "se"
      ],
      [
        "Ġ",
        "en"
      ],
      [
        "Ġ",
        "U"
      ],
      [
        "Ġ",
        "F"
      ],
      [
        "i",
        "e"
      ],
      [
        "ou",
        "s"
      ],
      [
        "Ġw",
        "ould"
      ],
      [
        "Ġan",
        "y"
      ],
      [
        "a",
        "ble"
      ],
      [
        "Ġa",
        "m"
      ],
      [
        "Ġin",
        "ter"
      ],
      [
        "ĠWh",
        "at"
      ],
      [
        "u",
        "m"
      ],
      [
        "Ġthe",
        "y"
      ],
      [
        "e",
        "p"
      ],
      [
        "Ġs",
        "p"
      ],
      [
        "ou",
        "g"
      ],
      [
        "Ġre",
        "s"
      ],
      [
        "k",
        "ing"
      ],
      [
        "ĠY",
        "ou"
      ],
      [
        "an",
        "ce"
      ],
      [
        "ĠG",
        "o"
      ],
      [
        "Ġthe",
        "m"
      ],
      [
        "ĠU",
        "n"
      ],
      [
        "Ġt",
        "r"
      ],
      [
        "on",
        "e"
      ],
      [
        "ĠSt",
        "ates"
      ],
      [
        "Ġm",
        "ore"
      ],
      [
        "as",
        "e"
      ],
      [
        "er",
        "e"
      ],
      [
        "Ġex",
        "p"
      ],
      [
        "c",
        "c"
      ],
      [
        "Ġcom",
        "p"
      ],
      [
        "Ġab",
        "out"
      ],
      [
        "n",
        "ow"
      ],
      [
        "Ġw",
        "he"
      ],
      [
        "Ġ",
        "E"
      ],
      [
        "Ġp",
        "e"
      ],
      [
        "it",
        "ed"
      ],
      [
        "Ġp",
        "l"
      ],
      [
        "Ġa",
        "pp"
      ],
      [
        "an",
        "k"
      ],
      [
        "Ġt",
        "ime"
      ],
      [
        "Ġon",
        "e"
      ],
      [
        "Ġim",
        "p"
      ],
      [
        "an",
        "s"
      ],
      [
        "ĠI",
        "n"
      ],
      [
        "en",
        "ce"
      ],
      [
        "Ġf",
        "a"
      ],
      [
        "u",
        "d"
      ],
      [
        "ĠGo",
        "vernment"
      ],
      [
        "Ġk",
        "now"
      ],
      [
        "Ġcon",
        "t"
      ],
      [
        "in",
        "k"
      ],
      [
        "i",
        "re"
      ],
      [
        "Ġm",
        "an"
      ],
      [
        "a",
        "re"
      ],
      [
        "Ġpe",
        "op"
      ],
      [
        "mer",
        "ic"
      ],
      [
        "Ġs",
        "ome"
      ],
      [
        "Ġo",
        "ther"
      ],
      [
        "Ġj",
        "ust"
      ],
      [
        "Ġit",
        "s"
      ],
      [
        "ad",
        "e"
      ],
      [
        "Ġ",
        "L"
      ],
      [
        "ĠA",
        "meric"
      ],
      [
        "u",
        "e"
      ],
      [
        "Ġr",
        "ight"
      ],
      [
        "Ġpeop",
        "le"
      ],
      [
        "ĠY",
        "es"
      ],
      [
        "Ġp",
        "er"
      ],
      [
        "in",
        "d"
      ],
      [
        "ct",
        "ion"
      ],
      [
        "d",
        "u"
      ],
      [
        "Ġ",
        "R"
      ],
      [
        "Ġin",
        "c"
      ],
      [
        "oun",
        "d"
      ],
      [
        "v",
        "en"
      ],
      [
        "Ġc",
        "ount"
      ],
      [
        "Ġg",
        "et"
      ],
      [
        "is",
        "h"
      ],
      [
        "Ġwh",
        "o"
      ],
      [
        "ĠC",
        "ong"
      ],
      [
        "Ġa",
        "r"
      ],
      [
        "ĠTh",
        "at"
      ],
      [
        "p",
        "t"
      ],
      [
        "Ġg",
        "ood"
      ],
      [
        "Ġre",
        "c"
      ],
      [
        "Ġo",
        "ut"
      ],
      [
        "Ġof",
        "f"
      ],
      [
        "Ġwor",
        "k"
      ],
      [
        "ĠCong",
        "ress"
      ],
      [
        "Ġcom",
        "m"
      ],
      [
        "Ġd",
        "is"
      ],
      [
        "Ġn",
        "ow"
      ],
      [
        "Ġg",
        "reat"
      ],
      [
        "in",
        "e"
      ],
      [
        "Ġth",
        "ink"
      ],
      [
        "Ġne",
        "ed"
      ],
      [
        "Ġp",
        "art"
      ],
      [
        "Ġn",
        "o"
      ],
      [
        "p",
        "l"
      ],
      [
        "re",
        "e"
      ],
      [
        "Ġwh",
        "at"
      ],
      [
        "Ġp",
        "re"
      ],
      [
        "Ġc",
        "l"
      ],
      [
        "b",
        "er"
      ],
      [
        "a",
        "st"
      ],
      [
        "ĠA",
        "n"
      ],
      [
        "'",
        "m"
      ],
      [
        "en",
        "s"
      ],
      [
        "ĠUn",
        "ited"
      ],
      [
        "er",
        "v"
      ],
      [
        "Ġ",
        "J"
      ],
      [
        "u",
        "ch"
      ],
      [
        "Ġl",
        "e"
      ],
      [
        "it",
        "ion"
      ],
      [
        "Ġin",
        "t"
      ],
      [
        "ul",
        "t"
      ],
      [
        "a",
        "ge"
      ],
      [
        "Ġ",
        "if"
      ],
      [
        "a",
        "g"
      ],
      [
        "Ġne",
        "w"
      ],
      [
        "Ġ",
        "very"
      ],
      [
        "Ġ",
        "qu"
      ],
      [
        "Ġun",
        "der"
      ],
      [
        "Ġd",
        "on"
      ],
      [
        "at",
        "ed"
      ],
      [
        "e",
        "ll"
      ],
      [
        "Ġse",
        "e"
      ],
      [
        "oug",
        "h"
      ],
      [
        "ĠB",
        "ut"
      ],
      [
        "Ġthe",
        "se"
      ],
      [
        "Ġw",
        "ant"
      ],
      [
        "u",
        "bl"
      ],
      [
        "e",
        "l"
      ],
      [
        "Ġ",
        "$"
      ],
      [
        "Ġbe",
        "t"
      ],
      [
        "Ġth",
        "an"
      ],
      [
        "Ġm",
        "ust"
      ],
      [
        "ĠH",
        "ow"
      ],
      [
        "ubl",
        "ic"
      ],
      [
        "a",
        "p"
      ],
      [
        "Ġm",
        "ay"
      ],
      [
        "Ġsu",
        "ch"
      ],
      [
        "as",
        "s"
      ],
      [
        "c",
        "k"
      ],
      [
        "res",
        "ent"
      ],
      [
        "Ġw",
        "ere"
      ],
      [
        "am",
        "e"
      ],
      [
        "Ġm",
        "uch"
      ],
      [
        "Ġin",
        "d"
      ],
      [
        "f",
        "er"
      ],
      [
        "Ġhe",
        "re"
      ],
      [
        "e",
        "c"
      ],
      [
        "ig",
        "n"
      ],
      [
        "oo",
        "k"
      ],
      [
        "Ġe",
        "very"
      ],
      [
        "Ġsu",
        "b"
      ],
      [
        "i",
        "p"
      ],
      [
        "re",
        "n"
      ],
      [
        "c",
        "es"
      ],
      [
        "Ġc",
        "o"
      ],
      [
        "t",
        "ain"
      ],
      [
        "se",
        "l"
      ],
      [
        "Ġre",
        "p"
      ],
      [
        "Ġup",
        "on"
      ],
      [
        "Ġto",
        "o"
      ],
      [
        "Ġcount",
        "ry"
      ],
      [
        "Ġp",
        "r"
      ],
      [
        "Ġm",
        "ade"
      ],
      [
        "'",
        "ll"
      ],
      [
        "Ġe",
        "ff"
      ],
      [
        "-",
        "-"
      ],
      [
        "Ġa",
        "ct"
      ],
      [
        "Ġha",
        "d"
      ],
      [
        "o",
        "d"
      ],
      [
        "ay",
        "s"
      ],
      [
        "j",
        "ect"
      ],
      [
        "Ġla",
        "st"
      ],
      [
        "is",
        "e"
      ],
      [
        "Ġt",
        "a"
      ],
      [
        "ĠN",
        "o"
      ],
      [
        "Ġla",
        "w"
      ],
      [
        "Ġinter",
        "est"
      ],
      [
        "t",
        "ed"
      ],
      [
        "Ġm",
        "ake"
      ],
      [
        "us",
        "e"
      ],
      [
        "Ġo",
        "ver"
      ],
      [
        "Ġf",
        "e"
      ],
      [
        "Ġon",
        "ly"
      ],
      [
        "Ġs",
        "a"
      ],
      [
        "Ġth",
        "ose"
      ],
      [
        "ĠAn",
        "d"
      ],
      [
        "l",
        "p"
      ],
      [
        "Ġa",
        "cc"
      ],
      [
        "er",
        "al"
      ],
      [
        "a",
        "ct"
      ],
      [
        "Ġt",
        "ake"
      ],
      [
        "w",
        "n"
      ],
      [
        "Ġhe",
        "lp"
      ],
      [
        "f",
        "ore"
      ],
      [
        "v",
        "ing"
      ],
      [
        "Ġwhe",
        "n"
      ],
      [
        "ment",
        "s"
      ],
      [
        "r",
        "u"
      ],
      [
        "o",
        "y"
      ],
      [
        "ac",
        "k"
      ],
      [
        "it",
        "e"
[...]
