{
  "version": "1.0",
  "truncation": null,
  "padding": null,
  "added_tokens": [
    {
      "id": 0,
      "content": "<pad>",
      "single_word": false,
      "lstrip": false,
      "rstrip": false,
      "normalized": false,
      "special": true
    },
    {
      "id": 1,
      "content": "<s>",
      "single_word": false,
      "lstrip": false,
      "rstrip": false,
      "normalized": false,
      "special": true
    },
    {
      "id": 2,
      "content": "</s>",
      "single_word": false,
      "lstrip": false,
      "rstrip": false,
      "normalized": false,
      "special": true
    },
    {
      "id": 3,
      "content": "<unk>",
      "single_word": false,
      "lstrip": false,
      "rstrip": false,
      "normalized": false,
      "special": true
    },
    {
      "id": 4,
      "content": "<src>",
      "single_word": false,
      "lstrip": false,
      "rstrip": false,
      "normalized": false,
      "special": true
    },
    {
      "id": 5,
      "content": "<tgt>",
      "single_word": false,
      "lstrip": false,
      "rstrip": false,
      "normalized": false,
      "special": true
    },
    {
      "id": 16000,
      "content": "<source>",
      "single_word": false,
      "lstrip": false,
      "rstrip": false,
      "normalized": false,
      "special": true
    },
    {
      "id": 16001,
      "content": "<target>",
      "single_word": false,
      "lstrip": false,
      "rstrip": false,
      "normalized": false,
      "special": true
    }
  ],
  "normalizer": {
    "type": "BertNormalizer",
    "clean_text": true,
    "handle_chinese_chars": true,
    "strip_accents": null,
    "lowercase": true
  },
  "pre_tokenizer": {
    "type": "Whitespace"
  },
  "post_processor": null,
  "decoder": null,
  "model": {
    "type": "BPE",
    "dropout": null,
    "unk_token": null,
    "continuing_subword_prefix": null,
    "end_of_word_suffix": null,
    "fuse_unk": false,
    "byte_fallback": false,
    "ignore_merges": false,
    "vocab": {
      "<pad>": 0,
      "<s>": 1,
      "</s>": 2,
      "<unk>": 3,
      "<src>": 4,
      "<tgt>": 5,
      "!": 6,
      "\"": 7,
      "#": 8,
      "$": 9,
      "%": 10,
      "&": 11,
      "'": 12,
      "(": 13,
      ")": 14,
      "*": 15,
      "+": 16,
      ",": 17,
      "-": 18,
      ".": 19,
      "/": 20,
      "0": 21,
      "1": 22,
      "2": 23,
      "3": 24,
      "4": 25,
      "5": 26,
      "6": 27,
      "7": 28,
      "8": 29,
      "9": 30,
      ":": 31,
      ";": 32,
      "<": 33,
      "=": 34,
      ">": 35,
      "?": 36,
      "@": 37,
      "[": 38,
      "\\": 39,
      "]": 40,
      "^": 41,
      "_": 42,
      "`": 43,
      "a": 44,
      "b": 45,
      "c": 46,
      "d": 47,
      "e": 48,
      "f": 49,
      "g": 50,
      "h": 51,
      "i": 52,
      "j": 53,
      "k": 54,
      "l": 55,
      "m": 56,
      "n": 57,
      "o": 58,
      "p": 59,
      "q": 60,
      "r": 61,
      "s": 62,
      "t": 63,
      "u": 64,
      "v": 65,
      "w": 66,
      "x": 67,
      "y": 68,
      "z": 69,
      "{": 70,
      "|": 71,
      "}": 72,
      "~": 73,
      "°": 74,
      "±": 75,
      "³": 76,
      "µ": 77,
      "·": 78,
      "º": 79,
      "μ": 80,
      "ا": 81,
      "ت": 82,
      "ج": 83,
      "ح": 84,
      "س": 85,
      "ل": 86,
      "م": 87,
      "ः": 88,
      "अ": 89,
      "आ": 90,
      "इ": 91,
      "ई": 92,
      "उ": 93,
      "ऊ": 94,
      "ऋ": 95,
      "ऌ": 96,
      "ऍ": 97,
      "ऎ": 98,
      "ए": 99,
      "ऐ": 100,
      "ऑ": 101,
      "ऒ": 102,
      "ओ": 103,
      "औ": 104,
      "क": 105,
      "ख": 106,
      "ग": 107,
      "घ": 108,
      "ङ": 109,
      "च": 110,
      "छ": 111,
      "ज": 112,
      "झ": 113,
      "ञ": 114,
      "ट": 115,
      "ठ": 116,
      "ड": 117,
      "ढ": 118,
      "ण": 119,
      "त": 120,
      "थ": 121,
      "द": 122,
      "ध": 123,
      "न": 124,
      "प": 125,
      "फ": 126,
      "ब": 127,
      "भ": 128,
      "म": 129,
      "य": 130,
      "र": 131,
      "ल": 132,
      "ळ": 133,
      "व": 134,
      "श": 135,
      "ष": 136,
      "स": 137,
      "ह": 138,
      "ऽ": 139,
      "ा": 140,
      "ि": 141,
      "ी": 142,
      "ॉ": 143,
      "ॊ": 144,
      "ो": 145,
      "ौ": 146,
      "ॐ": 147,
      "ॠ": 148,
      "ॡ": 149,
      "।": 150,
      "०": 151,
      "१": 152,
      "२": 153,
      "३": 154,
      "४": 155,
      "५": 156,
      "६": 157,
      "७": 158,
      "८": 159,
      "९": 160,
      "॰": 161,
      "—": 162,
      "‘": 163,
      "’": 164,
      "“": 165,
      "”": 166,
      "…": 167,
      "⇒": 168,
      "☺": 169,
      "☻": 170,
      "♫": 171,
      "th": 172,
      "in": 173,
      "the": 174,
      "an": 175,
      "rc": 176,
      "re": 177,
      "gt": 178,
      "src": 179,
      "tgt": 180,
      "on": 181,
      "er": 182,
      "is": 183,
      "at": 184,
      "पर": 185,
      "ार": 186,
      "en": 187,
      "al": 188,
      "of": 189,
      "या": 190,
      "or": 191,
      "and": 192,
      "ed": 193,
      "ar": 194,
      "as": 195,
      "it": 196,
      "ou": 197,
      "es": 198,
      "का": 199,
      "की": 200,
      "to": 201,
      "कर": 202,
      "ता": 203,
      "ing": 204,
      "कि": 205,
      "ान": 206,
      "को": 207,
      "और": 208,
      "ion": 209,
      "ic": 210,
      "st": 211,
      "le": 212,
      "om": 213,
      "ना": 214,
      "वि": 215,
      "हो": 216,
      "तर": 217,
      "se": 218,
      "ही": 219,
      "ent": 220,
      "वा": 221,
      "ति": 222,
      "be": 223,
      "ac": 224,
      "सा": 225,
      "लि": 226,
      "ad": 227,
      "il": 228,
      "इस": 229,
      "यो": 230,
      "wh": 231,
      "रा": 232,
      "ve": 233,
      "िक": 234,
      "am": 235,
      "जा": 236,
      "था": 237,
      "ती": 238,
      "ro": 239,
      "de": 240,
      "im": 241,
      "ch": 242,
      "ly": 243,
      "भी": 244,
      "हा": 245,
      "ला": 246,
      "di": 247,
      "एक": 248,
      "he": 249,
      "for": 250,
      "ित": 251,
      "सम": 252,
      "नि": 253,
      "no": 254,
      "सक": 255,
      "we": 256,
      "ay": 257,
      "ut": 258,
      "कार": 259,
      "ver": 260,
      "un": 261,
      "दि": 262,
      "ab": 263,
      "बा": 264,
      "that": 265,
      "ol": 266,
      "are": 267,
      "ter": 268,
      "उन": 269,
      "li": 270,
      "ur": 271,
      "ation": 272,
      "ir": 273,
      "con": 274,
      "lo": 275,
      "was": 276,
      "ct": 277,
      "मा": 278,
      "ag": 279,
      "कष": 280,
      "ce": 281,
      "सी": 282,
      "यह": 283,
      "ha": 284,
      "भा": 285,
      "पन": 286,
      "सर": 287,
      "gh": 288,
      "नही": 289,
      "mo": 290,
      "tr": 291,
      "पा": 292,
      "wi": 293,
      "जो": 294,
      "pe": 295,
      "लिए": 296,
      "ul": 297,
      "गर": 298,
      "po": 299,
      "te": 300,
      "this": 301,
      "com": 302,
      "वर": 303,
      "us": 304,
      "so": 305,
      "with": 306,
      "all": 307,
      "et": 308,
      "res": 309,
      "id": 310,
      "ak": 311,
      "ली": 312,
      "जि": 313,
      "दर": 314,
      "you": 315,
      "हम": 316,
      "तो": 317,
      "pro": 318,
      "हि": 319,
      "ment": 320,
      "su": 321,
      "fe": 322,
      "fr": 323,
      "मान": 324,
      "go": 325,
      "अन": 326,
      "मि": 327,
      "ld": 328,
      "गा": 329,
      "ther": 330,
      "by": 331,
      "indi": 332,
      "लो": 333,
      "per": 334,
      "उस": 335,
      "अपन": 336,
      "नी": 337,
      "sh": 338,
      "ill": 339,
      "ri": 340,
      "ne": 341,
      "चा": 342,
      "दी": 343,
      "दा": 344,
      "जी": 345,
      "ate": 346,
      "अध": 347,
      "19": 348,
      "ain": 349,
      "हत": 350,
      "pl": 351,
      "his": 352,
      "one": 353,
      "री": 354,
      "ap": 355,
      "not": 356,
      "भार": 357,
      "art": 358,
      "किया": 359,
      "me": 360,
      "out": 361,
      "man": 362,
      "our": 363,
      "ex": 364,
      "शा": 365,
      "ich": 366,
      "ci": 367,
      "oun": 368,
      "00": 369,
      "from": 370,
      "wor": 371,
      "आप": 372,
      "ity": 373,
      "ess": 374,
      "सत": 375,
      "करन": 376,
      "which": 377,
      "ind": 378,
      "est": 379,
      "but": 380,
      "यक": 381,
      "ant": 382,
      "ple": 383,
      "दव": 384,
      "रो": 385,
      "has": 386,
      "लग": 387,
      "दो": 388,
      "रप": 389,
      "जन": 390,
      "तक": 391,
      "गया": 392,
      "परा": 393,
      "if": 394,
      "ra": 395,
      "रह": 396,
      "act": 397,
      "दश": 398,
      "सथ": 399,
      "सि": 400,
      "si": 401,
      "rb": 402,
      "योग": 403,
      "have": 404,
      "qu": 405,
      "do": 406,
      "होन": 407,
      "ारा": 408,
      "राज": 409,
      "ght": 410,
      "थी": 411,
      "they": 412,
      "od": 413,
      "ers": 414,
      "ist": 415,
      "षट": 416,
      "नो": 417,
      "हर": 418,
      "there": 419,
      "ang": 420,
      "au": 421,
      "can": 422,
      "um": 423,
      "दध": 424,
      "तथा": 425,
      "इन": 426,
      "वह": 427,
      "ould": 428,
      "ish": 429,
      "ke": 430,
      "pr": 431,
      "खा": 432,
      "ies": 433,
      "ure": 434,
      "ear": 435,
      "जान": 436,
      "ive": 437,
      "ous": 438,
      "end": 439,
      "कछ": 440,
      "पह": 441,
      "बर": 442,
      "िया": 443,
      "मी": 444,
      "परि": 445,
      "ort": 446,
      "सब": 447,
      "em": 448,
      "ome": 449,
      "वी": 450,
      "डा": 451,
      "other": 452,
      "विश": 453,
      "red": 454,
      "भारत": 455,
      "शर": 456,
      "उत": 457,
      "co": 458,
      "its": 459,
      "मन": 460,
      "ma": 461,
      "परति": 462,
      "साथ": 463,
      "der": 464,
      "अधिक": 465,
      "ally": 466,
      "ho": 467,
      "ust": 468,
      "were": 469,
      "ll": 470,
      "vi": 471,
      "बार": 472,
      "सन": 473,
      "जब": 474,
      "up": 475,
      "had": 476,
      "fo": 477,
      "age": 478,
      "gr": 479,
      "चार": 480,
      "af": 481,
      "bo": 482,
      "मर": 483,
      "cl": 484,
      "their": 485,
      "निर": 486,
      "टी": 487,
      "ियो": 488,
      "ions": 489,
      "दिया": 490,
      "वय": 491,
      "india": 492,
      "बाद": 493,
      "who": 494,
      "ud": 495,
      "उप": 496,
      "now": 497,
      "बी": 498,
      "गो": 499,
      "पत": 500,
      "ren": 501,
      "डी": 502,
      "part": 503,
      "गी": 504,
      "hi": 505,
      "ated": 506,
      "लन": 507,
      "जाता": 508,
      "ard": 509,
      "ans": 510,
      "port": 511,
      "ame": 512,
      "dis": 513,
      "some": 514,
      "iv": 515,
      "tim": 516,
      "बन": 517,
      "सकता": 518,
      "पी": 519,
      "धार": 520,
      "शन": 521,
      "ary": 522,
      "कम": 523,
      "दन": 524,
      "very": 525,
      "लकि": 526,
      "ge": 527,
      "किसी": 528,
      "pres": 529,
      "rit": 530,
      "ong": 531,
      "विध": 532,
      "सस": 533,
      "ast": 534,
      "also": 535,
      "ारी": 536,
      "ev": 537,
      "ice": 538,
      "टर": 539,
      "pos": 540,
      "कोई": 541,
      "वाल": 542,
      "ach": 543,
      "दवारा": 544,
      "तम": 545,
      "ig": 546,
      "year": 547,
      "करत": 548,
      "होता": 549,
      "will": 550,
      "बहत": 551,
      "comm": 552,
      "कल": 553,
      "शि": 554,
      "सकत": 555,
      "pre": 556,
      "when": 557,
      "av": 558,
      "णश": 559,
      "ence": 560,
      "चि": 561,
      "फि": 562,
      "them": 563,
      "मिल": 564,
      "वो": 565,
      "able": 566,
      "pt": 567,
      "ass": 568,
      "समय": 569,
      "ऊणश": 570,
      "छष": 571,
      "ऊणशछष": 572,
      "way": 573,
      "मो": 574,
      "ok": 575,
      "these": 576,
      "मल": 577,
      "any": 578,
      "ru": 579,
      "low": 580,
      "यी": 581,
      "pol": 582,
      "about": 583,
      "ound": 584,
      "ical": 585,
      "बना": 586,
      "वश": 587,
      "form": 588,
      "बि": 589,
      "spe": 590,
      "ber": 591,
      "ची": 592,
      "तरह": 593,
      "तरी": 594,
      "भाष": 595,
      "कत": 596,
      "उनक": 597,
      "ानी": 598,
      "अपनी": 599,
      "जर": 600,
      "like": 601,
      "ult": 602,
      "work": 603,
      "coun": 604,
      "more": 605,
      "peo": 606,
      "cre": 607,
      "दख": 608,
      "बद": 609,
      "ace": 610,
      "rrb": 611,
      "wn": 612,
      "cent": 613,
      "सल": 614,
      "परण": 615,
      "लकिन": 616,
      "du": 617,
      "ph": 618,
      "lrb": 619,
      "people": 620,
      "him": 621,
      "ade": 622,
      "har": 623,
      "tw": 624,
      "ough": 625,
      "ction": 626,
      "after": 627,
      "time": 628,
      "min": 629,
      "पि": 630,
      "बल": 631,
      "भि": 632,
      "ial": 633,
      "than": 634,
      "sp": 635,
      "अगर": 636,
      "सो": 637,
      "ौर": 638,
      "ake": 639,
      "sa": 640,
      "ance": 641,
      "ition": 642,
      "राजय": 643,
      "day": 644,
      "सथा": 645,
      "been": 646,
      "जिस": 647,
      "हआ": 648,
      "what": 649,
      "vern": 650,
      "कति": 651,
      "चच": 652,
      "टा": 653,
      "सव": 654,
      "govern": 655,
      "ause": 656,
      "bl": 657,
      "अर": 658,
      "सार": 659,
      "तीय": 660,
      "ts": 661,
      "करना": 662,
      "सरकार": 663,
      "fore": 664,
      "her": 665,
      "सता": 666,
      "only": 667,
      "उनह": 668,
      "ble": 669,
      "get": 670,
      "नया": 671,
      "ree": 672,
      "ine": 673,
      "पहल": 674,
      "cour": 675,
      "par": 676,
      "thing": 677,
      "ater": 678,
      "कयो": 679,
      "bec": 680,
      "अप": 681,
      "मख": 682,
      "करता": 683,
      "होती": 684,
      "my": 685,
      "पो": 686,
      "cont": 687,
      "धन": 688,
      "हए": 689,
      "बात": 690,
      "indian": 691,
      "whe": 692,
      "लय": 693,
      "वाद": 694,
      "कारय": 695,
      "रख": 696,
      "gen": 697,
      "ory": 698,
      "जञ": 699,
      "la": 700,
      "उनहोन": 701,
      "भाव": 702,
      "चछ": 703,
      "ffe": 704,
      "चना": 705,
      "under": 706,
      "मद": 707,
      "br": 708,
      "ved": 709,
      "रहा": 710,
      "ack": 711,
      "इसक": 712,
      "धी": 713,
      "धर": 714,
      "मत": 715,
      "मह": 716,
      "may": 717,
      "सट": 718,
      "government": 719,
      "दसर": 720,
      "वन": 721,
      "चाहि": 722,
      "सतर": 723,
      "कारण": 724,
      "वरष": 725,
      "ip": 726,
      "ser": 727,
      "छो": 728,
      "gre": 729,
      "know": 730,
      "two": 731,
      "cor": 732,
      "राषट": 733,
      "off": 734,
      "nation": 735,
      "कहा": 736,
      "वार": 737,
      "many": 738,
      "निय": 739,
      "fir": 740,
      "pen": 741,
      "“”": 742,
      "नाम": 743,
      "eng": 744,
      "००": 745,
      "most": 746,
      "जस": 747,
      "new": 748,
      "world": 749,
      "गल": 750,
      "ase": 751,
      "200": 752,
      "काम": 753,
      "over": 754,
      "सवा": 755,
      "int": 756,
      "लिय": 757,
      "ution": 758,
      "उद": 759,
      "उसक": 760,
      "कस": 761,
      "bet": 762,
      "ful": 763,
      "call": 764,
      "son": 765,
      "परव": 766,
      "try": 767,
      "बढ": 768,
      "ild": 769,
      "जिन": 770,
      "made": 771,
      "कया": 772,
      "कह": 773,
      "चन": 774,
      "टि": 775,
      "cr": 776,
      "तन": 777,
      "कषतर": 778,
      "el": 779,
      "मार": 780,
      "आर": 781,
      "चाहिए": 782,
      "भर": 783,
      "तरा": 784,
      "your": 785,
      "अनय": 786,
      "अब": 787,
      "into": 788,
      "ath": 789,
      "air": 790,
      "पार": 791,
      "ile": 792,
      "वल": 793,
      "वयक": 794,
      "षण": 795,
      "पास": 796,
      "main": 797,
      "ty": 798,
      "दस": 799,
      "रि": 800,
      "state": 801,
      "भारतीय": 802,
      "ite": 803,
      "ाना": 804,
      "first": 805,
      "tem": 806,
      "लिया": 807,
      "then": 808,
      "ict": 809,
      "years": 810,
      "sub": 811,
      "because": 812,
      "ari": 813,
      "कई": 814,
      "नन": 815,
      "lig": 816,
      "ep": 817,
      "sel": 818,
      "cial": 819,
      "where": 820,
      "fi": 821,
      "चित": 822,
      "she": 823,
      "would": 824,
      "ick": 825,
      "भाग": 826,
      "ta": 827,
      "भग": 828,
      "परकार": 829,
      "sy": 830,
      "लगा": 831,
      "समा": 832,
      "ations": 833,
      "mu": 834,
      "mar": 835,
      "लोगो": 836,
      "फिर": 837,
      "war": 838,
      "गई": 839,
      "गए": 840,
      "लोग": 841,
      "पड": 842,
      "जाती": 843,
      "should": 844,
      "hind": 845,
      "ob": 846,
      "सभी": 847,
      "उनकी": 848,
      "हिन": 849,
      "तत": 850,
      "कयोकि": 851,
      "तय": 852,
      "हई": 853,
      "शी": 854,
      "lect": 855,
      "हित": 856,
      "णी": 857,
      "कषा": 858,
      "even": 859,
      "const": 860,
      "वयकति": 861,
      "lim": 862,
      "फल": 863,
      "att": 864,
      "cess": 865,
      "एव": 866,
      "ings": 867,
      "come": 868,
      "je": 869,
      "vis": 870,
      "ink": 871,
      "inter": 872,
      "pow": 873,
      "पश": 874,
      "यन": 875,
      "old": 876,
      "18": 877,
      "dur": 878,
      "des": 879,
      "ism": 880,
      "कषण": 881,
      "कट": 882,
      "ose": 883,
      "बो": 884,
      "जया": 885,
      "विशष": 886,
      "यता": 887,
      "यदि": 888,
      "mus": 889,
      "ten": 890,
      "जहा": 891,
      "होत": 892,
      "सबस": 893,
      "mat": 894,
      "फी": 895,
      "ight": 896,
      "टन": 897,
      "काल": 898,
      "यहा": 899,
      "िति": 900,
      "used": 901,
      "ai": 902,
      "सथान": 903,
      "hu": 904,
      "गत": 905,
      "mon": 906,
      "कित": 907,
      "leg": 908,
      "chang": 909,
      "just": 910,
      "sion": 911,
      "अव": 912,
      "ali": 913,
      "ise": 914,
      "तिक": 915,
      "जल": 916,
      "ms": 917,
      "rch": 918,
      "relig": 919,
      "परी": 920,
      "national": 921,
      "खि": 922,
      "ular": 923,
      "mem": 924,
      "side": 925,
      "rent": 926,
      "बध": 927,
      "जयादा": 928,
      "फा": 929,
      "रही": 930,
      "करण": 931,
      "ef": 932,
      "thr": 933,
      "करम": 934,
      "ress": 935,
      "महा": 936,
      "here": 937,
      "जीवन": 938,
      "col": 939,
      "होगा": 940,
      "lit": 941,
      "pu": 942,
      "life": 943,
      "sur": 944,
      "खया": 945,
      "चल": 946,
      "ail": 947,
      "ual": 948,
      "तब": 949,
      "ck": 950,
      "fin": 951,
      "gu": 952,
      "sou": 953,
      "शरी": 954,
      "िका": 955,
      "well": 956,
      "गरी": 957,
      "every": 958,
      "कवल": 959,
      "घर": 960,
      "चर": 961,
      "बचच": 962,
      "ament": 963,
      "minis": 964,
      "दिन": 965,
      "विशव": 966,
      "दय": 967,
      "see": 968,
      "राम": 969,
      "diffe": 970,
      "सप": 971,
      "जाए": 972,
      "hel": 973,
      "hap": 974,
      "called": 975,
      "वाली": 976,
      "pur": 977,
      "reg": 978,
      "med": 979,
      "दान": 980,
      "वया": 981,
      "यालय": 982,
      "gan": 983,
      "ram": 984,
      "शो": 985,
      "शिक": 986,
      "दोनो": 987,
      "बीच": 988,
      "isl": 989,
      "ates": 990,
      "tain": 991,
      "car": 992,
      "ces": 993,
      "op": 994,
      "put": 995,
      "आन": 996,
      "those": 997,
      "ident": 998,
      "self": 999,
      "during": 1000,
      "high": 1001,
      "na": 1002,
      "tak": 1003,
      "ऐसा": 1004,
      "डि": 1005,
      "gener": 1006,
      "ting": 1007,
      "जात": 1008,
      "fl": 1009,
      "ving": 1010,
      "ters": 1011,
      "bu": 1012,
      "say": 1013,
      "vid": 1014,
      "करिया": 1015,
      "power": 1016,
      "long": 1017,
      "ted": 1018,
      "अलग": 1019,
      "through": 1020,
      "ia": 1021,
      "महत": 1022,
      "person": 1023,
      "गय": 1024,
      "hand": 1025,
      "less": 1026,
      "ana": 1027,
      "rest": 1028,
      "निया": 1029,
      "धरम": 1030,
      "डो": 1031,
      "साम": 1032,
      "cal": 1033,
      "ced": 1034,
      "ओर": 1035,
      "सह": 1036,
      "विचार": 1037,
      "साल": 1038,
      "import": 1039,
      "समझ": 1040,
      "fact": 1041,
      "ide": 1042,
      "बह": 1043,
      "जञान": 1044,
      "could": 1045,
      "sol": 1046,
      "अतर": 1047,
      "ash": 1048,
      "lop": 1049,
      "tri": 1050,
      "such": 1051,
      "court": 1052,
      "ऐस": 1053,
      "सभा": 1054,
      "यकत": 1055,
      "present": 1056,
      "fam": 1057,
      "आधार": 1058,
      "ature": 1059,
      "before": 1060,
      "ject": 1061,
      "tal": 1062,
      "धय": 1063,
      "बड": 1064,
      "being": 1065,
      "betwe": 1066,
      "bas": 1067,
      "ities": 1068,
      "did": 1069,
      "play": 1070,
      "help": 1071,
      "between": 1072,
      "giv": 1073,
      "ya": 1074,
      "row": 1075,
      "वरण": 1076,
      "polit": 1077,
      "cur": 1078,
      "अभि": 1079,
      "ouse": 1080,
      "सामान": 1081,
      "sho": 1082,
      "ds": 1083,
      "मझ": 1084,
      "child": 1085,
      "विधान": 1086,
      "ca": 1087,
      "king": 1088,
      "lar": 1089,
      "nor": 1090,
      "दार": 1091,
      "कारी": 1092,
      "how": 1093,
      "writ": 1094,
      "पतर": 1095,
      "right": 1096,
      "need": 1097,
      "ning": 1098,
      "ry": 1099,
      "परत": 1100,
      "सकती": 1101,
      "माण": 1102,
      "अपना": 1103,
      "10": 1104,
      "15": 1105,
      "अति": 1106,
      "produ": 1107,
      "चाह": 1108,
      "wom": 1109,
      "अक": 1110,
      "टो": 1111,
      "said": 1112,
      "cap": 1113,
      "ue": 1114,
      "अचछ": 1115,
      "धान": 1116,
      "निक": 1117,
      "सवी": 1118,
      "करी": 1119,
      "velop": 1120,
      "जाय": 1121,
      "परापत": 1122,
      "country": 1123,
      "ious": 1124,
      "गह": 1125,
      "थो": 1126,
      "षय": 1127,
      "read": 1128,
      "publ": 1129,
      "iz": 1130,
      "बता": 1131,
      "three": 1132,
      "stand": 1133,
      "वास": 1134,
      "000": 1135,
      "bar": 1136,
      "pend": 1137,
      "inst": 1138,
      "start": 1139,
      "indust": 1140,
      "भाषा": 1141,
      "house": 1142,
      "sm": 1143,
      "अल": 1144,
      "खो": 1145,
      "धिक": 1146,
      "करा": 1147,
      "del": 1148,
      "develop": 1149,
      "ments": 1150,
      "कभी": 1151,
      "inte": 1152,
      "sing": 1153,
      "ward": 1154,
      "लम": 1155,
      "ative": 1156,
      "परयोग": 1157,
      "इसका": 1158,
      "char": 1159,
      "again": 1160,
      "आपको": 1161,
      "lish": 1162,
      "णा": 1163,
      "great": 1164,
      "20": 1165,
      "राषटरी": 1166,
      "take": 1167,
      "१९": 1168,
      "str": 1169,
      "cond": 1170,
      "constit": 1171,
      "num": 1172,
      "use": 1173,
      "मस": 1174,
      "महि": 1175,
      "लक": 1176,
      "ited": 1177,
      "hindi": 1178,
      "फो": 1179,
      "योज": 1180,
      "sup": 1181,
      "make": 1182,
      "कन": 1183,
      "उनका": 1184,
      "अधिकार": 1185,
      "vol": 1186,
      "गयी": 1187,
      "अनसार": 1188,
      "want": 1189,
      "लिख": 1190,
      "good": 1191,
      "raj": 1192,
      "fun": 1193,
      "दत": 1194,
      "इसी": 1195,
      "law": 1196,
      "serv": 1197,
      "ors": 1198,
      "place": 1199,
      "वयव": 1200,
      "राषटरीय": 1201,
      "gy": 1202,
      "लड": 1203,
      "vers": 1204,
      "फर": 1205,
      "als": 1206,
      "trans": 1207,
      "peri": 1208,
      "सतान": 1209,
      "different": 1210,
      "cer": 1211,
      "मदि": 1212,
      "tur": 1213,
      "vo": 1214,
      "कषि": 1215,
      "cons": 1216,
      "महतव": 1217,
      "fic": 1218,
      "gress": 1219,
      "jo": 1220,
      "sch": 1221,
      "ually": 1222,
      "गण": 1223,
      "cept": 1224,
      "cle": 1225,
      "ire": 1226,
      "ves": 1227,
      "नता": 1228,
      "भव": 1229,
      "ought": 1230,
      "अधय": 1231,
      "vie": 1232,
      "land": 1233,
      "same": 1234,
      "मौ": 1235,
      "यत": 1236,
      "ank": 1237,
      "इसम": 1238,
      "ages": 1239,
      "position": 1240,
      "दौर": 1241,
      "भिनन": 1242,
      "hal": 1243,
      "पस": 1244,
      "लत": 1245,
      "liament": 1246,
      "199": 1247,
      "parliament": 1248,
      "ding": 1249,
      "val": 1250,
      "घट": 1251,
      "लख": 1252,
      "sit": 1253,
      "शत": 1254,
      "think": 1255,
      "organ": 1256,
      "कास": 1257,
      "उसकी": 1258,
      "सबध": 1259,
      "men": 1260,
      "आग": 1261,
      "मित": 1262,
      "सदस": 1263,
      "करती": 1264,
      "तीन": 1265,
      "जिसम": 1266,
      "सथिति": 1267,
      "सिदध": 1268,
      "angu": 1269,
      "मक": 1270,
      "while": 1271,
      "look": 1272,
      "comp": 1273,
      "much": 1274,
      "brit": 1275,
      "mal": 1276,
      "sc": 1277,
      "तल": 1278,
      "जाना": 1279,
      "ned": 1280,
      "यर": 1281,
      "षठ": 1282,
      "बाज": 1283,
      "ody": 1284,
      "book": 1285,
      "fol": 1286,
      "सहा": 1287,
      "हमार": 1288,
      "उपयोग": 1289,
      "langu": 1290,
      "वहा": 1291,
      "ship": 1292,
      "तमा": 1293,
      "पता": 1294,
      "ततर": 1295,
      "पक": 1296,
      "ating": 1297,
      "tern": 1298,
      "cted": 1299,
      "sim": 1300,
      "डियो": 1301,
      "विकास": 1302,
      "उसका": 1303,
      "own": 1304,
      "water": 1305,
      "dec": 1306,
      "arch": 1307,
      "आवश": 1308,
      "oup": 1309,
      "comple": 1310,
      "muslim": 1311,
      "धि": 1312,
      "शकति": 1313,
      "lead": 1314,
      "इसस": 1315,
      "सथित": 1316,
      "found": 1317,
      "mill": 1318,
      "xt": 1319,
      "body": 1320,
      "गि": 1321,
      "धा": 1322,
      "वद": 1323,
      "incre": 1324,
      "ord": 1325,
      "ily": 1326,
      "उततर": 1327,
      "led": 1328,
      "गद": 1329,
      "सपर": 1330,
      "परया": 1331,
      "महिला": 1332,
      "view": 1333,
      "back": 1334,
      "cult": 1335,
      "ness": 1336,
      "ures": 1337,
      "मड": 1338,
      "सना": 1339,
      "god": 1340,
      "got": 1341,
      "group": 1342,
      "12": 1343,
      "pri": 1344,
      "हिद": 1345,
      "down": 1346,
      "human": 1347,
      "run": 1348,
      "बडी": 1349,
      "सखया": 1350,
      "काफी": 1351,
      "वित": 1352,
      "वासत": 1353,
      "मखय": 1354,
      "उदयोग": 1355,
      "ave": 1356,
      "vari": 1357,
      "194": 1358,
      "भमि": 1359,
      "मच": 1360,
      "रिक": 1361,
      "vide": 1362,
      "follow": 1363,
      "fer": 1364,
      "कला": 1365,
      "गति": 1366,
      "घो": 1367,
      "rel": 1368,
      "ised": 1369,
      "alth": 1370,
      "नीति": 1371,
      "both": 1372,
      "आवशयक": 1373,
      "tre": 1374,
      "कहत": 1375,
      "यदध": 1376,
      "ways": 1377,
      "50": 1378,
      "incl": 1379,
      "ason": 1380,
      "point": 1381,
      "परिवर": 1382,
      "हिनदी": 1383,
      "योजना": 1384,
      "दौरान": 1385,
      "bro": 1386,
      "cy": 1387,
      "ner": 1388,
      "आय": 1389,
      "कान": 1390,
      "set": 1391,
      "इसलिए": 1392,
      "दवी": 1393,
      "british": 1394,
      "jud": 1395,
      "ys": 1396,
      "अस": 1397,
      "कवि": 1398,
      "लगभग": 1399,
      "अरथ": 1400,
      "les": 1401,
      "pa": 1402,
      "अथ": 1403,
      "परो": 1404,
      "depend": 1405,
      "ural": 1406,
      "tle": 1407,
      "uc": 1408,
      "va": 1409,
      "अत": 1410,
      "सग": 1411,
      "दिल": 1412,
      "commun": 1413,
      "नयायालय": 1414,
      "शिकष": 1415,
      "public": 1416,
      "clo": 1417,
      "pass": 1418,
      "stem": 1419,
      "ign": 1420,
      "पट": 1421,
      "रत": 1422,
      "ents": 1423,
      "does": 1424,
      "षटि": 1425,
      "उतपा": 1426,
      "ss": 1427,
      "दकषि": 1428,
      "हार": 1429,
      "gn": 1430,
      "mand": 1431,
      "name": 1432,
      "oc": 1433,
      "लकर": 1434,
      "ality": 1435,
      "यान": 1436,
      "वाय": 1437,
      "beli": 1438,
      "ility": 1439,
      "proble": 1440,
      "plan": 1441,
      "बलल": 1442,
      "सथाप": 1443,
      "number": 1444,
      "cut": 1445,
      "four": 1446,
      "अमर": 1447,
      "congress": 1448,
      "constitution": 1449,
      "14": 1450,
      "each": 1451,
      "sha": 1452,
      "आदि": 1453,
      "भो": 1454,
      "मब": 1455,
      "वज": 1456,
      "बरि": 1457,
      "भावना": 1458,
      "system": 1459,
      "सामानय": 1460,
      "mis": 1461,
      "आतक": 1462,
      "एस": 1463,
      "परष": 1464,
      "कागर": 1465,
      "तरण": 1466,
      "light": 1467,
      "193": 1468,
      "आज": 1469,
      "टक": 1470,
      "डिया": 1471,
      "यही": 1472,
      "परमख": 1473,
      "top": 1474,
      "uni": 1475,
      "अधि": 1476,
      "hindu": 1477,
      "रथ": 1478,
      "ask": 1479,
      "let": 1480,
      "cts": 1481,
      "quest": 1482,
      "ससद": 1483,
      "icket": 1484,
      "16": 1485,
      "ah": 1486,
      "ft": 1487,
      "net": 1488,
      "पकष": 1489,
      "बरा": 1490,
      "सविधान": 1491,
      "किए": 1492,
      "वाह": 1493,
      "accor": 1494,
      "196": 1495,
      "पहच": 1496,
      "political": 1497,
      "bal": 1498,
      "इत": 1499,
      "रफ": 1500,
      "सया": 1501,
      "वादी": 1502,
      "wever": 1503,
      "बाहर": 1504,
      "शरणी": 1505,
      "however": 1506,
      "og": 1507,
      "पढ": 1508,
      "ince": 1509,
      "stru": 1510,
      "add": 1511,
      "दिखा": 1512,
      "soci": 1513,
      "उसन": 1514,
      "197": 1515,
      "hist": 1516,
      "umb": 1517,
      "परतिशत": 1518,
      "important": 1519,
      "मदिर": 1520,
      "ger": 1521,
      "pal": 1522,
      "खल": 1523,
      "ठा": 1524,
      "rect": 1525,
      "ats": 1526,
      "परभाव": 1527,
      "तिहा": 1528,
      "तमक": 1529,
      "ven": 1530,
      "दनिया": 1531,
      "ताब": 1532,
      "विक": 1533,
      "augh": 1534,
      "given": 1535,
      "gg": 1536,
      "must": 1537,
      "यद": 1538,
      "कोशि": 1539,
      "शामिल": 1540,
      "commit": 1541,
      "pon": 1542,
      "उल": 1543,
      "जित": 1544,
      "परार": 1545,
      "साहित": 1546,
      "pop": 1547,
      "social": 1548,
      "religion": 1549,
      "कागरस": 1550,
      "छा": 1551,
      "ples": 1552,
      "बदल": 1553,
      "known": 1554,
      "offic": 1555,
      "eld": 1556,
      "sen": 1557,
      "ti": 1558,
      "vir": 1559,
      "मरी": 1560,
      "मधय": 1561,
      "ताओ": 1562,
      "वाला": 1563,
      "ared": 1564,
      "going": 1565,
      "elect": 1566,
      "mak": 1567,
      "घा": 1568,
      "वान": 1569,
      "हरी": 1570,
      "िय": 1571,
      "होना": 1572,
      "निरमाण": 1573,
      "according": 1574,
      "tion": 1575,
      "sible": 1576,
      "istan": 1577,
      "emp": 1578,
      "हिनद": 1579,
      "fil": 1580,
      "डर": 1581,
      "rce": 1582,
      "ics": 1583,
      "निश": 1584,
      "सहायता": 1585,
      "last": 1586,
      "ऐसी": 1587,
      "नय": 1588,
      "रखा": 1589,
      "समान": 1590,
      "taken": 1591,
      "small": 1592,
      "bers": 1593,
      "give": 1594,
      "रट": 1595,
      "विषय": 1596,
      "class": 1597,
      "उपल": 1598,
      "महतवपरण": 1599,
      "अथवा": 1600,
      "came": 1601,
      "मिक": 1602,
      "against": 1603,
      "period": 1604,
      "hy": 1605,
      "मसल": 1606,
      "शबद": 1607,
      "सामन": 1608,
      "vel": 1609,
      "लाह": 1610,
      "लोक": 1611,
      "198": 1612,
      "शासन": 1613,
      "president": 1614,
      "13": 1615,
      "cas": 1616,
      "later": 1617,
      "sci": 1618,
      "कप": 1619,
      "दम": 1620,
      "दषटि": 1621,
      "बच": 1622,
      "मतरी": 1623,
      "another": 1624,
      "ists": 1625,
      "वयवसथा": 1626,
      "सदसय": 1627,
      "aughter": 1628,
      "eve": 1629,
      "pay": 1630,
      "कश": 1631,
      "ठी": 1632,
      "काश": 1633,
      "अनक": 1634,
      "ants": 1635,
      "ific": 1636,
      "contro": 1637,
      "city": 1638,
      "dr": 1639,
      "rul": 1640,
      "जाति": 1641,
      "समसया": 1642,
      "move": 1643,
      "mah": 1644,
      "don": 1645,
      "पथ": 1646,
      "पति": 1647,
      "सघ": 1648,
      "इसकी": 1649,
      "मामल": 1650,
      "rence": 1651,
      "special": 1652,
      "पोजी": 1653,
      "contin": 1654,
      "छोड": 1655,
      "bill": 1656,
      "econ": 1657,
      "educ": 1658,
      "करो": 1659,
      "tech": 1660,
      "without": 1661,
      "चीन": 1662,
      "change": 1663,
      "econom": 1664,
      "ik": 1665,
      "ror": 1666,
      "आया": 1667,
      "नत": 1668,
      "वत": 1669,
      "esh": 1670,
      "पनन": 1671,
      "जिसस": 1672,
      "exam": 1673,
      "दधि": 1674,
      "women": 1675,
      "अकबर": 1676,
      "bh": 1677,
      "ot": 1678,
      "इल": 1679,
      "चौ": 1680,
      "शवर": 1681,
      "बनान": 1682,
      "चितर": 1683,
      "बिना": 1684,
      "days": 1685,
      "mark": 1686,
      "kar": 1687,
      "ool": 1688,
      "उचच": 1689,
      "तार": 1690,
      "सच": 1691,
      "सवय": 1692,
      "reason": 1693,
      "eric": 1694,
      "states": 1695,
      "माना": 1696,
      "नयाय": 1697,
      "दसरी": 1698,
      "started": 1699,
      "दकषिण": 1700,
      "उपलबध": 1701,
      "पोजीशन": 1702,
      "effe": 1703,
      "ja": 1704,
      "खर": 1705,
      "गगा": 1706,
      "लता": 1707,
      "common": 1708,
      "फोन": 1709,
      "ball": 1710,
      "नट": 1711,
      "ital": 1712,
      "second": 1713,
      "cus": 1714,
      "ele": 1715,
      "mb": 1716,
      "अग": 1717,
      "आत": 1718,
      "ens": 1719,
      "ars": 1720,
      "ices": 1721,
      "among": 1722,
      "लाख": 1723,
      "tee": 1724,
      "liter": 1725,
      "language": 1726,
      "तिहास": 1727,
      "मसलमान": 1728,
      "dom": 1729,
      "far": 1730,
      "han": 1731,
      "reed": 1732,
      "परसता": 1733,
      "speci": 1734,
      "little": 1735,
      "minister": 1736,
      "ze": 1737,
      "लब": 1738,
      "ati": 1739,
      "परद": 1740,
      "stud": 1741,
      "राय": 1742,
      "head": 1743,
      "माग": 1744,
      "कषम": 1745,
      "गरह": 1746,
      "artic": 1747,
      "दशो": 1748,
      "includ": 1749,
      ".”": 1750,
      "big": 1751,
      "case": 1752,
      "find": 1753,
      "grow": 1754,
      "आस": 1755,
      "सवर": 1756,
      "inv": 1757,
      "abha": 1758,
      "ury": 1759,
      "दाय": 1760,
      "appe": 1761,
      "विधा": 1762,
      "पिछ": 1763,
      "जिसका": 1764,
      "south": 1765,
      "large": 1766,
      "million": 1767,
      "साहितय": 1768,
      "25": 1769,
      "ather": 1770,
      "bab": 1771,
      "ji": 1772,
      "kr": 1773,
      "आई": 1774,
      "गम": 1775,
      "पल": 1776,
      "पानी": 1777,
      "२००": 1778,
      "why": 1779,
      "terror": 1780,
      "विधि": 1781,
      "speak": 1782,
      "things": 1783,
      "शरीर": 1784,
      "show": 1785,
      "support": 1786,
      "आम": 1787,
      "ऊपर": 1788,
      "जसा": 1789,
      "बस": 1790,
      "रचना": 1791,
      "ones": 1792,
      "विभिनन": 1793,
      "िकट": 1794,
      "पाल": 1795,
      "industri": 1796,
      "interest": 1797,
      "रण": 1798,
      "ata": 1799,
      "become": 1800,
      "लित": 1801,
      "सकल": 1802,
      "bi": 1803,
      "mind": 1804,
      "चक": 1805,
      "डन": 1806,
      "बलकि": 1807,
      "ines": 1808,
      "too": 1809,
      "beg": 1810,
      "cell": 1811,
      "moder": 1812,
      "comes": 1813,
      "akbar": 1814,
      "sum": 1815,
      "english": 1816,
      "समाज": 1817,
      "general": 1818,
      "अधयकष": 1819,
      "video": 1820,
      "परिवरतन": 1821,
      "ton": 1822,
      "thir": 1823,
      "हाथ": 1824,
      "lot": 1825,
      "tra": 1826,
      "पात": 1827,
      "plac": 1828,
      "party": 1829,
      "सवततर": 1830,
      "month": 1831,
      "aim": 1832,
      "जार": 1833,
      "तव": 1834,
      "नर": 1835,
      "मरा": 1836,
      "ात": 1837,
      "though": 1838,
      "ins": 1839,
      "remain": 1840,
      "परभा": 1841,
      "ety": 1842,
      "mean": 1843,
      "keep": 1844,
      "partic": 1845,
      "happen": 1846,
      "..": 1847,
      "gang": 1848,
      "kind": 1849,
      "pak": 1850,
      "tar": 1851,
      "उदा": 1852,
      "दना": 1853,
      "दखा": 1854,
      "पान": 1855,
      "ॉल": 1856,
      "took": 1857,
      "जिसक": 1858,
      "छोट": 1859,
      "उतपादन": 1860,
      "bra": 1861,
      "bud": 1862,
      "cro": 1863,
      "dra": 1864,
      "eas": 1865,
      "ham": 1866,
      "met": 1867,
      "तौर": 1868,
      "थिक": 1869,
      "शहर": 1870,
      "परश": 1871,
      "order": 1872,
      "मदद": 1873,
      "school": 1874,
      "aut": 1875,
      "equ": 1876,
      "laughter": 1877,
      "nam": 1878,
      "por": 1879,
      "wa": 1880,
      "चला": 1881,
      "दता": 1882,
      "किय": 1883,
      "ime": 1884,
      "chand": 1885,
      "fort": 1886,
      "ute": 1887,
      "दरशन": 1888,
      "192": 1889,
      "appro": 1890,
      "शायद": 1891,
      "धारण": 1892,
      "खिला": 1893,
      "बचचो": 1894,
      "ban": 1895,
      "bus": 1896,
      "cri": 1897,
      "ian": 1898,
      "since": 1899,
      "अफ": 1900,
      "इट": 1901,
      "पदा": 1902,
      "सऋ": 1903,
      "सीमा": 1904,
      "trad": 1905,
      "maj": 1906,
      "जररत": 1907,
      "तयार": 1908,
      "children": 1909,
      "मबई": 1910,
      "done": 1911,
      "ka": 1912,
      "mi": 1913,
      "open": 1914,
      "जिक": 1915,
      "णड": 1916,
      "थम": 1917,
      "inform": 1918,
      "still": 1919,
      "tries": 1920,
      "अधिका": 1921,
      "लगता": 1922,
      "जबकि": 1923,
      "posed": 1924,
      "members": 1925,
      "सपषट": 1926,
      "modern": 1927,
      ").": 1928,
      "ls": 1929,
      "मगर": 1930,
      "सौ": 1931,
      "दरश": 1932,
      "दरी": 1933,
      "suc": 1934,
      "few": 1935,
      "मानव": 1936,
      "आरथिक": 1937,
      "member": 1938,
      "face": 1939,
      "home": 1940,
      "mad": 1941,
      "ped": 1942,
      "requ": 1943,
      "परम": 1944,
      "परकरिया": 1945,
      "करिकट": 1946,
      "इसला": 1947,
      "माम": 1948,
      "चाहत": 1949,
      "polic": 1950,
      "धनिक": 1951,
      "वरषो": 1952,
      "build": 1953,
      "development": 1954,
      "mumb": 1955,
      "खान": 1956,
      "पाच": 1957,
      "fron": 1958,
      "near": 1959,
      "दशय": 1960,
      "बिल": 1961,
      "family": 1962,
      "शिकषा": 1963,
      "आतकवाद": 1964,
      "care": 1965,
      "fac": 1966,
      "आधनिक": 1967,
      "बडा": 1968,
      "search": 1969,
      "वाई": 1970,
      "health": 1971,
      "respon": 1972,
      "due": 1973,
      "17": 1974,
      "30": 1975,
      "fur": 1976,
      "पद": 1977,
      "ina": 1978,
      "real": 1979,
      "परथम": 1980,
      "left": 1981,
      "सामा": 1982,
      "result": 1983,
      "never": 1984,
      "action": 1985,
      "गीत": 1986,
      "पीछ": 1987,
      "नियम": 1988,
      "mumbai": 1989,
      "blo": 1990,
      "sal": 1991,
      "मज": 1992,
      "रग": 1993,
      "सदन": 1994,
      "around": 1995,
      "हमन": 1996,
      "मिला": 1997,
      "appl": 1998,
      "हरण": 1999,
      "परिवार": 2000,
      "gram": 2001,
      "centr": 2002,
      "अगरजी": 2003,
      "service": 2004,
      "increas": 2005,
      "परसताव": 2006,
      "bed": 2007,
      "line": 2008,
      "अभी": 2009,
      "जसी": 2010,
      "orn": 2011,
      "तरि": 2012,
      "americ": 2013,
      "सरव": 2014,
      "सतत": 2015,
      "distr": 2016,
      "best": 2017,
      "mid": 2018,
      "दयोग": 2019,
      "धयान": 2020,
      "सभाष": 2021,
      "ically": 2022,
      "नाथ": 2023,
      "वाज": 2024,
      "roy": 2025,
      "feel": 2026,
      "ately": 2027,
      "सिरफ": 2028,
      "इनम": 2029,
      "जानकारी": 2030,
      "islam": 2031,
      "tribut": 2032,
      "industry": 2033,
      "major": 2034,
      "सामाजिक": 2035,
      "),": 2036,
      "mil": 2037,
      "कौ": 2038,
      "खड": 2039,
      "णय": 2040,
      "रन": 2041,
      "ससक": 2042,
      "really": 2043,
      "परवश": 2044,
      "chi": 2045,
      "हाला": 2046,
      "समरथ": 2047,
      "ago": 2048,
      "कषय": 2049,
      "post": 2050,
      "वरत": 2051,
      "विशवास": 2052,
      "poll": 2053,
      "phone": 2054,
      "legisl": 2055,
      "रिकत": 2056,
      "pakistan": 2057,
      "thus": 2058,
      "today": 2059,
      "राजा": 2060,
      "direct": 2061,
      "समह": 2062,
      "उनम": 2063,
      "pect": 2064,
      "prote": 2065,
      "ateg": 2066,
      "दशी": 2067,
      "ished": 2068,
      "religious": 2069,
      "परतयक": 2070,
      "24": 2071,
      "away": 2072,
      "free": 2073,
      "mir": 2074,
      "vent": 2075,
      "wall": 2076,
      "षक": 2077,
      "सही": 2078,
      "independ": 2079,
      "issu": 2080,
      "love": 2081,
      "himself": 2082,
      "रखन": 2083,
      "पशचि": 2084,
      "flu": 2085,
      "wards": 2086,
      "निशचित": 2087,
      "education": 2088,
      "den": 2089,
      "ei": 2090,
      "five": 2091,
      "इतिहास": 2092,
      "हय": 2093,
      "iness": 2094,
      "rece": 2095,
      "करक": 2096,
      "लिग": 2097,
      "पाकि": 2098,
      "वरग": 2099,
      "sure": 2100,
      "means": 2101,
      "whole": 2102,
      "something": 2103,
      "फिलम": 2104,
      "सवीकार": 2105,
      "turn": 2106,
      "bad": 2107,
      "gand": 2108,
      "kill": 2109,
      "sed": 2110,
      "sent": 2111,
      "यरो": 2112,
      "सधार": 2113,
      "परकाश": 2114,
      "होगी": 2115,
      "tru": 2116,
      "रपति": 2117,
      "जनता": 2118,
      "sive": 2119,
      "earth": 2120,
      "times": 2121,
      "possible": 2122,
      "working": 2123,
      "spir": 2124,
      "match": 2125,
      "says": 2126,
      "clear": 2127,
      "various": 2128,
      "ba": 2129,
      "ling": 2130,
      "कठ": 2131,
      "जय": 2132,
      "रल": 2133,
      "सदर": 2134,
      "हसी": 2135,
      "inal": 2136,
      "विद": 2137,
      "हाल": 2138,
      "समिति": 2139,
      "ablish": 2140,
      "aren": 2141,
      "tell": 2142,
      "हमारी": 2143,
      "उसस": 2144,
      "195": 2145,
      "six": 2146,
      "पहली": 2147,
      "ems": 2148,
      "parts": 2149,
      "परणा": 2150,
      "temple": 2151,
      "अतिरिकत": 2152,
      "अचछा": 2153,
      "सथापित": 2154,
      "effect": 2155,
      "hard": 2156,
      "mit": 2157,
      "nat": 2158,
      "rang": 2159,
      "sess": 2160,
      "आकार": 2161,
      "नदी": 2162,
      "पना": 2163,
      "षित": 2164,
      "परदान": 2165,
      "story": 2166,
      "level": 2167,
      "acy": 2168,
      "adi": 2169,
      "नीच": 2170,
      "plain": 2171,
      "जनम": 2172,
      "avail": 2173,
      "सोच": 2174,
      "became": 2175,
      "टिश": 2176,
      "field": 2177,
      "based": 2178,
      "district": 2179,
      "bir": 2180,
      "ied": 2181,
      "san": 2182,
      "यम": 2183,
      "ॉर": 2184,
      "thor": 2185,
      "represent": 2186,
      "allow": 2187,
      "accept": 2188,
      "लिका": 2189,
      "establish": 2190,
      "रहन": 2191,
      "रहता": 2192,
      "cricket": 2193,
      "subject": 2194,
      "changes": 2195,
      "certain": 2196,
      "muslims": 2197,
      "article": 2198,
      "अधिकाश": 2199,
      "sans": 2200,
      "sabha": 2201,
      "went": 2202,
      "अदा": 2203,
      "रहत": 2204,
      "शिया": 2205,
      "सद": 2206,
      "ala": 2207,
      "ama": 2208,
      "und": 2209,
      "unt": 2210,
      "oney": 2211,
      "आपक": 2212,
      "actually": 2213,
      "चीज": 2214,
      "नयाया": 2215,
      "talk": 2216,
      "delhi": 2217,
      "situ": 2218,
      "बललबाज": 2219,
      "history": 2220,
      "committee": 2221,
      "कषमता": 2222,
      "krish": 2223,
      "krit": 2224,
      "mer": 2225,
      "ps": 2226,
      "ply": 2227,
      "tu": 2228,
      "इड": 2229,
      "जगह": 2230,
      "वही": 2231,
      "िकी": 2232,
      "यातरा": 2233,
      "itions": 2234,
      "विकस": 2235,
      "death": 2236,
      "local": 2237,
      "within": 2238,
      "process": 2239,
      "दोलन": 2240,
      "उतपनन": 2241,
      "ground": 2242,
      "countries": 2243,
      "woman": 2244,
      "culture": 2245,
      "बरिटिश": 2246,
      "परारभ": 2247,
      "उदाहरण": 2248,
      "information": 2249,
      "विकसित": 2250,
      "list": 2251,
      "दती": 2252,
      "ससकत": 2253,
      "सफल": 2254,
      "परधान": 2255,
      "ारो": 2256,
      "ara": 2257,
      "विरो": 2258,
      "adv": 2259,
      "कषित": 2260,
      "etc": 2261,
      "short": 2262,
      "exp": 2263,
      "prom": 2264,
      "grap": 2265,
      "course": 2266,
      "पारटी": 2267,
      "तमाल": 2268,
      "control": 2269,
      "26": 2270,
      "bre": 2271,
      "oper": 2272,
      "ric": 2273,
      "एन": 2274,
      "पसत": 2275,
      "लौ": 2276,
      "ीन": 2277,
      "thought": 2278,
      "ission": 2279,
      "always": 2280,
      "इसतमाल": 2281,
      "decl": 2282,
      "area": 2283,
      "teach": 2284,
      "गाधी": 2285,
      "next": 2286,
      "चाई": 2287,
      "upon": 2288,
      "century": 2289,
      "बढा": 2290,
      "vision": 2291,
      "descri": 2292,
      "sanskrit": 2293,
      "11": 2294,
      "ek": 2295,
      "ges": 2296,
      "ko": 2297,
      "might": 2298,
      "tend": 2299,
      "कही": 2300,
      "जड": 2301,
      "रिया": 2302,
      "mother": 2303,
      "ulation": 2304,
      "ids": 2305,
      "fri": 2306,
      "meet": 2307,
      "food": 2308,
      "महान": 2309,
      "jan": 2310,
      "आजा": 2311,
      "उसी": 2312,
      "गज": 2313,
      "टल": 2314,
      "भज": 2315,
      "isation": 2316,
      "साह": 2317,
      "लाल": 2318,
      "having": 2319,
      "नीय": 2320,
      "exe": 2321,
      "word": 2322,
      "सथानी": 2323,
      "prin": 2324,
      "राषटरपति": 2325,
      "half": 2326,
      "complete": 2327,
      "दिलली": 2328,
      "problem": 2329,
      "पिछल": 2330,
      "खी": 2331,
      "धित": 2332,
      "बठ": 2333,
      "वसत": 2334,
      "ससा": 2335,
      "सभव": 2336,
      "ances": 2337,
      "तरित": 2338,
      "हीन": 2339,
      "जोर": 2340,
      "team": 2341,
      "ider": 2342,
      "दशक": 2343,
      "परिणा": 2344,
      "full": 2345,
      "written": 2346,
      "ready": 2347,
      "front": 2348,
      "chief": 2349,
      "हालाकि": 2350,
      "gandhi": 2351,
      "ove": 2352,
      "ris": 2353,
      "sto": 2354,
      "कता": 2355,
      "यल": 2356,
      "वजन": 2357,
      "हल": 2358,
      "report": 2359,
      "revol": 2360,
      "atch": 2361,
      "orig": 2362,
      "करान": 2363,
      "किस": 2364,
      "heart": 2365,
      "दियो": 2366,
      "मातरा": 2367,
      "ried": 2368,
      "दीवार": 2369,
      "डाल": 2370,
      "bow": 2371,
      "typ": 2372,
      "दसरा": 2373,
      "univers": 2374,
      "कोशिश": 2375,
      "particular": 2376,
      "ganga": 2377,
      "policy": 2378,
      "krishna": 2379,
      "60": 2380,
      "dist": 2381,
      "gest": 2382,
      "money": 2383,
      "non": 2384,
      "uro": 2385,
      "vil": 2386,
      "कमी": 2387,
      "जग": 2388,
      "फार": 2389,
      "लाभ": 2390,
      "pet": 2391,
      "provid": 2392,
      "लगी": 2393,
      "सिल": 2394,
      "author": 2395,
      "अपकषा": 2396,
      "मतय": 2397,
      "वासतव": 2398,
      "struct": 2399,
      "brah": 2400,
      "available": 2401,
      "friend": 2402,
      "100": 2403,
      "aa": 2404,
      "fest": 2405,
      "rs": 2406,
      "sw": 2407,
      "won": 2408,
      "एम": 2409,
      "खद": 2410,
      "जट": 2411,
      "सटर": 2412,
      "सगीत": 2413,
      "along": 2414,
      "che": 2415,
      "निष": 2416,
      "सरकषा": 2417,
      "वरी": 2418,
      "therefore": 2419,
      "विशि": 2420,
      "निरणय": 2421,
      "बनाया": 2422,
      "north": 2423,
      "करीब": 2424,
      "आवशयकता": 2425,
      "परणाली": 2426,
      "mas": 2427,
      "pun": 2428,
      "भत": 2429,
      "विर": 2430,
      "विजञान": 2431,
      "sect": 2432,
      "लिक": 2433,
      "जाच": 2434,
      "road": 2435,
      "mob": 2436,
      "नीतिक": 2437,
      "चात": 2438,
      "sign": 2439,
      "matter": 2440,
      "books": 2441,
      "making": 2442,
      "ben": 2443,
      "bur": 2444,
      "categ": 2445,
      "ged": 2446,
      "py": 2447,
      "vill": 2448,
      "आश": 2449,
      "टय": 2450,
      "बनी": 2451,
      "बदध": 2452,
      "यग": 2453,
      "सय": 2454,
      "ann": 2455,
      "reach": 2456,
      "onment": 2457,
      "ories": 2458,
      "toge": 2459,
      "करग": 2460,
      "lear": 2461,
      "होकर": 2462,
      "sex": 2463,
      "साधारण": 2464,
      "लियो": 2465,
      "dev": 2466,
      "cho": 2467,
      "live": 2468,
      "loy": 2469,
      "poet": 2470,
      "ided": 2471,
      "river": 2472,
      "सतता": 2473,
      "पराण": 2474,
      "सिह": 2475,
      "तरीक": 2476,
      "सरकारी": 2477,
      "further": 2478,
      "together": 2479,
      "beng": 2480,
      "squ": 2481,
      "test": 2482,
      "आकर": 2483,
      "आदोलन": 2484,
      "जारी": 2485,
      "डल": 2486,
      "याद": 2487,
      "nolo": 2488,
      "liber": 2489,
      "भाई": 2490,
      "ference": 2491,
      "अधीन": 2492,
      "words": 2493,
      "रोग": 2494,
      "इनक": 2495,
      "prof": 2496,
      "राषटर": 2497,
      "कषतरो": 2498,
      "मारग": 2499,
      "समापत": 2500,
      "भमिका": 2501,
      "believe": 2502,
      "अमरिका": 2503,
      "example": 2504,
      "success": 2505,
      "cil": 2506,
      "ga": 2507,
      "pan": 2508,
      "उट": 2509,
      "पजा": 2510,
      "रद": 2511,
      "हरा": 2512,
      "काली": 2513,
      "omb": 2514,
      "तरो": 2515,
      "भीतर": 2516,
      "dif": 2517,
      "verse": 2518,
      "union": 2519,
      "बाहरी": 2520,
      "youn": 2521,
      "individ": 2522,
      "रोक": 2523,
      "खास": 2524,
      "परिष": 2525,
      "टीम": 2526,
      "ससथा": 2527,
      "subhas": 2528,
      "ततव": 2529,
      "famous": 2530,
      "वजह": 2531,
      "question": 2532,
      "technolo": 2533,
      "economic": 2534,
      "either": 2535,
      "princi": 2536,
      "विशिषट": 2537,
      "cam": 2538,
      "ired": 2539,
      "pi": 2540,
      "ईशवर": 2541,
      "जवा": 2542,
      "ठन": 2543,
      "वजञान": 2544,
      "वदधि": 2545,
      "सयकत": 2546,
      "ined": 2547,
      "once": 2548,
      "परदश": 2549,
      "asse": 2550,
      "ste": 2551,
      "def": 2552,
      "माल": 2553,
      "model": 2554,
      "civil": 2555,
      "cannot": 2556,
      "पोरट": 2557,
      "brought": 2558,
      "घटना": 2559,
      "continu": 2560,
      "central": 2561,
      "ससकति": 2562,
      "festiv": 2563,
      "father": 2564,
      "hour": 2565,
      "mag": 2566,
      "pat": 2567,
      "spo": 2568,
      "नदर": 2569,
      "वस": 2570,
      "षम": 2571,
      "सिक": 2572,
      "ination": 2573,
      "ref": 2574,
      "often": 2575,
      "ताकि": 2576,
      "ability": 2577,
      "मातर": 2578,
      "ceed": 2579,
      "मिलन": 2580,
      "राजनीतिक": 2581,
      "मीटर": 2582,
      "others": 2583,
      "धारमिक": 2584,
      "पिता": 2585,
      "understand": 2586,
      "आरभ": 2587,
      "production": 2588,
      "simple": 2589,
      "decis": 2590,
      "scient": 2591,
      "terrorism": 2592,
      "third": 2593,
      "पाकिसतान": 2594,
      "kh": 2595,
      "आद": 2596,
      "धारा": 2597,
      "मना": 2598,
      "☻☻": 2599,
      "rces": 2600,
      "रात": 2601,
      "पनी": 2602,
      "doing": 2603,
      "इनह": 2604,
      "early": 2605,
      "ives": 2606,
      "दखत": 2607,
      "नियतरण": 2608,
      "object": 2609,
      "चरण": 2610,
      "आधारित": 2611,
      "charac": 2612,
      "fund": 2613,
      "consider": 2614,
      "business": 2615,
      "इसलाम": 2616,
      "मामलो": 2617,
      "वरतमान": 2618,
      "individual": 2619,
      "ever": 2620,
      "euro": 2621,
      "ler": 2622,
      "lord": 2623,
      "yet": 2624,
      "चो": 2625,
      "नौ": 2626,
      "पौ": 2627,
      "पमान": 2628,
      "पडा": 2629,
      "मनो": 2630,
      "सतरी": 2631,
      "हजार": 2632,
      "anim": 2633,
      "परशन": 2634,
      "acc": 2635,
      "राजन": 2636,
      "united": 2637,
      "olog": 2638,
      "सीमित": 2639,
      "पालिका": 2640,
      "tele": 2641,
      "मिलता": 2642,
      "मोबा": 2643,
      "harat": 2644,
      "whether": 2645,
      "international": 2646,
      "सबधित": 2647,
      "problems": 2648,
      "official": 2649,
      "film": 2650,
      "ठीक": 2651,
      "mahab": 2652,
      "bat": 2653,
      "dle": 2654,
      "sun": 2655,
      "till": 2656,
      "ude": 2657,
      "अतय": 2658,
      "इला": 2659,
      "उचित": 2660,
      "उठा": 2661,
      "खन": 2662,
      "गरा": 2663,
      "दगी": 2664,
      "सदी": 2665,
      "सलाह": 2666,
      "परती": 2667,
      "ands": 2668,
      "sever": 2669,
      "वाता": 2670,
      "chan": 2671,
      "loc": 2672,
      "text": 2673,
      "दरो": 2674,
      "supre": 2675,
      "मनषय": 2676,
      "pread": 2677,
      "ption": 2678,
      "चछद": 2679,
      "green": 2680,
      "बताया": 2681,
      "movement": 2682,
      "bhag": 2683,
      "literature": 2684,
      "सथानीय": 2685,
      "40": 2686,
      "bats": 2687,
      "bomb": 2688,
      "mater": 2689,
      "एल": 2690,
      "जली": 2691,
      "ढा": 2692,
      "नार": 2693,
      "नहर": 2694,
      "पछ": 2695,
      "फस": 2696,
      "बगा": 2697,
      "शब": 2698,
      "सड": 2699,
      "research": 2700,
      "entire": 2701,
      "beaut": 2702,
      "लिखा": 2703,
      "room": 2704,
      "ides": 2705,
      "दवार": 2706,
      "pract": 2707,
      "बनाए": 2708,
      "forms": 2709,
      "iction": 2710,
      "region": 2711,
      "सामराजय": 2712,
      "अचछी": 2713,
      "male": 2714,
      "begin": 2715,
      "ky": 2716,
      "paren": 2717,
      "sis": 2718,
      "sat": 2719,
      "अला": 2720,
      "अपरा": 2721,
      "उमर": 2722,
      "मय": 2723,
      "िता": 2724,
      "adesh": 2725,
      "ilo": 2726,
      "demo": 2727,
      "demand": 2728,
      "दिए": 2729,
      "उनस": 2730,
      "lies": 2731,
      "हमशा": 2732,
      "जीव": 2733,
      "activ": 2734,
      "pris": 2735,
      "bring": 2736,
      "type": 2737,
      "constru": 2738,
      "justice": 2739,
      "महाभारत": 2740,
      "सामगरी": 2741,
      "runs": 2742,
      "speaker": 2743,
      "tradition": 2744,
      "europe": 2745,
      "several": 2746,
      "dy": 2747,
      "kal": 2748,
      "link": 2749,
      "pain": 2750,
      "आक": 2751,
      "आता": 2752,
      "तया": 2753,
      "नव": 2754,
      "बब": 2755,
      "मट": 2756,
      "नागर": 2757,
      "विदय": 2758,
      "secre": 2759,
      "deal": 2760,
      "above": 2761,
      "conside": 2762,
      "पाठ": 2763,
      "coming": 2764,
      "using": 2765,
      "मानत": 2766,
      "सथय": 2767,
      "earli": 2768,
      "परतिनि": 2769,
      "निरधार": 2770,
      "police": 2771,
      "council": 2772,
      "better": 2773,
      "attack": 2774,
      "अधययन": 2775,
      "close": 2776,
      "months": 2777,
      "middle": 2778,
      "समरथन": 2779,
      "revolution": 2780,
      "mobile": 2781,
      "considered": 2782,
      "bes": 2783,
      "born": 2784,
      "dam": 2785,
      "east": 2786,
      "glo": 2787,
      "hous": 2788,
      "ni": 2789,
      "past": 2790,
      "spread": 2791,
      "आती": 2792,
      "उठ": 2793,
      "नगर": 2794,
      "फट": 2795,
      "atic": 2796,
      "नियो": 2797,
      "दिनो": 2798,
      "ush": 2799,
      "idence": 2800,
      "proper": 2801,
      "prime": 2802,
      "परिय": 2803,
      "foreign": 2804,
      "getting": 2805,
      "office": 2806,
      "पशचात": 2807,
      "वयापक": 2808,
      "बहतर": 2809,
      "instit": 2810,
      "धिकार": 2811,
      "brother": 2812,
      "community": 2813,
      "employ": 2814,
      "मसलमानो": 2815,
      "industrial": 2816,
      "category": 2817,
      "राजनतिक": 2818,
      "मोबाइल": 2819,
      "fut": 2820,
      "freed": 2821,
      "jun": 2822,
      "jur": 2823,
      "round": 2824,
      "som": 2825,
      "अभ": 2826,
      "धो": 2827,
      "नई": 2828,
      "नजर": 2829,
      "भविषय": 2830,
      "परशासन": 2831,
      "envir": 2832,
      "किल": 2833,
      "step": 2834,
      "होग": 2835,
      "achi": 2836,
      "लिस": 2837,
      "role": 2838,
      "लाया": 2839,
      "aya": 2840,
      "living": 2841,
      "सरो": 2842,
      "tract": 2843,
      "perc": 2844,
      "exist": 2845,
      "जानत": 2846,
      "march": 2847,
      "commission": 2848,
      "अरथा": 2849,
      "temples": 2850,
      "music": 2851,
      "अतिम": 2852,
      "capital": 2853,
      "निकल": 2854,
      "singh": 2855,
      "groups": 2856,
      "spirit": 2857,
      "young": 2858,
      "cu": 2859,
      "fall": 2860,
      "flow": 2861,
      "hold": 2862,
      "lu": 2863,
      "mor": 2864,
      "rate": 2865,
      "stop": 2866,
      "भल": 2867,
      "मॉ": 2868,
      "शताब": 2869,
      "सहित": 2870,
      "परय": 2871,
      "ताल": 2872,
      "stre": 2873,
      "adminis": 2874,
      "ilt": 2875,
      "dies": 2876,
      "feed": 2877,
      "appoint": 2878,
      "cost": 2879,
      "चनाव": 2880,
      "crim": 2881,
      "medi": 2882,
      "सहयोग": 2883,
      "society": 2884,
      "including": 2885,
      "सवततरता": 2886,
      "परिषद": 2887,
      "अलावा": 2888,
      "निरधारित": 2889,
      "अरथात": 2890,
      "?”": 2891,
      "bs": 2892,
      "cit": 2893,
      "उसम": 2894,
      "भद": 2895,
      "वली": 2896,
      "ीय": 2897,
      "१५": 2898,
      "almost": 2899,
      "itself": 2900,
      "तान": 2901,
      "ानि": 2902,
      "behind": 2903,
      "ado": 2904,
      "rote": 2905,
      "died": 2906,
      "बाग": 2907,
      "pose": 2908,
      "program": 2909,
      "अनचछद": 2910,
      "courts": 2911,
      "छोटी": 2912,
      "सवासथय": 2913,
      "selves": 2914,
      "कराति": 2915,
      "scri": 2916,
      "ordin": 2917,
      "परयास": 2918,
      "वासतविक": 2919,
      "सथापना": 2920,
      "करोड": 2921,
      "सवरप": 2922,
      "budd": 2923,
      "supreme": 2924,
      "batsman": 2925,
      "freedom": 2926,
      "vin": 2927,
      "wes": 2928,
      "झा": 2929,
      "लकषय": 2930,
      "सघर": 2931,
      "सभावना": 2932,
      "invol": 2933,
      "ery": 2934,
      "परचार": 2935,
      "ency": 2936,
      "army": 2937,
      "associ": 2938,
      "विष": 2939,
      "तरिक": 2940,
      "impro": 2941,
      "china": 2942,
      "held": 2943,
      "unity": 2944,
      "बाब": 2945,
      "perhap": 2946,
      "मीर": 2947,
      "निरवा": 2948,
      "जररी": 2949,
      "मतलब": 2950,
      "गलत": 2951,
      "चाहता": 2952,
      "मौज": 2953,
      "तलना": 2954,
      "popular": 2955,
      "परभावित": 2956,
      "assemb": 2957,
      "democr": 2958,
      "future": 2959,
      "perhaps": 2960,
      "hru": 2961,
      "lab": 2962,
      "mass": 2963,
      "var": 2964,
      "wo": 2965,
      "wr": 2966,
      "west": 2967,
      "wrote": 2968,
      "आउट": 2969,
      "उपा": 2970,
      "औदयोग": 2971,
      "गफा": 2972,
      "पय": 2973,
      "१८": 2974,
      "परसिदध": 2975,
      "ouch": 2976,
      "कानन": 2977,
      "towards": 2978,
      "ication": 2979,
      "ention": 2980,
      "वापस": 2981,
      "साफ": 2982,
      "कारो": 2983,
      "abad": 2984,
      "माता": 2985,
      "motion": 2986,
      "poor": 2987,
      "respect": 2988,
      "जिला": 2989,
      "अनभव": 2990,
      "necess": 2991,
      "शाह": 2992,
      "पहला": 2993,
      "redu": 2994,
      "claim": 2995,
      "जिनह": 2996,
      "built": 2997,
      "personal": 2998,
      "hands": 2999,
      "सिदधात": 3000,
      "tube": 3001,
      "bengal": 3002,
      "technology": 3003,
      "festival": 3004,
      "material": 3005,
      "administr": 3006,
      "afr": 3007,
      "fail": 3008,
      "mess": 3009,
      "nal": 3010,
      "ran": 3011,
      "sions": 3012,
      "wal": 3013,
      "ईसा": 3014,
      "खाना": 3015,
      "ढी": 3016,
      "पलिस": 3017,
      "रस": 3018,
      "सशो": 3019,
      "परमाण": 3020,
      "told": 3021,
      "ada": 3022,
      "imate": 3023,
      "week": 3024,
      "thern": 3025,
      "रहती": 3026,
      "affe": 3027,
      "discus": 3028,
      "विधयक": 3029,
      "count": 3030,
      "रखत": 3031,
      "जञा": 3032,
      "षणा": 3033,
      "regard": 3034,
      "निकट": 3035,
      "leader": 3036,
      "following": 3037,
      "कविता": 3038,
      "कौन": 3039,
      "पसतक": 3040,
      "सघरष": 3041,
      "din": 3042,
      "dut": 3043,
      "gar": 3044,
      "kash": 3045,
      "mach": 3046,
      "sco": 3047,
      "आतम": 3048,
      "खला": 3049,
      "चका": 3050,
      "यण": 3051,
      "रकत": 3052,
      "सख": 3053,
      "सरा": 3054,
      "सची": 3055,
      "ener": 3056,
      "यास": 3057,
      "विशा": 3058,
      "concer": 3059,
      "पाया": 3060,
      "soon": 3061,
      "nepal": 3062,
      "तकनी": 3063,
      "rule": 3064,
      "formed": 3065,
      "बिजली": 3066,
      "चछा": 3067,
      "धीर": 3068,
      "fully": 3069,
      "जाएगा": 3070,
      "developed": 3071,
      "languages": 3072,
      "increase": 3073,
      "ledge": 3074,
      "सपरक": 3075,
      "दवीप": 3076,
      "mandap": 3077,
      "mission": 3078,
      "इतना": 3079,
      "market": 3080,
      "परदषण": 3081,
      "places": 3082,
      "applause": 3083,
      "शबदो": 3084,
      "earlier": 3085,
      "environment": 3086,
      "22": 3087,
      "70": 3088,
      "lak": 3089,
      "sof": 3090,
      "sac": 3091,
      "sam": 3092,
      "इगल": 3093,
      "कपनी": 3094,
      "टस": 3095,
      "सचना": 3096,
      "हट": 3097,
      "परान": 3098,
      "already": 3099,
      "stu": 3100,
      "stat": 3101,
      "विकट": 3102,
      "तरक": 3103,
      "निको": 3104,
      "terms": 3105,
      "agree": 3106,
      "सीध": 3107,
      "shr": 3108,
      "except": 3109,
      "quality": 3110,
      "राजयो": 3111,
      "ended": 3112,
      "space": 3113,
      "मारच": 3114,
      "शील": 3115,
      "सथानो": 3116,
      "अवसथा": 3117,
      "collect": 3118,
      "taking": 3119,
      "अतरराषटरीय": 3120,
      "ized": 3121,
      "services": 3122,
      "दिखाई": 3123,
      "पथवी": 3124,
      "बिलकल": 3125,
      "blood": 3126,
      "increased": 3127,
      "university": 3128,
      "कालीन": 3129,
      "character": 3130,
      "kashmir": 3131,
      "batt": 3132,
      "dar": 3133,
      "ey": 3134,
      "fair": 3135,
      "gas": 3136,
      "lay": 3137,
      "ming": 3138,
      "nu": 3139,
      "nar": 3140,
      "nature": 3141,
      "ping": 3142,
      "आरो": 3143,
      "एड": 3144,
      "कदर": 3145,
      "नए": 3146,
      "बौ": 3147,
      "रड": 3148,
      "षि": 3149,
      "init": 3150,
      "rele": 3151,
      "यात": 3152,
      "करि": 3153,
      "तरफ": 3154,
      "सात": 3155,
      "deep": 3156,
      "लाई": 3157,
      "conne": 3158,
      "सरवो": 3159,
      "circ": 3160,
      "आपकी": 3161,
      "पराचीन": 3162,
      "sib": 3163,
      "वहार": 3164,
      "निरभर": 3165,
      "दखन": 3166,
      "नामक": 3167,
      "उददशय": 3168,
      "temper": 3169,
      "fire": 3170,
      "लगाया": 3171,
      "matters": 3172,
      "अवसर": 3173,
      "colle": 3174,
      "played": 3175,
      "खोज": 3176,
      "transport": 3177,
      "treat": 3178,
      "population": 3179,
      "science": 3180,
      "chandra": 3181,
      "independence": 3182,
      "बगाल": 3183,
      "assembly": 3184,
      "औदयोगिक": 3185,
      "az": 3186,
      "bank": 3187,
      "ee": 3188,
      "hor": 3189,
      "jap": 3190,
      "path": 3191,
      "आइ": 3192,
      "कथा": 3193,
      "दवि": 3194,
      "बट": 3195,
      "रजा": 3196,
      "लका": 3197,
      "शली": 3198,
      "influ": 3199,
      "recor": 3200,
      "परर": 3201,
      "enough": 3202,
      "itch": 3203,
      "ानो": 3204,
      "विदशी": 3205,
      "seen": 3206,
      "लिम": 3207,
      "chr": 3208,
      "निकाल": 3209,
      "सकार": 3210,
      "बाजी": 3211,
      "lok": 3212,
      "train": 3213,
      "जोड": 3214,
      "हमत": 3215,
      "हिदी": 3216,
      "nehru": 3217,
      "expres": 3218,
      "सतार": 3219,
      "emer": 3220,
      "अधिकारी": 3221,
      "vious": 3222,
      "ava": 3223,
      "created": 3224,
      "philo": 3225,
      "england": 3226,
      "कहानी": 3227,
      "importance": 3228,
      "अतरगत": 3229,
      "rights": 3230,
      "needs": 3231,
      "related": 3232,
      "judic": 3233,
      "asked": 3234,
      "cases": 3235,
      "growth": 3236,
      "विदयालय": 3237,
      "session": 3238,
      "percent": 3239,
      "शताबदी": 3240,
      "21": 3241,
      "ease": 3242,
      "ient": 3243,
      "lal": 3244,
      "xim": 3245,
      "कॉ": 3246,
      "खरी": 3247,
      "दड": 3248,
      "लकषण": 3249,
      "सको": 3250,
      "हवा": 3251,
      "परपरा": 3252,
      "कावय": 3253,
      "विसतार": 3254,
      "separ": 3255,
      "seven": 3256,
      "सास": 3257,
      "areas": 3258,
      "पालन": 3259,
      "wife": 3260,
      "experi": 3261,
      "viol": 3262,
      "निरमित": 3263,
      "कलपना": 3264,
      "contact": 3265,
      "सतरो": 3266,
      "जिनक": 3267,
      "tail": 3268,
      "hindus": 3269,
      "चरचा": 3270,
      "आनद": 3271,
      "single": 3272,
      "लिखित": 3273,
      "rajas": 3274,
      "घोषणा": 3275,
      "passed": 3276,
      "rules": 3277,
      "नयायाधी": 3278,
      "टयब": 3279,
      "वातावरण": 3280,
      "western": 3281,
      "energy": 3282,
      "75": 3283,
      "crit": 3284,
      "cast": 3285,
      "gl": 3286,
      "job": 3287,
      "ras": 3288,
      "अड": 3289,
      "आव": 3290,
      "दल": 3291,
      "पदार": 3292,
      "मशी": 3293,
      "महीन": 3294,
      "रवी": 3295,
      "वध": 3296,
      "सविधा": 3297,
      "sty": 3298,
      "राब": 3299,
      "divid": 3300,
      "conf": 3301,
      "aged": 3302,
      "agar": 3303,
      "सरचना": 3304,
      "soph": 3305,
      "जिल": 3306,
      "लगो": 3307,
      "पराय": 3308,
      "que": 3309,
      "quar": 3310,
      "ived": 3311,
      "मलय": 3312,
      "सारवजन": 3313,
      "भगवान": 3314,
      "वयापार": 3315,
      "ficult": 3316,
      "simil": 3317,
      "इतनी": 3318,
      "strugg": 3319,
      "कोशिका": 3320,
      "उललख": 3321,
      "natural": 3322,
      "structure": 3323,
      "विरदध": 3324,
      "benef": 3325,
      "village": 3326,
      "difficult": 3327,
      "नदरनाथ": 3328,
      "beginning": 3329,
      "विशाल": 3330,
      "इगलड": 3331,
      "सारवजनिक": 3332,
      ".)": 3333,
      "bit": 3334,
      "base": 3335,
      "ju": 3336,
      "mber": 3337,
      "pand": 3338,
      "sar": 3339,
      "उड": 3340,
      "गस": 3341,
      "धया": 3342,
      "नपाल": 3343,
      "भड": 3344,
      "लट": 3345,
      "सौर": 3346,
      "हन": 3347,
      "िन": 3348,
      "anci": 3349,
      "recent": 3350,
      "तियो": 3351,
      "becomes": 3352,
      "लाग": 3353,
      "मास": 3354,
      "सरकषित": 3355,
      "पाए": 3356,
      "usually": 3357,
      "दरद": 3358,
      "prop": 3359,
      "दीन": 3360,
      "भारी": 3361,
      "cover": 3362,
      "disease": 3363,
      "महल": 3364,
      "news": 3365,
      "tax": 3366,
      "बचचन": 3367,
      "cave": 3368,
      "capac": 3369,
      "strong": 3370,
      "joy": 3371,
      "हिदसतान": 3372,
      "पहचान": 3373,
      "addition": 3374,
      "खिलाफ": 3375,
      "types": 3376,
      "houses": 3377,
      "japan": 3378,
      "philosoph": 3379,
      "similar": 3380,
      "90": 3381,
      "band": 3382,
      "fast": 3383,
      "hol": 3384,
      "moun": 3385,
      "pict": 3386,
      "tour": 3387,
      "एच": 3388,
      "एशिया": 3389,
      "कटर": 3390,
      "महम": 3391,
      "सित": 3392,
      "िए": 3393,
      "ons": 3394,
      "कोण": 3395,
      "ica": 3396,
      "विमान": 3397,
      "विवाह": 3398,
      "secur": 3399,
      "समदर": 3400,
      "सममान": 3401,
      "दिय": 3402,
      "दिशा": 3403,
      "plant": 3404,
      "दोष": 3405,
      "ified": 3406,
      "योगय": 3407,
      "pradesh": 3408,
      "शरषठ": 3409,
      "force": 3410,
      "ards": 3411,
      "sphere": 3412,
      "contain": 3413,
      "2000": 3414,
      "कहना": 3415,
      "tempt": 3416,
      "limited": 3417,
      "शोध": 3418,
      "अकसर": 3419,
      "judge": 3420,
      "invest": 3421,
      "placed": 3422,
      "meaning": 3423,
      "named": 3424,
      "america": 3425,
      "birth": 3426,
      "established": 3427,
      "परिणाम": 3428,
      "वजञानिक": 3429,
      "secret": 3430,
      "rajasthan": 3431,
      "80": 3432,
      "aw": 3433,
      "gave": 3434,
      "rain": 3435,
      "radi": 3436,
      "tent": 3437,
      "wicket": 3438,
      "अपर": 3439,
      "कय": 3440,
      "गड": 3441,
      "तजी": 3442,
      "वकत": 3443,
      "ौती": 3444,
      "inside": 3445,
      "ences": 3446,
      "least": 3447,
      "sea": 3448,
      "निका": 3449,
      "पनर": 3450,
      "true": 3451,
      "trave": 3452,
      "teen": 3453,
      "जीत": 3454,
      "outside": 3455,
      "exper": 3456,
      "शाति": 3457,
      "सिन": 3458,
      "works": 3459,
      "thank": 3460,
      "कतिक": 3461,
      "knowledge": 3462,
      "जिनम": 3463,
      "185": 3464,
      "solar": 3465,
      "भाषाओ": 3466,
      "intel": 3467,
      "turned": 3468,
      "complex": 3469,
      "species": 3470,
      "study": 3471,
      "पशचिमी": 3472,
      "आजादी": 3473,
      "bon": 3474,
      "bha": 3475,
      "gard": 3476,
      "hit": 3477,
      "lat": 3478,
      "touch": 3479,
      "उपर": 3480,
      "जमा": 3481,
      "तज": 3482,
      "नयी": 3483,
      "मश": 3484,
      "मगल": 3485,
      "ani": 3486,
      "ising": 3487,
      "परसकार": 3488,
      "ताज": 3489,
      "विभा": 3490,
      "तित": 3491,
      "निमन": 3492,
      "utions": 3493,
      "माधय": 3494,
      "हिसा": 3495,
      "plants": 3496,
      "manu": 3497,
      "पराकतिक": 3498,
      "quite": 3499,
      "राजसथान": 3500,
      "ured": 3501,
      "बरहम": 3502,
      "शरआत": 3503,
      "eved": 3504,
      "फिल": 3505,
      "कारयकरम": 3506,
      "छोटा": 3507,
      "वयकतिगत": 3508,
      "ministers": 3509,
      "tried": 3510,
      "wanted": 3511,
      "function": 3512,
      "laws": 3513,
      "सदसयो": 3514,
      "company": 3515,
      "decided": 3516,
      "cultural": 3517,
      "उदयोगो": 3518,
      "election": 3519,
      "industries": 3520,
      "pollution": 3521,
      "truth": 3522,
      "range": 3523,
      "execut": 3524,
      "ological": 3525,
      "citiz": 3526,
      "बौदध": 3527,
      "capacity": 3528,
      "bun": 3529,
      "cause": 3530,
      "ded": 3531,
      "dol": 3532,
      "iver": 3533,
      "jour": 3534,
      "night": 3535,
      "ses": 3536,
      "smo": 3537,
      "uary": 3538,
      "wing": 3539,
      "गन": 3540,
      "गार": 3541,
      "गभी": 3542,
      "मजब": 3543,
      "यदय": 3544,
      "हक": 3545,
      "thous": 3546,
      "anch": 3547,
      "ारथ": 3548,
      "aring": 3549,
      "total": 3550,
      "साद": 3551,
      "रास": 3552,
      "imag": 3553,
      "dia": 3554,
      "बाल": 3555,
      "contribut": 3556,
      "सरवा": 3557,
      "mot": 3558,
      "poems": 3559,
      "comb": 3560,
      "मिली": 3561,
      "extre": 3562,
      "rail": 3563,
      "rather": 3564,
      "सथल": 3565,
      "istic": 3566,
      "ively": 3567,
      "ending": 3568,
      "उतसर": 3569,
      "शिका": 3570,
      "मिलती": 3571,
      "परवक": 3572,
      "शीर": 3573,
      "powers": 3574,
      "खिल": 3575,
      "finally": 3576,
      "source": 3577,
      "मसलिम": 3578,
      "priv": 3579,
      "कशमीर": 3580,
      "happened": 3581,
      "origin": 3582,
      "आदमी": 3583,
      "wrong": 3584,
      "necessary": 3585,
      "गभीर": 3586,
      "diction": 3587,
      "fig": 3588,
      "fav": 3589,
      "ially": 3590,
      "rat": 3591,
      "sri": 3592,
      "wise": 3593,
      "आए": 3594,
      "आखि": 3595,
      "आवाज": 3596,
      "ककष": 3597,
      "खतर": 3598,
      "तथ": 3599,
      "थन": 3600,
      "फसल": 3601,
      "मध": 3602,
      "सारी": 3603,
      "सवाल": 3604,
      "सचि": 3605,
      "era": 3606,
      "ert": 3607,
      "कीय": 3608,
      "तापमान": 3609,
      "stri": 3610,
      "defin": 3611,
      "devo": 3612,
      "chair": 3613,
      "निजी": 3614,
      "nothing": 3615,
      "सरी": 3616,
      "uses": 3617,
      "project": 3618,
      "हिससा": 3619,
      "अनस": 3620,
      "अनमान": 3621,
      "सथि": 3622,
      "वहन": 3623,
      "सबधी": 3624,
      "cove": 3625,
      "वयवहार": 3626,
      "पील": 3627,
      "बदला": 3628,
      "अरब": 3629,
      "महसस": 3630,
      "०००": 3631,
      "finan": 3632,
      "लिखी": 3633,
      "मदिरो": 3634,
      "leaders": 3635,
      "वजद": 3636,
      "questions": 3637,
      "सदरभ": 3638,
      "अदालत": 3639,
      "until": 3640,
      "bombay": 3641,
      "global": 3642,
      "सशोधन": 3643,
      "रवीनदरनाथ": 3644,
      "ancient": 3645,
      "यदयपि": 3646,
      "bul": 3647,
      "dro": 3648,
      "ogy": 3649,
      "pho": 3650,
      "win": 3651,
      "xed": 3652,
      "आशा": 3653,
      "आदश": 3654,
      "इटर": 3655,
      "इमार": 3656,
      "कब": 3657,
      "कमर": 3658,
      "छट": 3659,
      "जमी": 3660,
      "लल": 3661,
      "लडा": 3662,
      "वब": 3663,
      "सतो": 3664,
      "हदय": 3665,
      "ोर": 3666,
      "inc": 3667,
      "anal": 3668,
      "reli": 3669,
      "ering": 3670,
      "परसतत": 3671,
      "anda": 3672,
      "तिया": 3673,
      "सासक": 3674,
      "ilities": 3675,
      "बाध": 3676,
      "wide": 3677,
      "गरन": 3678,
      "हमारा": 3679,
      "provide": 3680,
      "goes": 3681,
      "जीन": 3682,
      "शाखा": 3683,
      "key": 3684,
      "मीडिया": 3685,
      "परतिकरिया": 3686,
      "board": 3687,
      "themselves": 3688,
      "पारित": 3689,
      "visit": 3690,
      "चलत": 3691,
      "regular": 3692,
      "ternal": 3693,
      "परयापत": 3694,
      "sense": 3695,
      "building": 3696,
      "issue": 3697,
      "somet": 3698,
      "script": 3699,
      "covered": 3700,
      "33": 3701,
      "bound": 3702,
      "dre": 3703,
      "dou": 3704,
      "fly": 3705,
      "game": 3706,
      "jam": 3707,
      "nes": 3708,
      "ox": 3709,
      "rich": 3710,
      "sil": 3711,
      "uk": 3712,
      "watch": 3713,
      "डऋ": 3714,
      "मति": 3715,
      "यवाद": 3716,
      "रकषा": 3717,
      "शल": 3718,
      "सकर": 3719,
      "atmo": 3720,
      "परिक": 3721,
      "arab": 3722,
      "ese": 3723,
      "sequ": 3724,
      "section": 3725,
      "ently": 3726,
      "योजन": 3727,
      "chall": 3728,
      "uttar": 3729,
      "वरो": 3730,
      "suf": 3731,
      "shi": 3732,
      "climate": 3733,
      "शिव": 3734,
      "hara": 3735,
      "मदान": 3736,
      "intro": 3737,
      "चनदर": 3738,
      "समझा": 3739,
      "published": 3740,
      "instru": 3741,
      "१९९": 3742,
      "नताओ": 3743,
      "मडप": 3744,
      "मडल": 3745,
      "paper": 3746,
      "occur": 3747,
      "भोजन": 3748,
      "situation": 3749,
      "विरोध": 3750,
      "graph": 3751,
      "break": 3752,
      "माधयम": 3753,
      "financial": 3754,
      "29": 3755,
      "hom": 3756,
      "ians": 3757,
      "ken": 3758,
      "sain": 3759,
      "vic": 3760,
      "अगल": 3761,
      "ऊरजा": 3762,
      "कदम": 3763,
      "थि": 3764,
      "धक": 3765,
      "फत": 3766,
      "बचा": 3767,
      "शक": 3768,
      "१०": 3769,
      "return": 3770,
      "arri": 3771,
      "itation": 3772,
      "stage": 3773,
      "leave": 3774,
      "विवाद": 3775,
      "विडियो": 3776,
      "साय": 3777,
      "रासत": 3778,
      "जाल": 3779,
      "imes": 3780,
      "हाउस": 3781,
      "बावजद": 3782,
      "comput": 3783,
      "जिम": 3784,
      "मानना": 3785,
      "मितर": 3786,
      "indians": 3787,
      "190": 3788,
      "meas": 3789,
      "शासतर": 3790,
      "जनक": 3791,
      "जनवरी": 3792,
      "राजनीति": 3793,
      "चारो": 3794,
      "ports": 3795,
      "aves": 3796,
      "centre": 3797,
      "veda": 3798,
      "nations": 3799,
      "जिनहोन": 3800,
      "internet": 3801,
      "legs": 3802,
      "legal": 3803,
      "अवधि": 3804,
      "करमण": 3805,
      "गरीन": 3806,
      "विशवविदयालय": 3807,
      "highest": 3808,
      "वरणन": 3809,
      "writing": 3810,
      "गहरा": 3811,
      "clean": 3812,
      "गदबाज": 3813,
      "असली": 3814,
      "अधिनियम": 3815,
      "वतता": 3816,
      "अफरी": 3817,
      "परकाशित": 3818,
      "परधानमतरी": 3819,
      "explo": 3820,
      "january": 3821,
      "hours": 3822,
      "अपराध": 3823,
      "मॉडल": 3824,
      "temperature": 3825,
      "style": 3826,
      "security": 3827,
      "manufact": 3828,
      "bharat": 3829,
      "flo": 3830,
      "gs": 3831,
      "gir": 3832,
      "hon": 3833,
      "hus": 3834,
      "jab": 3835,
      "mom": 3836,
      "os": 3837,
      "sound": 3838,
      "tv": 3839,
      "vish": 3840,
      "आयोग": 3841,
      "इयो": 3842,
      "ऑफ": 3843,
      "जज": 3844,
      "जह": 3845,
      "पजी": 3846,
      "भौ": 3847,
      "मनी": 3848,
      "िको": 3849,
      "anth": 3850,
      "परौ": 3851,
      "aries": 3852,
      "asa": 3853,
      "कीट": 3854,
      "कोरट": 3855,
      "विदव": 3856,
      "ami": 3857,
      "depart": 3858,
      "dire": 3859,
      "सकषम": 3860,
      "unic": 3861,
      "ably": 3862,
      "confl": 3863,
      "load": 3864,
      "peace": 3865,
      "allah": 3866,
      "गाव": 3867,
      "meth": 3868,
      "worship": 3869,
      "सतय": 3870,
      "iful": 3871,
      "doct": 3872,
      "pray": 3873,
      "cogn": 3874,
      "mahal": 3875,
      "hood": 3876,
      "lled": 3877,
      "lling": 3878,
      "तमह": 3879,
      "gets": 3880,
      "maintain": 3881,
      "रिपोरट": 3882,
      "वयकतियो": 3883,
      "opin": 3884,
      "generally": 3885,
      "calcut": 3886,
      "विचारो": 3887,
      "vaj": 3888,
      "सगठन": 3889,
      "students": 3890,
      "majority": 3891,
      "पशचिम": 3892,
      "killed": 3893,
      "decision": 3894,
      "नागरिक": 3895,
      "नयायाधीश": 3896,
      "सरवाधिक": 3897,
      "sometimes": 3898,
      "dang": 3899,
      "fill": 3900,
      "kab": 3901,
      "pill": 3902,
      "अदर": 3903,
      "असल": 3904,
      "कच": 3905,
      "चकी": 3906,
      "जटि": 3907,
      "दारी": 3908,
      "बला": 3909,
      "भकति": 3910,
      "मारी": 3911,
      "यॊ": 3912,
      "रचि": 3913,
      "लान": 3914,
      "लना": 3915,
      "लयो": 3916,
      "वक": 3917,
      "सदश": 3918,
      "ini": 3919,
      "परच": 3920,
      "परवी": 3921,
      "याय": 3922,
      "stay": 3923,
      "sec": 3924,
      "वासी": 3925,
      "bel": 3926,
      "िकष": 3927,
      "सममि": 3928,
      "wel": 3929,
      "कारा": 3930,
      "ctions": 3931,
      "pected": 3932,
      "जिसन": 3933,
      "दीय": 3934,
      "cious": 3935,
      "essent": 3936,
      "परात": 3937,
      "सियो": 3938,
      "kept": 3939,
      "whose": 3940,
      "ससार": 3941,
      "anything": 3942,
      "भाषण": 3943,
      "सथायी": 3944,
      "forest": 3945,
      "महारा": 3946,
      "नियमो": 3947,
      "नियमित": 3948,
      "कहला": 3949,
      "वयकत": 3950,
      "design": 3951,
      "जयादातर": 3952,
      "media": 3953,
      "idea": 3954,
      "giving": 3955,
      "conditions": 3956,
      "goods": 3957,
      "value": 3958,
      "shape": 3959,
      "जातियो": 3960,
      "खरच": 3961,
      "videos": 3962,
      "legislative": 3963,
      "juris": 3964,
      "improve": 3965,
      "executive": 3966,
      "extreme": 3967,
      "शिकायत": 3968,
      "सासकतिक": 3969,
      "introdu": 3970,
      "calcutta": 3971,
      "45": 3972,
      "gur": 3973,
      "mr": 3974,
      "pil": 3975,
      "rud": 3976,
      "ues": 3977,
      "अच": 3978,
      "गला": 3979,
      "चय": 3980,
      "छत": 3981,
      "तना": 3982,
      "मम": 3983,
      "मका": 3984,
      "यवा": 3985,
      "शव": 3986,
      "reality": 3987,
      "ond": 3988,
      "ening": 3989,
      "ased": 3990,
      "tober": 3991,
      "account": 3992,
      "advis": 3993,
      "राव": 3994,
      "forward": 3995,
      "समदाय": 3996,
      "निवश": 3997,
      "बाई": 3998,
      "lives": 3999,
      "tered": 4000,
      "super": 4001,
      "अनमति": 4002,
      "मिग": 4003,
      "मिट": 4004,
      "apart": 4005,
      "भारती": 4006,
      "शरम": 4007,
      "grad": 4008,
      "ससदीय": 4009,
      "चिकित": 4010,
      "lower": 4011,
      "जिसकी": 4012,
      "ipur": 4013,
      "जिनका": 4014,
      "athi": 4015,
      "fight": 4016,
      "पडता": 4017,
      "करमचार": 4018,
      "cks": 4019,
      "चरय": 4020,
      "higher": 4021,
      "ideas": 4022,
      "reading": 4023,
      "charge": 4024,
      "condition": 4025,
      "पसद": 4026,
      "घोषित": 4027,
      "relation": 4028,
      "october": 4029,
      "babu": 4030,
      "cells": 4031,
      "tonnes": 4032,
      "graphy": 4033,
      "सडक": 4034,
      "beautiful": 4035,
      "achieve": 4036,
      "criminal": 4037,
      "sibility": 4038,
      "experience": 4039,
      "mountain": 4040,
      "method": 4041,
      "27": 4042,
      "31": 4043,
      "bri": 4044,
      "fed": 4045,
      "fai": 4046,
      "hab": 4047,
      "mult": 4048,
      "nic": 4049,
      "sk": 4050,
      "औसत": 4051,
      "टिक": 4052,
      "तट": 4053,
      "पण": 4054,
      "मभ": 4055,
      "लती": 4056,
      "सगरह": 4057,
      "ॉन": 4058,
      "anas": 4059,
      "ator": 4060,
      "परक": 4061,
      "stone": 4062,
      "lebr": 4063,
      "विभाग": 4064,
      "sects": 4065,
      "सागर": 4066,
      "amoun": 4067,
      "जापान": 4068,
      "defe": 4069,
      "imper": 4070,
      "लाइन": 4071,
      "heav": 4072,
      "दिख": 4073,
      "बाकी": 4074,
      "ology": 4075,
      "uran": 4076,
      "condu": 4077,
      "aging": 4078,
      "पाद": 4079,
      "progress": 4080,
      "दास": 4081,
      "exc": 4082,
      "शाली": 4083,
      "पतथ": 4084,
      "पतनी": 4085,
      "evidence": 4086,
      "phys": 4087,
      "अगरज": 4088,
      "सवाओ": 4089,
      "समाचार": 4090,
      "जलवाय": 4091,
      "carried": 4092,
      "basis": 4093,
      "current": 4094,
      "archite": 4095,
      "makes": 4096,
      "square": 4097,
      "fundament": 4098,
      "animals": 4099,
      "activities": 4100,
      "divided": 4101,
      "dollar": 4102,
      "diabet": 4103,
      "उतसरजन": 4104,
      "अफरीका": 4105,
      "dri": 4106,
      "dest": 4107,
      "eight": 4108,
      "hund": 4109,
      "ii": 4110,
      "ki": 4111,
      "kan": 4112,
      "pad": 4113,
      "song": 4114,
      "tic": 4115,
      "tam": 4116,
      "अमरी": 4117,
      "खतम": 4118,
      "गट": 4119,
      "ठो": 4120,
      "ढग": 4121,
      "तसवी": 4122,
      "नती": 4123,
      "बक": 4124,
      "भजा": 4125,
      "लघ": 4126,
      "५०": 4127,
      "tha": 4128,
      "remo": 4129,
      "परगति": 4130,
      "tool": 4131,
      "करवा": 4132,
      "ताकत": 4133,
      "वाही": 4134,
      "वालो": 4135,
      "साइट": 4136,
      "heard": 4137,
      "weak": 4138,
      "weight": 4139,
      "ayan": 4140,
      "ayana": 4141,
      "term": 4142,
      "consum": 4143,
      "loss": 4144,
      "कषट": 4145,
      "celebr": 4146,
      "गरथ": 4147,
      "complain": 4148,
      "resol": 4149,
      "mention": 4150,
      "sugg": 4151,
      "सतह": 4152,
      "लगान": 4153,
      "size": 4154,
      "इनकी": 4155,
      "ends": 4156,
      "coal": 4157,
      "maxim": 4158,
      "उपकरण": 4159,
      "धारणा": 4160,
      "कमार": 4161,
      "बनाय": 4162,
      "तरीका": 4163,
      "safe": 4164,
      "vedic": 4165,
      "चाहिय": 4166,
      "series": 4167,
      "2006": 4168,
      "2008": 4169,
      "कसभा": 4170,
      "subst": 4171,
      "भागय": 4172,
      "purpose": 4173,
      "rama": 4174,
      "शिकषण": 4175,
      "takes": 4176,
      "longer": 4177,
      "normal": 4178,
      "standing": 4179,
      "योजित": 4180,
      "joint": 4181,
      "parliamentary": 4182,
      "सहायक": 4183,
      "वदिक": 4184,
      "अमरिकी": 4185,
      "बरिटन": 4186,
      "address": 4187,
      "specific": 4188,
      "growing": 4189,
      "approach": 4190,
      "यरोप": 4191,
      "steel": 4192,
      "मौजद": 4193,
      "africa": 4194,
      "महममद": 4195,
      "सकरिय": 4196,
      "suggest": 4197,
      "35": 4198,
      "aver": 4199,
      "aid": 4200,
      "cc": 4201,
      "cing": 4202,
      "cities": 4203,
      "igh": 4204,
      "pul": 4205,
      "ring": 4206,
      "tago": 4207,
      "van": 4208,
      "आठ": 4209,
      "इचछा": 4210,
      "गढ": 4211,
      "गपत": 4212,
      "छि": 4213,
      "दौ": 4214,
      "नक": 4215,
      "नतिक": 4216,
      "नततव": 4217,
      "पयी": 4218,
      "पषठ": 4219,
      "बरह": 4220,
      "बदधि": 4221,
      "सपी": 4222,
      "inner": 4223,
      "atures": 4224,
      "परसार": 4225,
      "outer": 4226,
      "करगा": 4227,
      "select": 4228,
      "enty": 4229,
      "जाकर": 4230,
      "हाथो": 4231,
      "हासिल": 4232,
      "कारर": 4233,
      "termin": 4234,
      "conver": 4235,
      "conference": 4236,
      "youtube": 4237,
      "तोड": 4238,
      "sud": 4239,
      "मानसिक": 4240,
      "explain": 4241,
      "आपस": 4242,
      "indic": 4243,
      "odh": 4244,
      "वीडियो": 4245,
      "वयय": 4246,
      "पतति": 4247,
      "रखना": 4248,
      "जञात": 4249,
      "नियतरित": 4250,
      "engine": 4251,
      "2005": 4252,
      "changed": 4253,
      "generation": 4254,
      "gives": 4255,
      "produced": 4256,
      "कनदर": 4257,
      "voice": 4258,
      "organisation": 4259,
      "बाजार": 4260,
      "पकड": 4261,
      "although": 4262,
      "shah": 4263,
      "बराहम": 4264,
      "दषटिकोण": 4265,
      "payee": 4266,
      "समसयाओ": 4267,
      "included": 4268,
      "fortun": 4269,
      "खिलाडी": 4270,
      "american": 4271,
      "कठिन": 4272,
      "सफलता": 4273,
      "लौट": 4274,
      "particularly": 4275,
      "provided": 4276,
      "master": 4277,
      "mahabhar": 4278,
      "अनसधान": 4279,
      "photo": 4280,
      "जिममद": 4281,
      "vajpayee": 4282,
      "जटिल": 4283,
      "hundred": 4284,
      "tagore": 4285,
      "23": 4286,
      "28": 4287,
      "award": 4288,
      "ech": 4289,
      "fif": 4290,
      "mp": 4291,
      "mic": 4292,
      "छह": 4293,
      "टट": 4294,
      "टली": 4295,
      "पदध": 4296,
      "बित": 4297,
      "भरा": 4298,
      "भरी": 4299,
      "मई": 4300,
      "मतरि": 4301,
      "षऋ": 4302,
      "सफ": 4303,
      "सगर": 4304,
      "सटी": 4305,
      "हथ": 4306,
      "२०": 4307,
      "income": 4308,
      "ises": 4309,
      "attempt": 4310,
      "ita": 4311,
      "espe": 4312,
      "करनी": 4313,
      "किसम": 4314,
      "star": 4315,
      "acqu": 4316,
      "रामा": 4317,
      "ross": 4318,
      "detail": 4319,
      "imp": 4320,
      "एकता": 4321,
      "निवार": 4322,
      "दिमाग": 4323,
      "कषक": 4324,
      "कषति": 4325,
      "सरकषण": 4326,
      "compet": 4327,
      "वरती": 4328,
      "proced": 4329,
      "fel": 4330,
      "external": 4331,
      "anti": 4332,
      "इनका": 4333,
      "परिवहन": 4334,
      "शरत": 4335,
      "उततरी": 4336,
      "bot": 4337,
      "answ": 4338,
      "पीढी": 4339,
      "शिखर": 4340,
      "vedas": 4341,
      "serious": 4342,
      "उदय": 4343,
      "trying": 4344,
      "चनौती": 4345,
      "else": 4346,
      "fied": 4347,
      "marri": 4348,
      "obvious": 4349,
      "religions": 4350,
      "difference": 4351,
      "वयाखया": 4352,
      "islands": 4353,
      "opport": 4354,
      "सामानयत": 4355,
      "write": 4356,
      "जायगा": 4357,
      "थोडा": 4358,
      "inste": 4359,
      "लोकपरिय": 4360,
      "custo": 4361,
      "वाजपयी": 4362,
      "protection": 4363,
      "रलव": 4364,
      "situated": 4365,
      "described": 4366,
      "punjab": 4367,
      "profess": 4368,
      "निरवाचन": 4369,
      "opinion": 4370,
      "):": 4371,
      "500": 4372,
      "bach": 4373,
      "cup": 4374,
      "oil": 4375,
      "oce": 4376,
      "sn": 4377,
      "tro": 4378,
      "आलो": 4379,
      "आमत": 4380,
      "आदरश": 4381,
      "कॉल": 4382,
      "गलो": 4383,
      "धानी": 4384,
      "पडी": 4385,
      "रक": 4386,
      "हवाई": 4387,
      "insects": 4388,
      "recomm": 4389,
      "refer": 4390,
      "ero": 4391,
      "atma": 4392,
      "परशिकषण": 4393,
      "ारक": 4394,
      "enjoy": 4395,
      "eds": 4396,
      "iting": 4397,
      "itary": 4398,
      "तालिया": 4399,
      "stories": 4400,
      "adult": 4401,
      "uted": 4402,
      "log": 4403,
      "ctive": 4404,
      "agra": 4405,
      "भागो": 4406,
      "poem": 4407,
      "वरक": 4408,
      "मानी": 4409,
      "हतया": 4410,
      "acts": 4411,
      "योगदान": 4412,
      "qual": 4413,
      "राजधानी": 4414,
      "दधा": 4415,
      "upper": 4416,
      "grand": 4417,
      "निरदश": 4418,
      "prevent": 4419,
      "बनाई": 4420,
      "speech": 4421,
      "चीजो": 4422,
      "कतता": 4423,
      "अगरजो": 4424,
      "saw": 4425,
      "governor": 4426,
      "धनयवाद": 4427,
      "2001": 4428,
      "सवामी": 4429,
      "tempor": 4430,
      "carry": 4431,
      "carbon": 4432,
      "shown": 4433,
      "चाहती": 4434,
      "मसति": 4435,
      "1999": 4436,
      "असफल": 4437,
      "पढा": 4438,
      "histor": 4439,
      "officers": 4440,
      "required": 4441,
      "nearly": 4442,
      "increasing": 4443,
      "सभाषबाब": 4444,
      "declared": 4445,
      "meeting": 4446,
      "risk": 4447,
      "authority": 4448,
      "friends": 4449,
      "check": 4450,
      "pie": 4451,
      "जवाब": 4452,
      "scientific": 4453,
      "सरोत": 4454,
      "philosophy": 4455,
      "garden": 4456,
      "conflict": 4457,
      "रामायण": 4458,
      "instead": 4459,
      "300": 4460,
      "74": 4461,
      "77": 4462,
      "ered": 4463,
      "ff": 4464,
      "hs": 4465,
      "ible": 4466,
      "kids": 4467,
      "lad": 4468,
      "sl": 4469,
      "wish": 4470,
      "असर": 4471,
      "अहम": 4472,
      "कऋ": 4473,
      "गराम": 4474,
      "चकि": 4475,
      "ठित": 4476,
      "फला": 4477,
      "भट": 4478,
      "भय": 4479,
      "सचार": 4480,
      "हजर": 4481,
      "िश": 4482,
      "thre": 4483,
      "atives": 4484,
      "परकट": 4485,
      "argu": 4486,
      "oud": 4487,
      "काट": 4488,
      "किन": 4489,
      "किताब": 4490,
      "ster": 4491,
      "stren": 4492,
      "ley": 4493,
      "नाटक": 4494,
      "belong": 4495,
      "लिन": 4496,
      "राट": 4497,
      "dead": 4498,
      "immedi": 4499,
      "height": 4500,
      "abs": 4501,
      "agric": 4502,
      "सीख": 4503,
      "trial": 4504,
      "shar": 4505,
      "चाल": 4506,
      "cially": 4507,
      "hase": 4508,
      "लगती": 4509,
      "aught": 4510,
      "परियोजना": 4511,
      "वीय": 4512,
      "शरण": 4513,
      "सनन": 4514,
      "forc": 4515,
      "उपबध": 4516,
      "distribut": 4517,
      "बनन": 4518,
      "सतानी": 4519,
      "corpor": 4520,
      "penis": 4521,
      "taj": 4522,
      "symb": 4523,
      "188": 4524,
      "everything": 4525,
      "happy": 4526,
      "powerful": 4527,
      "persons": 4528,
      "समझौ": 4529,
      "अतरिकष": 4530,
      "basic": 4531,
      "politics": 4532,
      "१९७": 4533,
      "अधिकारियो": 4534,
      "thinking": 4535,
      "organiz": 4536,
      "include": 4537,
      "बराबर": 4538,
      "elected": 4539,
      "electric": 4540,
      "empire": 4541,
      "reasons": 4542,
      "आसान": 4543,
      "remains": 4544,
      "allowed": 4545,
      "operation": 4546,
      "completely": 4547,
      "सतरीय": 4548,
      "अतयधिक": 4549,
      "located": 4550,
      "appointed": 4551,
      "सरवोचच": 4552,
      "मजबत": 4553,
      "atmosphere": 4554,
      "mahabharata": 4555,
      "especially": 4556,
      "आमतौर": 4557,
      "agricult": 4558,
      "32": 4559,
      "65": 4560,
      "da": 4561,
      "fu": 4562,
      "fish": 4563,
      "gate": 4564,
      "kum": 4565,
      "lines": 4566,
      "nom": 4567,
      "rid": 4568,
      "आपन": 4569,
      "ढो": 4570,
      "धनो": 4571,
      "पहा": 4572,
      "फलो": 4573,
      "फॉर": 4574,
      "बॉ": 4575,
      "बहा": 4576,
      "मकत": 4577,
      "शह": 4578,
      "attract": 4579,
      "परानी": 4580,
      "alo": 4581,
      "वितर": 4582,
      "विषण": 4583,
      "होनी": 4584,
      "seem": 4585,
      "season": 4586,
      "bey": 4587,
      "सालो": 4588,
      "राइ": 4589,
      "vember": 4590,
      "die": 4591,
      "november": 4592,
      "concept": 4593,
      "lost": 4594,
      "मात": 4595,
      "कषर": 4596,
      "resou": 4597,
      "proceed": 4598,
      "mental": 4599,
      "feet": 4600,
      "shall": 4601,
      "आपका": 4602,
      "estic": 4603,
      "लगत": 4604,
      "जनसखया": 4605,
      "ify": 4606,
      "quick": 4607,
      "mahar": 4608,
      "मरश": 4609,
      "clus": 4610,
      "कमजोर": 4611,
      "former": 4612,
      "speed": 4613,
      "चीत": 4614,
      "workers": 4615,
      "कारयपालिका": 4616,
      "greater": 4617,
      "2007": 4618,
      "बढती": 4619,
      "लगातार": 4620,
      "गरीब": 4621,
      "saying": 4622,
      "ideal": 4623,
      "famil": 4624,
      "rajya": 4625,
      "transl": 4626,
      "ficient": 4627,
      "schol": 4628,
      "broad": 4629,
      "occas": 4630,
      "elections": 4631,
      "उचचतम": 4632,
      "दयोगिकी": 4633,
      "विरोधी": 4634,
      "brahma": 4635,
      "reached": 4636,
      "learn": 4637,
      "administration": 4638,
      "आरोप": 4639,
      "struggle": 4640,
      "आखिर": 4641,
      "जमीन": 4642,
      "imperial": 4643,
      "fundamental": 4644,
      "maximum": 4645,
      "काररवाई": 4646,
      "sudden": 4647,
      "मसतिषक": 4648,
      "aji": 4649,
      "bru": 4650,
      "das": 4651,
      "fit": 4652,
      "fine": 4653,
      "gam": 4654,
      "jar": 4655,
      "oz": 4656,
      "pitch": 4657,
      "rup": 4658,
      "sav": 4659,
      "slow": 4660,
      "shap": 4661,
      "vim": 4662,
      "yam": 4663,
      "अम": 4664,
      "आफ": 4665,
      "आतमा": 4666,
      "इक": 4667,
      "इडिया": 4668,
      "ऊचाई": 4669,
      "कसा": 4670,
      "खराब": 4671,
      "चलन": 4672,
      "तः": 4673,
      "तभी": 4674,
      "दशा": 4675,
      "धव": 4676,
      "नयन": 4677,
      "पवितर": 4678,
      "बरी": 4679,
      "षा": 4680,
      "सहि": 4681,
      "सपरण": 4682,
      "हसत": 4683,
      "review": 4684,
      "ators": 4685,
      "ened": 4686,
      "ानक": 4687,
      "विसतत": 4688,
      "enter": 4689,
      "began": 4690,
      "लिप": 4691,
      "योनि": 4692,
      "white": 4693,
      "chem": 4694,
      "समरप": 4695,
      "निरा": 4696,
      "कारयो": 4697,
      "बातो": 4698,
      "ague": 4699,
      "भाल": 4700,
      "सरय": 4701,
      "ghan": 4702,
      "moham": 4703,
      "हिमा": 4704,
      "लोकसभा": 4705,
      "share": 4706,
      "shiv": 4707,
      "सिर": 4708,
      "इनहोन": 4709,
      "grant": 4710,
      "मरति": 4711,
      "बीर": 4712,
      "बीमारी": 4713,
      "rences": 4714,
      "गीता": 4715,
      "arya": 4716,
      "evol": 4717,
      "command": 4718,
      "शिल": 4719,
      "assist": 4720,
      "worked": 4721,
      "दखकर": 4722,
      "himal": 4723,
      "offer": 4724,
      "attention": 4725,
      "फीसदी": 4726,
      "चलता": 4727,
      "aily": 4728,
      "सपता": 4729,
      "ramayana": 4730,
      "player": 4731,
      "सवीकति": 4732,
      "१९८": 4733,
      "voc": 4734,
      "मकद": 4735,
      "गिर": 4736,
      "paid": 4737,
      "छोडकर": 4738,
      "परभावी": 4739,
      "draw": 4740,
      "names": 4741,
      "responsible": 4742,
      "islamic": 4743,
      "milk": 4744,
      "accepted": 4745,
      "आजाद": 4746,
      "signific": 4747,
      "successful": 4748,
      "continued": 4749,
      "फसला": 4750,
      "traditional": 4751,
      "adopt": 4752,
      "message": 4753,
      "दवितीय": 4754,
      "आवदन": 4755,
      "मशकिल": 4756,
      "private": 4757,
      "तथय": 4758,
      "analys": 4759,
      "dream": 4760,
      "husband": 4761,
      "department": 4762,
      "सममिलित": 4763,
      "faith": 4764,
      "architect": 4765,
      "average": 4766,
      "बराहमण": 4767,
      "streng": 4768,
      "symbol": 4769,
      "arc": 4770,
      "bag": 4771,
      "bang": 4772,
      "daily": 4773,
      "khan": 4774,
      "nav": 4775,
      "page": 4776,
      "rad": 4777,
      "rap": 4778,
      "tin": 4779,
      "अवश": 4780,
      "आतरिक": 4781,
      "ईर": 4782,
      "ऋत": 4783,
      "ऋर": 4784,
      "एफ": 4785,
      "एका": 4786,
      "डॉल": 4787,
      "दग": 4788,
      "दबा": 4789,
      "पचा": 4790,
      "फौ": 4791,
      "बचन": 4792,
      "मतर": 4793,
      "यदा": 4794,
      "लार": 4795,
      "सका": 4796,
      "हड": 4797,
      "inde": 4798,
      "remember": 4799,
      "recogn": 4800,
      "erous": 4801,
      "encour": 4802,
      "itable": 4803,
      "किनार": 4804,
      "इसपात": 4805,
      "vey": 4806,
      "तीसरा": 4807,
      "rown": 4808,
      "deb": 4809,
      "deli": 4810,
      "dered": 4811,
      "web": 4812,
      "ung": 4813,
      "unch": 4814,
      "पाई": 4815,
      "गरमी": 4816,
      "ets": 4817,
      "aka": 4818,
      "हिर": 4819,
      "female": 4820,
      "neg": 4821,
      "1950": 4822,
      "शाही": 4823,
      "पराधिक": 4824,
      "षटा": 4825,
      "वीर": 4826,
      "coast": 4827,
      "बीमार": 4828,
      "disci": 4829,
      "बनाना": 4830,
      "posit": 4831,
      "शिशन": 4832,
      "blind": 4833,
      "बातचीत": 4834,
      "branch": 4835,
      "governments": 4836,
      "“”,": 4837,
      "“”.": 4838,
      "भगत": 4839,
      "colour": 4840,
      "everyone": 4841,
      "घरल": 4842,
      "शिकार": 4843,
      "सामना": 4844,
      "conscious": 4845,
      "लखक": 4846,
      "काननी": 4847,
      "judges": 4848,
      "परोत": 4849,
      "शिकषित": 4850,
      "उतपाद": 4851,
      "constitutional": 4852,
      "germany": 4853,
      "नयायिक": 4854,
      "आसपास": 4855,
      "अफग": 4856,
      "directly": 4857,
      "independent": 4858,
      "issues": 4859,
      "matches": 4860,
      "नयायालयो": 4861,
      "परारभिक": 4862,
      "बठक": 4863,
      "वसतओ": 4864,
      "sector": 4865,
      "आशचरय": 4866,
      "channe": 4867,
      "bhagat": 4868,
      "practice": 4869,
      "prison": 4870,
      "experim": 4871,
      "मधमह": 4872,
      "jurisdiction": 4873,
      "ruddin": 4874,
      "procedure": 4875,
      "66": 4876,
      "68": 4877,
      "ax": 4878,
      "gor": 4879,
      "gri": 4880,
      "oh": 4881,
      "ode": 4882,
      "ril": 4883,
      "site": 4884,
      "tit": 4885,
      "vict": 4886,
      "अतत": 4887,
      "उभर": 4888,
      "ऋषि": 4889,
      "कपड": 4890,
      "गगल": 4891,
      "डित": 4892,
      "नद": 4893,
      "नमन": 4894,
      "यतर": 4895,
      "लर": 4896,
      "वशन": 4897,
      "वाना": 4898,
      "सजा": 4899,
      "सारा": 4900,
      "६०": 4901,
      "ining": 4902,
      "gton": 4903,
      "ony": 4904,
      "परनत": 4905,
      "aling": 4906,
      "offe": 4907,
      "यानी": 4908,
      "itor": 4909,
      "विल": 4910,
      "विविध": 4911,
      "below": 4912,
      "haz": 4913,
      "पाणड": 4914,
      "जिए": 4915,
      "probab": 4916,
      "हिसस": 4917,
      "मानवीय": 4918,
      "gods": 4919,
      "goog": 4920,
      "मिन": 4921,
      "जीवित": 4922,
      "exten": 4923,
      "expend": 4924,
      "expected": 4925,
      "ounced": 4926,
      "दवताओ": 4927,
      "sik": 4928,
      "षटर": 4929,
      "emper": 4930,
      "अधिकतर": 4931,
      "holy": 4932,
      "foot": 4933,
      "forces": 4934,
      "उपभो": 4935,
      "parties": 4936,
      "पीठ": 4937,
      "pressure": 4938,
      "विधियो": 4939,
      "कलप": 4940,
      "कलकतता": 4941,
      "pret": 4942,
      "चीनी": 4943,
      "create": 4944,
      "hari": 4945,
      "black": 4946,
      "वादय": 4947,
      "वारमिग": 4948,
      "warming": 4949,
      "visions": 4950,
      "कितनी": 4951,
      "final": 4952,
      "soul": 4953,
      "southern": 4954,
      "जाएगी": 4955,
      "throughout": 4956,
      "didn": 4957,
      "helped": 4958,
      "largest": 4959,
      "produce": 4960,
      "गणवतता": 4961,
      "धात": 4962,
      "followed": 4963,
      "netaji": 4964,
      "1960": 4965,
      "पढन": 4966,
      "जितना": 4967,
      "ification": 4968,
      "continue": 4969,
      "appear": 4970,
      "shows": 4971,
      "kinds": 4972,
      "दरीय": 4973,
      "feeling": 4974,
      "कठोर": 4975,
      "original": 4976,
      "principle": 4977,
      "parents": 4978,
      "नवबर": 4979,
      "democracy": 4980,
      "concerned": 4981,
      "critic": 4982,
      "पदारथ": 4983,
      "कोशिकाओ": 4984,
      "july": 4985,
      "1857": 4986,
      "फिलमो": 4987,
      "thousand": 4988,
      "सथिर": 4989,
      "इमारत": 4990,
      "oxide": 4991,
      "computer": 4992,
      "moment": 4993,
      "भारतीयो": 4994,
      "amount": 4995,
      "songs": 4996,
      "तसवीर": 4997,
      "marriage": 4998,
      "beyond": 4999,
      "chemical": 5000,
      "डॉलर": 5001,
      "expendit": 5002,
      "38": 5003,
      "bc": 5004,
      "cred": 5005,
      "cali": 5006,
      "dul": 5007,
      "dru": 5008,
      "data": 5009,
      "hum": 5010,
      "ier": 5011,
      "kes": 5012,
      "lon": 5013,
      "ny": 5014,
      "nast": 5015,
      "ptem": 5016,
      "pati": 5017,
      "swe": 5018,
      "sul": 5019,
      "अपील": 5020,
      "आल": 5021,
      "आयी": 5022,
      "उपन": 5023,
      "कडिया": 5024,
      "खार": 5025,
      "खली": 5026,
      "घरो": 5027,
      "जक": 5028,
      "दह": 5029,
      "दवा": 5030,
      "धम": 5031,
      "नवी": 5032,
      "पसा": 5033,
      "बनिया": 5034,
      "यौ": 5035,
      "यटर": 5036,
      "लषण": 5037,
      "वचन": 5038,
      "सनी": 5039,
      "returned": 5040,
      "istr": 5041,
      "परकति": 5042,
      "परसाद": 5043,
      "enge": 5044,
      "alu": 5045,
      "asia": 5046,
      "icated": 5047,
      "विपरी": 5048,
      "septem": 5049,
      "access": 5050,
      "समी": 5051,
      "सकस": 5052,
      "webs": 5053,
      "ays": 5054,
      "wash": 5055,
      "सीन": 5056,
      "trade": 5057,
      "जोखि": 5058,
      "ulpt": 5059,
      "गरम": 5060,
      "reser": 5061,
      "दरशा": 5062,
      "हमल": 5063,
      "provin": 5064,
      "मिशन": 5065,
      "अधया": 5066,
      "manage": 5067,
      "pleas": 5068,
      "plement": 5069,
      "दवता": 5070,
      "raised": 5071,
      "रहना": 5072,
      "active": 5073,
      "auto": 5074,
      "austr": 5075,
      "pras": 5076,
      "cot": 5077,
      "code": 5078,
      "aff": 5079,
      "afghan": 5080,
      "bodies": 5081,
      "निरयात": 5082,
      "वयर": 5083,
      "prep": 5084,
      "जरर": 5085,
      "सोचा": 5086,
      "मदरा": 5087,
      "mostly": 5088,
      "कहान": 5089,
      "टिग": 5090,
      "statement": 5091,
      "syn": 5092,
      "शीलता": 5093,
      "कितना": 5094,
      "presented": 5095,
      "northern": 5096,
      "needed": 5097,
      "नताजी": 5098,
      "1990": 5099,
      "sculpt": 5100,
      "1984": 5101,
      "बचचा": 5102,
      "mahatma": 5103,
      "सचचाई": 5104,
      "मराठी": 5105,
      "परशान": 5106,
      "इसलामी": 5107,
      "walls": 5108,
      "badruddin": 5109,
      "mitted": 5110,
      "sanct": 5111,
      "advant": 5112,
      "exerc": 5113,
      "बबई": 5114,
      "june": 5115,
      "अभिया": 5116,
      "buddha": 5117,
      "wood": 5118,
      "mandapa": 5119,
      "battle": 5120,
      "college": 5121,
      "propag": 5122,
      "बदलाव": 5123,
      "vishnu": 5124,
      "अचानक": 5125,
      "tamil": 5126,
      "हजरत": 5127,
      "google": 5128,
      "september": 5129,
      "website": 5130,
      "400": 5131,
      "breed": 5132,
      "etry": 5133,
      "ging": 5134,
      "gree": 5135,
      "gold": 5136,
      "hen": 5137,
      "ib": 5138,
      "ior": 5139,
      "ker": 5140,
      "pair": 5141,
      "pick": 5142,
      "quran": 5143,
      "rab": 5144,
      "sand": 5145,
      "saf": 5146,
      "tes": 5147,
      "zz": 5148,
      "अश": 5149,
      "आकरमण": 5150,
      "आयोजित": 5151,
      "इतन": 5152,
      "उरद": 5153,
      "खतरा": 5154,
      "चली": 5155,
      "टरी": 5156,
      "तमिल": 5157,
      "दब": 5158,
      "नषट": 5159,
      "पारी": 5160,
      "बज": 5161,
      "बसव": 5162,
      "भवन": 5163,
      "यनि": 5164,
      "लस": 5165,
      "वतन": 5166,
      "षयो": 5167,
      "सपन": 5168,
      "सचित": 5169,
      "ret": 5170,
      "परदरश": 5171,
      "enced": 5172,
      "alone": 5173,
      "oured": 5174,
      "कीमत": 5175,
      "ताए": 5176,
      "stick": 5177,
      "across": 5178,
      "साधन": 5179,
      "amend": 5180,
      "समकष": 5181,
      "निधि": 5182,
      "vert": 5183,
      "abh": 5184,
      "lied": 5185,
      "urdu": 5186,
      "पाव": 5187,
      "poetry": 5188,
      "users": 5189,
      "मानयता": 5190,
      "दीर": 5191,
      "manner": 5192,
      "indo": 5193,
      "iff": 5194,
      "rav": 5195,
      "actor": 5196,
      "ump": 5197,
      "price": 5198,
      "विशलषण": 5199,
      "hope": 5200,
      "बारी": 5201,
      "someone": 5202,
      "positions": 5203,
      "मिलकर": 5204,
      "spec": 5205,
      "जरमनी": 5206,
      "likely": 5207,
      "twenty": 5208,
      "spent": 5209,
      "टाइ": 5210,
      "myth": 5211,
      "genet": 5212,
      "धरती": 5213,
      "serve": 5214,
      "बढन": 5215,
      "टिप": 5216,
      "बोरड": 5217,
      "विशषजञ": 5218,
      "surface": 5219,
      "शोर": 5220,
      "आनवश": 5221,
      "सहार": 5222,
      "solid": 5223,
      "ashtra": 5224,
      "tribun": 5225,
      "politic": 5226,
      "धानिक": 5227,
      "सथितियो": 5228,
      "looking": 5229,
      "परयावरण": 5230,
      "दकषिणी": 5231,
      "planning": 5232,
      "films": 5233,
      "caste": 5234,
      "कपयटर": 5235,
      "economy": 5236,
      "आयात": 5237,
      "domin": 5238,
      "domestic": 5239,
      "articles": 5240,
      "remained": 5241,
      "keeping": 5242,
      "budget": 5243,
      "सोचत": 5244,
      "swami": 5245,
      "defence": 5246,
      "property": 5247,
      "programme": 5248,
      "ordinary": 5249,
      "involved": 5250,
      "labour": 5251,
      "reduce": 5252,
      "agreement": 5253,
      "christ": 5254,
      "judicial": 5255,
      "additional": 5256,
      "ताजमहल": 5257,
      "शीरष": 5258,
      "favour": 5259,
      "chairman": 5260,
      "गरनथ": 5261,
      "परौदयोगिकी": 5262,
      "विदवान": 5263,
      "पतथर": 5264,
      "हथिय": 5265,
      "ocean": 5266,
      "temporary": 5267,
      "electricity": 5268,
      "analysis": 5269,
      "probably": 5270,
      "विपरीत": 5271,
      "australi": 5272,
      "\"\"": 5273,
      "cou": 5274,
      "fare": 5275,
      "flight": 5276,
      "hun": 5277,
      "hence": 5278,
      "jain": 5279,
      "jail": 5280,
      "ks": 5281,
      "lack": 5282,
      "mou": 5283,
      "nag": 5284,
      "ners": 5285,
      "race": 5286,
      "sle": 5287,
      "sind": 5288,
      "scal": 5289,
      "ws": 5290,
      "wed": 5291,
      "wit": 5292,
      "zed": 5293,
      "ऊची": 5294,
      "खडी": 5295,
      "जम": 5296,
      "जना": 5297,
      "जयो": 5298,
      "जरी": 5299,
      "टसट": 5300,
      "डॉ": 5301,
      "थक": 5302,
      "बजट": 5303,
      "बहमत": 5304,
      "बदरद": 5305,
      "भकत": 5306,
      "यिका": 5307,
      "शकर": 5308,
      "शलक": 5309,
      "षिक": 5310,
      "सती": 5311,
      "हद": 5312,
      "ane": 5313,
      "eral": 5314,
      "परमच": 5315,
      "परदरशन": 5316,
      "कियो": 5317,
      "ional": 5318,
      "नाक": 5319,
      "विदश": 5320,
      "विवरण": 5321,
      "तरत": 5322,
      "वाहि": 5323,
      "साइ": 5324,
      "रासता": 5325,
      "तीत": 5326,
      "तीनो": 5327,
      "dece": 5328,
      "deput": 5329,
      "image": 5330,
      "समन": 5331,
      "निषठ": 5332,
      "absol": 5333,
      "iran": 5334,
      "consequ": 5335,
      "सरल": 5336,
      "पातर": 5337,
      "compar": 5338,
      "resh": 5339,
      "लीय": 5340,
      "अनवाद": 5341,
      "दावा": 5342,
      "april": 5343,
      "extra": 5344,
      "extend": 5345,
      "शाला": 5346,
      "शासक": 5347,
      "cies": 5348,
      "लगन": 5349,
      "सिफार": 5350,
      "पहचा": 5351,
      "उततरा": 5352,
      "cop": 5353,
      "चारय": 5354,
      "चारिक": 5355,
      "उपयकत": 5356,
      "गोल": 5357,
      "partner": 5358,
      "prem": 5359,
      "मिलत": 5360,
      "तरीको": 5361,
      "creation": 5362,
      "दखभाल": 5363,
      "center": 5364,
      "दसरो": 5365,
      "वरषा": 5366,
      "pens": 5367,
      "2002": 5368,
      "परवत": 5369,
      "पारपरिक": 5370,
      "obtain": 5371,
      "189": 5372,
      "जहाज": 5373,
      "surround": 5374,
      "शरीकषण": 5375,
      "factors": 5376,
      "solution": 5377,
      "caused": 5378,
      "थोडी": 5379,
      "stands": 5380,
      "कराया": 5381,
      "wants": 5382,
      "आगरा": 5383,
      "looked": 5384,
      "scen": 5385,
      "1945": 5386,
      "1947": 5387,
      "cross": 5388,
      "eastern": 5389,
      "equal": 5390,
      "wahar": 5391,
      "appropri": 5392,
      "require": 5393,
      "buildings": 5394,
      "received": 5395,
      "sessions": 5396,
      "सदह": 5397,
      "advice": 5398,
      "teacher": 5399,
      "bowler": 5400,
      "wonder": 5401,
      "subhash": 5402,
      "जवाहर": 5403,
      "आरभिक": 5404,
      "scientists": 5405,
      "mahabharat": 5406,
      "परतीक": 5407,
      "परतीत": 5408,
      "parent": 5409,
      "satis": 5410,
      "links": 5411,
      "तयाग": 5412,
      "परतिनिधित": 5413,
      "institutions": 5414,
      "करातिकारी": 5415,
      "तकनीक": 5416,
      "तकनीकी": 5417,
      "sacri": 5418,
      "eyes": 5419,
      "पररित": 5420,
      "benefit": 5421,
      "latter": 5422,
      "इटरनट": 5423,
      "गरीनहाउस": 5424,
      "floor": 5425,
      "filled": 5426,
      "महाराषटर": 5427,
      "guru": 5428,
      "dollars": 5429,
      "resources": 5430,
      "vimana": 5431,
      "सहिता": 5432,
      "अफगानि": 5433,
      "आनवशिक": 5434,
      "बदरददीन": 5435,
      "परमचद": 5436,
      "absolute": 5437,
      "34": 5438,
      "39": 5439,
      "44": 5440,
      "55": 5441,
      "800": 5442,
      "aar": 5443,
      "cra": 5444,
      "date": 5445,
      "fas": 5446,
      "hur": 5447,
      "hill": 5448,
      "knew": 5449,
      "lank": 5450,
      "mort": 5451,
      "sus": 5452,
      "sides": 5453,
      "til": 5454,
      "vation": 5455,
      "vive": 5456,
      "vast": 5457,
      "wan": 5458,
      "wild": 5459,
      "अनिवार": 5460,
      "आध": 5461,
      "आना": 5462,
      "इलक": 5463,
      "ऊच": 5464,
      "कमा": 5465,
      "जला": 5466,
      "झी": 5467,
      "तहत": 5468,
      "नारा": 5469,
      "रडियो": 5470,
      "लबी": 5471,
      "वट": 5472,
      "शष": 5473,
      "शारी": 5474,
      "शहरी": 5475,
      "सचा": 5476,
      "infe": 5477,
      "remark": 5478,
      "reference": 5479,
      "परदाय": 5480,
      "town": 5481,
      "किनत": 5482,
      "औरत": 5483,
      "ications": 5484,
      "वाणी": 5485,
      "वासियो": 5486,
      "साबित": 5487,
      "decor": 5488,
      "impres": 5489,
      "chap": 5490,
      "हाबाद": 5491,
      "समहो": 5492,
      "समराट": 5493,
      "निरप": 5494,
      "निहित": 5495,
      "सकट": 5496,
      "utes": 5497,
      "territ": 5498,
      "urban": 5499,
      "concentr": 5500,
      "cere": 5501,
      "दरगा": 5502,
      "propos": 5503,
      "हिट": 5504,
      "मिता": 5505,
      "मिनट": 5506,
      "लोकत": 5507,
      "hish": 5508,
      "notice": 5509,
      "extent": 5510,
      "रोकन": 5511,
      "रोजग": 5512,
      "रपय": 5513,
      "जनरल": 5514,
      "docu": 5515,
      "हरि": 5516,
      "hosp": 5517,
      "उपसथित": 5518,
      "मोड": 5519,
      "बदलन": 5520,
      "phones": 5521,
      "जिसटर": 5522,
      "सरकारो": 5523,
      "कारयवाही": 5524,
      "धरमो": 5525,
      "लियन": 5526,
      "टिस": 5527,
      "married": 5528,
      "marathi": 5529,
      "पडगा": 5530,
      "महातमा": 5531,
      "opposition": 5532,
      "डिजा": 5533,
      "buy": 5534,
      "अभियोग": 5535,
      "products": 5536,
      "integr": 5537,
      "supply": 5538,
      "अधिकारो": 5539,
      "compan": 5540,
      "foundation": 5541,
      "views": 5542,
      "अरथवयवसथा": 5543,
      "बललबाजी": 5544,
      "fourth": 5545,
      "आतकवादी": 5546,
      "1977": 5547,
      "सघीय": 5548,
      "bills": 5549,
      "effects": 5550,
      "jawahar": 5551,
      "eleph": 5552,
      "literary": 5553,
      "तिहासिक": 5554,
      "annual": 5555,
      "पजाब": 5556,
      "हराया": 5557,
      "understanding": 5558,
      "decisions": 5559,
      "constructed": 5560,
      "leadership": 5561,
      "eye": 5562,
      "circum": 5563,
      "treatment": 5564,
      "influence": 5565,
      "picture": 5566,
      "intellig": 5567,
      "drop": 5568,
      "लडाई": 5569,
      "challenge": 5570,
      "opportunity": 5571,
      "सपताह": 5572,
      "emperor": 5573,
      "बनियादी": 5574,
      "afghanistan": 5575,
      "परतिनिधितव": 5576,
      "76": 5577,
      "aan": 5578,
      "bac": 5579,
      "dhar": 5580,
      "dance": 5581,
      "eper": 5582,
      "frequ": 5583,
      "gone": 5584,
      "mur": 5585,
      "phase": 5586,
      "rise": 5587,
      "sort": 5588,
      "अली": 5589,
      "अतरा": 5590,
      "आख": 5591,
      "आपराधिक": 5592,
      "ऐतिहासिक": 5593,
      "कद": 5594,
      "कॊ": 5595,
      "गना": 5596,
      "गजर": 5597,
      "गौर": 5598,
      "घि": 5599,
      "चदर": 5600,
      "चरि": 5601,
      "जत": 5602,
      "जडी": 5603,
      "टियो": 5604,
      "णि": 5605,
      "तनो": 5606,
      "नशन": 5607,
      "नकस": 5608,
      "पित": 5609,
      "बत": 5610,
      "मही": 5611,
      "लभ": 5612,
      "षप": 5613,
      "सकी": 5614,
      "ॉट": 5615,
      "१३": 5616,
      "ints": 5617,
      "encies": 5618,
      "arrest": 5619,
      "करगी": 5620,
      "कोष": 5621,
      "stones": 5622,
      "विन": 5623,
      "विस": 5624,
      "वितत": 5625,
      "seems": 5626,
      "साई": 5627,
      "iling": 5628,
      "इसलिय": 5629,
      "whom": 5630,
      "veget": 5631,
      "जाहिर": 5632,
      "determin": 5633,
      "chance": 5634,
      "forts": 5635,
      "ितव": 5636,
      "समम": 5637,
      "कारबन": 5638,
      "verty": 5639,
      "ables": 5640,
      "उनही": 5641,
      "lip": 5642,
      "uries": 5643,
      "सीसी": 5644,
      "modi": 5645,
      "trust": 5646,
      "poverty": 5647,
      "वरप": 5648,
      "वरगी": 5649,
      "अनतर": 5650,
      "ney": 5651,
      "apt": 5652,
      "mere": 5653,
      "estim": 5654,
      "raise": 5655,
      "sight": 5656,
      "योगयता": 5657,
      "door": 5658,
      "जानता": 5659,
      "मीण": 5660,
      "मीद": 5661,
      "सबक": 5662,
      "maom": 5663,
      "अधिकतम": 5664,
      "सनिक": 5665,
      "portion": 5666,
      "avas": 5667,
      "बनाम": 5668,
      "tware": 5669,
      "राजयपाल": 5670,
      "launch": 5671,
      "brain": 5672,
      "सटि": 5673,
      "correct": 5674,
      "2004": 5675,
      "कहन": 5676,
      "कहता": 5677,
      "mainly": 5678,
      "whereas": 5679,
      "fixed": 5680,
      "muse": 5681,
      "limit": 5682,
      "डियन": 5683,
      "talking": 5684,
      "writer": 5685,
      "बतात": 5686,
      "मसजि": 5687,
      "फरवरी": 5688,
      "गणित": 5689,
      "मौसम": 5690,
      "sitting": 5691,
      "looks": 5692,
      "completed": 5693,
      "शकतिया": 5694,
      "believed": 5695,
      "परषो": 5696,
      "गरहण": 5697,
      "biggest": 5698,
      "appeal": 5699,
      "interesting": 5700,
      "1928": 5701,
      "gandhiji": 5702,
      "punish": 5703,
      "principles": 5704,
      "telephone": 5705,
      "इलाहाबाद": 5706,
      "गरामीण": 5707,
      "construction": 5708,
      "dynast": 5709,
      "spiritual": 5710,
      "association": 5711,
      "democratic": 5712,
      "उपाय": 5713,
      "पयार": 5714,
      "lakh": 5715,
      "software": 5716,
      "status": 5717,
      "shrine": 5718,
      "violence": 5719,
      "मशीन": 5720,
      "दोषी": 5721,
      "radio": 5722,
      "अपरल": 5723,
      "citizens": 5724,
      "doub": 5725,
      "doctor": 5726,
      "conduct": 5727,
      "आलोचना": 5728,
      "गलोबल": 5729,
      "maharashtra": 5730,
      "shaped": 5731,
      "मकदमा": 5732,
      "offered": 5733,
      "अभियान": 5734,
      "scale": 5735,
      "अफगानिसतान": 5736,
      "शारीरिक": 5737,
      "79": 5738,
      "ae": 5739,
      "cru": 5740,
      "cold": 5741,
      "eth": 5742,
      "egg": 5743,
      "fresh": 5744,
      "gain": 5745,
      "gust": 5746,
      "iary": 5747,
      "kol": 5748,
      "late": 5749,
      "lap": 5750,
      "nad": 5751,
      "pred": 5752,
      "push": 5753,
      "ron": 5754,
      "sid": 5755,
      "vag": 5756,
      "yel": 5757,
      "आकाश": 5758,
      "कली": 5759,
      "कबीर": 5760,
      "गौ": 5761,
      "चढ": 5762,
      "चतर": 5763,
      "चहर": 5764,
      "जडा": 5765,
      "दढ": 5766,
      "दगा": 5767,
      "पच": 5768,
      "पाना": 5769,
      "भयता": 5770,
      "वदो": 5771,
      "शदध": 5772,
      "सहमत": 5773,
      "सपतति": 5774,
      "हानि": 5775,
      "।”": 5776,
      "inated": 5777,
      "ington": 5778,
      "परबध": 5779,
      "ensure": 5780,
      "altern": 5781,
      "itude": 5782,
      "कीटो": 5783,
      "किग": 5784,
      "विकि": 5785,
      "विजय": 5786,
      "whate": 5787,
      "जाम": 5788,
      "तीवर": 5789,
      "लाय": 5790,
      "एकदम": 5791,
      "wealth": 5792,
      "agon": 5793,
      "moon": 5794,
      "moving": 5795,
      "mosqu": 5796,
      "ultim": 5797,
      "tees": 5798,
      "iding": 5799,
      "जिदगी": 5800,
      "दरज": 5801,
      "हमति": 5802,
      "febru": 5803,
      "लोड": 5804,
      "shop": 5805,
      "app": 5806,
      "apur": 5807,
      "exact": 5808,
      "सतभ": 5809,
      "यकति": 5810,
      "रपो": 5811,
      "जनन": 5812,
      "सिसट": 5813,
      "quant": 5814,
      "prices": 5815,
      "खात": 5816,
      "core": 5817,
      "परतियोग": 5818,
      "boy": 5819,
      "टीवी": 5820,
      "hib": 5821,
      "press": 5822,
      "टरि": 5823,
      "मलया": 5824,
      "spect": 5825,
      "crease": 5826,
      "centuries": 5827,
      "कतियो": 5828,
      "करताओ": 5829,
      "रखी": 5830,
      "मदनी": 5831,
      "उददश": 5832,
      "समाधान": 5833,
      "mugh": 5834,
      "desert": 5835,
      "महादवी": 5836,
      "gujar": 5837,
      "regions": 5838,
      "डियॊ": 5839,
      "playing": 5840,
      "वरणित": 5841,
      "गहरी": 5842,
      "अललाह": 5843,
      "charges": 5844,
      "charged": 5845,
      "consult": 5846,
      "गणो": 5847,
      "विततीय": 5848,
      "1942": 5849,
      "कलाकार": 5850,
      "paign": 5851,
      "1939": 5852,
      "अधिकरण": 5853,
      "german": 5854,
      "छातर": 5855,
      "1980": 5856,
      "billion": 5857,
      "techni": 5858,
      "student": 5859,
      "आसानी": 5860,
      "terrorist": 5861,
      "crore": 5862,
      "succeed": 5863,
      "responsibility": 5864,
      "pollut": 5865,
      "subjects": 5866,
      "learning": 5867,
      "poets": 5868,
      "ससथाओ": 5869,
      "animal": 5870,
      "damage": 5871,
      "employment": 5872,
      "reduced": 5873,
      "discussion": 5874,
      "soft": 5875,
      "connection": 5876,
      "training": 5877,
      "separate": 5878,
      "travel": 5879,
      "intellect": 5880,
      "citizen": 5881,
      "relief": 5882,
      "arrived": 5883,
      "manufacture": 5884,
      "girls": 5885,
      "unicode": 5886,
      "परचलित": 5887,
      "essential": 5888,
      "मिटटी": 5889,
      "चिकितसा": 5890,
      "ठोस": 5891,
      "बरहमा": 5892,
      "fortunately": 5893,
      "टलीफोन": 5894,
      "impact": 5895,
      "forced": 5896,
      "kumar": 5897,
      "strength": 5898,
      "expenditure": 5899,
      "जोखिम": 5900,
      "lanka": 5901,
      "नकसान": 5902,
      "museum": 5903,
      "yellow": 5904,
      "whatever": 5905,
      "february": 5906,
      "42": 5907,
      "aj": 5908,
      "aper": 5909,
      "cin": 5910,
      "crow": 5911,
      "dh": 5912,
      "dess": 5913,
      "daughter": 5914,
      "fle": 5915,
      "giver": 5916,
      "ires": 5917,
      "jp": 5918,
      "len": 5919,
      "lor": 5920,
      "mut": 5921,
      "nak": 5922,
      "nia": 5923,
      "rare": 5924,
      "sin": 5925,
      "spr": 5926,
      "task": 5927,
      "ub": 5928,
      "vit": 5929,
      "za": 5930,
      "अना": 5931,
      "आराम": 5932,
      "आधिकार": 5933,
      "आमदनी": 5934,
      "ईमान": 5935,
      "ऊपरी": 5936,
      "ऋए": 5937,
      "ऑफि": 5938,
      "कदरीय": 5939,
      "खबर": 5940,
      "गऋ": 5941,
      "जता": 5942,
      "जरा": 5943,
      "जपा": 5944,
      "जलाई": 5945,
      "तारी": 5946,
      "थना": 5947,
      "दसत": 5948,
      "नकल": 5949,
      "नसल": 5950,
      "पऋ": 5951,
      "बलि": 5952,
      "बजाय": 5953,
      "भख": 5954,
      "मग": 5955,
      "मछ": 5956,
      "मतरा": 5957,
      "मकान": 5958,
      "मथन": 5959,
      "रपा": 5960,
      "रतन": 5961,
      "शतर": 5962,
      "सभयता": 5963,
      "१२": 5964,
      "१००": 5965,
      "ancy": 5966,
      "request": 5967,
      "atory": 5968,
      "परभ": 5969,
      "परजा": 5970,
      "arm": 5971,
      "करआन": 5972,
      "कितन": 5973,
      "beings": 5974,
      "जाया": 5975,
      "तीसर": 5976,
      "roof": 5977,
      "div": 5978,
      "एकमातर": 5979,
      "heat": 5980,
      "hear": 5981,
      "समसत": 5982,
      "समबन": 5983,
      "नियकत": 5984,
      "weap": 5985,
      "weather": 5986,
      "unit": 5987,
      "lived": 5988,
      "भाविक": 5989,
      "भाजपा": 5990,
      "trou": 5991,
      "tex": 5992,
      "resident": 5993,
      "provision": 5994,
      "fear": 5995,
      "shif": 5996,
      "rivers": 5997,
      "दात": 5998,
      "merc": 5999,
      "रोगी": 6000,
      "सिया": 6001,
      "ously": 6002,
      "उतऋ": 6003,
      "उतार": 6004,
      "उतनी": 6005,
      "mahad": 6006,
      "उपचार": 6007,
      "diseas": 6008,
      "पीय": 6009,
      "avo": 6010,
      "adequ": 6011,
      "राजयसभा": 6012,
      "टाई": 6013,
      "टाग": 6014,
      "सवधानिक": 6015,
      "blue": 6016,
      "अरजन": 6017,
      "content": 6018,
      "lax": 6019,
      "वारषिक": 6020,
      "सवागत": 6021,
      "जिनकी": 6022,
      "गरीबी": 6023,
      "differences": 6024,
      "समझन": 6025,
      "kingdom": 6026,
      "standards": 6027,
      "खोल": 6028,
      "फोटो": 6029,
      "लिखन": 6030,
      "transfer": 6031,
      "1998": 6032,
      "compon": 6033,
      "leading": 6034,
      "millions": 6035,
      "privi": 6036,
      "गतिविधियो": 6037,
      "universe": 6038,
      "अधिवशन": 6039,
      "letter": 6040,
      "balance": 6041,
      "added": 6042,
      "परारथना": 6043,
      "officer": 6044,
      "मधयम": 6045,
      "ruling": 6046,
      "examples": 6047,
      "नयायपालिका": 6048,
      "विधायिका": 6049,
      "पिछली": 6050,
      "minds": 6051,
      "particip": 6052,
      "easy": 6053,
      "schools": 6054,
      "equip": 6055,
      "1921": 6056,
      "सीमाओ": 6057,
      "receiver": 6058,
      "promo": 6059,
      "sexual": 6060,
      "वजञानिको": 6061,
      "objective": 6062,
      "पौधो": 6063,
      "greenhouse": 6064,
      "beauty": 6065,
      "activity": 6066,
      "bringing": 6067,
      "परतिनिधि": 6068,
      "परयतन": 6069,
      "associated": 6070,
      "weeks": 6071,
      "जञापन": 6072,
      "environmental": 6073,
      "studies": 6074,
      "gases": 6075,
      "horse": 6076,
      "japanese": 6077,
      "सितबर": 6078,
      "विभाजित": 6079,
      "imagine": 6080,
      "devotion": 6081,
      "victim": 6082,
      "measure": 6083,
      "multi": 6084,
      "diabetes": 6085,
      "सफद": 6086,
      "answer": 6087,
      "referred": 6088,
      "fuel": 6089,
      "शहरो": 6090,
      "occasion": 6091,
      "imperialism": 6092,
      "suddenly": 6093,
      "धवनि": 6094,
      "हिमालय": 6095,
      "उपनयास": 6096,
      "exercise": 6097,
      "witness": 6098,
      "deputy": 6099,
      "premchand": 6100,
      "अनिवारय": 6101,
      "लोकततर": 6102,
      "diseases": 6103,
      "bjp": 6104,
      "dan": 6105,
      "jah": 6106,
      "kor": 6107,
      "kur": 6108,
      "kne": 6109,
      "mers": 6110,
      "nine": 6111,
      "sir": 6112,
      "table": 6113,
      "vy": 6114,
      "vas": 6115,
      "vara": 6116,
      "अकल": 6117,
      "अमिता": 6118,
      "इश": 6119,
      "इका": 6120,
      "इजी": 6121,
      "उदध": 6122,
      "ऊचा": 6123,
      "कना": 6124,
      "गठन": 6125,
      "घटन": 6126,
      "चकर": 6127,
      "टिया": 6128,
      "टकरा": 6129,
      "थान": 6130,
      "दसता": 6131,
      "धियो": 6132,
      "पछा": 6133,
      "मताब": 6134,
      "रम": 6135,
      "लबा": 6136,
      "शख": 6137,
      "शान": 6138,
      "सझा": 6139,
      "हौ": 6140,
      "theory": 6141,
      "anc": 6142,
      "ison": 6143,
      "परजाति": 6144,
      "alleg": 6145,
      "यातरी": 6146,
      "कील": 6147,
      "करमो": 6148,
      "तात": 6149,
      "किलो": 6150,
      "leaf": 6151,
      "वादियो": 6152,
      "acid": 6153,
      "इसन": 6154,
      "vere": 6155,
      "िकल": 6156,
      "amb": 6157,
      "amed": 6158,
      "dep": 6159,
      "devi": 6160,
      "deliber": 6161,
      "implement": 6162,
      "हालत": 6163,
      "fornia": 6164,
      "समति": 6165,
      "noise": 6166,
      "सकन": 6167,
      "unless": 6168,
      "वरड": 6169,
      "लीग": 6170,
      "france": 6171,
      "gov": 6172,
      "अनदर": 6173,
      "अनयाय": 6174,
      "मियो": 6175,
      "shri": 6176,
      "rig": 6177,
      "दायी": 6178,
      "सतभो": 6179,
      "please": 6180,
      "sian": 6181,
      "ange": 6182,
      "audi": 6183,
      "prim": 6184,
      "वीडियॊ": 6185,
      "डाकटर": 6186,
      "शरित": 6187,
      "copy": 6188,
      "परतिदिन": 6189,
      "clud": 6190,
      "बीत": 6191,
      "बनता": 6192,
      "igned": 6193,
      "preci": 6194,
      "aving": 6195,
      "चिता": 6196,
      "दखी": 6197,
      "पिच": 6198,
      "herit": 6199,
      "genes": 6200,
      "maybe": 6201,
      "grew": 6202,
      "सवाभाविक": 6203,
      "कहती": 6204,
      "पडती": 6205,
      "internal": 6206,
      "विशषकर": 6207,
      "huge": 6208,
      "फाई": 6209,
      "खयाल": 6210,
      "gue": 6211,
      "डिट": 6212,
      "सहारा": 6213,
      "बहद": 6214,
      "childhood": 6215,
      "norm": 6216,
      "product": 6217,
      "अधिकारिता": 6218,
      "funds": 6219,
      "गणना": 6220,
      "mills": 6221,
      "orders": 6222,
      "कवियो": 6223,
      "believ": 6224,
      "belief": 6225,
      "systems": 6226,
      "network": 6227,
      "1973": 6228,
      "छाया": 6229,
      "emphas": 6230,
      "कपया": 6231,
      "rulers": 6232,
      "educated": 6233,
      "target": 6234,
      "easily": 6235,
      "परशनो": 6236,
      "1929": 6237,
      "opening": 6238,
      "सरवशरषठ": 6239,
      "legislature": 6240,
      "विदया": 6241,
      "fields": 6242,
      "declare": 6243,
      "campaign": 6244,
      "models": 6245,
      "पौध": 6246,
      "accused": 6247,
      "officials": 6248,
      "इलाज": 6249,
      "दरोह": 6250,
      "revolutionary": 6251,
      "परशासनिक": 6252,
      "luck": 6253,
      "duty": 6254,
      "initial": 6255,
      "released": 6256,
      "express": 6257,
      "judiciary": 6258,
      "पदारथो": 6259,
      "secretary": 6260,
      "railways": 6261,
      "occurs": 6262,
      "गहराई": 6263,
      "direction": 6264,
      "kabir": 6265,
      "करमचारी": 6266,
      "relationship": 6267,
      "physical": 6268,
      "destroy": 6269,
      "celebrated": 6270,
      "selected": 6271,
      "पदधति": 6272,
      "मतरिपरिषद": 6273,
      "felt": 6274,
      "agriculture": 6275,
      "adopted": 6276,
      "california": 6277,
      "prasad": 6278,
      "specim": 6279,
      "ceremon": 6280,
      "डिजाइन": 6281,
      "circumst": 6282,
      "आधिकारिक": 6283,
      "अमिताभ": 6284,
      "मताबिक": 6285,
      ")।": 6286,
      "46": 6287,
      "48": 6288,
      "56": 6289,
      "ao": 6290,
      "bor": 6291,
      "cab": 6292,
      "gal": 6293,
      "gres": 6294,
      "leng": 6295,
      "mam": 6296,
      "naren": 6297,
      "nagar": 6298,
      "ography": 6299,
      "ration": 6300,
      "rus": 6301,
      "rss": 6302,
      "sant": 6303,
      "send": 6304,
      "ties": 6305,
      "tip": 6306,
      "vest": 6307,
      "wat": 6308,
      "yi": 6309,
      "yog": 6310,
      "अभाव": 6311,
      "अवयव": 6312,
      "इडियन": 6313,
      "ऑसटर": 6314,
      "कड": 6315,
      "कसर": 6316,
      "खत": 6317,
      "गवर": 6318,
      "जबर": 6319,
      "थमिक": 6320,
      "नऋ": 6321,
      "पम": 6322,
      "फरा": 6323,
      "बान": 6324,
      "मला": 6325,
      "यनिको": 6326,
      "रति": 6327,
      "सॉ": 6328,
      "सपरी": 6329,
      "हस": 6330,
      "हान": 6331,
      "१४": 6332,
      "२४": 6333,
      "insect": 6334,
      "reve": 6335,
      "reform": 6336,
      "online": 6337,
      "परयकत": 6338,
      "परवाह": 6339,
      "ense": 6340,
      "oration": 6341,
      "assum": 6342,
      "कोऋ": 6343,
      "कोय": 6344,
      "कोर": 6345,
      "कोलका": 6346,
      "lection": 6347,
      "league": 6348,
      "नाइट": 6349,
      "विड": 6350,
      "विजञापन": 6351,
      "वात": 6352,
      "तिका": 6353,
      "लिपि": 6354,
      "advoc": 6355,
      "जागर": 6356,
      "rose": 6357,
      "cha": 6358,
      "भीड": 6359,
      "हालय": 6360,
      "dian": 6361,
      "divers": 6362,
      "het": 6363,
      "ford": 6364,
      "abol": 6365,
      "abdul": 6366,
      "context": 6367,
      "waste": 6368,
      "कषी": 6369,
      "कषतरी": 6370,
      "भागी": 6371,
      "पाय": 6372,
      "ulated": 6373,
      "potent": 6374,
      "tel": 6375,
      "comment": 6376,
      "compl": 6377,
      "compens": 6378,
      "वरमा": 6379,
      "proposed": 6380,
      "sugar": 6381,
      "मिलियन": 6382,
      "perman": 6383,
      "meant": 6384,
      "expect": 6385,
      "पराथमिक": 6386,
      "acted": 6387,
      "सिस": 6388,
      "सिविल": 6389,
      "august": 6390,
      "इनस": 6391,
      "जानन": 6392,
      "उतकषट": 6393,
      "cool": 6394,
      "maha": 6395,
      "परतिबध": 6396,
      "hot": 6397,
      "upta": 6398,
      "grass": 6399,
      "box": 6400,
      "निरतर": 6401,
      "दनिक": 6402,
      "preser": 6403,
      "presence": 6404,
      "event": 6405,
      "कलया": 6406,
      "शिश": 6407,
      "counter": 6408,
      "harm": 6409,
      "सोचन": 6410,
      "save": 6411,
      "bled": 6412,
      "रखता": 6413,
      "gency": 6414,
      "धीन": 6415,
      "served": 6416,
      "वारता": 6417,
      "calls": 6418,
      "चनल": 6419,
      "भरत": 6420,
      "रिग": 6421,
      "epic": 6422,
      "ततवो": 6423,
      "ततकालीन": 6424,
      "constant": 6425,
      "attain": 6426,
      "बोल": 6427,
      "बोस": 6428,
      "seeing": 6429,
      "सपताल": 6430,
      "डिग": 6431,
      "सामय": 6432,
      "सभापति": 6433,
      "basava": 6434,
      "players": 6435,
      "अभिनता": 6436,
      "causes": 6437,
      "150": 6438,
      "ize": 6439,
      "starting": 6440,
      "numbers": 6441,
      "vote": 6442,
      "consist": 6443,
      "घटक": 6444,
      "तमाम": 6445,
      "simply": 6446,
      "सपरधा": 6447,
      "महिलाओ": 6448,
      "हिदओ": 6449,
      "पटल": 6450,
      "doesn": 6451,
      "भावनाओ": 6452,
      "रफतार": 6453,
      "1970": 6454,
      "committed": 6455,
      "घास": 6456,
      "कशल": 6457,
      "drum": 6458,
      "techn": 6459,
      "दायितव": 6460,
      "interested": 6461,
      "...": 6462,
      "facilities": 6463,
      "royal": 6464,
      "sentence": 6465,
      "यरोपीय": 6466,
      "गजरात": 6467,
      "store": 6468,
      "दीवारो": 6469,
      "आकरषित": 6470,
      "magistr": 6471,
      "spot": 6472,
      "objects": 6473,
      "accident": 6474,
      "अतयत": 6475,
      "european": 6476,
      "steps": 6477,
      "street": 6478,
      "विषयो": 6479,
      "administrative": 6480,
      "regarding": 6481,
      "machine": 6482,
      "concern": 6483,
      "sacred": 6484,
      "उडान": 6485,
      "investig": 6486,
      "aware": 6487,
      "विभाजन": 6488,
      "निमनलिखित": 6489,
      "motions": 6490,
      "suffer": 6491,
      "pillars": 6492,
      "मकाबल": 6493,
      "fighting": 6494,
      "mentioned": 6495,
      "जिममदार": 6496,
      "scholars": 6497,
      "significant": 6498,
      "architecture": 6499,
      "positive": 6500,
      "credit": 6501,
      "advantage": 6502,
      "safety": 6503,
      "परदरशित": 6504,
      "couple": 6505,
      "सिफारिश": 6506,
      "सममलन": 6507,
      "dynasty": 6508,
      "alternative": 6509,
      "mughal": 6510,
      "divine": 6511,
      "circumstances": 6512,
      "कोलकाता": 6513,
      "71": 6514,
      "bing": 6515,
      "bare": 6516,
      "bhar": 6517,
      "gent": 6518,
      "grown": 6519,
      "ith": 6520,
      "jay": 6521,
      "km": 6522,
      "map": 6523,
      "mist": 6524,
      "ots": 6525,
      "pure": 6526,
      "rish": 6527,
      "sick": 6528,
      "vary": 6529,
      "vice": 6530,
      "wali": 6531,
      "अख": 6532,
      "अका": 6533,
      "अयो": 6534,
      "अमल": 6535,
      "आवास": 6536,
      "आधया": 6537,
      "आयोजन": 6538,
      "उर": 6539,
      "उतर": 6540,
      "कथ": 6541,
      "कलि": 6542,
      "खश": 6543,
      "खडा": 6544,
      "गान": 6545,
      "गसो": 6546,
      "गदय": 6547,
      "चमत": 6548,
      "जऋ": 6549,
      "दद": 6550,
      "धल": 6551,
      "नतय": 6552,
      "पला": 6553,
      "पचारिक": 6554,
      "फफ": 6555,
      "बझ": 6556,
      "भति": 6557,
      "लह": 6558,
      "वसा": 6559,
      "सवि": 6560,
      "सदा": 6561,
      "सनिशचित": 6562,
      "हः": 6563,
      "हारी": 6564,
      "हसास": 6565,
      "िल": 6566,
      "inno": 6567,
      "reaction": 6568,
      "onom": 6569,
      "परस": 6570,
      "पराना": 6571,
      "enem": 6572,
      "alli": 6573,
      "orial": 6574,
      "ताव": 6575,
      "stra": 6576,
      "stum": 6577,
      "stated": 6578,
      "staff": 6579,
      "leaves": 6580,
      "विव": 6581,
      "entr": 6582,
      "वादन": 6583,
      "तितव": 6584,
      "तिथि": 6585,
      "सायन": 6586,
      "राह": 6587,
      "तीस": 6588,
      "degree": 6589,
      "cham": 6590,
      "लागत": 6591,
      "निगर": 6592,
      "निवास": 6593,
      "util": 6594,
      "contr": 6595,
      "agreed": 6596,
      "movie": 6597,
      "पादन": 6598,
      "ulate": 6599,
      "points": 6600,
      "user": 6601,
      "दरबार": 6602,
      "prove": 6603,
      "proved": 6604,
      "मानक": 6605,
      "अनत": 6606,
      "perfe": 6607,
      "neigh": 6608,
      "दाव": 6609,
      "जीवा": 6610,
      "1919": 6611,
      "रीकषण": 6612,
      "apply": 6613,
      "परामरश": 6614,
      "सिए": 6615,
      "sia": 6616,
      "print": 6617,
      "prince": 6618,
      "खादय": 6619,
      "emission": 6620,
      "डाला": 6621,
      "otherwise": 6622,
      "शरखला": 6623,
      "परतिभा": 6624,
      "सनवाई": 6625,
      "bose": 6626,
      "uda": 6627,
      "ivity": 6628,
      "पीडित": 6629,
      "acharya": 6630,
      "igno": 6631,
      "कतयो": 6632,
      "phen": 6633,
      "pheric": 6634,
      "रखकर": 6635,
      "laid": 6636,
      "सटार": 6637,
      "knowing": 6638,
      "जिनस": 6639,
      "रिहा": 6640,
      "arian": 6641,
      "लगाए": 6642,
      "muham": 6643,
      "evening": 6644,
      "changing": 6645,
      "efforts": 6646,
      "survey": 6647,
      "डोन": 6648,
      "factory": 6649,
      "soldi": 6650,
      "अभिलख": 6651,
      "capt": 6652,
      "captain": 6653,
      "constituted": 6654,
      "मसवरप": 6655,
      "महिल": 6656,
      "मौत": 6657,
      "1995": 6658,
      "values": 6659,
      "घटनो": 6660,
      "लखन": 6661,
      "organis": 6662,
      "organised": 6663,
      "britain": 6664,
      "males": 6665,
      "goddess": 6666,
      "followers": 6667,
      "अतः": 6668,
      "सगठित": 6669,
      "letters": 6670,
      "160": 6671,
      "1969": 6672,
      "जितनी": 6673,
      "घात": 6674,
      "classes": 6675,
      "चौथा": 6676,
      "अगली": 6677,
      "अगसत": 6678,
      "सवरग": 6679,
      "विधायी": 6680,
      "baby": 6681,
      "tons": 6682,
      "happens": 6683,
      "happening": 6684,
      "परशसा": 6685,
      "परशानी": 6686,
      "चलाया": 6687,
      "application": 6688,
      "military": 6689,
      "protect": 6690,
      "clearly": 6691,
      "levels": 6692,
      "सदनो": 6693,
      "promin": 6694,
      "रियासतो": 6695,
      "परिणामसवरप": 6696,
      "camp": 6697,
      "reflect": 6698,
      "सामराजयवाद": 6699,
      "नागरिको": 6700,
      "पाठक": 6701,
      "besides": 6702,
      "उठान": 6703,
      "affected": 6704,
      "duties": 6705,
      "dark": 6706,
      "layer": 6707,
      "initi": 6708,
      "collection": 6709,
      "contains": 6710,
      "कयकि": 6711,
      "निकालन": 6712,
      "वबसाइट": 6713,
      "instrument": 6714,
      "saint": 6715,
      "allahabad": 6716,
      "secular": 6717,
      "कहलाता": 6718,
      "अमरीका": 6719,
      "सगरहालय": 6720,
      "threat": 6721,
      "absence": 6722,
      "families": 6723,
      "फौज": 6724,
      "alinga": 6725,
      "london": 6726,
      "provinces": 6727,
      "prepared": 6728,
      "genetic": 6729,
      "mouth": 6730,
      "appropriate": 6731,
      "जवाहरलाल": 6732,
      "मसजिद": 6733,
      "परतियोगिता": 6734,
      "ऑफिस": 6735,
      "normally": 6736,
      "believes": 6737,
      "cabin": 6738,
      "length": 6739,
      "yield": 6740,
      "कषतरीय": 6741,
      "compensation": 6742,
      "निगरानी": 6743,
      "'.": 6744,
      "52": 6745,
      "81": 6746,
      "bid": 6747,
      "card": 6748,
      "evi": 6749,
      "gra": 6750,
      "hn": 6751,
      "ie": 6752,
      "kil": 6753,
      "kath": 6754,
      "mun": 6755,
      "nit": 6756,
      "ograph": 6757,
      "sor": 6758,
      "sms": 6759,
      "slight": 6760,
      "sky": 6761,
      "vul": 6762,
      "yes": 6763,
      "अकष": 6764,
      "अकत": 6765,
      "आखो": 6766,
      "खब": 6767,
      "खय": 6768,
      "घन": 6769,
      "छद": 6770,
      "जमान": 6771,
      "ढढ": 6772,
      "दकर": 6773,
      "नम": 6774,
      "फॉ": 6775,
      "बदी": 6776,
      "बॉल": 6777,
      "मथ": 6778,
      "मजा": 6779,
      "मणड": 6780,
      "मजिसटर": 6781,
      "यथ": 6782,
      "यटयब": 6783,
      "रश": 6784,
      "रगि": 6785,
      "लाना": 6786,
      "वऋ": 6787,
      "वसी": 6788,
      "शय": 6789,
      "शौ": 6790,
      "शवत": 6791,
      "सज": 6792,
      "सधि": 6793,
      "सफाई": 6794,
      "६००": 6795,
      "inery": 6796,
      "anced": 6797,
      "reforms": 6798,
      "ont": 6799,
      "ato": 6800,
      "परवा": 6801,
      "यानि": 6802,
      "orm": 6803,
      "arrange": 6804,
      "assu": 6805,
      "asian": 6806,
      "कायम": 6807,
      "कीरण": 6808,
      "करमा": 6809,
      "कोयल": 6810,
      "icts": 6811,
      "station": 6812,
      "stup": 6813,
      "नाय": 6814,
      "वितरण": 6815,
      "होम": 6816,
      "entered": 6817,
      "beha": 6818,
      "bell": 6819,
      "becoming": 6820,
      "ades": 6821,
      "राशि": 6822,
      "amit": 6823,
      "तीरथ": 6824,
      "impris": 6825,
      "chalu": 6826,
      "hearing": 6827,
      "समत": 6828,
      "निवासी": 6829,
      "novel": 6830,
      "ayodh": 6831,
      "बाट": 6832,
      "पाषा": 6833,
      "peak": 6834,
      "pot": 6835,
      "composed": 6836,
      "soil": 6837,
      "eties": 6838,
      "जिया": 6839,
      "अनरप": 6840,
      "अनचित": 6841,
      "अनपात": 6842,
      "दातो": 6843,
      "जीवो": 6844,
      "plans": 6845,
      "cide": 6846,
      "pron": 6847,
      "परिभाषा": 6848,
      "सबो": 6849,
      "उतसाह": 6850,
      "सनान": 6851,
      "सनदर": 6852,
      "मरमर": 6853,
      "बनवा": 6854,
      "ससऋ": 6855,
      "events": 6856,
      "preach": 6857,
      "prefer": 6858,
      "तरीन": 6859,
      "जरमन": 6860,
      "दखना": 6861,
      "minim": 6862,
      "minutes": 6863,
      "spin": 6864,
      "सोन": 6865,
      "सोवि": 6866,
      "सवन": 6867,
      "सवार": 6868,
      "सवसथ": 6869,
      "मखयालय": 6870,
      "मदरास": 6871,
      "brid": 6872,
      "वनसप": 6873,
      "offence": 6874,
      "बढत": 6875,
      "बढकर": 6876,
      "बढान": 6877,
      "कषतरर": 6878,
      "आरय": 6879,
      "रिशत": 6880,
      "भगतान": 6881,
      "जलदी": 6882,
      "memory": 6883,
      "effort": 6884,
      "खयात": 6885,
      "finance": 6886,
      "guar": 6887,
      "seek": 6888,
      "medical": 6889,
      "वयापारी": 6890,
      "ramalinga": 6891,
      "cars": 6892,
      "oppos": 6893,
      "restr": 6894,
      "सहज": 6895,
      "imports": 6896,
      "सभावित": 6897,
      "दारो": 6898,
      "capable": 6899,
      "install": 6900,
      "instance": 6901,
      "smen": 6902,
      "strateg": 6903,
      "constitu": 6904,
      "वयवसाय": 6905,
      "turning": 6906,
      "fici": 6907,
      "join": 6908,
      "joined": 6909,
      "मौक": 6910,
      "मौका": 6911,
      "ankar": 6912,
      "सबधो": 6913,
      "decade": 6914,
      "variety": 6915,
      "1949": 6916,
      "परिवरतनो": 6917,
      "brown": 6918,
      "sett": 6919,
      "असतितव": 6920,
      "सगमरमर": 6921,
      "communication": 6922,
      "occup": 6923,
      "1935": 6924,
      "1966": 6925,
      "committees": 6926,
      "बचत": 6927,
      "controlled": 6928,
      "पथक": 6929,
      "reasonable": 6930,
      "appeared": 6931,
      "appears": 6932,
      "showed": 6933,
      "faces": 6934,
      "legislation": 6935,
      "effective": 6936,
      "listening": 6937,
      "गाधीजी": 6938,
      "बढावा": 6939,
      "description": 6940,
      "distin": 6941,
      "provides": 6942,
      "brahmin": 6943,
      "नौकरी": 6944,
      "sister": 6945,
      "linked": 6946,
      "विदयत": 6947,
      "फटवयर": 6948,
      "institution": 6949,
      "existence": 6950,
      "moral": 6951,
      "morning": 6952,
      "परयटन": 6953,
      "stream": 6954,
      "failed": 6955,
      "affection": 6956,
      "machinery": 6957,
      "record": 6958,
      "पररणा": 6959,
      "खरीद": 6960,
      "quarter": 6961,
      "recently": 6962,
      "हिसाब": 6963,
      "dedicated": 6964,
      "contribution": 6965,
      "खतरनाक": 6966,
      "सचिव": 6967,
      "challeng": 6968,
      "भौतिक": 6969,
      "dangerous": 6970,
      "introduced": 6971,
      "methods": 6972,
      "अमरीकी": 6973,
      "नतीजा": 6974,
      "consumer": 6975,
      "सपीकर": 6976,
      "micro": 6977,
      "details": 6978,
      "competition": 6979,
      "recommend": 6980,
      "piece": 6981,
      "organization": 6982,
      "proceedings": 6983,
      "ozone": 6984,
      "granted": 6985,
      "दबाव": 6986,
      "discipl": 6987,
      "अततः": 6988,
      "management": 6989,
      "कहानिया": 6990,
      "tribunal": 6991,
      "politicians": 6992,
      "australia": 6993,
      "december": 6994,
      "रोजगार": 6995,
      "नशनल": 6996,
      "vagina": 6997,
      "gressive": 6998,
      "सपरीम": 6999,
      "अयोधया": 7000,
      "आधयातम": 7001,
      "अकतबर": 7002,
      "behavi": 7003,
      "imprisonment": 7004,
      "chaluky": 7005,
      "ayodhya": 7006,
      "पाषाण": 7007,
      ")(": 7008,
      "73": 7009,
      "85": 7010,
      "99": 7011,
      "bn": 7012,
      "bol": 7013,
      "bour": 7014,
      "catch": 7015,
      "dim": 7016,
      "dry": 7017,
      "emotion": 7018,
      "fice": 7019,
      "gi": 7020,
      "io": 7021,
      "jute": 7022,
      "kam": 7023,
      "kha": 7024,
      "mart": 7025,
      "nai": 7026,
      "pig": 7027,
      "spl": 7028,
      "scre": 7029,
      "vince": 7030,
      "wy": 7031,
      "wis": 7032,
      "yor": 7033,
      "अज": 7034,
      "आदर": 7035,
      "आहार": 7036,
      "इग": 7037,
      "ईधन": 7038,
      "ऋग": 7039,
      "कडी": 7040,
      "कशन": 7041,
      "गहर": 7042,
      "घड": 7043,
      "धध": 7044,
      "नपा": 7045,
      "पख": 7046,
      "पॉ": 7047,
      "पथी": 7048,
      "पणी": 7049,
      "फच": 7050,
      "फरास": 7051,
      "बारा": 7052,
      "बधन": 7053,
      "बलाया": 7054,
      "महर": 7055,
      "यार": 7056,
      "यथा": 7057,
      "रवि": 7058,
      "लकष": 7059,
      "लकषम": 7060,
      "वड": 7061,
      "वदन": 7062,
      "वसल": 7063,
      "वसथा": 7064,
      "वधान": 7065,
      "ससथान": 7066,
      "सवरण": 7067,
      "सहमति": 7068,
      "हॉ": 7069,
      "हसता": 7070,
      "१७": 7071,
      "३०": 7072,
      "ino": 7073,
      "insp": 7074,
      "repe": 7075,
      "reali": 7076,
      "eration": 7077,
      "परवर": 7078,
      "परसपर": 7079,
      "ारथी": 7080,
      "ensive": 7081,
      "ale": 7082,
      "कात": 7083,
      "कालिक": 7084,
      "कीकत": 7085,
      "stro": 7086,
      "omo": 7087,
      "नाई": 7088,
      "नाड": 7089,
      "नाश": 7090,
      "विकलप": 7091,
      "sets": 7092,
      "entry": 7093,
      "वाट": 7094,
      "साकषय": 7095,
      "सापरदाय": 7096,
      "adapt": 7097,
      "राण": 7098,
      "भीतरी": 7099,
      "diag": 7100,
      "समपरण": 7101,
      "निग": 7102,
      "कारयालय": 7103,
      "बालक": 7104,
      "बाधा": 7105,
      "libr": 7106,
      "uring": 7107,
      "urally": 7108,
      "iron": 7109,
      "conven": 7110,
      "सीता": 7111,
      "सीधा": 7112,
      "सरदास": 7113,
      "पाता": 7114,
      "जोन": 7115,
      "जोडी": 7116,
      "गरप": 7117,
      "commerc": 7118,
      "eta": 7119,
      "resist": 7120,
      "दरघटना": 7121,
      "हमला": 7122,
      "fell": 7123,
      "fru": 7124,
      "मानस": 7125,
      "मिलो": 7126,
      "गाय": 7127,
      "नील": 7128,
      "दाता": 7129,
      "plat": 7130,
      "mel": 7131,
      "शादी": 7132,
      "शासतरीय": 7133,
      "सतति": 7134,
      "सतषट": 7135,
      "रोध": 7136,
      "रोबो": 7137,
      "रपान": 7138,
      "रहगी": 7139,
      "actions": 7140,
      "सिड": 7141,
      "prise": 7142,
      "खाली": 7143,
      "जानी": 7144,
      "जानना": 7145,
      "परिसर": 7146,
      "परिवश": 7147,
      "डाक": 7148,
      "शरमि": 7149,
      "उतना": 7150,
      "co2": 7151,
      "मनषयो": 7152,
      "परतिषठ": 7153,
      "hadur": 7154,
      "वयि": 7155,
      "वयसत": 7156,
      "उपयॊ": 7157,
      "पतय": 7158,
      "गीतो": 7159,
      "willing": 7160,
      "previous": 7161,
      "बनायी": 7162,
      "counts": 7163,
      "दखिए": 7164,
      "minute": 7165,
      "spend": 7166,
      "sao": 7167,
      "अरबी": 7168,
      "मददो": 7169,
      "सटो": 7170,
      "कारणो": 7171,
      "वरषीय": 7172,
      "correspon": 7173,
      "उदार": 7174,
      "मारन": 7175,
      "लगाय": 7176,
      "observ": 7177,
      "तयकष": 7178,
      "णीय": 7179,
      "बोध": 7180,
      "अवतार": 7181,
      "फायदा": 7182,
      "महादवीप": 7183,
      "surdas": 7184,
      "uals": 7185,
      "guard": 7186,
      "जाएग": 7187,
      "medic": 7188,
      "island": 7189,
      "opposed": 7190,
      "calc": 7191,
      "समझत": 7192,
      "बहन": 7193,
      "अभिवयकति": 7194,
      "अभिवादन": 7195,
      "larger": 7196,
      "पतरो": 7197,
      "15th": 7198,
      "जायगी": 7199,
      "बताए": 7200,
      "starts": 7201,
      "लमबी": 7202,
      "१९४": 7203,
      "functions": 7204,
      "लडन": 7205,
      "sched": 7206,
      "सिदधा": 7207,
      "शकतिशाली": 7208,
      "running": 7209,
      "1946": 7210,
      "घोड": 7211,
      "नीतियो": 7212,
      "settle": 7213,
      "कविताओ": 7214,
      "दिलच": 7215,
      "दिखाया": 7216,
      "तिहाई": 7217,
      "tired": 7218,
      "virt": 7219,
      "समानता": 7220,
      "सचमच": 7221,
      "specially": 7222,
      "परदषक": 7223,
      "includes": 7224,
      "begins": 7225,
      "अधयकषता": 7226,
      "mix": 7227,
      "madras": 7228,
      "faced": 7229,
      "results": 7230,
      "सदनॉ": 7231,
      "मिलाकर": 7232,
      "पाकिसतानी": 7233,
      "representatives": 7234,
      "listen": 7235,
      "bowl": 7236,
      "फारसी": 7237,
      "brahman": 7238,
      "निषकर": 7239,
      "सयतर": 7240,
      "principal": 7241,
      "refused": 7242,
      "☻☻☻☻": 7243,
      "consideration": 7244,
      "हजारो": 7245,
      "television": 7246,
      "ढाई": 7247,
      "entirely": 7248,
      "आकड": 7249,
      "विदयमान": 7250,
      "institute": 7251,
      "मौजदा": 7252,
      "masses": 7253,
      "claims": 7254,
      "azad": 7255,
      "confidence": 7256,
      "quarters": 7257,
      "pandavas": 7258,
      "सिनध": 7259,
      "journey": 7260,
      "smoke": 7261,
      "thousands": 7262,
      "combined": 7263,
      "favor": 7264,
      "sufficient": 7265,
      "anthro": 7266,
      "directed": 7267,
      "essentially": 7268,
      "करमचारियो": 7269,
      "mountains": 7270,
      "resolution": 7271,
      "obviously": 7272,
      "):):": 7273,
      "bachchan": 7274,
      "कॉलज": 7275,
      "lady": 7276,
      "immediately": 7277,
      "बहादर": 7278,
      "समरपित": 7279,
      "encourage": 7280,
      "debate": 7281,
      "channel": 7282,
      "विविधता": 7283,
      "propaganda": 7284,
      "टिपपणी": 7285,
      "sleep": 7286,
      "sacrifice": 7287,
      "chapter": 7288,
      "proposal": 7289,
      "महीनो": 7290,
      "kolk": 7291,
      "mahadevi": 7292,
      "koran": 7293,
      "ऑसटरलिया": 7294,
      "permanent": 7295,
      "muhammad": 7296,
      "cabinet": 7297,
      "आधयातमिक": 7298,
      "लकषमण": 7299,
      "सापरदायिक": 7300,
      "!”": 7301,
      "67": 7302,
      "600": 7303,
      "72": 7304,
      "bure": 7305,
      "border": 7306,
      "cand": 7307,
      "dent": 7308,
      "dna": 7309,
      "ec": 7310,
      "etr": 7311,
      "fat": 7312,
      "gif": 7313,
      "hat": 7314,
      "hall": 7315,
      "ku": 7316,
      "ked": 7317,
      "mes": 7318,
      "nasa": 7319,
      "psy": 7320,
      "pages": 7321,
      "rom": 7322,
      "rac": 7323,
      "sper": 7324,
      "sate": 7325,
      "tings": 7326,
      "tali": 7327,
      "vant": 7328,
      "zing": 7329,
      "अद": 7330,
      "अकट": 7331,
      "अबदल": 7332,
      "असथायी": 7333,
      "असपताल": 7334,
      "आड": 7335,
      "इरा": 7336,
      "उम": 7337,
      "उगर": 7338,
      "उडन": 7339,
      "ओजोन": 7340,
      "औपचारिक": 7341,
      "खदा": 7342,
      "खडो": 7343,
      "घम": 7344,
      "चारा": 7345,
      "चयन": 7346,
      "तयो": 7347,
      "तला": 7348,
      "दक": 7349,
      "दरा": 7350,
      "पदो": 7351,
      "बम": 7352,
      "भरो": 7353,
      "मदर": 7354,
      "मदी": 7355,
      "यस": 7356,
      "रानी": 7357,
      "शसतर": 7358,
      "सजन": 7359,
      "सफर": 7360,
      "सपनन": 7361,
      "हफत": 7362,
      "thi": 7363,
      "inik": 7364,
      "reven": 7365,
      "remove": 7366,
      "ona": 7367,
      "issions": 7368,
      "isbn": 7369,
      "atom": 7370,
      "परयोजन": 7371,
      "परजनन": 7372,
      "ारह": 7373,
      "arjun": 7374,
      "iter": 7375,
      "itis": 7376,
      "esl": 7377,
      "काब": 7378,
      "काशी": 7379,
      "काणड": 7380,
      "कीजिए": 7381,
      "किमी": 7382,
      "विपकष": 7383,
      "वादो": 7384,
      "वाकई": 7385,
      "तिर": 7386,
      "acad": 7387,
      "साथी": 7388,
      "सामर": 7389,
      "ads": 7390,
      "illi": 7391,
      "राइड": 7392,
      "rock": 7393,
      "degre": 7394,
      "impossible": 7395,
      "हाथी": 7396,
      "diet": 7397,
      "dioxide": 7398,
      "समारो": 7399,
      "समपरक": 7400,
      "निपट": 7401,
      "note": 7402,
      "सकग": 7403,
      "सकडो": 7404,
      "उनऋ": 7405,
      "convin": 7406,
      "माइ": 7407,
      "माड": 7408,
      "कषप": 7409,
      "भाति": 7410,
      "सरत": 7411,
      "tric": 7412,
      "traf": 7413,
      "पाड": 7414,
      "ulous": 7415,
      "गरसत": 7416,
      "sovi": 7417,
      "etan": 7418,
      "idance": 7419,
      "दरभागय": 7420,
      "prose": 7421,
      "provisions": 7422,
      "features": 7423,
      "मानता": 7424,
      "goal": 7425,
      "gopur": 7426,
      "pers": 7427,
      "permission": 7428,
      "नीव": 7429,
      "चाव": 7430,
      "चालक": 7431,
      "meter": 7432,
      "output": 7433,
      "exchange": 7434,
      "exports": 7435,
      "exclus": 7436,
      "worth": 7437,
      "indra": 7438,
      "anta": 7439,
      "रोड": 7440,
      "raw": 7441,
      "keeper": 7442,
      "जानवर": 7443,
      "सबदध": 7444,
      "mail": 7445,
      "hore": 7446,
      "host": 7447,
      "affair": 7448,
      "geograph": 7449,
      "astic": 7450,
      "टरन": 7451,
      "prehen": 7452,
      "assess": 7453,
      "मोर": 7454,
      "मलक": 7455,
      "मलयो": 7456,
      "rupe": 7457,
      "formation": 7458,
      "बिहार": 7459,
      "जरिए": 7460,
      "दखिय": 7461,
      "thane": 7462,
      "सोसिए": 7463,
      "टागो": 7464,
      "टाटा": 7465,
      "सवत": 7466,
      "bles": 7467,
      "bless": 7468,
      "अरध": 7469,
      "hero": 7470,
      "myst": 7471,
      "कारयकारी": 7472,
      "मतदान": 7473,
      "महनत": 7474,
      "corrup": 7475,
      "penal": 7476,
      "penetr": 7477,
      "2009": 7478,
      "सवाए": 7479,
      "बढता": 7480,
      "टिका": 7481,
      "cry": 7482,
      "crime": 7483,
      "elab": 7484,
      "sym": 7485,
      "symp": 7486,
      "लोगराम": 7487,
      "limits": 7488,
      "फलसवरप": 7489,
      "desire": 7490,
      "कटरी": 7491,
      "monu": 7492,
      "purc": 7493,
      "fined": 7494,
      "guil": 7495,
      "guidance": 7496,
      "highly": 7497,
      "महततव": 7498,
      "बहस": 7499,
      "बहतरीन": 7500,
      "solve": 7501,
      "rows": 7502,
      "निकतन": 7503,
      "थोड": 7504,
      "standard": 7505,
      "verses": 7506,
      "1992": 7507,
      "organism": 7508,
      "मकखी": 7509,
      "compul": 7510,
      "गदबाजी": 7511,
      "prize": 7512,
      "1948": 7513,
      "मचो": 7514,
      "follows": 7515,
      "relations": 7516,
      "broken": 7517,
      "communist": 7518,
      "शिकषक": 7519,
      "1932": 7520,
      "1965": 7521,
      "उललघ": 7522,
      "घाट": 7523,
      "हिनदओ": 7524,
      "1982": 7525,
      "कपडा": 7526,
      "drink": 7527,
      "नटवरक": 7528,
      "zeal": 7529,
      "invited": 7530,
      "२००७": 7531,
      "२००८": 7532,
      "bihar": 7533,
      "tooth": 7534,
      "begun": 7535,
      "cellular": 7536,
      "नरदर": 7537,
      "drawn": 7538,
      "waiting": 7539,
      "मामला": 7540,
      "policies": 7541,
      "receive": 7542,
      "सधारो": 7543,
      "bahadur": 7544,
      "1952": 7545,
      "1956": 7546,
      "sixth": 7547,
      "establishment": 7548,
      "266": 7549,
      "universal": 7550,
      "distance": 7551,
      "अपकषाकत": 7552,
      "villages": 7553,
      "announced": 7554,
      "learned": 7555,
      "liberation": 7556,
      "batsmen": 7557,
      "location": 7558,
      "employed": 7559,
      "flowers": 7560,
      "stopped": 7561,
      "buddhist": 7562,
      "कारोबार": 7563,
      "respectively": 7564,
      "failure": 7565,
      "walking": 7566,
      "ईसाई": 7567,
      "markets": 7568,
      "निकोबार": 7569,
      "records": 7570,
      "expression": 7571,
      "emergency": 7572,
      "उललखनीय": 7573,
      "benefits": 7574,
      "prophet": 7575,
      "bhai": 7576,
      "journal": 7577,
      "figure": 7578,
      "homes": 7579,
      "saints": 7580,
      "कारावास": 7581,
      "improvement": 7582,
      "रावण": 7583,
      "federal": 7584,
      "heavy": 7585,
      "removed": 7586,
      "tools": 7587,
      "जिममदारी": 7588,
      "hundreds": 7589,
      "fifth": 7590,
      "acquired": 7591,
      "adults": 7592,
      "immediate": 7593,
      "distribution": 7594,
      "corporation": 7595,
      "समझौता": 7596,
      "mohammed": 7597,
      "shiva": 7598,
      "ईरान": 7599,
      "लारड": 7600,
      "deliver": 7601,
      "उपभोकता": 7602,
      "criticism": 7603,
      "drugs": 7604,
      "खलीफा": 7605,
      "नवीन": 7606,
      "pleasure": 7607,
      "cotton": 7608,
      "sanctum": 7609,
      "amendment": 7610,
      "दीरघ": 7611,
      "सचालन": 7612,
      "remarkable": 7613,
      "jawaharlal": 7614,
      "intelligence": 7615,
      "गौतम": 7616,
      "exactly": 7617,
      "मलयाकन": 7618,
      "gujarat": 7619,
      "pollutants": 7620,
      "weapons": 7621,
      "adequate": 7622,
      "इजीनिय": 7623,
      "सझाव": 7624,
      "कोयला": 7625,
      "potential": 7626,
      "कलयाण": 7627,
      "अखबार": 7628,
      "soldiers": 7629,
      "organisations": 7630,
      "vulner": 7631,
      "मजिसटरट": 7632,
      "york": 7633,
      "ऋगवद": 7634,
      "उपयॊग": 7635,
      "bureau": 7636,
      "अकटबर": 7637,
      "iniketan": 7638,
      "academ": 7639,
      "degrees": 7640,
      "1000": 7641,
      "250": 7642,
      "36": 7643,
      "53": 7644,
      "95": 7645,
      "ault": 7646,
      "bay": 7647,
      "drama": 7648,
      "eat": 7649,
      "eme": 7650,
      "fought": 7651,
      "gical": 7652,
      "gupta": 7653,
      "hya": 7654,
      "khal": 7655,
      "kti": 7656,
      "lic": 7657,
      "ladesh": 7658,
      "nur": 7659,
      "nings": 7660,
      "oo": 7661,
      "pup": 7662,
      "pace": 7663,
      "pack": 7664,
      "rd": 7665,
      "ray": 7666,
      "rural": 7667,
      "sad": 7668,
      "sang": 7669,
      "snow": 7670,
      "sca": 7671,
      "tree": 7672,
      "wind": 7673,
      "wage": 7674,
      "zy": 7675,
      "अवि": 7676,
      "आपरति": 7677,
      "इजन": 7678,
      "उमीद": 7679,
      "ऋआ": 7680,
      "ऋस": 7681,
      "ऑन": 7682,
      "कसी": 7683,
      "ककषा": 7684,
      "ङि": 7685,
      "छल": 7686,
      "जविक": 7687,
      "झो": 7688,
      "ठहा": 7689,
      "डार": 7690,
      "डरा": 7691,
      "णओ": 7692,
      "तड": 7693,
      "ततम": 7694,
      "दषट": 7695,
      "दकान": 7696,
      "धरो": 7697,
      "नबर": 7698,
      "नदियो": 7699,
      "बग": 7700,
      "बलो": 7701,
      "भजन": 7702,
      "मशर": 7703,
      "यकी": 7704,
      "लवा": 7705,
      "वयो": 7706,
      "वसतर": 7707,
      "शस": 7708,
      "शलो": 7709,
      "सबर": 7710,
      "सनीय": 7711,
      "हता": 7712,
      "isis": 7713,
      "alle": 7714,
      "याम": 7715,
      "काला": 7716,
      "कागज": 7717,
      "कीपर": 7718,
      "tot": 7719,
      "ताप": 7720,
      "तालि": 7721,
      "किलोगराम": 7722,
      "कोश": 7723,
      "stages": 7724,
      "नामा": 7725,
      "नायक": 7726,
      "नागरी": 7727,
      "विनि": 7728,
      "तरल": 7729,
      "sell": 7730,
      "severe": 7731,
      "beat": 7732,
      "bear": 7733,
      "सामह": 7734,
      "इसको": 7735,
      "जापानी": 7736,
      "dete": 7737,
      "demon": 7738,
      "decide": 7739,
      "हात": 7740,
      "एकड": 7741,
      "एकतर": 7742,
      "forth": 7743,
      "समदरी": 7744,
      "निस": 7745,
      "निगम": 7746,
      "निरीकषण": 7747,
      "सकगा": 7748,
      "सकषि": 7749,
      "wered": 7750,
      "utter": 7751,
      "unes": 7752,
      "unfortunately": 7753,
      "abroad": 7754,
      "बाहय": 7755,
      "conce": 7756,
      "convent": 7757,
      "contract": 7758,
      "hair": 7759,
      "wire": 7760,
      "peas": 7761,
      "pects": 7762,
      "गरड": 7763,
      "alla": 7764,
      "तोडन": 7765,
      "proto": 7766,
      "protest": 7767,
      "suitable": 7768,
      "feature": 7769,
      "मानन": 7770,
      "अनरोध": 7771,
      "perform": 7772,
      "उसको": 7773,
      "exceed": 7774,
      "आपसी": 7775,
      "दवनागरी": 7776,
      "लगाना": 7777,
      "रहसय": 7778,
      "istics": 7779,
      "हरम": 7780,
      "angel": 7781,
      "aud": 7782,
      "cancer": 7783,
      "umn": 7784,
      "शरय": 7785,
      "शरमिक": 7786,
      "covery": 7787,
      "cooperation": 7788,
      "परतिदव": 7789,
      "vival": 7790,
      "grace": 7791,
      "clin": 7792,
      "उपसथिति": 7793,
      "बीस": 7794,
      "बीसी": 7795,
      "गीन": 7796,
      "disput": 7797,
      "somebody": 7798,
      "geor": 7799,
      "poses": 7800,
      "possibility": 7801,
      "तमहार": 7802,
      "prev": 7803,
      "चितरण": 7804,
      "assment": 7805,
      "बनाकर": 7806,
      "twice": 7807,
      "पिग": 7808,
      "thana": 7809,
      "अपमान": 7810,
      "रखती": 7811,
      "lah": 7812,
      "brings": 7813,
      "धरय": 7814,
      "मतभद": 7815,
      "सटराइ": 7816,
      "नियन": 7817,
      "लियत": 7818,
      "calling": 7819,
      "sons": 7820,
      "crisis": 7821,
      "आरमभ": 7822,
      "aria": 7823,
      "marble": 7824,
      "obar": 7825,
      "attend": 7826,
      "attitude": 7827,
      "बोली": 7828,
      "जलद": 7829,
      "शरीलका": 7830,
      "ministry": 7831,
      "डिगरी": 7832,
      "flag": 7833,
      "shock": 7834,
      "मझस": 7835,
      "बतान": 7836,
      "लमब": 7837,
      "greatest": 7838,
      "strate": 7839,
      "useful": 7840,
      "volunt": 7841,
      "scheme": 7842,
      "पसतिका": 7843,
      "organized": 7844,
      "मकबर": 7845,
      "मकदम": 7846,
      "परिवरतित": 7847,
      "depends": 7848,
      "depending": 7849,
      "सगराम": 7850,
      "communal": 7851,
      "passing": 7852,
      "1930": 7853,
      "1931": 7854,
      "पकषो": 7855,
      "1968": 7856,
      "1979": 7857,
      "elder": 7858,
      "sensit": 7859,
      "senior": 7860,
      "smaller": 7861,
      "कपनियो": 7862,
      "बचान": 7863,
      "ruled": 7864,
      "चितरो": 7865,
      "bigger": 7866,
      "finding": 7867,
      "गमबद": 7868,
      "नरम": 7869,
      "insist": 7870,
      "ganges": 7871,
      "migr": 7872,
      "opened": 7873,
      "दरशक": 7874,
      "healthy": 7875,
      "मजहो": 7876,
      "milit": 7877,
      "turns": 7878,
      "hardly": 7879,
      "representative": 7880,
      "allows": 7881,
      "promise": 7882,
      "बढाया": 7883,
      "टलर": 7884,
      "stock": 7885,
      "हलका": 7886,
      "reported": 7887,
      "bengali": 7888,
      "panch": 7889,
      "ससथाए": 7890,
      "घटनाओ": 7891,
      "pattern": 7892,
      "विदयारथी": 7893,
      "attacked": 7894,
      "closely": 7895,
      "achieved": 7896,
      "existing": 7897,
      "सहयोगी": 7898,
      "materials": 7899,
      "discussions": 7900,
      "stuff": 7901,
      "batting": 7902,
      "nuclear": 7903,
      "release": 7904,
      "सतरोत": 7905,
      "investment": 7906,
      "functioning": 7907,
      "railway": 7908,
      "शीरषक": 7909,
      "dictionary": 7910,
      "इमारतो": 7911,
      "extremely": 7912,
      "pilgr": 7913,
      "habit": 7914,
      "बदधिमान": 7915,
      "indicate": 7916,
      "engineering": 7917,
      "detailed": 7918,
      "recommended": 7919,
      "historical": 7920,
      "nominated": 7921,
      "attracted": 7922,
      "alogue": 7923,
      "नयनतम": 7924,
      "शिलप": 7925,
      "bangladesh": 7926,
      "अवशय": 7927,
      "मतरियो": 7928,
      "indeed": 7929,
      "neglect": 7930,
      "experiment": 7931,
      "experiments": 7932,
      "title": 7933,
      "victory": 7934,
      "extensive": 7935,
      "pretty": 7936,
      "तमिलनाड": 7937,
      "हथियार": 7938,
      "समनवय": 7939,
      "extended": 7940,
      "निरपकष": 7941,
      "document": 7942,
      "अतराल": 7943,
      "doubt": 7944,
      "nadu": 7945,
      "technique": 7946,
      "मतरालय": 7947,
      "दसतावज": 7948,
      "heritage": 7949,
      "चमतकार": 7950,
      "straight": 7951,
      "perfect": 7952,
      "neighbour": 7953,
      "amitabh": 7954,
      "settled": 7955,
      "inspired": 7956,
      "राणिक": 7957,
      "commercial": 7958,
      "सिदधातो": 7959,
      "psych": 7960,
      "satell": 7961,
      "taliban": 7962,
      "traffic": 7963,
      "affairs": 7964,
      "sympto": 7965,
      "guilty": 7966,
      "सामहिक": 7967,
      "सकषिपत": 7968,
      "voluntary": 7969,
      ",”": 7970,
      "37": 7971,
      "83": 7972,
      "==": 7973,
      "aur": 7974,
      "avi": 7975,
      "bai": 7976,
      "cat": 7977,
      "caught": 7978,
      "fren": 7979,
      "hic": 7980,
      "ias": 7981,
      "ither": 7982,
      "jag": 7983,
      "jury": 7984,
      "khand": 7985,
      "ore": 7986,
      "opt": 7987,
      "pm": 7988,
      "pic": 7989,
      "pate": 7990,
      "ule": 7991,
      "uman": 7992,
      "winter": 7993,
      "wys": 7994,
      "yu": 7995,
      "yar": 7996,
      "अजी": 7997,
      "असाधारण": 7998,
      "अजञात": 7999,
      "आसथा": 8000,
      "आदान": 8001,
      "आचरण": 8002,
      "इया": 8003,
      "इनही": 8004,
      "इडोन": 8005,
      "ऊट": 8006,
      "ऋण": 8007,
      "ओह": 8008,
      "कव": 8009,
      "कमान": 8010,
      "कटि": 8011,
      "कपता": 8012,
      "चतना": 8013,
      "छवि": 8014,
      "झक": 8015,
      "ढक": 8016,
      "दनी": 8017,
      "नल": 8018,
      "बहम": 8019,
      "बटन": 8020,
      "भन": 8021,
      "यव": 8022,
      "यिक": 8023,
      "यगम": 8024,
      "रजि": 8025,
      "वकष": 8026,
      "वषण": 8027,
      "शयर": 8028,
      "षमा": 8029,
      "सला": 8030,
      "सदव": 8031,
      "ीकरण": 8032,
      "ॊड": 8033,
      "७०": 8034,
      "inate": 8035,
      "incar": 8036,
      "thes": 8037,
      "recess": 8038,
      "replace": 8039,
      "republic": 8040,
      "परथा": 8041,
      "alam": 8042,
      "याता": 8043,
      "oral": 8044,
      "orate": 8045,
      "andam": 8046,
      "edge": 8047,
      "arms": 8048,
      "armed": 8049,
      "aster": 8050,
      "items": 8051,
      "tomb": 8052,
      "करवान": 8053,
      "ताक": 8054,
      "icable": 8055,
      "stain": 8056,
      "नात": 8057,
      "नासा": 8058,
      "विदा": 8059,
      "ented": 8060,
      "entit": 8061,
      "वाम": 8062,
      "तिबब": 8063,
      "सावध": 8064,
      "साधनो": 8065,
      "ils": 8066,
      "इसलिन": 8067,
      "vehic": 8068,
      "तीसरी": 8069,
      "roll": 8070,
      "हालकि": 8071,
      "dialogue": 8072,
      "समरण": 8073,
      "निदशक": 8074,
      "नियकति": 8075,
      "सकारा": 8076,
      "units": 8077,
      "दिषट": 8078,
      "बाह": 8079,
      "बाजो": 8080,
      "conclus": 8081,
      "lose": 8082,
      "lots": 8083,
      "माया": 8084,
      "सरच": 8085,
      "पावली": 8086,
      "ulkar": 8087,
      "गरभ": 8088,
      "गरव": 8089,
      "गरो": 8090,
      "poly": 8091,
      "compe": 8092,
      "वरि": 8093,
      "वरगा": 8094,
      "वरगो": 8095,
      "usion": 8096,
      "usual": 8097,
      "sole": 8098,
      "idol": 8099,
      "लीफ": 8100,
      "जिय": 8101,
      "दरता": 8102,
      "दरजा": 8103,
      "हिम": 8104,
      "अनकल": 8105,
      "मिया": 8106,
      "मिशरित": 8107,
      "perfor": 8108,
      "permit": 8109,
      "persian": 8110,
      "ries": 8111,
      "दीपावली": 8112,
      "दाम": 8113,
      "दायो": 8114,
      "जीनो": 8115,
      "appreci": 8116,
      "भारित": 8117,
      "manif": 8118,
      "excess": 8119,
      "ounce": 8120,
      "सतलन": 8121,
      "indones": 8122,
      "रोज": 8123,
      "रोटी": 8124,
      "दोसत": 8125,
      "परापति": 8126,
      "rai": 8127,
      "रहग": 8128,
      "actual": 8129,
      "siva": 8130,
      "quo": 8131,
      "ishing": 8132,
      "खासत": 8133,
      "खाडी": 8134,
      "पहचन": 8135,
      "emissions": 8136,
      "mathem": 8137,
      "परतिमा": 8138,
      "परतिबि": 8139,
      "परतिवरष": 8140,
      "derived": 8141,
      "hoc": 8142,
      "boys": 8143,
      "club": 8144,
      "टीका": 8145,
      "गोपर": 8146,
      "render": 8147,
      "गीर": 8148,
      "मलरिया": 8149,
      "anyone": 8150,
      "rub": 8151,
      "formal": 8152,
      "बिता": 8153,
      "दखो": 8154,
      "पिल": 8155,
      "spaper": 8156,
      "सोचना": 8157,
      "सोनिया": 8158,
      "कतिया": 8159,
      "सवदन": 8160,
      "park": 8161,
      "अपवाद": 8162,
      "lahore": 8163,
      "knows": 8164,
      "firm": 8165,
      "newspaper": 8166,
      "2003": 8167,
      "figh": 8168,
      "sheep": 8169,
      "लगात": 8170,
      "पडो": 8171,
      "hindust": 8172,
      "oblig": 8173,
      "observed": 8174,
      "शीत": 8175,
      "शीघर": 8176,
      "attle": 8177,
      "attach": 8178,
      "desp": 8179,
      "विशषा": 8180,
      "फीड": 8181,
      "mono": 8182,
      "परीकषण": 8183,
      "efficient": 8184,
      "करमश": 8185,
      "sources": 8186,
      "रामलिग": 8187,
      "puran": 8188,
      "putting": 8189,
      "समझना": 8190,
      "facts": 8191,
      "helping": 8192,
      "writings": 8193,
      "पतरिका": 8194,
      "निकलन": 8195,
      "सवीकत": 8196,
      "करीज": 8197,
      "करीडा": 8198,
      "अलप": 8199,
      "अलवा": 8200,
      "developing": 8201,
      "interc": 8202,
      "atively": 8203,
      "परयोगो": 8204,
      "strict": 8205,
      "लकडी": 8206,
      "raja": 8207,
      "rajput": 8208,
      "इसीलिए": 8209,
      "consists": 8210,
      "john": 8211,
      "valley": 8212,
      "sita": 8213,
      "sites": 8214,
      "organic": 8215,
      "उपयोगी": 8216,
      "founded": 8217,
      "रिकॉर": 8218,
      "treated": 8219,
      "कानपर": 8220,
      "setting": 8221,
      "communities": 8222,
      "उतपादो": 8223,
      "1975": 8224,
      "palace": 8225,
      "परारमभ": 8226,
      "छातरो": 8227,
      "tibet": 8228,
      "marked": 8229,
      "secondly": 8230,
      "अगला": 8231,
      "ensus": 8232,
      "supported": 8233,
      "रणनीति": 8234,
      "summer": 8235,
      "insul": 8236,
      "metres": 8237,
      "wait": 8238,
      "approxim": 8239,
      "busy": 8240,
      "mixed": 8241,
      "sale": 8242,
      "grams": 8243,
      "तरिम": 8244,
      "directions": 8245,
      "eigh": 8246,
      "represented": 8247,
      "breast": 8248,
      "teaching": 8249,
      "teachers": 8250,
      "साहन": 8251,
      "साहब": 8252,
      "rising": 8253,
      "bowling": 8254,
      "providing": 8255,
      "aaor": 8256,
      "aaom": 8257,
      "roads": 8258,
      "reaching": 8259,
      "choice": 8260,
      "profit": 8261,
      "spots": 8262,
      "characters": 8263,
      "individuals": 8264,
      "पौराणिक": 8265,
      "सडको": 8266,
      "मयमतरी": 8267,
      "dealing": 8268,
      "brothers": 8269,
      "costs": 8270,
      "buddhis": 8271,
      "ranath": 8272,
      "mandapas": 8273,
      "shrines": 8274,
      "relevant": 8275,
      "influenced": 8276,
      "chromo": 8277,
      "emerged": 8278,
      "jobs": 8279,
      "मशीनो": 8280,
      "सविधाओ": 8281,
      "भडार": 8282,
      "सममानित": 8283,
      "latest": 8284,
      "figures": 8285,
      "कबजा": 8286,
      "मितरता": 8287,
      "nicobar": 8288,
      "करवाया": 8289,
      "pieces": 8290,
      "seemed": 8291,
      "evolution": 8292,
      "पाणडवो": 8293,
      "धमरपान": 8294,
      "मिशनरी": 8295,
      "जयोति": 8296,
      "obtained": 8297,
      "hospital": 8298,
      "companies": 8299,
      "चरितर": 8300,
      "eggs": 8301,
      "सिसटम": 8302,
      "texts": 8303,
      "laxman": 8304,
      "equipment": 8305,
      "knees": 8306,
      "किलोमीटर": 8307,
      "primary": 8308,
      "santiniketan": 8309,
      "जबरदसत": 8310,
      "सामयवादी": 8311,
      "technical": 8312,
      "suffering": 8313,
      "सबोधित": 8314,
      "strategic": 8315,
      "ficiency": 8316,
      "wyg": 8317,
      "repeated": 8318,
      "library": 8319,
      "निषकरष": 8320,
      "समारोह": 8321,
      "धरोहर": 8322,
      "तालिबान": 8323,
      "सटराइकर": 8324,
      "satellite": 8325,
      "wyswyg": 8326,
      "इडोनशिया": 8327,
      "सावधानी": 8328,
      "सकारातमक": 8329,
      "वरगाकार": 8330,
      "61": 8331,
      "bho": 8332,
      "cm": 8333,
      "dust": 8334,
      "dwar": 8335,
      "fab": 8336,
      "fate": 8337,
      "fash": 8338,
      "gul": 8339,
      "gall": 8340,
      "gala": 8341,
      "hir": 8342,
      "hra": 8343,
      "hang": 8344,
      "hpur": 8345,
      "hors": 8346,
      "iar": 8347,
      "ius": 8348,
      "kin": 8349,
      "kun": 8350,
      "kak": 8351,
      "lin": 8352,
      "lam": 8353,
      "mn": 8354,
      "munic": 8355,
      "nut": 8356,
      "nhs": 8357,
      "pical": 8358,
      "praise": 8359,
      "rou": 8360,
      "rum": 8361,
      "sall": 8362,
      "tch": 8363,
      "tab": 8364,
      "vad": 8365,
      "vital": 8366,
      "xic": 8367,
      "yo": 8368,
      "yan": 8369,
      "अट": 8370,
      "अतीत": 8371,
      "आपात": 8372,
      "इजा": 8373,
      "उच": 8374,
      "ऋन": 8375,
      "ऑकसा": 8376,
      "ओवरो": 8377,
      "औजार": 8378,
      "कध": 8379,
      "कपर": 8380,
      "कपा": 8381,
      "कलो": 8382,
      "कडा": 8383,
      "खरा": 8384,
      "खलन": 8385,
      "खनन": 8386,
      "गध": 8387,
      "चटट": 8388,
      "जवान": 8389,
      "जॉर": 8390,
      "टरो": 8391,
      "णट": 8392,
      "दसी": 8393,
      "नस": 8394,
      "पसी": 8395,
      "पदर": 8396,
      "पयोग": 8397,
      "बगल": 8398,
      "भवय": 8399,
      "मबर": 8400,
      "मकति": 8401,
      "यको": 8402,
      "यनो": 8403,
      "रकम": 8404,
      "लॉ": 8405,
      "लदन": 8406,
      "वसतत": 8407,
      "वकील": 8408,
      "शार": 8409,
      "सचच": 8410,
      "सवाद": 8411,
      "हऋ": 8412,
      "हटा": 8413,
      "ौल": 8414,
      "१६": 8415,
      "२५": 8416,
      "४०": 8417,
      "४००": 8418,
      "८०": 8419,
      "inev": 8420,
      "anu": 8421,
      "anish": 8422,
      "rear": 8423,
      "oned": 8424,
      "isance": 8425,
      "परबल": 8426,
      "enorm": 8427,
      "alive": 8428,
      "यादि": 8429,
      "orth": 8430,
      "arily": 8431,
      "arrang": 8432,
      "aspect": 8433,
      "ito": 8434,
      "itals": 8435,
      "काउ": 8436,
      "करार": 8437,
      "ingly": 8438,
      "leaving": 8439,
      "oms": 8440,
      "विज": 8441,
      "विमरश": 8442,
      "seas": 8443,
      "तिलक": 8444,
      "साध": 8445,
      "लिश": 8446,
      "advert": 8447,
      "iled": 8448,
      "iment": 8449,
      "imposed": 8450,
      "chit": 8451,
      "chines": 8452,
      "chaw": 8453,
      "dign": 8454,
      "समारक": 8455,
      "निदा": 8456,
      "utory": 8457,
      "दिसबर": 8458,
      "abilities": 8459,
      "ola": 8460,
      "उनको": 8461,
      "liqu": 8462,
      "consolid": 8463,
      "agency": 8464,
      "agencies": 8465,
      "सीए": 8466,
      "mole": 8467,
      "mood": 8468,
      "track": 8469,
      "पाश": 8470,
      "पाती": 8471,
      "पालक": 8472,
      "पायर": 8473,
      "जोडा": 8474,
      "ulations": 8475,
      "गरथो": 8476,
      "tea": 8477,
      "comprehen": 8478,
      "वरलड": 8479,
      "aks": 8480,
      "akes": 8481,
      "दरअसल": 8482,
      "हिटलर": 8483,
      "मानो": 8484,
      "मिशरण": 8485,
      "गामी": 8486,
      "गावो": 8487,
      "shree": 8488,
      "shared": 8489,
      "neare": 8490,
      "neur": 8491,
      "negot": 8492,
      "neither": 8493,
      "चाय": 8494,
      "दाबाद": 8495,
      "meat": 8496,
      "expen": 8497,
      "butter": 8498,
      "antic": 8499,
      "रपए": 8500,
      "रहित": 8501,
      "सथलो": 8502,
      "सिको": 8503,
      "sig": 8504,
      "qui": 8505,
      "खाद": 8506,
      "जानवरो": 8507,
      "जानबझ": 8508,
      "परिसथितियो": 8509,
      "embr": 8510,
      "embar": 8511,
      "विशवय": 8512,
      "शरतो": 8513,
      "cow": 8514,
      "cook": 8515,
      "मनदि": 8516,
      "परतिकल": 8517,
      "साथियो": 8518,
      "upload": 8519,
      "grain": 8520,
      "grade": 8521,
      "clar": 8522,
      "निरधारण": 8523,
      "निरदिषट": 8524,
      "बीज": 8525,
      "ansion": 8526,
      "dissolution": 8527,
      "बनना": 8528,
      "pressed": 8529,
      "कलहो": 8530,
      "शिषट": 8531,
      "avali": 8532,
      "चिन": 8533,
      "okay": 8534,
      "anywhere": 8535,
      "anybody": 8536,
      "बनात": 8537,
      "वशविक": 8538,
      "likewise": 8539,
      "सलल": 8540,
      "सललल": 8541,
      "harassment": 8542,
      "minor": 8543,
      "पियन": 8544,
      "spite": 8545,
      "सोम": 8546,
      "सथापतय": 8547,
      "मखी": 8548,
      "पोषण": 8549,
      "genous": 8550,
      "धीमी": 8551,
      "सटिक": 8552,
      "वनय": 8553,
      "enger": 8554,
      "intention": 8555,
      "लियम": 8556,
      "कषतरफल": 8557,
      "आरएस": 8558,
      "भरती": 8559,
      "अनयथा": 8560,
      "subsequ": 8561,
      "shel": 8562,
      "भगवद": 8563,
      "पडित": 8564,
      "visited": 8565,
      "interview": 8566,
      "interpret": 8567,
      "duration": 8568,
      "परीकषा": 8569,
      "surprise": 8570,
      "चलती": 8571,
      "finished": 8572,
      "everybody": 8573,
      "चरित": 8574,
      "विशवसनीय": 8575,
      "regis": 8576,
      "yaa": 8577,
      "अपनाया": 8578,
      "जायग": 8579,
      "बताना": 8580,
      "instant": 8581,
      "अलहि": 8582,
      "अलकरण": 8583,
      "delay": 8584,
      "१९३": 8585,
      "लडकियो": 8586,
      "फरश": 8587,
      "anks": 8588,
      "1994": 8589,
      "1996": 8590,
      "1997": 8591,
      "मकका": 8592,
      "compass": 8593,
      "compared": 8594,
      "malaria": 8595,
      "षठान": 8596,
      "शकतियो": 8597,
      "गिरद": 8598,
      "उततरदायितव": 8599,
      "background": 8600,
      "मडलो": 8601,
      "सनापति": 8602,
      "download": 8603,
      "humans": 8604,
      "1941": 8605,
      "गतिविधि": 8606,
      "योजनाओ": 8607,
      "cycle": 8608,
      "असभव": 8609,
      "परोटी": 8610,
      "अतया": 8611,
      "closed": 8612,
      "missed": 8613,
      "1936": 8614,
      "unique": 8615,
      "पढना": 8616,
      "1978": 8617,
      "ponent": 8618,
      "electron": 8619,
      "filed": 8620,
      "डरशन": 8621,
      "periods": 8622,
      "लाहौर": 8623,
      "बचपन": 8624,
      "specialist": 8625,
      "continent": 8626,
      "teeth": 8627,
      "largely": 8628,
      "२०००": 8629,
      "२००६": 8630,
      "speaking": 8631,
      "supporting": 8632,
      "रचनातमक": 8633,
      "interests": 8634,
      "सकलप": 8635,
      "सकलपना": 8636,
      "तवचा": 8637,
      "remaining": 8638,
      "meanwhile": 8639,
      "keeps": 8640,
      "tariff": 8641,
      "crores": 8642,
      "metal": 8643,
      "equality": 8644,
      "सौप": 8645,
      "मानवता": 8646,
      "facing": 8647,
      "मजदरो": 8648,
      "परिवारो": 8649,
      "सरवसाधारण": 8650,
      "protected": 8651,
      "mirac": 8652,
      "issued": 8653,
      "educational": 8654,
      "truly": 8655,
      "कठि": 8656,
      "समितिया": 8657,
      "certainly": 8658,
      "expansion": 8659,
      "operations": 8660,
      "पसतको": 8661,
      "किसान": 8662,
      "cheap": 8663,
      "massive": 8664,
      "burden": 8665,
      "खासकर": 8666,
      "festivals": 8667,
      "spoken": 8668,
      "मनाया": 8669,
      "पछता": 8670,
      "regional": 8671,
      "kyo": 8672,
      "आकडो": 8673,
      "attacks": 8674,
      "commissioner": 8675,
      "सभावनाओ": 8676,
      "involving": 8677,
      "respective": 8678,
      "scored": 8679,
      "mandapam": 8680,
      "statutory": 8681,
      "initially": 8682,
      "करिस": 8683,
      "connected": 8684,
      "transportation": 8685,
      "banks": 8686,
      "castes": 8687,
      "अडड": 8688,
      "अडमान": 8689,
      "कोशिकाए": 8690,
      "पाएग": 8691,
      "pictures": 8692,
      "tourist": 8693,
      "शातिनिकतन": 8694,
      "hitler": 8695,
      "ारथियो": 8696,
      "originally": 8697,
      "definition": 8698,
      "regularly": 8699,
      "double": 8700,
      "watched": 8701,
      "watching": 8702,
      "arabic": 8703,
      "1908": 8704,
      "measures": 8705,
      "विदवानो": 8706,
      "तमहारी": 8707,
      "मकाबला": 8708,
      "gradually": 8709,
      "habits": 8710,
      "skin": 8711,
      "defeated": 8712,
      "heaven": 8713,
      "पादित": 8714,
      "drive": 8715,
      "kanpur": 8716,
      "उपकरणो": 8717,
      "substant": 8718,
      "दौड": 8719,
      "converted": 8720,
      "professional": 8721,
      "tropical": 8722,
      "carrying": 8723,
      "quickly": 8724,
      "familiar": 8725,
      "translation": 8726,
      "हसतकषप": 8727,
      "mohammad": 8728,
      "assistance": 8729,
      "rapid": 8730,
      "consciousness": 8731,
      "hazrat": 8732,
      "sikhara": 8733,
      "sweet": 8734,
      "golden": 8735,
      "surrounded": 8736,
      "absolutely": 8737,
      "vivekan": 8738,
      "elephant": 8739,
      "arrested": 8740,
      "estimated": 8741,
      "punishment": 8742,
      "ultimate": 8743,
      "उददशयो": 8744,
      "intellectual": 8745,
      "components": 8746,
      "leaflet": 8747,
      "depth": 8748,
      "audience": 8749,
      "गवरनर": 8750,
      "सॉफटवयर": 8751,
      "diversity": 8752,
      "harmful": 8753,
      "entrance": 8754,
      "यथारथ": 8755,
      "restrict": 8756,
      "diagno": 8757,
      "रोबोट": 8758,
      "kolkata": 8759,
      "candid": 8760,
      "भरोसा": 8761,
      "convinced": 8762,
      "soviet": 8763,
      "चावला": 8764,
      "सोसिएशन": 8765,
      "शलोको": 8766,
      "totally": 8767,
      "symptoms": 8768,
      "patel": 8769,
      "यातायात": 8770,
      "entitled": 8771,
      "performan": 8772,
      "municip": 8773,
      "route": 8774,
      "ऑकसाइड": 8775,
      "enormous": 8776,
      "chinese": 8777,
      "negoti": 8778,
      "विशवयदध": 8779,
      "सललललाह": 8780,
      "))": 8781,
      "368": 8782,
      "62": 8783,
      "96": 8784,
      "aero": 8785,
      "bak": 8786,
      "blow": 8787,
      "cattle": 8788,
      "dal": 8789,
      "dress": 8790,
      "fro": 8791,
      "flies": 8792,
      "gun": 8793,
      "hes": 8794,
      "jaya": 8795,
      "kir": 8796,
      "ket": 8797,
      "kid": 8798,
      "kings": 8799,
      "kilo": 8800,
      "mum": 8801,
      "mud": 8802,
      "nand": 8803,
      "nir": 8804,
      "nest": 8805,
      "nath": 8806,
      "pas": 8807,
      "pes": 8808,
      "pir": 8809,
      "pall": 8810,
      "pali": 8811,
      "rical": 8812,
      "rash": 8813,
      "sr": 8814,
      "sak": 8815,
      "sory": 8816,
      "swar": 8817,
      "sama": 8818,
      "tun": 8819,
      "tata": 8820,
      "taught": 8821,
      "yer": 8822,
      "zen": 8823,
      "अगो": 8824,
      "अनिशचित": 8825,
      "आयर": 8826,
      "इय": 8827,
      "इरद": 8828,
      "ऊन": 8829,
      "ऋई": 8830,
      "ऋति": 8831,
      "एसा": 8832,
      "एबीसी": 8833,
      "कवर": 8834,
      "गली": 8835,
      "गडा": 8836,
      "गणश": 8837,
      "गठित": 8838,
      "चहरा": 8839,
      "जगा": 8840,
      "टटा": 8841,
      "डड": 8842,
      "डबल": 8843,
      "णो": 8844,
      "तमन": 8845,
      "थियो": 8846,
      "धआ": 8847,
      "धरी": 8848,
      "पतरी": 8849,
      "पकति": 8850,
      "फरी": 8851,
      "फिया": 8852,
      "फकटरी": 8853,
      "भित": 8854,
      "मण": 8855,
      "मकस": 8856,
      "मफत": 8857,
      "यि": 8858,
      "रजी": 8859,
      "वती": 8860,
      "वधि": 8861,
      "शनी": 8862,
      "शनो": 8863,
      "शकल": 8864,
      "सपा": 8865,
      "सशन": 8866,
      "ौहार": 8867,
      "intim": 8868,
      "inath": 8869,
      "reverse": 8870,
      "परका": 8871,
      "परमी": 8872,
      "परसन": 8873,
      "परवो": 8874,
      "परजातियो": 8875,
      "ena": 8876,
      "eness": 8877,
      "alas": 8878,
      "याचि": 8879,
      "org": 8880,
      "oro": 8881,
      "oride": 8882,
      "anders": 8883,
      "करज": 8884,
      "करियो": 8885,
      "कराना": 8886,
      "किता": 8887,
      "iced": 8888,
      "stations": 8889,
      "stress": 8890,
      "lege": 8891,
      "नामो": 8892,
      "विखयात": 8893,
      "होटल": 8894,
      "seat": 8895,
      "तिम": 8896,
      "aded": 8897,
      "रातरि": 8898,
      "amar": 8899,
      "robot": 8900,
      "ches": 8901,
      "lywood": 8902,
      "भीषम": 8903,
      "लास": 8904,
      "एकट": 8905,
      "forum": 8906,
      "समज": 8907,
      "निधन": 8908,
      "निभाई": 8909,
      "ayas": 8910,
      "uta": 8911,
      "कारड": 8912,
      "कारयक": 8913,
      "कारियो": 8914,
      "कारखान": 8915,
      "unknown": 8916,
      "aband": 8917,
      "बामा": 8918,
      "बादी": 8919,
      "बाटा": 8920,
      "tery": 8921,
      "loved": 8922,
      "loose": 8923,
      "cting": 8924,
      "ager": 8925,
      "सीधी": 8926,
      "सीरिया": 8927,
      "hai": 8928,
      "सरदार": 8929,
      "पावर": 8930,
      "जोश": 8931,
      "गरि": 8932,
      "गरभग": 8933,
      "लीला": 8934,
      "जिग": 8935,
      "दरय": 8936,
      "दरवा": 8937,
      "दरलभ": 8938,
      "females": 8939,
      "frame": 8940,
      "गाडी": 8941,
      "indigenous": 8942,
      "performed": 8943,
      "illiter": 8944,
      "दाग": 8945,
      "दायक": 8946,
      "अधयाय": 8947,
      "meal": 8948,
      "ours": 8949,
      "दोबारा": 8950,
      "पराणी": 8951,
      "raf": 8952,
      "rah": 8953,
      "रहगा": 8954,
      "सिवाय": 8955,
      "quir": 8956,
      "राजपत": 8957,
      "thered": 8958,
      "इनको": 8959,
      "पहन": 8960,
      "परिचित": 8961,
      "सबको": 8962,
      "डाइ": 8963,
      "उतसव": 8964,
      "उतकीरण": 8965,
      "math": 8966,
      "परतिसपरधा": 8967,
      "via": 8968,
      "वयसक": 8969,
      "बादशाह": 8970,
      "उपगरह": 8971,
      "गोर": 8972,
      "गोला": 8973,
      "partly": 8974,
      "discovered": 8975,
      "iving": 8976,
      "पीली": 8977,
      "कमटी": 8978,
      "evident": 8979,
      "ignor": 8980,
      "कलब": 8981,
      "कलश": 8982,
      "शियन": 8983,
      "aved": 8984,
      "मोहम": 8985,
      "बनाता": 8986,
      "बिर": 8987,
      "moreover": 8988,
      "creative": 8989,
      "दखग": 8990,
      "php": 8991,
      "phy": 8992,
      "afterwards": 8993,
      "सोश": 8994,
      "सवचछ": 8995,
      "सतानो": 8996,
      "myself": 8997,
      "पोत": 8998,
      "पोर": 8999,
      "पोसट": 9000,
      "gene": 9001,
      "जञो": 9002,
      "मददा": 9003,
      "brilli": 9004,
      "गलती": 9005,
      "सवाय": 9006,
      "sonia": 9007,
      "कहग": 9008,
      "चनन": 9009,
      "पारक": 9010,
      "ततकाल": 9011,
      "तयौहार": 9012,
      "visible": 9013,
      "deser": 9014,
      "विशषता": 9015,
      "यताकार": 9016,
      "musical": 9017,
      "mature": 9018,
      "चलचितर": 9019,
      "guy": 9020,
      "guide": 9021,
      "sought": 9022,
      "pursu": 9023,
      "optim": 9024,
      "lesson": 9025,
      "सहन": 9026,
      "solved": 9027,
      "आधारभत": 9028,
      "अभियकत": 9029,
      "चाहगा": 9030,
      "ization": 9031,
      "भाषाए": 9032,
      "strange": 9033,
      "supp": 9034,
      "वयवसथित": 9035,
      "फरक": 9036,
      "फरस": 9037,
      "schem": 9038,
      "1993": 9039,
      "valid": 9040,
      "leads": 9041,
      "गिरफतार": 9042,
      "उततरदायी": 9043,
      "prior": 9044,
      "varied": 9045,
      "varieties": 9046,
      "1944": 9047,
      "कलाम": 9048,
      "trem": 9049,
      "काननो": 9050,
      "दवीपो": 9051,
      "परोगराम": 9052,
      "सगम": 9053,
      "पटट": 9054,
      "पटरो": 9055,
      "plane": 9056,
      "planet": 9057,
      "planned": 9058,
      "1934": 9059,
      "1937": 9060,
      "1938": 9061,
      "ahmed": 9062,
      "वाहक": 9063,
      "वाहिक": 9064,
      "इतयादि": 9065,
      "1974": 9066,
      "gery": 9067,
      "tier": 9068,
      "classical": 9069,
      "ruler": 9070,
      "movements": 9071,
      "वतति": 9072,
      "चौदह": 9073,
      "elev": 9074,
      "element": 9075,
      "hanuman": 9076,
      "परसतावित": 9077,
      "साहितयिक": 9078,
      "पलल": 9079,
      "आमतरित": 9080,
      "thirty": 9081,
      "traits": 9082,
      "drawing": 9083,
      "equally": 9084,
      "carefully": 9085,
      "block": 9086,
      "मजरी": 9087,
      "सरवकषण": 9088,
      "सरवपरथम": 9089,
      "feelings": 9090,
      "कौसिल": 9091,
      "हालात": 9092,
      "pakistani": 9093,
      "director": 9094,
      "killing": 9095,
      "1955": 9096,
      "naturally": 9097,
      "सोचता": 9098,
      "representation": 9099,
      "expand": 9100,
      "promised": 9101,
      "पसतका": 9102,
      "tendulkar": 9103,
      "खीच": 9104,
      "overc": 9105,
      "किसानो": 9106,
      "डालर": 9107,
      "structures": 9108,
      "निषपकष": 9109,
      "signs": 9110,
      "आकरषण": 9111,
      "liberal": 9112,
      "panel": 9113,
      "पजाबी": 9114,
      "stead": 9115,
      "continuous": 9116,
      "patri": 9117,
      "accum": 9118,
      "इलाको": 9119,
      "अपराधो": 9120,
      "kalam": 9121,
      "विदयारथियो": 9122,
      "परतिनिधियो": 9123,
      "housing": 9124,
      "अभयास": 9125,
      "नजरिय": 9126,
      "भविषयवाणी": 9127,
      "निकलती": 9128,
      "appointment": 9129,
      "medium": 9130,
      "बागला": 9131,
      "उपाधि": 9132,
      "हटान": 9133,
      "exception": 9134,
      "percentage": 9135,
      "परपरागत": 9136,
      "critical": 9137,
      "वयापारिक": 9138,
      "difficulty": 9139,
      "contained": 9140,
      "radiation": 9141,
      "फिलहाल": 9142,
      "आखिरी": 9143,
      "सचिन": 9144,
      "incident": 9145,
      "गरनथो": 9146,
      "flying": 9147,
      "jammu": 9148,
      "बचाव": 9149,
      "maintaining": 9150,
      "forests": 9151,
      "तनाव": 9152,
      "gradu": 9153,
      "conducted": 9154,
      "excav": 9155,
      "complaint": 9156,
      "explained": 9157,
      "attempts": 9158,
      "उदयपर": 9159,
      "professor": 9160,
      "argument": 9161,
      "agricultural": 9162,
      "scholar": 9163,
      "समरपण": 9164,
      "commander": 9165,
      "himalaya": 9166,
      "bagh": 9167,
      "index": 9168,
      "channels": 9169,
      "extension": 9170,
      "drug": 9171,
      "sulph": 9172,
      "यौन": 9173,
      "हथियारो": 9174,
      "scenari": 9175,
      "requirements": 9176,
      "subhashbabu": 9177,
      "craf": 9178,
      "इलकटर": 9179,
      "नारायण": 9180,
      "modific": 9181,
      "limitations": 9182,
      "predict": 9183,
      "विकिरण": 9184,
      "समबनध": 9185,
      "trouble": 9186,
      "privilege": 9187,
      "टकराव": 9188,
      "emphasis": 9189,
      "यनिकोड": 9190,
      "magistrate": 9191,
      "फफडो": 9192,
      "phenom": 9193,
      "prominent": 9194,
      "बनवाया": 9195,
      "minimum": 9196,
      "distinction": 9197,
      "chalukyan": 9198,
      "emotional": 9199,
      "शरमिको": 9200,
      "schedule": 9201,
      "settlement": 9202,
      "gopura": 9203,
      "rupees": 9204,
      "उललघन": 9205,
      "मशररफ": 9206,
      "george": 9207,
      "french": 9208,
      "hockey": 9209,
      "despite": 9210,
      "insulin": 9211,
      "approximately": 9212,
      "galax": 9213,
      "जॉरज": 9214,
      "पदरह": 9215,
      "chawla": 9216,
      "आरएसएस": 9217,
      "एबीसीएल": 9218,
      "याचिका": 9219,
      "41": 9220,
      "57": 9221,
      "bly": 9222,
      "cli": 9223,
      "cca": 9224,
      "caves": 9225,
      "dp": 9226,
      "dil": 9227,
      "emotions": 9228,
      "foun": 9229,
      "fold": 9230,
      "gil": 9231,
      "gather": 9232,
      "hits": 9233,
      "jj": 9234,
      "ml": 9235,
      "mol": 9236,
      "mik": 9237,
      "nd": 9238,
      "osh": 9239,
      "option": 9240,
      "pant": 9241,
      "pana": 9242,
      "sut": 9243,
      "sla": 9244,
      "skill": 9245,
      "tor": 9246,
      "tul": 9247,
      "tall": 9248,
      "tren": 9249,
      "ume": 9250,
      "urch": 9251,
      "wad": 9252,
      "wings": 9253,
      "yas": 9254,
      "zes": 9255,
      "zation": 9256,
      "अशो": 9257,
      "असपषट": 9258,
      "अखिल": 9259,
      "अवरो": 9260,
      "आवा": 9261,
      "आयताकार": 9262,
      "इधर": 9263,
      "ईन": 9264,
      "उधर": 9265,
      "उपास": 9266,
      "ऋष": 9267,
      "कक": 9268,
      "कबल": 9269,
      "कतरिम": 9270,
      "खती": 9271,
      "खपत": 9272,
      "गटन": 9273,
      "चद": 9274,
      "चको": 9275,
      "चनी": 9276,
      "चताव": 9277,
      "छड": 9278,
      "टको": 9279,
      "डिक": 9280,
      "डराइ": 9281,
      "ढर": 9282,
      "तकिया": 9283,
      "तपनन": 9284,
      "नज": 9285,
      "नारी": 9286,
      "नमनो": 9287,
      "पिया": 9288,
      "फन": 9289,
      "फान": 9290,
      "बया": 9291,
      "बटा": 9292,
      "बगम": 9293,
      "बगला": 9294,
      "बदरगा": 9295,
      "मआ": 9296,
      "मती": 9297,
      "मनि": 9298,
      "मगा": 9299,
      "मारा": 9300,
      "मचछ": 9301,
      "यतो": 9302,
      "रढ": 9303,
      "रसी": 9304,
      "रवया": 9305,
      "रवाना": 9306,
      "रसायन": 9307,
      "लटा": 9308,
      "वगरह": 9309,
      "शभ": 9310,
      "शम": 9311,
      "शकरा": 9312,
      "शयरो": 9313,
      "हकीकत": 9314,
      "िज": 9315,
      "२१": 9316,
      "५००": 9317,
      "७५": 9318,
      "infr": 9319,
      "inspir": 9320,
      "thesis": 9321,
      "anj": 9322,
      "repre": 9323,
      "retired": 9324,
      "isto": 9325,
      "atta": 9326,
      "परबधन": 9327,
      "परसतति": 9328,
      "enthus": 9329,
      "aled": 9330,
      "ora": 9331,
      "editor": 9332,
      "astr": 9333,
      "asking": 9334,
      "कामो": 9335,
      "काबल": 9336,
      "tood": 9337,
      "ताजा": 9338,
      "तानी": 9339,
      "किरा": 9340,
      "किराय": 9341,
      "कोट": 9342,
      "stan": 9343,
      "lea": 9344,
      "नाग": 9345,
      "विकर": 9346,
      "विटा": 9347,
      "विघटन": 9348,
      "विदरोह": 9349,
      "विनाश": 9350,
      "तरकी": 9351,
      "seed": 9352,
      "seats": 9353,
      "entrepre": 9354,
      "वादा": 9355,
      "वाशि": 9356,
      "वायर": 9357,
      "वापसी": 9358,
      "bered": 9359,
      "behalf": 9360,
      "acre": 9361,
      "aces": 9362,
      "accounts": 9363,
      "साझ": 9364,
      "साखय": 9365,
      "लिनी": 9366,
      "adhish": 9367,
      "ila": 9368,
      "योकि": 9369,
      "राहत": 9370,
      "िकन": 9371,
      "amin": 9372,
      "जाओ": 9373,
      "depos": 9374,
      "immort": 9375,
      "chris": 9376,
      "हाइड": 9377,
      "लात": 9378,
      "लाखो": 9379,
      "dig": 9380,
      "dip": 9381,
      "division": 9382,
      "diwali": 9383,
      "समबध": 9384,
      "समदधि": 9385,
      "uti": 9386,
      "कारक": 9387,
      "कारको": 9388,
      "version": 9389,
      "una": 9390,
      "unable": 9391,
      "uncertain": 9392,
      "abu": 9393,
      "बालो": 9394,
      "older": 9395,
      "lie": 9396,
      "ura": 9397,
      "confined": 9398,
      "loan": 9399,
      "lover": 9400,
      "lock": 9401,
      "माताओ": 9402,
      "मालिक": 9403,
      "aga": 9404,
      "सीम": 9405,
      "सरविस": 9406,
      "moved": 9407,
      "tray": 9408,
      "पाप": 9409,
      "perce": 9410,
      "comfort": 9411,
      "aki": 9412,
      "जियो": 9413,
      "दरशि": 9414,
      "proportion": 9415,
      "progressive": 9416,
      "province": 9417,
      "मानय": 9418,
      "goals": 9419,
      "अनदान": 9420,
      "अनतिम": 9421,
      "मितरो": 9422,
      "गाह": 9423,
      "indiffe": 9424,
      "लोकन": 9425,
      "sham": 9426,
      "shame": 9427,
      "दीव": 9428,
      "दीवान": 9429,
      "जीलड": 9430,
      "1910": 9431,
      "1920": 9432,
      "artist": 9433,
      "ourselves": 9434,
      "exposed": 9435,
      "शात": 9436,
      "शासको": 9437,
      "worst": 9438,
      "worse": 9439,
      "indu": 9440,
      "indranath": 9441,
      "esty": 9442,
      "रहस": 9443,
      "रहकर": 9444,
      "acting": 9445,
      "सिध": 9446,
      "सिटी": 9447,
      "dog": 9448,
      "dow": 9449,
      "राजवश": 9450,
      "erstood": 9451,
      "canal": 9452,
      "इनकार": 9453,
      "prud": 9454,
      "खाड": 9455,
      "ender": 9456,
      "मील": 9457,
      "परिभाष": 9458,
      "परिशरम": 9459,
      "शरति": 9460,
      "उतन": 9461,
      "upanish": 9462,
      "boat": 9463,
      "टीय": 9464,
      "बादल": 9465,
      "उपदश": 9466,
      "उपकषा": 9467,
      "उपनिष": 9468,
      "पतन": 9469,
      "discrim": 9470,
      "discover": 9471,
      "बनकर": 9472,
      "पीढ": 9473,
      "पीडा": 9474,
      "कमत": 9475,
      "कमरा": 9476,
      "geeta": 9477,
      "prescri": 9478,
      "posing": 9479,
      "करतवय": 9480,
      "कलम": 9481,
      "शिला": 9482,
      "pream": 9483,
      "prepar": 9484,
      "चितित": 9485,
      "मिलना": 9486,
      "वोट": 9487,
      "मोट": 9488,
      "मोटर": 9489,
      "बिसतर": 9490,
      "worker": 9491,
      "county": 9492,
      "सललर": 9493,
      "परणतया": 9494,
      "सोचि": 9495,
      "सवपन": 9496,
      "blank": 9497,
      "courage": 9498,
      "param": 9499,
      "मखयत": 9500,
      "कारयकाल": 9501,
      "geno": 9502,
      "चनावो": 9503,
      "acknow": 9504,
      "धीय": 9505,
      "धीनता": 9506,
      "महराब": 9507,
      "सटन": 9508,
      "सतरियो": 9509,
      "offences": 9510,
      "कहगा": 9511,
      "मारक": 9512,
      "पारि": 9513,
      "पारटन": 9514,
      "subash": 9515,
      "submitted": 9516,
      "लगाव": 9517,
      "पडन": 9518,
      "ततपशचात": 9519,
      "jection": 9520,
      "पशओ": 9521,
      "पशकश": 9522,
      "designed": 9523,
      "बोला": 9524,
      "बोलन": 9525,
      "leges": 9526,
      "memor": 9527,
      "महासागर": 9528,
      "color": 9529,
      "guess": 9530,
      "गरीवा": 9531,
      "वयास": 9532,
      "शोषण": 9533,
      "carved": 9534,
      "opponent": 9535,
      "आनदोलन": 9536,
      "handed": 9537,
      "lesser": 9538,
      "सभालन": 9539,
      "धयकष": 9540,
      "basically": 9541,
      "helps": 9542,
      "153": 9543,
      "iously": 9544,
      "गहन": 9545,
      "delic": 9546,
      "funding": 9547,
      "लडई": 9548,
      "voting": 9549,
      "valu": 9550,
      "महिलाए": 9551,
      "cultiv": 9552,
      "variations": 9553,
      "भमिगत": 9554,
      "relating": 9555,
      "cloth": 9556,
      "closing": 9557,
      "बललबाजो": 9558,
      "miss": 9559,
      "1964": 9560,
      "पहचाना": 9561,
      "इतजार": 9562,
      "1971": 9563,
      "परारप": 9564,
      "socialist": 9565,
      "घाटी": 9566,
      "डरगस": 9567,
      "निशान": 9568,
      "निशचय": 9569,
      "1986": 9570,
      "1988": 9571,
      "1989": 9572,
      "समसयाए": 9573,
      "eshwar": 9574,
      "balls": 9575,
      "farmers": 9576,
      "लबित": 9577,
      "आईएम": 9578,
      "रचनाओ": 9579,
      "insult": 9580,
      "परभावो": 9581,
      "crown": 9582,
      "autonom": 9583,
      "porters": 9584,
      "mixt": 9585,
      "सौदरय": 9586,
      "frontier": 9587,
      "response": 9588,
      "salary": 9589,
      "applications": 9590,
      "ornament": 9591,
      "feels": 9592,
      "ससकार": 9593,
      "pollen": 9594,
      "राजाओ": 9595,
      "receiving": 9596,
      "tells": 9597,
      "1954": 9598,
      "birds": 9599,
      "अदाज": 9600,
      "understood": 9601,
      "advanced": 9602,
      "describe": 9603,
      "ससाधन": 9604,
      "ससाधनो": 9605,
      "teams": 9606,
      "reports": 9607,
      "typical": 9608,
      "फारम": 9609,
      "petition": 9610,
      "friendship": 9611,
      "sections": 9612,
      "burn": 9613,
      "आशका": 9614,
      "सयतरो": 9615,
      "choose": 9616,
      "रोगियो": 9617,
      "differ": 9618,
      "technological": 9619,
      "define": 9620,
      "magn": 9621,
      "magic": 9622,
      "considerable": 9623,
      "चोट": 9624,
      "मनोर": 9625,
      "उठाया": 9626,
      "ढाचा": 9627,
      "kalpana": 9628,
      "पाठय": 9629,
      "falls": 9630,
      "flower": 9631,
      "improved": 9632,
      "निरवाचित": 9633,
      "claimed": 9634,
      "afraid": 9635,
      "messages": 9636,
      "score": 9637,
      "studied": 9638,
      "narr": 9639,
      "narrow": 9640,
      "कदरित": 9641,
      "chron": 9642,
      "सकोर": 9643,
      "separated": 9644,
      "हनमान": 9645,
      "एशियाई": 9646,
      "expert": 9647,
      "बौदधिक": 9648,
      "bunch": 9649,
      "imagination": 9650,
      "खिलफ": 9651,
      "खिलडी": 9652,
      "सचिवाल": 9653,
      "definite": 9654,
      "projects": 9655,
      "सथिती": 9656,
      "drew": 9657,
      "sounds": 9658,
      "advised": 9659,
      "brief": 9660,
      "टिकल": 9661,
      "excited": 9662,
      "पतथरो": 9663,
      "currently": 9664,
      "iii": 9665,
      "छिप": 9666,
      "परसारण": 9667,
      "सटीक": 9668,
      "सामानयतः": 9669,
      "पढाई": 9670,
      "absor": 9671,
      "distributed": 9672,
      "1889": 9673,
      "समझौत": 9674,
      "translated": 9675,
      "आखिरकार": 9676,
      "games": 9677,
      "entertain": 9678,
      "evolved": 9679,
      "significance": 9680,
      "tiny": 9681,
      "delivery": 9682,
      "branches": 9683,
      "परोतसाहन": 9684,
      "appearance": 9685,
      "patient": 9686,
      "समीकषा": 9687,
      "reserve": 9688,
      "sculptures": 9689,
      "breeding": 9690,
      "umpire": 9691,
      "dominant": 9692,
      "डॉकटर": 9693,
      "comparison": 9694,
      "satisfied": 9695,
      "hills": 9696,
      "wildlife": 9697,
      "decorated": 9698,
      "territory": 9699,
      "frequently": 9700,
      "merely": 9701,
      "दढता": 9702,
      "mosque": 9703,
      "succeeded": 9704,
      "rarely": 9705,
      "ईमानदारी": 9706,
      "shift": 9707,
[...]
