{
  "version": "1.0",
  "truncation": null,
  "padding": null,
  "added_tokens": [
    {
      "id": 0,
      "content": "<pad>",
      "single_word": false,
      "lstrip": false,
      "rstrip": false,
      "normalized": false,
      "special": true
    },
    {
      "id": 1,
      "content": "<s>",
      "single_word": false,
      "lstrip": false,
      "rstrip": false,
      "normalized": false,
      "special": true
    },
    {
      "id": 2,
      "content": "</s>",
      "single_word": false,
      "lstrip": false,
      "rstrip": false,
      "normalized": false,
      "special": true
    },
    {
      "id": 3,
      "content": "<unk>",
      "single_word": false,
      "lstrip": false,
      "rstrip": false,
      "normalized": false,
      "special": true
    },
    {
      "id": 4,
      "content": "<context>",
      "single_word": false,
      "lstrip": false,
      "rstrip": false,
      "normalized": false,
      "special": true
    },
    {
      "id": 5,
      "content": "<question>",
      "single_word": false,
      "lstrip": false,
      "rstrip": false,
      "normalized": false,
      "special": true
    },
    {
      "id": 6,
      "content": "<answer>",
      "single_word": false,
      "lstrip": false,
      "rstrip": false,
      "normalized": false,
      "special": true
    }
  ],
  "normalizer": {
    "type": "BertNormalizer",
    "clean_text": true,
    "handle_chinese_chars": true,
    "strip_accents": null,
    "lowercase": true
  },
  "pre_tokenizer": {
    "type": "Whitespace"
  },
  "post_processor": {
    "type": "TemplateProcessing",
    "single": [
      {
        "SpecialToken": {
          "id": "<s>",
          "type_id": 0
        }
      },
      {
        "Sequence": {
          "id": "A",
          "type_id": 0
        }
      },
      {
        "SpecialToken": {
          "id": "</s>",
          "type_id": 0
        }
      }
    ],
    "pair": [
      {
        "SpecialToken": {
          "id": "<s>",
          "type_id": 0
        }
      },
      {
        "Sequence": {
          "id": "A",
          "type_id": 0
        }
      },
      {
        "SpecialToken": {
          "id": "</s>",
          "type_id": 0
        }
      },
      {
        "SpecialToken": {
          "id": "</s>",
          "type_id": 0
        }
      },
      {
        "Sequence": {
          "id": "B",
          "type_id": 0
        }
      },
      {
        "SpecialToken": {
          "id": "</s>",
          "type_id": 0
        }
      }
    ],
    "special_tokens": {
      "</s>": {
        "id": "</s>",
        "ids": [
          2
        ],
        "tokens": [
          "</s>"
        ]
      },
      "<s>": {
        "id": "<s>",
        "ids": [
          1
        ],
        "tokens": [
          "<s>"
        ]
      }
    }
  },
  "decoder": {
    "type": "WordPiece",
    "prefix": "##",
    "cleanup": true
  },
  "model": {
    "type": "WordPiece",
    "unk_token": "<unk>",
    "continuing_subword_prefix": "##",
    "max_input_chars_per_word": 100,
    "vocab": {
      "<pad>": 0,
      "<s>": 1,
      "</s>": 2,
      "<unk>": 3,
      "<context>": 4,
      "<question>": 5,
      "<answer>": 6,
      "!": 7,
      "\"": 8,
      "#": 9,
      "$": 10,
      "%": 11,
      "&": 12,
      "'": 13,
      "(": 14,
      ")": 15,
      "*": 16,
      "+": 17,
      ",": 18,
      "-": 19,
      ".": 20,
      "/": 21,
      "0": 22,
      "1": 23,
      "2": 24,
      "3": 25,
      "4": 26,
      "5": 27,
      "6": 28,
      "7": 29,
      "8": 30,
      "9": 31,
      ":": 32,
      ";": 33,
      "<": 34,
      "=": 35,
      ">": 36,
      "?": 37,
      "[": 38,
      "]": 39,
      "`": 40,
      "a": 41,
      "b": 42,
      "c": 43,
      "d": 44,
      "e": 45,
      "f": 46,
      "g": 47,
      "h": 48,
      "i": 49,
      "j": 50,
      "k": 51,
      "l": 52,
      "m": 53,
      "n": 54,
      "o": 55,
      "p": 56,
      "q": 57,
      "r": 58,
      "s": 59,
      "t": 60,
      "u": 61,
      "v": 62,
      "w": 63,
      "x": 64,
      "y": 65,
      "z": 66,
      "~": 67,
      "¢": 68,
      "£": 69,
      "¥": 70,
      "§": 71,
      "°": 72,
      "±": 73,
      "²": 74,
      "·": 75,
      "½": 76,
      "æ": 77,
      "ð": 78,
      "ø": 79,
      "đ": 80,
      "ł": 81,
      "œ": 82,
      "ǀ": 83,
      "ǁ": 84,
      "ǂ": 85,
      "ǃ": 86,
      "ɐ": 87,
      "ɑ": 88,
      "ɒ": 89,
      "ɔ": 90,
      "ɕ": 91,
      "ə": 92,
      "ɛ": 93,
      "ɜ": 94,
      "ɡ": 95,
      "ɢ": 96,
      "ɣ": 97,
      "ɤ": 98,
      "ɦ": 99,
      "ɪ": 100,
      "ɫ": 101,
      "ɹ": 102,
      "ɾ": 103,
      "ʁ": 104,
      "ʂ": 105,
      "ʃ": 106,
      "ʊ": 107,
      "ʌ": 108,
      "ʏ": 109,
      "ʒ": 110,
      "ʔ": 111,
      "ʘ": 112,
      "ʰ": 113,
      "ʱ": 114,
      "ʷ": 115,
      "ʻ": 116,
      "ˈ": 117,
      "ˌ": 118,
      "ː": 119,
      "ˑ": 120,
      "˭": 121,
      "α": 122,
      "β": 123,
      "γ": 124,
      "δ": 125,
      "ε": 126,
      "η": 127,
      "θ": 128,
      "ι": 129,
      "κ": 130,
      "λ": 131,
      "μ": 132,
      "ν": 133,
      "ξ": 134,
      "ο": 135,
      "π": 136,
      "ρ": 137,
      "ς": 138,
      "σ": 139,
      "τ": 140,
      "υ": 141,
      "φ": 142,
      "χ": 143,
      "ψ": 144,
      "ω": 145,
      "а": 146,
      "б": 147,
      "в": 148,
      "д": 149,
      "е": 150,
      "ж": 151,
      "з": 152,
      "и": 153,
      "к": 154,
      "л": 155,
      "м": 156,
      "н": 157,
      "о": 158,
      "п": 159,
      "р": 160,
      "с": 161,
      "т": 162,
      "у": 163,
      "ф": 164,
      "х": 165,
      "ц": 166,
      "ч": 167,
      "ъ": 168,
      "ы": 169,
      "ь": 170,
      "я": 171,
      "ҳ": 172,
      "ҷ": 173,
      "ד": 174,
      "ה": 175,
      "ו": 176,
      "ח": 177,
      "י": 178,
      "ם": 179,
      "מ": 180,
      "נ": 181,
      "צ": 182,
      "ק": 183,
      "ר": 184,
      "ש": 185,
      "ا": 186,
      "ب": 187,
      "ة": 188,
      "ت": 189,
      "ج": 190,
      "ح": 191,
      "د": 192,
      "ر": 193,
      "س": 194,
      "ص": 195,
      "ع": 196,
      "ـ": 197,
      "ف": 198,
      "ق": 199,
      "ك": 200,
      "ل": 201,
      "م": 202,
      "ن": 203,
      "ه": 204,
      "و": 205,
      "ى": 206,
      "ي": 207,
      "ی": 208,
      "ः": 209,
      "ई": 210,
      "क": 211,
      "ख": 212,
      "द": 213,
      "ध": 214,
      "न": 215,
      "ब": 216,
      "म": 217,
      "य": 218,
      "र": 219,
      "स": 220,
      "ा": 221,
      "ि": 222,
      "ॊ": 223,
      "ᄀ": 224,
      "ᄃ": 225,
      "ᄅ": 226,
      "ᄉ": 227,
      "ᄌ": 228,
      "ᅥ": 229,
      "ᅩ": 230,
      "ᅭ": 231,
      "ᅳ": 232,
      "ᅵ": 233,
      "ᆨ": 234,
      "ᆫ": 235,
      "ᵻ": 236,
      "ᶢ": 237,
      "–": 238,
      "—": 239,
      "‘": 240,
      "’": 241,
      "“": 242,
      "”": 243,
      "•": 244,
      "…": 245,
      "⁄": 246,
      "€": 247,
      "∅": 248,
      "−": 249,
      "◌": 250,
      "♠": 251,
      "❤": 252,
      "⟨": 253,
      "⟩": 254,
      "《": 255,
      "》": 256,
      "の": 257,
      "イ": 258,
      "キ": 259,
      "ク": 260,
      "シ": 261,
      "ス": 262,
      "セ": 263,
      "タ": 264,
      "チ": 265,
      "ト": 266,
      "フ": 267,
      "ャ": 268,
      "ラ": 269,
      "リ": 270,
      "ル": 271,
      "ワ": 272,
      "ン": 273,
      "不": 274,
      "丹": 275,
      "书": 276,
      "伝": 277,
      "俄": 278,
      "候": 279,
      "元": 280,
      "克": 281,
      "公": 282,
      "切": 283,
      "刘": 284,
      "利": 285,
      "剑": 286,
      "力": 287,
      "北": 288,
      "卫": 289,
      "口": 290,
      "吉": 291,
      "后": 292,
      "国": 293,
      "國": 294,
      "土": 295,
      "地": 296,
      "坤": 297,
      "坪": 298,
      "埠": 299,
      "基": 300,
      "复": 301,
      "大": 302,
      "奉": 303,
      "子": 304,
      "学": 305,
      "安": 306,
      "宗": 307,
      "对": 308,
      "导": 309,
      "導": 310,
      "島": 311,
      "川": 312,
      "工": 313,
      "布": 314,
      "帥": 315,
      "師": 316,
      "庆": 317,
      "库": 318,
      "府": 319,
      "庫": 320,
      "建": 321,
      "徒": 322,
      "思": 323,
      "总": 324,
      "恢": 325,
      "息": 326,
      "愛": 327,
      "拉": 328,
      "拿": 329,
      "援": 330,
      "支": 331,
      "教": 332,
      "斗": 333,
      "方": 334,
      "族": 335,
      "星": 336,
      "曹": 337,
      "朝": 338,
      "朱": 339,
      "林": 340,
      "校": 341,
      "案": 342,
      "業": 343,
      "樂": 344,
      "民": 345,
      "水": 346,
      "汶": 347,
      "沐": 348,
      "法": 349,
      "洞": 350,
      "流": 351,
      "淨": 352,
      "済": 353,
      "渣": 354,
      "灾": 355,
      "爱": 356,
      "献": 357,
      "獻": 358,
      "王": 359,
      "理": 360,
      "的": 361,
      "盛": 362,
      "督": 363,
      "禅": 364,
      "程": 365,
      "系": 366,
      "約": 367,
      "紐": 368,
      "紫": 369,
      "紹": 370,
      "統": 371,
      "維": 372,
      "緣": 373,
      "縣": 374,
      "绍": 375,
      "统": 376,
      "维": 377,
      "耿": 378,
      "腐": 379,
      "臨": 380,
      "舍": 381,
      "航": 382,
      "英": 383,
      "華": 384,
      "衛": 385,
      "試": 386,
      "説": 387,
      "让": 388,
      "试": 389,
      "豆": 390,
      "起": 391,
      "軍": 392,
      "重": 393,
      "鋪": 394,
      "铺": 395,
      "長": 396,
      "陽": 397,
      "震": 398,
      "顯": 399,
      "騷": 400,
      "驗": 401,
      "验": 402,
      "鲁": 403,
      "鲜": 404,
      "##h": 405,
      "##a": 406,
      "##r": 407,
      "##m": 408,
      "##g": 409,
      "##u": 410,
      "##p": 411,
      "##t": 412,
      "##k": 413,
      "##o": 414,
      "##e": 415,
      "##l": 416,
      "##v": 417,
      "##c": 418,
      "##d": 419,
      "##s": 420,
      "##f": 421,
      "##n": 422,
      "##i": 423,
      "##y": 424,
      "##j": 425,
      "##1": 426,
      "##5": 427,
      "##b": 428,
      "##z": 429,
      "##x": 430,
      "##.": 431,
      "##w": 432,
      "##4": 433,
      "##2": 434,
      "##8": 435,
      "##7": 436,
      "##'": 437,
      "##q": 438,
      "##9": 439,
      "##\"": 440,
      "##3": 441,
      "##0": 442,
      "##ɒ": 443,
      "##ə": 444,
      "##)": 445,
      "##у": 446,
      "##с": 447,
      "##к": 448,
      "##и": 449,
      "##е": 450,
      "##]": 451,
      "##,": 452,
      "##6": 453,
      "##/": 454,
      "##ل": 455,
      "##ف": 456,
      "##ر": 457,
      "##ن": 458,
      "##ج": 459,
      "##ي": 460,
      "##ة": 461,
      "##ʰ": 462,
      "##α": 463,
      "##ν": 464,
      "##ο": 465,
      "##ε": 466,
      "##ς": 467,
      "##م": 468,
      "##ه": 469,
      "##و": 470,
      "##ى": 471,
      "##χ": 472,
      "##λ": 473,
      "##γ": 474,
      "##ι": 475,
      "##κ": 476,
      "##ص": 477,
      "##ا": 478,
      "##ی": 479,
      "##《": 480,
      "##ʌ": 481,
      "##?": 482,
      "##ˈ": 483,
      "##-": 484,
      "##η": 485,
      "##ʻ": 486,
      "##ł": 487,
      "##ʃ": 488,
      "##ɔ": 489,
      "##ː": 490,
      "##ˌ": 491,
      "##ɛ": 492,
      "##ɡ": 493,
      "##リ": 494,
      "##シ": 495,
      "##タ": 496,
      "##ン": 497,
      "##ǃ": 498,
      "##м": 499,
      "##ҳ": 500,
      "##р": 501,
      "##ø": 502,
      "##ρ": 503,
      "##σ": 504,
      "##[": 505,
      "##س": 506,
      "##ح": 507,
      "##ɑ": 508,
      "##€": 509,
      "##—": 510,
      "##œ": 511,
      "##◌": 512,
      "##л": 513,
      "##о": 514,
      "##ʱ": 515,
      "##क": 516,
      "##ख": 517,
      "##а": 518,
      "##з": 519,
      "##∅": 520,
      "##נ": 521,
      "##ה": 522,
      "##υ": 523,
      "##в": 524,
      "##н": 525,
      "##я": 526,
      "##ル": 527,
      "##の": 528,
      "##ॊ": 529,
      "##ध": 530,
      "##ि": 531,
      "##म": 532,
      "##;": 533,
      "##æ": 534,
      "##ҷ": 535,
      "##т": 536,
      "##ɐ": 537,
      "##−": 538,
      "##ʁ": 539,
      "##ɫ": 540,
      "##ス": 541,
      "##チ": 542,
      "##ャ": 543,
      "##τ": 544,
      "##ǀ": 545,
      "##ω": 546,
      "##ו": 547,
      "##צ": 548,
      "##ר": 549,
      "##י": 550,
      "##ʊ": 551,
      "##…": 552,
      "##ǂ": 553,
      "##ж": 554,
      "##ः": 555,
      "##ᅵ": 556,
      "##ᄃ": 557,
      "##ᅩ": 558,
      "##ᆨ": 559,
      "##ᄀ": 560,
      "##ᅭ": 561,
      "##π": 562,
      "##δ": 563,
      "##$": 564,
      "##ب": 565,
      "##ь": 566,
      "##(": 567,
      "##ש": 568,
      "##ח": 569,
      "##θ": 570,
      "##ǁ": 571,
      "##д": 572,
      "##<": 573,
      "##–": 574,
      "##ワ": 575,
      "##イ": 576,
      "##ラ": 577,
      "##ト": 578,
      "##フ": 579,
      "##セ": 580,
      "##य": 581,
      "##ा": 582,
      "##न": 583,
      "##ʒ": 584,
      "##ᵻ": 585,
      "##ɪ": 586,
      "##ם": 587,
      "##स": 588,
      "##ई": 589,
      "##ʷ": 590,
      "##⟩": 591,
      "##ᄉ": 592,
      "##ᅥ": 593,
      "##ᆫ": 594,
      "##ᄌ": 595,
      "##ك": 596,
      "##ت": 597,
      "##μ": 598,
      "##:": 599,
      "##ц": 600,
      "##ч": 601,
      "##ʏ": 602,
      "##ξ": 603,
      "##°": 604,
      "##ˑ": 605,
      "##п": 606,
      "##б": 607,
      "##ʘ": 608,
      "##ד": 609,
      "##र": 610,
      "##ɾ": 611,
      "##ɣ": 612,
      "##~": 613,
      "##ᅳ": 614,
      "##ᄅ": 615,
      "##”": 616,
      "##˭": 617,
      "##£": 618,
      "##he": 619,
      "the": 620,
      "##er": 621,
      "##on": 622,
      "##in": 623,
      "##es": 624,
      "##at": 625,
      "##ed": 626,
      "##an": 627,
      "an": 628,
      "##or": 629,
      "##en": 630,
      "in": 631,
      "of": 632,
      "##al": 633,
      "##ar": 634,
      "##it": 635,
      "##ion": 636,
      "##ic": 637,
      "##is": 638,
      "##ing": 639,
      "and": 640,
      "##as": 641,
      "##ou": 642,
      "to": 643,
      "##re": 644,
      "##om": 645,
      "##el": 646,
      "##ent": 647,
      "##il": 648,
      "##est": 649,
      "##ec": 650,
      "con": 651,
      "##st": 652,
      "##ol": 653,
      "th": 654,
      "wh": 655,
      "##ro": 656,
      "##et": 657,
      "##te": 658,
      "##am": 659,
      "##ly": 660,
      "##ation": 661,
      "##iv": 662,
      "##ad": 663,
      "on": 664,
      "##ch": 665,
      "for": 666,
      "##id": 667,
      "##ce": 668,
      "st": 669,
      "as": 670,
      "##ur": 671,
      "##le": 672,
      "##ir": 673,
      "was": 674,
      "##wer": 675,
      "is": 676,
      "##ig": 677,
      "be": 678,
      "##xt": 679,
      "qu": 680,
      "##th": 681,
      "##ter": 682,
      "##ts": 683,
      "re": 684,
      "conte": 685,
      "al": 686,
      "quest": 687,
      "question": 688,
      "context": 689,
      "ans": 690,
      "answer": 691,
      "ch": 692,
      "##im": 693,
      "##ow": 694,
      "##ers": 695,
      "##ac": 696,
      "##ith": 697,
      "##ay": 698,
      "with": 699,
      "##ot": 700,
      "##us": 701,
      "##ut": 702,
      "##ver": 703,
      "20": 704,
      "fr": 705,
      "by": 706,
      "##ul": 707,
      "that": 708,
      "##op": 709,
      "un": 710,
      "##em": 711,
      "pro": 712,
      "##ud": 713,
      "##ity": 714,
      "com": 715,
      "##um": 716,
      "##ist": 717,
      "##her": 718,
      "at": 719,
      "##os": 720,
      "##oun": 721,
      "##ag": 722,
      "##and": 723,
      "##av": 724,
      "or": 725,
      "ne": 726,
      "##oc": 727,
      "pr": 728,
      "su": 729,
      "##ess": 730,
      "what": 731,
      "de": 732,
      "##ies": 733,
      "##od": 734,
      "##ial": 735,
      "##un": 736,
      "##ect": 737,
      "are": 738,
      "##ain": 739,
      "from": 740,
      "se": 741,
      "19": 742,
      "##ich": 743,
      "##ct": 744,
      "he": 745,
      "##ate": 746,
      "##ill": 747,
      "##ort": 748,
      "##ian": 749,
      "##ld": 750,
      "en": 751,
      "##og": 752,
      "##ab": 753,
      "##if": 754,
      "##ap": 755,
      "##ive": 756,
      "ar": 757,
      "##ost": 758,
      "##igh": 759,
      "it": 760,
      "##ib": 761,
      "##ment": 762,
      "his": 763,
      "which": 764,
      "sp": 765,
      "##ated": 766,
      "##ong": 767,
      "tr": 768,
      "ex": 769,
      "##ear": 770,
      "##ere": 771,
      "us": 772,
      "##ak": 773,
      "200": 774,
      "##ard": 775,
      "wor": 776,
      "##ous": 777,
      "##all": 778,
      "##art": 779,
      "were": 780,
      "##our": 781,
      "##ia": 782,
      "##ame": 783,
      "##pp": 784,
      "##ell": 785,
      "##ical": 786,
      "##qu": 787,
      "##ber": 788,
      "sh": 789,
      "##gh": 790,
      "inc": 791,
      "##mp": 792,
      "rel": 793,
      "new": 794,
      "##ave": 795,
      "man": 796,
      "##ub": 797,
      "comp": 798,
      "le": 799,
      "##ther": 800,
      "##du": 801,
      "am": 802,
      "##ip": 803,
      "##ov": 804,
      "##cc": 805,
      "whe": 806,
      "##ge": 807,
      "not": 808,
      "##ary": 809,
      "##ome": 810,
      "##end": 811,
      "201": 812,
      "fir": 813,
      "has": 814,
      "rec": 815,
      "##ore": 816,
      "##so": 817,
      "##ough": 818,
      "##tr": 819,
      "gr": 820,
      "af": 821,
      "##ant": 822,
      "##ie": 823,
      "res": 824,
      "per": 825,
      "first": 826,
      "##ish": 827,
      "##ound": 828,
      "##ast": 829,
      "have": 830,
      "##ine": 831,
      "##iz": 832,
      "##ure": 833,
      "city": 834,
      "also": 835,
      "pl": 836,
      "##ions": 837,
      "its": 838,
      "##ight": 839,
      "##age": 840,
      "ad": 841,
      "##rit": 842,
      "##ations": 843,
      "##00": 844,
      "who": 845,
      "year": 846,
      "##ord": 847,
      "one": 848,
      "cl": 849,
      "this": 850,
      "their": 851,
      "##ence": 852,
      "had": 853,
      "can": 854,
      "all": 855,
      "18": 856,
      "other": 857,
      "##se": 858,
      "##over": 859,
      "comm": 860,
      "##lud": 861,
      "sc": 862,
      "##ang": 863,
      "ab": 864,
      "her": 865,
      "int": 866,
      "bo": 867,
      "tw": 868,
      "cent": 869,
      "##per": 870,
      "##ally": 871,
      "did": 872,
      "##ond": 873,
      "##ans": 874,
      "col": 875,
      "##out": 876,
      "##ide": 877,
      "rep": 878,
      "sch": 879,
      "inter": 880,
      "##ition": 881,
      "##ks": 882,
      "bec": 883,
      "##ance": 884,
      "##der": 885,
      "includ": 886,
      "),": 887,
      "app": 888,
      "##ubl": 889,
      "##ater": 890,
      "##ult": 891,
      "##ates": 892,
      "how": 893,
      "##ice": 894,
      "##ass": 895,
      "##hed": 896,
      "##ime": 897,
      "coun": 898,
      "##act": 899,
      "##ould": 900,
      "mus": 901,
      "##olog": 902,
      "ear": 903,
      "most": 904,
      "mar": 905,
      "##ign": 906,
      "west": 907,
      "off": 908,
      "##ite": 909,
      "chin": 910,
      "many": 911,
      "##ely": 912,
      "gen": 913,
      "after": 914,
      "##orm": 915,
      "ma": 916,
      "##ited": 917,
      "##ug": 918,
      "dis": 919,
      "part": 920,
      "but": 921,
      "##rop": 922,
      "##ivers": 923,
      "##eric": 924,
      "##ork": 925,
      "##erv": 926,
      "par": 927,
      "world": 928,
      "bey": 929,
      "##str": 930,
      "when": 931,
      "pe": 932,
      "been": 933,
      "##aw": 934,
      "over": 935,
      "##ents": 936,
      "##ree": 937,
      "##ok": 938,
      "##ased": 939,
      "pol": 940,
      "##own": 941,
      "fin": 942,
      "##ild": 943,
      "##ational": 944,
      "##ics": 945,
      "cont": 946,
      "ind": 947,
      "##ire": 948,
      "stud": 949,
      "##ese": 950,
      "americ": 951,
      "##ile": 952,
      "##ue": 953,
      "br": 954,
      "beyon": 955,
      "##illion": 956,
      "##ced": 957,
      "beyonce": 958,
      "##ack": 959,
      "##ason": 960,
      "##ff": 961,
      "ev": 962,
      "sy": 963,
      "##land": 964,
      "acc": 965,
      "form": 966,
      "##ik": 967,
      "##uring": 968,
      "##gr": 969,
      "##ism": 970,
      "##pt": 971,
      "univers": 972,
      "##ace": 973,
      "pre": 974,
      "we": 975,
      "produ": 976,
      "##form": 977,
      "##ied": 978,
      "##erm": 979,
      "##ens": 980,
      "des": 981,
      "they": 982,
      "cr": 983,
      "##hn": 984,
      "two": 985,
      "cons": 986,
      "##ach": 987,
      "dec": 988,
      "po": 989,
      "york": 990,
      "##able": 991,
      "mon": 992,
      "##ade": 993,
      "##ake": 994,
      "act": 995,
      "##ern": 996,
      "##vel": 997,
      "up": 998,
      "##anc": 999,
      "such": 1000,
      "more": 1001,
      "some": 1002,
      "season": 1003,
      "fe": 1004,
      "ph": 1005,
      "##ail": 1006,
      "##ublic": 1007,
      "reg": 1008,
      "port": 1009,
      "##ool": 1010,
      "exp": 1011,
      "##ors": 1012,
      "##ose": 1013,
      "##les": 1014,
      "##ings": 1015,
      "sol": 1016,
      "sec": 1017,
      "during": 1018,
      "##gan": 1019,
      "pop": 1020,
      "pres": 1021,
      "##outh": 1022,
      "##etw": 1023,
      "do": 1024,
      "##oup": 1025,
      "than": 1026,
      "music": 1027,
      "car": 1028,
      "##ities": 1029,
      "est": 1030,
      "##lo": 1031,
      "el": 1032,
      "no": 1033,
      "##ory": 1034,
      "lar": 1035,
      "##ious": 1036,
      "ag": 1037,
      "into": 1038,
      "bu": 1039,
      "me": 1040,
      "there": 1041,
      "may": 1042,
      "under": 1043,
      "million": 1044,
      "num": 1045,
      "##ict": 1046,
      "time": 1047,
      "peop": 1048,
      "she": 1049,
      "school": 1050,
      "##fer": 1051,
      "imp": 1052,
      "fil": 1053,
      "##reat": 1054,
      ").": 1055,
      "##overn": 1056,
      "govern": 1057,
      "##wn": 1058,
      "##ust": 1059,
      "##iet": 1060,
      "##ward": 1061,
      "eng": 1062,
      "people": 1063,
      "te": 1064,
      "chop": 1065,
      "id": 1066,
      "chopin": 1067,
      "##ock": 1068,
      "str": 1069,
      "hel": 1070,
      "000": 1071,
      "kn": 1072,
      "bud": 1073,
      "american": 1074,
      "min": 1075,
      "united": 1076,
      "inst": 1077,
      ".\"": 1078,
      "##dh": 1079,
      "ass": 1080,
      "##een": 1081,
      "##ood": 1082,
      "##amp": 1083,
      "dr": 1084,
      "states": 1085,
      "dog": 1086,
      "med": 1087,
      "war": 1088,
      "##ase": 1089,
      "##oll": 1090,
      "##ists": 1091,
      "would": 1092,
      "\",": 1093,
      "bro": 1094,
      "ac": 1095,
      "##stem": 1096,
      "thr": 1097,
      "sub": 1098,
      "record": 1099,
      "inv": 1100,
      "where": 1101,
      "system": 1102,
      "group": 1103,
      "intern": 1104,
      "serv": 1105,
      "only": 1106,
      "##ction": 1107,
      "##one": 1108,
      "rele": 1109,
      "##enc": 1110,
      "film": 1111,
      "buddh": 1112,
      "##als": 1113,
      "##ology": 1114,
      "art": 1115,
      "sing": 1116,
      "##any": 1117,
      "show": 1118,
      "\".": 1119,
      "met": 1120,
      "them": 1121,
      "##ished": 1122,
      "betw": 1123,
      "between": 1124,
      "prov": 1125,
      "##ular": 1126,
      "##ey": 1127,
      "##aus": 1128,
      "##velop": 1129,
      "through": 1130,
      "##ince": 1131,
      "alb": 1132,
      "conc": 1133,
      "call": 1134,
      "##io": 1135,
      "three": 1136,
      "about": 1137,
      "out": 1138,
      "while": 1139,
      "prot": 1140,
      "countr": 1141,
      "##ury": 1142,
      "develop": 1143,
      "including": 1144,
      "##ons": 1145,
      "number": 1146,
      "jo": 1147,
      "maj": 1148,
      "##ele": 1149,
      "so": 1150,
      "these": 1151,
      "state": 1152,
      "used": 1153,
      "found": 1154,
      "hum": 1155,
      "ro": 1156,
      "##ific": 1157,
      "air": 1158,
      "##ative": 1159,
      "perform": 1160,
      "##ered": 1161,
      "album": 1162,
      "portug": 1163,
      "major": 1164,
      "fl": 1165,
      "work": 1166,
      "##echn": 1167,
      "mod": 1168,
      "##ath": 1169,
      "tib": 1170,
      "emp": 1171,
      "chinese": 1172,
      "##ember": 1173,
      "years": 1174,
      "government": 1175,
      "tibet": 1176,
      "day": 1177,
      "gener": 1178,
      "public": 1179,
      "tor": 1180,
      "contr": 1181,
      "##gest": 1182,
      "four": 1183,
      "##ual": 1184,
      "##ures": 1185,
      "##az": 1186,
      "##ived": 1187,
      "char": 1188,
      "att": 1189,
      "hous": 1190,
      "##ene": 1191,
      "##iss": 1192,
      "##ized": 1193,
      "co": 1194,
      "song": 1195,
      "##ted": 1196,
      "##ather": 1197,
      "dep": 1198,
      "him": 1199,
      "loc": 1200,
      "##urn": 1201,
      "##con": 1202,
      "rev": 1203,
      "became": 1204,
      "##0s": 1205,
      "def": 1206,
      "soc": 1207,
      "ant": 1208,
      "##ution": 1209,
      "##cr": 1210,
      "china": 1211,
      "rem": 1212,
      "use": 1213,
      "pers": 1214,
      "eu": 1215,
      "bost": 1216,
      "term": 1217,
      "torch": 1218,
      "##fl": 1219,
      "spec": 1220,
      "##hip": 1221,
      "offic": 1222,
      "##ily": 1223,
      "199": 1224,
      "ann": 1225,
      "boston": 1226,
      "sever": 1227,
      "trans": 1228,
      "##ural": 1229,
      "both": 1230,
      "##ters": 1231,
      "##ating": 1232,
      "century": 1233,
      "made": 1234,
      "lang": 1235,
      "ob": 1236,
      "##ds": 1237,
      "##ten": 1238,
      "bl": 1239,
      "##ants": 1240,
      "ap": 1241,
      "##ann": 1242,
      "##ever": 1243,
      "later": 1244,
      "national": 1245,
      "##ident": 1246,
      "writ": 1247,
      "cap": 1248,
      "power": 1249,
      "##ana": 1250,
      "la": 1251,
      "langu": 1252,
      "supp": 1253,
      "##tain": 1254,
      "white": 1255,
      "dist": 1256,
      "##ank": 1257,
      "##ected": 1258,
      "known": 1259,
      "end": 1260,
      "name": 1261,
      "##ger": 1262,
      "eff": 1263,
      "##ru": 1264,
      "award": 1265,
      "15": 1266,
      "nor": 1267,
      "foll": 1268,
      "high": 1269,
      "build": 1270,
      "long": 1271,
      "since": 1272,
      "##ision": 1273,
      "##urr": 1274,
      "called": 1275,
      "second": 1276,
      "early": 1277,
      "follow": 1278,
      "play": 1279,
      "island": 1280,
      "fam": 1281,
      "##ix": 1282,
      "however": 1283,
      "sa": 1284,
      "well": 1285,
      "win": 1286,
      "##sp": 1287,
      "university": 1288,
      "##ier": 1289,
      "bell": 1290,
      "lo": 1291,
      "##abl": 1292,
      "techn": 1293,
      "##rope": 1294,
      "au": 1295,
      "op": 1296,
      "europe": 1297,
      "##other": 1298,
      "several": 1299,
      "##ty": 1300,
      "em": 1301,
      "##ages": 1302,
      "cor": 1303,
      "##igin": 1304,
      "##uss": 1305,
      "##ually": 1306,
      "ip": 1307,
      "sign": 1308,
      "main": 1309,
      "##yp": 1310,
      "old": 1311,
      "##ss": 1312,
      "arch": 1313,
      "origin": 1314,
      "##res": 1315,
      "hist": 1316,
      "ta": 1317,
      "instit": 1318,
      "being": 1319,
      "chr": 1320,
      "##ale": 1321,
      "organ": 1322,
      "own": 1323,
      "set": 1324,
      "trad": 1325,
      "16": 1326,
      "mov": 1327,
      "##ially": 1328,
      "dem": 1329,
      "ply": 1330,
      "##cess": 1331,
      "##ick": 1332,
      "##ys": 1333,
      "will": 1334,
      "##ench": 1335,
      "coll": 1336,
      "##erg": 1337,
      "law": 1338,
      "##ird": 1339,
      "2008": 1340,
      "##are": 1341,
      "ret": 1342,
      "##ra": 1343,
      "var": 1344,
      "##ital": 1345,
      "fun": 1346,
      "##int": 1347,
      "dif": 1348,
      "add": 1349,
      "##hes": 1350,
      "##ement": 1351,
      "12": 1352,
      "##head": 1353,
      "##ulation": 1354,
      "10": 1355,
      "##fore": 1356,
      "##acter": 1357,
      "##aph": 1358,
      "progr": 1359,
      "plym": 1360,
      "best": 1361,
      "##ined": 1362,
      "##ames": 1363,
      "im": 1364,
      "17": 1365,
      "tele": 1366,
      "##iew": 1367,
      "human": 1368,
      "lif": 1369,
      "nov": 1370,
      "##ep": 1371,
      "econ": 1372,
      "econom": 1373,
      "released": 1374,
      "sep": 1375,
      "establ": 1376,
      "##aster": 1377,
      "bel": 1378,
      "##ike": 1379,
      "##ects": 1380,
      "area": 1381,
      "##ful": 1382,
      "contin": 1383,
      "##ically": 1384,
      "##ah": 1385,
      "ipod": 1386,
      "##ry": 1387,
      "cat": 1388,
      "pos": 1389,
      "##ink": 1390,
      "hy": 1391,
      "##ection": 1392,
      "##ft": 1393,
      "##row": 1394,
      "sci": 1395,
      "north": 1396,
      "##ning": 1397,
      "oper": 1398,
      "south": 1399,
      "child": 1400,
      "rece": 1401,
      "cult": 1402,
      "leg": 1403,
      "##way": 1404,
      "##elf": 1405,
      "cre": 1406,
      "##its": 1407,
      "plymouth": 1408,
      "cour": 1409,
      "country": 1410,
      "does": 1411,
      "##ric": 1412,
      "resp": 1413,
      "##omin": 1414,
      "idol": 1415,
      "international": 1416,
      "president": 1417,
      "##ces": 1418,
      "any": 1419,
      "##old": 1420,
      "commun": 1421,
      "##ange": 1422,
      "lead": 1423,
      "##cept": 1424,
      "based": 1425,
      "gre": 1426,
      "##led": 1427,
      "incre": 1428,
      "dogs": 1429,
      "##ccess": 1430,
      "five": 1431,
      "ever": 1432,
      "##ments": 1433,
      "##ve": 1434,
      "gu": 1435,
      "##ress": 1436,
      "##red": 1437,
      "##ole": 1438,
      "##ause": 1439,
      "ser": 1440,
      "sm": 1441,
      "before": 1442,
      "crit": 1443,
      "pat": 1444,
      "##els": 1445,
      "##ph": 1446,
      "##ved": 1447,
      "##aking": 1448,
      "##ought": 1449,
      "mid": 1450,
      "##ute": 1451,
      "##imes": 1452,
      "occ": 1453,
      "protest": 1454,
      "french": 1455,
      "colle": 1456,
      "accord": 1457,
      "program": 1458,
      "##ral": 1459,
      "disc": 1460,
      "whitehead": 1461,
      "great": 1462,
      "##ature": 1463,
      "top": 1464,
      "need": 1465,
      "largest": 1466,
      "success": 1467,
      "##att": 1468,
      "##amed": 1469,
      "again": 1470,
      "sim": 1471,
      "person": 1472,
      "jud": 1473,
      "began": 1474,
      "mark": 1475,
      "typ": 1476,
      "##let": 1477,
      "ext": 1478,
      "solar": 1479,
      "av": 1480,
      "##ert": 1481,
      "among": 1482,
      "11": 1483,
      "each": 1484,
      "hig": 1485,
      "life": 1486,
      "##man": 1487,
      "bre": 1488,
      "earth": 1489,
      "197": 1490,
      "population": 1491,
      "start": 1492,
      "light": 1493,
      "##ently": 1494,
      "house": 1495,
      "according": 1496,
      "head": 1497,
      "##ise": 1498,
      "196": 1499,
      "single": 1500,
      "##iving": 1501,
      "hun": 1502,
      "##duc": 1503,
      "2013": 1504,
      "design": 1505,
      "land": 1506,
      "financ": 1507,
      "anth": 1508,
      "mil": 1509,
      "##ices": 1510,
      "christ": 1511,
      "prev": 1512,
      "##til": 1513,
      "##ony": 1514,
      "go": 1515,
      "ir": 1516,
      "russ": 1517,
      "##ross": 1518,
      "##hen": 1519,
      "antib": 1520,
      "company": 1521,
      "##uch": 1522,
      "##ives": 1523,
      "could": 1524,
      "##ional": 1525,
      "##uan": 1526,
      "dire": 1527,
      "##orts": 1528,
      "##iot": 1529,
      "cit": 1530,
      "##ama": 1531,
      "##ible": 1532,
      "##my": 1533,
      "brit": 1534,
      "##ek": 1535,
      "##orn": 1536,
      "##ril": 1537,
      "##ior": 1538,
      "##orted": 1539,
      "relay": 1540,
      "infl": 1541,
      "##ium": 1542,
      "class": 1543,
      "consid": 1544,
      "differ": 1545,
      "bus": 1546,
      "##crib": 1547,
      "home": 1548,
      "##urch": 1549,
      "##ery": 1550,
      "##alth": 1551,
      "partic": 1552,
      "then": 1553,
      "april": 1554,
      "sur": 1555,
      "2007": 1556,
      "language": 1557,
      "##pl": 1558,
      "##ins": 1559,
      "following": 1560,
      "canad": 1561,
      "educ": 1562,
      "stand": 1563,
      "become": 1564,
      "##tem": 1565,
      "##ering": 1566,
      "##ights": 1567,
      "ge": 1568,
      "red": 1569,
      "##bers": 1570,
      "include": 1571,
      "anthrop": 1572,
      "back": 1573,
      "official": 1574,
      "##ued": 1575,
      "near": 1576,
      ".[": 1577,
      "jan": 1578,
      "portugal": 1579,
      "##han": 1580,
      "lit": 1581,
      "sal": 1582,
      "##uct": 1583,
      "pub": 1584,
      "##ges": 1585,
      "##ately": 1586,
      "##port": 1587,
      "##though": 1588,
      "although": 1589,
      "##ians": 1590,
      "king": 1591,
      "##ired": 1592,
      "##ided": 1593,
      "appear": 1594,
      "said": 1595,
      "water": 1596,
      "##ets": 1597,
      "sov": 1598,
      "##oci": 1599,
      "aff": 1600,
      "hyd": 1601,
      "financial": 1602,
      "har": 1603,
      "common": 1604,
      "associ": 1605,
      "sw": 1606,
      "direct": 1607,
      "##ility": 1608,
      "2009": 1609,
      "development": 1610,
      "catal": 1611,
      "14": 1612,
      "elect": 1613,
      "vis": 1614,
      "often": 1615,
      "much": 1616,
      "fo": 1617,
      "like": 1618,
      "##ively": 1619,
      "198": 1620,
      "arr": 1621,
      "exper": 1622,
      "broad": 1623,
      "oly": 1624,
      "##au": 1625,
      "open": 1626,
      "olymp": 1627,
      "spe": 1628,
      "soviet": 1629,
      "influ": 1630,
      "2010": 1631,
      "universal": 1632,
      "process": 1633,
      "13": 1634,
      "##ton": 1635,
      "##eld": 1636,
      "##ogr": 1637,
      "large": 1638,
      "dest": 1639,
      "##cent": 1640,
      "stat": 1641,
      "around": 1642,
      "##gen": 1643,
      "##war": 1644,
      "##iod": 1645,
      "real": 1646,
      "until": 1647,
      "relations": 1648,
      "non": 1649,
      "prin": 1650,
      "##ained": 1651,
      "##ister": 1652,
      "mem": 1653,
      "##bo": 1654,
      "archit": 1655,
      "period": 1656,
      "along": 1657,
      "examp": 1658,
      "same": 1659,
      "##ove": 1660,
      "##oman": 1661,
      "##ble": 1662,
      "compos": 1663,
      "march": 1664,
      "100": 1665,
      "##ena": 1666,
      "modern": 1667,
      "val": 1668,
      "##ting": 1669,
      "##itions": 1670,
      "western": 1671,
      "##air": 1672,
      "republic": 1673,
      "2015": 1674,
      "##ization": 1675,
      "##ief": 1676,
      "193": 1677,
      "list": 1678,
      "##ides": 1679,
      "third": 1680,
      "##ject": 1681,
      "##enn": 1682,
      "polit": 1683,
      "sat": 1684,
      "john": 1685,
      "prof": 1686,
      "relig": 1687,
      "phil": 1688,
      "tradition": 1689,
      "bas": 1690,
      "way": 1691,
      "2014": 1692,
      "portugu": 1693,
      "sl": 1694,
      "##med": 1695,
      "germ": 1696,
      "##yc": 1697,
      "som": 1698,
      "##ention": 1699,
      "auth": 1700,
      "publ": 1701,
      "##ines": 1702,
      "##ended": 1703,
      "within": 1704,
      "return": 1705,
      "event": 1706,
      "##ize": 1707,
      "rad": 1708,
      "##ner": 1709,
      "##une": 1710,
      "mat": 1711,
      "lat": 1712,
      "##ark": 1713,
      "tem": 1714,
      "##eneg": 1715,
      "media": 1716,
      "30": 1717,
      "##aving": 1718,
      "requ": 1719,
      "family": 1720,
      "##up": 1721,
      "##zeneg": 1722,
      "2006": 1723,
      "schwar": 1724,
      "hydro": 1725,
      "##zenegger": 1726,
      "schwarzenegger": 1727,
      "led": 1728,
      "##aim": 1729,
      "2011": 1730,
      "##ind": 1731,
      "run": 1732,
      "##ven": 1733,
      "lab": 1734,
      "social": 1735,
      "portuguese": 1736,
      "##ised": 1737,
      "div": 1738,
      "describ": 1739,
      "##yn": 1740,
      "deb": 1741,
      "decl": 1742,
      "rest": 1743,
      "adv": 1744,
      "adm": 1745,
      "##tal": 1746,
      "##lish": 1747,
      "##iqu": 1748,
      "central": 1749,
      "college": 1750,
      "result": 1751,
      "##get": 1752,
      "const": 1753,
      "allow": 1754,
      "contest": 1755,
      "##ams": 1756,
      "det": 1757,
      "##vision": 1758,
      "education": 1759,
      "architect": 1760,
      "##bs": 1761,
      "because": 1762,
      "##uted": 1763,
      "english": 1764,
      "##ash": 1765,
      "##uary": 1766,
      "produc": 1767,
      "awards": 1768,
      "students": 1769,
      "##por": 1770,
      "another": 1771,
      "laun": 1772,
      "now": 1773,
      "vo": 1774,
      "card": 1775,
      "ju": 1776,
      "##iver": 1777,
      "park": 1778,
      "##inal": 1779,
      "received": 1780,
      "established": 1781,
      "those": 1782,
      "post": 1783,
      "small": 1784,
      "due": 1785,
      "center": 1786,
      "announ": 1787,
      "building": 1788,
      "last": 1789,
      "##erc": 1790,
      "earthqu": 1791,
      "ent": 1792,
      "expl": 1793,
      "tit": 1794,
      "author": 1795,
      "##day": 1796,
      "##ured": 1797,
      "##ences": 1798,
      "addition": 1799,
      "every": 1800,
      "buddhism": 1801,
      "appro": 1802,
      "pass": 1803,
      "even": 1804,
      "different": 1805,
      "schools": 1806,
      "import": 1807,
      "##ient": 1808,
      "ed": 1809,
      "church": 1810,
      "prom": 1811,
      "january": 1812,
      "fur": 1813,
      "##ars": 1814,
      "history": 1815,
      "##eral": 1816,
      "##read": 1817,
      "##ified": 1818,
      "tour": 1819,
      "##ograph": 1820,
      "pract": 1821,
      "production": 1822,
      "service": 1823,
      "##ergy": 1824,
      "rock": 1825,
      "beg": 1826,
      "needed": 1827,
      "six": 1828,
      "##arm": 1829,
      "held": 1830,
      "against": 1831,
      "television": 1832,
      "##ying": 1833,
      "##ains": 1834,
      "using": 1835,
      "aud": 1836,
      "ter": 1837,
      "##hem": 1838,
      "earthquake": 1839,
      "month": 1840,
      "##iness": 1841,
      "late": 1842,
      "ten": 1843,
      "help": 1844,
      "british": 1845,
      "lond": 1846,
      "183": 1847,
      "catalan": 1848,
      "london": 1849,
      "lib": 1850,
      "##iety": 1851,
      "##..": 1852,
      "invest": 1853,
      "tibetan": 1854,
      "dame": 1855,
      "##istan": 1856,
      "##oph": 1857,
      "november": 1858,
      "place": 1859,
      "dev": 1860,
      "total": 1861,
      "notre": 1862,
      "##ological": 1863,
      "countries": 1864,
      "conn": 1865,
      "still": 1866,
      "miss": 1867,
      "##bc": 1868,
      "general": 1869,
      "court": 1870,
      "week": 1871,
      "del": 1872,
      "game": 1873,
      "ele": 1874,
      "195": 1875,
      "down": 1876,
      "stre": 1877,
      "sk": 1878,
      "paris": 1879,
      "pian": 1880,
      "##hest": 1881,
      "##ared": 1882,
      "named": 1883,
      "##ues": 1884,
      "##ull": 1885,
      "##ball": 1886,
      "artist": 1887,
      "ref": 1888,
      "resear": 1889,
      "##na": 1890,
      "##atic": 1891,
      "energy": 1892,
      "2012": 1893,
      "internet": 1894,
      "vers": 1895,
      "##astern": 1896,
      "##ented": 1897,
      "191": 1898,
      "##app": 1899,
      "hydrogen": 1900,
      "june": 1901,
      "mo": 1902,
      "septem": 1903,
      "series": 1904,
      "september": 1905,
      "say": 1906,
      "prim": 1907,
      "support": 1908,
      "mass": 1909,
      "##ves": 1910,
      "health": 1911,
      "engine": 1912,
      "25": 1913,
      "region": 1914,
      "further": 1915,
      "age": 1916,
      "##ri": 1917,
      "init": 1918,
      "very": 1919,
      "##aced": 1920,
      "july": 1921,
      "bar": 1922,
      "194": 1923,
      "line": 1924,
      "cover": 1925,
      "link": 1926,
      "oct": 1927,
      "kill": 1928,
      "areas": 1929,
      "antibiot": 1930,
      "bod": 1931,
      "bill": 1932,
      "located": 1933,
      "book": 1934,
      "enter": 1935,
      "european": 1936,
      "previous": 1937,
      "ste": 1938,
      "##ched": 1939,
      "##aint": 1940,
      "institut": 1941,
      "##epend": 1942,
      "indu": 1943,
      "milit": 1944,
      "sou": 1945,
      "considered": 1946,
      "members": 1947,
      "times": 1948,
      "vide": 1949,
      "control": 1950,
      "je": 1951,
      "popular": 1952,
      "less": 1953,
      "refer": 1954,
      "example": 1955,
      "fre": 1956,
      "##ecut": 1957,
      "##go": 1958,
      "feat": 1959,
      "hal": 1960,
      "won": 1961,
      "##vers": 1962,
      "olympic": 1963,
      "east": 1964,
      "order": 1965,
      "former": 1966,
      "##ai": 1967,
      "claim": 1968,
      "december": 1969,
      "##tle": 1970,
      "if": 1971,
      "industr": 1972,
      "nat": 1973,
      "independ": 1974,
      "hol": 1975,
      "mag": 1976,
      "##lex": 1977,
      "##olution": 1978,
      "counc": 1979,
      "##ilt": 1980,
      "aver": 1981,
      "##ness": 1982,
      "apple": 1983,
      "fem": 1984,
      "ins": 1985,
      "suff": 1986,
      "curr": 1987,
      "##li": 1988,
      "percent": 1989,
      "standard": 1990,
      "##ii": 1991,
      "final": 1992,
      "fi": 1993,
      "canadian": 1994,
      "sty": 1995,
      "exist": 1996,
      "mont": 1997,
      "km": 1998,
      "ming": 1999,
      "sound": 2000,
      "##ival": 2001,
      "##lob": 2002,
      "##rodu": 2003,
      "##oss": 2004,
      "fact": 2005,
      "took": 2006,
      "doc": 2007,
      "##loy": 2008,
      "father": 2009,
      "glob": 2010,
      "release": 2011,
      "announced": 2012,
      "live": 2013,
      "21": 2014,
      "fed": 2015,
      "published": 2016,
      "hour": 2017,
      "pal": 2018,
      "##ley": 2019,
      "union": 2020,
      "anthropology": 2021,
      "my": 2022,
      "cred": 2023,
      "make": 2024,
      "ur": 2025,
      "##aut": 2026,
      "mater": 2027,
      "view": 2028,
      "##ency": 2029,
      "##eal": 2030,
      "lee": 2031,
      "wars": 2032,
      "##ont": 2033,
      "##omen": 2034,
      "##olic": 2035,
      "office": 2036,
      "depart": 2037,
      "local": 2038,
      "distr": 2039,
      "foot": 2040,
      "civ": 2041,
      "##af": 2042,
      "##son": 2043,
      "reported": 2044,
      "histor": 2045,
      "##ration": 2046,
      "##ober": 2047,
      "##ience": 2048,
      "##iven": 2049,
      "october": 2050,
      "research": 2051,
      "council": 2052,
      "grow": 2053,
      "##acks": 2054,
      "technology": 2055,
      "russian": 2056,
      "##ances": 2057,
      "cris": 2058,
      "various": 2059,
      "##ll": 2060,
      "##ament": 2061,
      "without": 2062,
      "signific": 2063,
      "philos": 2064,
      "cer": 2065,
      "satell": 2066,
      "camp": 2067,
      "afric": 2068,
      "material": 2069,
      "compet": 2070,
      "##osed": 2071,
      "political": 2072,
      "192": 2073,
      "caus": 2074,
      "particular": 2075,
      "##aged": 2076,
      "performance": 2077,
      "constit": 2078,
      "river": 2079,
      "special": 2080,
      "built": 2081,
      "ep": 2082,
      "##umm": 2083,
      "##osp": 2084,
      "groups": 2085,
      "squ": 2086,
      "2005": 2087,
      "complet": 2088,
      "##bru": 2089,
      "##ites": 2090,
      "##ator": 2091,
      "spect": 2092,
      "repres": 2093,
      "study": 2094,
      "highest": 2095,
      "take": 2096,
      "level": 2097,
      "included": 2098,
      "24": 2099,
      "host": 2100,
      "nort": 2101,
      "##ech": 2102,
      "mean": 2103,
      "records": 2104,
      "business": 2105,
      "death": 2106,
      "throughout": 2107,
      "##aining": 2108,
      "invol": 2109,
      "relationship": 2110,
      "crisis": 2111,
      "febru": 2112,
      "piano": 2113,
      "february": 2114,
      "don": 2115,
      "hand": 2116,
      "sand": 2117,
      "star": 2118,
      "##used": 2119,
      "low": 2120,
      "##acy": 2121,
      "##uts": 2122,
      "fund": 2123,
      "ok": 2124,
      "role": 2125,
      "##uc": 2126,
      "##irth": 2127,
      "##ends": 2128,
      "capital": 2129,
      "eth": 2130,
      "##ogn": 2131,
      "bi": 2132,
      "cal": 2133,
      "##ren": 2134,
      "economic": 2135,
      "america": 2136,
      "equ": 2137,
      "lim": 2138,
      "##br": 2139,
      "important": 2140,
      "iss": 2141,
      "aug": 2142,
      "gl": 2143,
      "##lic": 2144,
      "video": 2145,
      "##ount": 2146,
      "genoc": 2147,
      "county": 2148,
      "developed": 2149,
      "profess": 2150,
      "##less": 2151,
      "##onstr": 2152,
      "christian": 2153,
      "\")": 2154,
      "love": 2155,
      "vi": 2156,
      "##ending": 2157,
      "military": 2158,
      "wro": 2159,
      "##ms": 2160,
      "conf": 2161,
      "poss": 2162,
      "wrote": 2163,
      "just": 2164,
      "mother": 2165,
      "ris": 2166,
      "priv": 2167,
      "constr": 2168,
      "separ": 2169,
      "wal": 2170,
      "##ored": 2171,
      "ang": 2172,
      "comb": 2173,
      "songs": 2174,
      "fail": 2175,
      "pa": 2176,
      "##dom": 2177,
      "##yal": 2178,
      "chang": 2179,
      "fri": 2180,
      "enc": 2181,
      "buildings": 2182,
      "radio": 2183,
      "introdu": 2184,
      "pur": 2185,
      "average": 2186,
      "good": 2187,
      "##ha": 2188,
      "begin": 2189,
      "civil": 2190,
      "bank": 2191,
      "##me": 2192,
      "##isc": 2193,
      "languages": 2194,
      "saint": 2195,
      "produced": 2196,
      "asp": 2197,
      "having": 2198,
      "rank": 2199,
      "##temp": 2200,
      "##board": 2201,
      "rul": 2202,
      "##line": 2203,
      "##xim": 2204,
      "though": 2205,
      "manh": 2206,
      "type": 2207,
      "reserv": 2208,
      "eastern": 2209,
      "created": 2210,
      "attemp": 2211,
      "significant": 2212,
      "du": 2213,
      "rights": 2214,
      "treat": 2215,
      "##ination": 2216,
      "##ases": 2217,
      "##wers": 2218,
      "warsaw": 2219,
      "ra": 2220,
      "minister": 2221,
      "summ": 2222,
      "helena": 2223,
      "##wide": 2224,
      "##ential": 2225,
      "##irl": 2226,
      "seven": 2227,
      "184": 2228,
      "taj": 2229,
      "estim": 2230,
      "let": 2231,
      "forces": 2232,
      "##mb": 2233,
      "studio": 2234,
      "care": 2235,
      "never": 2236,
      "august": 2237,
      "making": 2238,
      "##oma": 2239,
      "pred": 2240,
      "##ators": 2241,
      "days": 2242,
      "##sr": 2243,
      "##ged": 2244,
      "beh": 2245,
      "activ": 2246,
      "netw": 2247,
      "anim": 2248,
      "original": 2249,
      "##attan": 2250,
      "kingdom": 2251,
      "manhattan": 2252,
      "games": 2253,
      "sun": 2254,
      "##sequ": 2255,
      "science": 2256,
      "genocide": 2257,
      "team": 2258,
      "ke": 2259,
      "works": 2260,
      "...": 2261,
      "foc": 2262,
      "short": 2263,
      "comics": 2264,
      "secur": 2265,
      "market": 2266,
      "cath": 2267,
      "women": 2268,
      "##ott": 2269,
      "police": 2270,
      "others": 2271,
      "buddha": 2272,
      "buddhist": 2273,
      "character": 2274,
      "force": 2275,
      "see": 2276,
      "england": 2277,
      "dom": 2278,
      "montana": 2279,
      "kany": 2280,
      "deg": 2281,
      "##ecutive": 2282,
      "square": 2283,
      "kanye": 2284,
      "##lah": 2285,
      "##sh": 2286,
      "commerc": 2287,
      "oklah": 2288,
      "bbc": 2289,
      "##ron": 2290,
      "roman": 2291,
      "sel": 2292,
      "##ison": 2293,
      "##ipt": 2294,
      "ide": 2295,
      "austr": 2296,
      "2004": 2297,
      "mah": 2298,
      "concert": 2299,
      "effect": 2300,
      "sold": 2301,
      "children": 2302,
      "billion": 2303,
      "##anish": 2304,
      "rap": 2305,
      "##ental": 2306,
      "bond": 2307,
      "##apan": 2308,
      "citation": 2309,
      "free": 2310,
      "##uction": 2311,
      "black": 2312,
      "##ban": 2313,
      "##wood": 2314,
      "emper": 2315,
      "text": 2316,
      "tajik": 2317,
      "##cip": 2318,
      "inn": 2319,
      "broadc": 2320,
      "oklahoma": 2321,
      "##eign": 2322,
      "##itive": 2323,
      "next": 2324,
      "critic": 2325,
      "avail": 2326,
      "fac": 2327,
      "obs": 2328,
      "cities": 2329,
      "##bor": 2330,
      "##icult": 2331,
      "##ret": 2332,
      "##ilar": 2333,
      "carr": 2334,
      "##ane": 2335,
      "##ories": 2336,
      "trav": 2337,
      "musical": 2338,
      "##ead": 2339,
      "services": 2340,
      "hall": 2341,
      "##ij": 2342,
      "gram": 2343,
      "mong": 2344,
      "##ission": 2345,
      "##enced": 2346,
      "similar": 2347,
      "present": 2348,
      "concern": 2349,
      "##bert": 2350,
      "institutions": 2351,
      "##ayana": 2352,
      "community": 2353,
      "philosoph": 2354,
      "japan": 2355,
      "##omm": 2356,
      "word": 2357,
      "geor": 2358,
      "pet": 2359,
      "sen": 2360,
      "station": 2361,
      "super": 2362,
      "temper": 2363,
      "##inist": 2364,
      "teach": 2365,
      "ident": 2366,
      "sent": 2367,
      "##ising": 2368,
      "gave": 2369,
      "vol": 2370,
      "performed": 2371,
      "mongol": 2372,
      "you": 2373,
      "##dle": 2374,
      "cop": 2375,
      "sour": 2376,
      "described": 2377,
      "big": 2378,
      "##ara": 2379,
      "eight": 2380,
      "product": 2381,
      "demonstr": 2382,
      "successful": 2383,
      "sell": 2384,
      "uk": 2385,
      "inform": 2386,
      "##ached": 2387,
      "repl": 2388,
      "higher": 2389,
      "ther": 2390,
      "##ops": 2391,
      "cultural": 2392,
      "commercial": 2393,
      "gather": 2394,
      "##ned": 2395,
      "##anks": 2396,
      "##arily": 2397,
      "##ows": 2398,
      "judges": 2399,
      "pubs": 2400,
      "prem": 2401,
      "increased": 2402,
      "religious": 2403,
      "style": 2404,
      "institute": 2405,
      "contestants": 2406,
      "given": 2407,
      "wid": 2408,
      "global": 2409,
      "airport": 2410,
      "establish": 2411,
      "started": 2412,
      "title": 2413,
      "polic": 2414,
      "##acterial": 2415,
      "fire": 2416,
      "town": 2417,
      "50": 2418,
      "##ote": 2419,
      "##ws": 2420,
      "few": 2421,
      "surv": 2422,
      "inf": 2423,
      "space": 2424,
      "##aken": 2425,
      "middle": 2426,
      "german": 2427,
      "interest": 2428,
      "##ee": 2429,
      "prime": 2430,
      "acad": 2431,
      "continued": 2432,
      "wol": 2433,
      "association": 2434,
      "traditional": 2435,
      "emperor": 2436,
      "living": 2437,
      "rou": 2438,
      "saw": 2439,
      "##by": 2440,
      "##eng": 2441,
      "sug": 2442,
      "web": 2443,
      "aut": 2444,
      "fa": 2445,
      "lis": 2446,
      "##erous": 2447,
      "##tern": 2448,
      "indic": 2449,
      "architecture": 2450,
      "grad": 2451,
      "##thing": 2452,
      "france": 2453,
      "species": 2454,
      "##ichuan": 2455,
      "know": 2456,
      "##ps": 2457,
      "should": 2458,
      "systems": 2459,
      "ach": 2460,
      "insp": 2461,
      "23": 2462,
      "discover": 2463,
      "somet": 2464,
      "antibiotics": 2465,
      "spectre": 2466,
      "ethn": 2467,
      "right": 2468,
      "##ivid": 2469,
      "strong": 2470,
      "fourth": 2471,
      "defin": 2472,
      "hop": 2473,
      "##gress": 2474,
      "princip": 2475,
      "##pa": 2476,
      "##stand": 2477,
      "##ocr": 2478,
      "female": 2479,
      "academ": 2480,
      "rate": 2481,
      "worldwide": 2482,
      "wat": 2483,
      "artists": 2484,
      "cost": 2485,
      "came": 2486,
      "fall": 2487,
      "hot": 2488,
      "founded": 2489,
      "territ": 2490,
      "route": 2491,
      "##itan": 2492,
      "usually": 2493,
      "individ": 2494,
      "##ios": 2495,
      "##estic": 2496,
      "party": 2497,
      "franc": 2498,
      "fif": 2499,
      "##asing": 2500,
      "##ateg": 2501,
      "available": 2502,
      "read": 2503,
      "put": 2504,
      "##iny": 2505,
      "cond": 2506,
      "empire": 2507,
      "lower": 2508,
      "body": 2509,
      "mor": 2510,
      "ru": 2511,
      "##ably": 2512,
      "##thern": 2513,
      "street": 2514,
      "billboard": 2515,
      "private": 2516,
      "written": 2517,
      "distin": 2518,
      "##ata": 2519,
      "spanish": 2520,
      "recogn": 2521,
      "182": 2522,
      "desp": 2523,
      "dyn": 2524,
      "nav": 2525,
      "##sc": 2526,
      "##ements": 2527,
      "magaz": 2528,
      "arg": 2529,
      "eston": 2530,
      "instead": 2531,
      "royal": 2532,
      "belie": 2533,
      "satellite": 2534,
      "##istic": 2535,
      "version": 2536,
      "manag": 2537,
      "bor": 2538,
      "god": 2539,
      "half": 2540,
      "opp": 2541,
      "##ring": 2542,
      "##iation": 2543,
      "access": 2544,
      "##ique": 2545,
      "full": 2546,
      "##idence": 2547,
      "news": 2548,
      "##hing": 2549,
      "suggest": 2550,
      "band": 2551,
      "dre": 2552,
      "prop": 2553,
      "##ounds": 2554,
      "studies": 2555,
      "##ption": 2556,
      "played": 2557,
      "den": 2558,
      "domestic": 2559,
      "despite": 2560,
      "pict": 2561,
      "turn": 2562,
      "##aps": 2563,
      "natural": 2564,
      "##ming": 2565,
      "##ca": 2566,
      "##ector": 2567,
      "##anted": 2568,
      "commit": 2569,
      "##ality": 2570,
      "point": 2571,
      "attr": 2572,
      "upon": 2573,
      "mi": 2574,
      "symb": 2575,
      "southern": 2576,
      "birth": 2577,
      "##eration": 2578,
      "##ats": 2579,
      "left": 2580,
      "department": 2581,
      "son": 2582,
      "twil": 2583,
      "ill": 2584,
      "today": 2585,
      "##oted": 2586,
      "protests": 2587,
      "achie": 2588,
      "jay": 2589,
      "ren": 2590,
      "##ingu": 2591,
      "prior": 2592,
      "187": 2593,
      "phot": 2594,
      "##play": 2595,
      "catholic": 2596,
      "alm": 2597,
      "scr": 2598,
      "indian": 2599,
      "regard": 2600,
      "impro": 2601,
      "respect": 2602,
      "hom": 2603,
      "##lin": 2604,
      "federal": 2605,
      "mult": 2606,
      "tel": 2607,
      "##hern": 2608,
      "provide": 2609,
      "40": 2610,
      "##alia": 2611,
      "##akes": 2612,
      "entertain": 2613,
      "dial": 2614,
      "hong": 2615,
      "generally": 2616,
      "scient": 2617,
      "range": 2618,
      "twilight": 2619,
      "mic": 2620,
      "wall": 2621,
      "##gn": 2622,
      "##ones": 2623,
      "stated": 2624,
      "##unic": 2625,
      "struct": 2626,
      "industry": 2627,
      "neigh": 2628,
      "seasons": 2629,
      "26": 2630,
      "launch": 2631,
      "##atory": 2632,
      "risk": 2633,
      "domin": 2634,
      "far": 2635,
      "##itation": 2636,
      "##idge": 2637,
      "words": 2638,
      "novel": 2639,
      "solo": 2640,
      "independent": 2641,
      "##arch": 2642,
      "congress": 2643,
      "schol": 2644,
      "northern": 2645,
      "2003": 2646,
      "constitution": 2647,
      "creat": 2648,
      "dig": 2649,
      "nation": 2650,
      "pan": 2651,
      "##ina": 2652,
      "laws": 2653,
      "ve": 2654,
      "beij": 2655,
      "proble": 2656,
      "##ability": 2657,
      "##antic": 2658,
      "cardinal": 2659,
      "network": 2660,
      "beijing": 2661,
      "whose": 2662,
      "##istance": 2663,
      "india": 2664,
      "society": 2665,
      "der": 2666,
      "##light": 2667,
      "##yt": 2668,
      "across": 2669,
      "date": 2670,
      "vict": 2671,
      "##ither": 2672,
      "phys": 2673,
      "annual": 2674,
      "administ": 2675,
      "##rees": 2676,
      "trib": 2677,
      "plan": 2678,
      "close": 2679,
      "command": 2680,
      "urban": 2681,
      "##hod": 2682,
      "little": 2683,
      "outs": 2684,
      "##mit": 2685,
      "dam": 2686,
      "james": 2687,
      "##oming": 2688,
      "conv": 2689,
      "22": 2690,
      "di": 2691,
      "rather": 2692,
      "##self": 2693,
      "exc": 2694,
      "events": 2695,
      "esp": 2696,
      "get": 2697,
      "nations": 2698,
      "forms": 2699,
      "dynast": 2700,
      "ii": 2701,
      "kind": 2702,
      "##hol": 2703,
      "report": 2704,
      "review": 2705,
      "girl": 2706,
      "lad": 2707,
      "##aper": 2708,
      "188": 2709,
      "##wards": 2710,
      "himself": 2711,
      "football": 2712,
      "voc": 2713,
      "thought": 2714,
      "broadcast": 2715,
      "culture": 2716,
      "sales": 2717,
      "visit": 2718,
      "liter": 2719,
      "approxim": 2720,
      "##etic": 2721,
      "irish": 2722,
      "summer": 2723,
      "food": 2724,
      "##hi": 2725,
      "##ores": 2726,
      "mahayana": 2727,
      "tajikistan": 2728,
      "##imin": 2729,
      "##phone": 2730,
      "hours": 2731,
      ".,": 2732,
      "born": 2733,
      "san": 2734,
      "find": 2735,
      "khan": 2736,
      "sil": 2737,
      "##anned": 2738,
      "legal": 2739,
      "##ling": 2740,
      "represent": 2741,
      "imm": 2742,
      "estimated": 2743,
      "men": 2744,
      "past": 2745,
      "##jects": 2746,
      "note": 2747,
      "accept": 2748,
      "associated": 2749,
      "latin": 2750,
      "80": 2751,
      "went": 2752,
      "money": 2753,
      "democr": 2754,
      "george": 2755,
      "##pr": 2756,
      "##lear": 2757,
      "##ocking": 2758,
      "pot": 2759,
      "youn": 2760,
      "##aces": 2761,
      "brought": 2762,
      "organization": 2763,
      "green": 2764,
      "##ym": 2765,
      "20th": 2766,
      "env": 2767,
      "cele": 2768,
      "##hood": 2769,
      "provided": 2770,
      "contrib": 2771,
      "almost": 2772,
      "key": 2773,
      "gold": 2774,
      "unf": 2775,
      "method": 2776,
      "frequ": 2777,
      "introduced": 2778,
      "leading": 2779,
      "particip": 2780,
      "ball": 2781,
      "foreign": 2782,
      "atl": 2783,
      "launched": 2784,
      "express": 2785,
      "cast": 2786,
      "nine": 2787,
      "viol": 2788,
      "case": 2789,
      "bord": 2790,
      "cod": 2791,
      "hosp": 2792,
      "##ourn": 2793,
      "iran": 2794,
      "allowed": 2795,
      "approximately": 2796,
      "mort": 2797,
      "proper": 2798,
      "2002": 2799,
      "##hens": 2800,
      "credit": 2801,
      "##ta": 2802,
      "spir": 2803,
      "economy": 2804,
      "district": 2805,
      "##ays": 2806,
      "nomin": 2807,
      "ul": 2808,
      "##ki": 2809,
      "##ipp": 2810,
      "##iding": 2811,
      "generation": 2812,
      "eventually": 2813,
      "##omp": 2814,
      "fight": 2815,
      "emb": 2816,
      "##enth": 2817,
      "acqu": 2818,
      "pay": 2819,
      "##ened": 2820,
      "28": 2821,
      "tal": 2822,
      "##pre": 2823,
      "##che": 2824,
      "toget": 2825,
      "pra": 2826,
      "increasing": 2827,
      "status": 2828,
      "security": 2829,
      "together": 2830,
      "coup": 2831,
      "lic": 2832,
      "##ke": 2833,
      "writes": 2834,
      "focus": 2835,
      "cross": 2836,
      "loss": 2837,
      "##alian": 2838,
      "army": 2839,
      "executive": 2840,
      "##sel": 2841,
      "##imate": 2842,
      "##aves": 2843,
      "label": 2844,
      "mot": 2845,
      "stage": 2846,
      "##hers": 2847,
      "minor": 2848,
      "brook": 2849,
      "redu": 2850,
      "##rown": 2851,
      "least": 2852,
      "occurr": 2853,
      "consum": 2854,
      "concent": 2855,
      "destiny": 2856,
      "##medi": 2857,
      "entire": 2858,
      "magazine": 2859,
      "net": 2860,
      "##icle": 2861,
      "##igr": 2862,
      "##ift": 2863,
      "##ape": 2864,
      "appeared": 2865,
      "destro": 2866,
      "debut": 2867,
      "information": 2868,
      "polish": 2869,
      "meaning": 2870,
      "instr": 2871,
      "##ises": 2872,
      "##ula": 2873,
      "student": 2874,
      "gal": 2875,
      "##lier": 2876,
      "##hel": 2877,
      "##ested": 2878,
      "reveal": 2879,
      "terms": 2880,
      "followed": 2881,
      "lighting": 2882,
      "banks": 2883,
      "dail": 2884,
      "pen": 2885,
      "self": 2886,
      "##isl": 2887,
      "disp": 2888,
      "subsequ": 2889,
      "telephone": 2890,
      "daily": 2891,
      "kong": 2892,
      "##eum": 2893,
      "##lus": 2894,
      "##bon": 2895,
      "producer": 2896,
      "##ecially": 2897,
      "reached": 2898,
      "190": 2899,
      "boo": 2900,
      "expand": 2901,
      "especially": 2902,
      "dynasty": 2903,
      "night": 2904,
      "fort": 2905,
      "##ox": 2906,
      "grand": 2907,
      "working": 2908,
      "writing": 2909,
      "breed": 2910,
      "grammy": 2911,
      "##ument": 2912,
      "universities": 2913,
      "friends": 2914,
      "##co": 2915,
      "##ecess": 2916,
      "2000": 2917,
      "clos": 2918,
      "peace": 2919,
      "cam": 2920,
      "site": 2921,
      "majority": 2922,
      "outside": 2923,
      "hold": 2924,
      "##ches": 2925,
      "stad": 2926,
      "employ": 2927,
      "speak": 2928,
      "particularly": 2929,
      "##iron": 2930,
      "spok": 2931,
      "includes": 2932,
      "revolution": 2933,
      "mer": 2934,
      "##aff": 2935,
      "oldest": 2936,
      "patent": 2937,
      "dav": 2938,
      "fut": 2939,
      "mac": 2940,
      "member": 2941,
      "nature": 2942,
      "##ving": 2943,
      "either": 2944,
      "sn": 2945,
      "reb": 2946,
      "chief": 2947,
      "sports": 2948,
      "experim": 2949,
      "returned": 2950,
      "libr": 2951,
      "observ": 2952,
      "sometimes": 2953,
      "##ille": 2954,
      "##ilities": 2955,
      "polyt": 2956,
      "karm": 2957,
      "environ": 2958,
      "mortg": 2959,
      "journ": 2960,
      "lama": 2961,
      "rang": 2962,
      "##ster": 2963,
      "##idents": 2964,
      "trade": 2965,
      "current": 2966,
      "african": 2967,
      "entertainment": 2968,
      "##omet": 2969,
      "humans": 2970,
      "housing": 2971,
      "influenced": 2972,
      "side": 2973,
      "canon": 2974,
      "emerg": 2975,
      "growth": 2976,
      "##iest": 2977,
      "##utes": 2978,
      "museum": 2979,
      "parli": 2980,
      "recorded": 2981,
      "films": 2982,
      "respons": 2983,
      "germany": 2984,
      "engineering": 2985,
      "competition": 2986,
      "telec": 2987,
      "##selves": 2988,
      "et": 2989,
      "##here": 2990,
      "cho": 2991,
      "related": 2992,
      "antibacterial": 2993,
      "##aft": 2994,
      "earlier": 2995,
      "originally": 2996,
      "beginning": 2997,
      "ho": 2998,
      "##oration": 2999,
      "sequ": 3000,
      "metrop": 3001,
      "willi": 3002,
      "officials": 3003,
      "neighbor": 3004,
      "polytechn": 3005,
      "27": 3006,
      "alex": 3007,
      "composer": 3008,
      "philosophy": 3009,
      "selling": 3010,
      "mad": 3011,
      "anc": 3012,
      "##umb": 3013,
      "wind": 3014,
      "diff": 3015,
      "opened": 3016,
      "professional": 3017,
      "base": 3018,
      "rom": 3019,
      "##uel": 3020,
      "##olitan": 3021,
      "##action": 3022,
      "model": 3023,
      "hit": 3024,
      "##ceed": 3025,
      "newsp": 3026,
      "hunter": 3027,
      "##uter": 3028,
      "##ex": 3029,
      "once": 3030,
      "19th": 3031,
      "##elled": 3032,
      "legisl": 3033,
      "princess": 3034,
      "data": 3035,
      "sichuan": 3036,
      "whom": 3037,
      "armed": 3038,
      "adop": 3039,
      "famous": 3040,
      "cerem": 3041,
      "mal": 3042,
      "mel": 3043,
      "tv": 3044,
      "wii": 3045,
      "spread": 3046,
      "months": 3047,
      "metropolitan": 3048,
      "fig": 3049,
      "##west": 3050,
      "##ada": 3051,
      "canada": 3052,
      "##augh": 3053,
      "field": 3054,
      "change": 3055,
      "seen": 3056,
      "position": 3057,
      "parliament": 3058,
      "rat": 3059,
      "online": 3060,
      "action": 3061,
      "meet": 3062,
      "themselves": 3063,
      "speech": 3064,
      "source": 3065,
      "35": 3066,
      "dal": 3067,
      "path": 3068,
      "concept": 3069,
      "congo": 3070,
      "press": 3071,
      "flame": 3072,
      "opening": 3073,
      "project": 3074,
      "singer": 3075,
      "primary": 3076,
      "aspir": 3077,
      "60": 3078,
      "che": 3079,
      "hon": 3080,
      "vill": 3081,
      "contemp": 3082,
      "##ands": 3083,
      "2001": 3084,
      "incor": 3085,
      "secret": 3086,
      "medical": 3087,
      "maintain": 3088,
      "moved": 3089,
      "designed": 3090,
      "distinct": 3091,
      "gas": 3092,
      "hill": 3093,
      "##inals": 3094,
      "communic": 3095,
      "religion": 3096,
      "##ography": 3097,
      "referred": 3098,
      "hospital": 3099,
      ",\"": 3100,
      "agre": 3101,
      "career": 3102,
      "##otes": 3103,
      "recent": 3104,
      "##rupt": 3105,
      "(\"": 3106,
      "died": 3107,
      "##hu": 3108,
      "beer": 3109,
      "formed": 3110,
      "authority": 3111,
      "rich": 3112,
      "##bear": 3113,
      "corpor": 3114,
      "bal": 3115,
      "cens": 3116,
      "dut": 3117,
      "reach": 3118,
      "181": 3119,
      "parts": 3120,
      "governor": 3121,
      "charles": 3122,
      "organiz": 3123,
      "hund": 3124,
      "electric": 3125,
      "experience": 3126,
      "previously": 3127,
      "stadium": 3128,
      "environment": 3129,
      "lear": 3130,
      "tar": 3131,
      "##has": 3132,
      "##aign": 3133,
      "practice": 3134,
      "campaign": 3135,
      "travel": 3136,
      "widely": 3137,
      "300": 3138,
      "ign": 3139,
      "##ao": 3140,
      "##idou": 3141,
      "beidou": 3142,
      "scre": 3143,
      "syn": 3144,
      "regul": 3145,
      "sut": 3146,
      "woman": 3147,
      "##ties": 3148,
      "##bit": 3149,
      "itself": 3150,
      "destroy": 3151,
      "too": 3152,
      "thous": 3153,
      "##tered": 3154,
      "nearly": 3155,
      "ce": 3156,
      "ver": 3157,
      "genome": 3158,
      "effects": 3159,
      "immedi": 3160,
      "russia": 3161,
      "ranked": 3162,
      "ess": 3163,
      "sit": 3164,
      "##ae": 3165,
      "##igation": 3166,
      "numerous": 3167,
      "##ways": 3168,
      "sony": 3169,
      "##orary": 3170,
      "understand": 3171,
      "hundred": 3172,
      "oce": 3173,
      "si": 3174,
      "##urs": 3175,
      "ord": 3176,
      "consist": 3177,
      "influence": 3178,
      "future": 3179,
      "cyc": 3180,
      "##hous": 3181,
      "complex": 3182,
      "##ips": 3183,
      "atlantic": 3184,
      "bet": 3185,
      "hip": 3186,
      "names": 3187,
      "vie": 3188,
      "##omb": 3189,
      "heav": 3190,
      "track": 3191,
      "means": 3192,
      "albums": 3193,
      "construction": 3194,
      "estonian": 3195,
      "scholars": 3196,
      "fav": 3197,
      "fash": 3198,
      "mr": 3199,
      "must": 3200,
      "##ked": 3201,
      "reason": 3202,
      "connect": 3203,
      "sem": 3204,
      "##uation": 3205,
      "why": 3206,
      "##iction": 3207,
      "efforts": 3208,
      "pictures": 3209,
      "500": 3210,
      "##eks": 3211,
      "##iec": 3212,
      "##orial": 3213,
      "centre": 3214,
      "##ification": 3215,
      "variety": 3216,
      "lived": 3217,
      "wide": 3218,
      "story": 3219,
      "asia": 3220,
      "##ims": 3221,
      "neg": 3222,
      "leag": 3223,
      "columb": 3224,
      "##ensive": 3225,
      "meas": 3226,
      "signed": 3227,
      "critics": 3228,
      "primarily": 3229,
      "##het": 3230,
      "##echan": 3231,
      "##lyn": 3232,
      "able": 3233,
      "room": 3234,
      "angel": 3235,
      "digital": 3236,
      "cause": 3237,
      "kil": 3238,
      "certain": 3239,
      "fashion": 3240,
      "overs": 3241,
      "##ano": 3242,
      "##ults": 3243,
      "shows": 3244,
      "remains": 3245,
      "torchbear": 3246,
      "greater": 3247,
      "caused": 3248,
      "bacter": 3249,
      "mocking": 3250,
      "##ners": 3251,
      "abs": 3252,
      "becoming": 3253,
      "served": 3254,
      "involved": 3255,
      "degrees": 3256,
      "individual": 3257,
      "bene": 3258,
      "fest": 3259,
      "native": 3260,
      "ts": 3261,
      "##yr": 3262,
      "##duct": 3263,
      "##acted": 3264,
      "personal": 3265,
      "revealed": 3266,
      "incorpor": 3267,
      "bur": 3268,
      "nar": 3269,
      "tom": 3270,
      "resistance": 3271,
      "colon": 3272,
      "elements": 3273,
      "suffering": 3274,
      "brooklyn": 3275,
      "70": 3276,
      "zeld": 3277,
      "##ax": 3278,
      "##face": 3279,
      "##aries": 3280,
      "maria": 3281,
      "##reek": 3282,
      "zelda": 3283,
      "gross": 3284,
      "##lied": 3285,
      "##ago": 3286,
      "citiz": 3287,
      "reserve": 3288,
      "fifth": 3289,
      "heat": 3290,
      "performances": 3291,
      "required": 3292,
      "possible": 3293,
      "policy": 3294,
      "mill": 3295,
      "rail": 3296,
      "size": 3297,
      "##ili": 3298,
      "stop": 3299,
      "subject": 3300,
      "cir": 3301,
      "cell": 3302,
      "commission": 3303,
      "decade": 3304,
      "officially": 3305,
      "devon": 3306,
      "africa": 3307,
      "31": 3308,
      "##anch": 3309,
      "compan": 3310,
      "canc": 3311,
      "cardinals": 3312,
      "##ael": 3313,
      "##nel": 3314,
      "##yl": 3315,
      "compre": 3316,
      "applic": 3317,
      "separate": 3318,
      "fel": 3319,
      "##bird": 3320,
      "latter": 3321,
      "##ads": 3322,
      "operations": 3323,
      "guard": 3324,
      "behav": 3325,
      "mich": 3326,
      "tou": 3327,
      "vir": 3328,
      "sex": 3329,
      "offer": 3330,
      "##isms": 3331,
      "recording": 3332,
      "##ixed": 3333,
      "inj": 3334,
      "things": 3335,
      "##ude": 3336,
      "come": 3337,
      "specific": 3338,
      "movie": 3339,
      "mathem": 3340,
      "voice": 3341,
      "carried": 3342,
      "premi": 3343,
      "ful": 3344,
      "round": 3345,
      "##uf": 3346,
      "active": 3347,
      "##ieties": 3348,
      "1990s": 3349,
      "##tv": 3350,
      "chic": 3351,
      "uses": 3352,
      "##quar": 3353,
      "regular": 3354,
      "owned": 3355,
      "mob": 3356,
      "gam": 3357,
      "thus": 3358,
      "##lement": 3359,
      "chair": 3360,
      "overall": 3361,
      "construct": 3362,
      "alexand": 3363,
      "jose": 3364,
      "mechan": 3365,
      "##teen": 3366,
      "altern": 3367,
      "comment": 3368,
      "2016": 3369,
      "display": 3370,
      "weeks": 3371,
      "concerns": 3372,
      "veh": 3373,
      "comprehens": 3374,
      "##50": 3375,
      "##writ": 3376,
      "##amm": 3377,
      "##iance": 3378,
      "director": 3379,
      "concentr": 3380,
      "david": 3381,
      "##ius": 3382,
      "resc": 3383,
      "singles": 3384,
      "protesters": 3385,
      "test": 3386,
      "##inc": 3387,
      "training": 3388,
      "benef": 3389,
      "era": 3390,
      "greek": 3391,
      "lost": 3392,
      "##aj": 3393,
      "anal": 3394,
      "confer": 3395,
      "orth": 3396,
      "elimin": 3397,
      "##cript": 3398,
      "longer": 3399,
      "starting": 3400,
      "rac": 3401,
      "taken": 3402,
      "refl": 3403,
      "except": 3404,
      "scout": 3405,
      "foundation": 3406,
      "houses": 3407,
      "increase": 3408,
      "division": 3409,
      "initially": 3410,
      "library": 3411,
      "##ugh": 3412,
      "##iforn": 3413,
      "teams": 3414,
      "californ": 3415,
      "keep": 3416,
      "mockingbird": 3417,
      "giving": 3418,
      "##gar": 3419,
      "##orters": 3420,
      "##ope": 3421,
      "##ishing": 3422,
      "mach": 3423,
      "regions": 3424,
      "robert": 3425,
      "sett": 3426,
      "distrib": 3427,
      "surr": 3428,
      "##ror": 3429,
      "##ne": 3430,
      "##rovers": 3431,
      "que": 3432,
      "arts": 3433,
      "186": 3434,
      "controvers": 3435,
      "##ustom": 3436,
      "metaph": 3437,
      "winner": 3438,
      "movement": 3439,
      "celebr": 3440,
      "california": 3441,
      "##bur": 3442,
      "fred": 3443,
      "##ously": 3444,
      "sho": 3445,
      "powers": 3446,
      "collect": 3447,
      "listed": 3448,
      "recognized": 3449,
      "chicago": 3450,
      "away": 3451,
      "##ging": 3452,
      "##oon": 3453,
      "##ya": 3454,
      "##ona": 3455,
      "conduct": 3456,
      "##ollo": 3457,
      "quar": 3458,
      "cold": 3459,
      "joined": 3460,
      "saf": 3461,
      "fox": 3462,
      "scientific": 3463,
      "##atives": 3464,
      "##ocks": 3465,
      "plants": 3466,
      "earned": 3467,
      "judge": 3468,
      "hor": 3469,
      "kore": 3470,
      "##erts": 3471,
      "##icus": 3472,
      "washing": 3473,
      "flight": 3474,
      "collab": 3475,
      "occas": 3476,
      "er": 3477,
      "happ": 3478,
      "##uit": 3479,
      "quake": 3480,
      "promin": 3481,
      "occup": 3482,
      "iranian": 3483,
      "categ": 3484,
      "##to": 3485,
      "##umn": 3486,
      "placed": 3487,
      "planned": 3488,
      "above": 3489,
      "ipods": 3490,
      "letter": 3491,
      "rule": 3492,
      "circ": 3493,
      "29": 3494,
      "##men": 3495,
      "##bre": 3496,
      "greatest": 3497,
      "animals": 3498,
      "administration": 3499,
      "ult": 3500,
      "difficult": 3501,
      "via": 3502,
      "##ka": 3503,
      "beaut": 3504,
      "deal": 3505,
      "##unes": 3506,
      "evidence": 3507,
      "script": 3508,
      "chart": 3509,
      "##essed": 3510,
      "##iple": 3511,
      "intell": 3512,
      "bridge": 3513,
      "highly": 3514,
      "audience": 3515,
      "featured": 3516,
      "claimed": 3517,
      "dalai": 3518,
      "sus": 3519,
      "heart": 3520,
      "regional": 3521,
      "mind": 3522,
      "attention": 3523,
      "technical": 3524,
      "##inking": 3525,
      "matter": 3526,
      "killed": 3527,
      "ocean": 3528,
      "los": 3529,
      "##fall": 3530,
      "theory": 3531,
      "##ung": 3532,
      "##iff": 3533,
      "189": 3534,
      "wolf": 3535,
      "definition": 3536,
      "pure": 3537,
      "taking": 3538,
      "##ita": 3539,
      "##iful": 3540,
      "noted": 3541,
      "cook": 3542,
      "ended": 3543,
      "paul": 3544,
      "teaching": 3545,
      "committe": 3546,
      "##ston": 3547,
      "granted": 3548,
      "pope": 3549,
      "subs": 3550,
      "subst": 3551,
      "coast": 3552,
      "remov": 3553,
      "palace": 3554,
      "limited": 3555,
      "potential": 3556,
      "viewers": 3557,
      "washington": 3558,
      "custom": 3559,
      "##lywood": 3560,
      "##und": 3561,
      "##icted": 3562,
      "simp": 3563,
      "percentage": 3564,
      "fell": 3565,
      "##lam": 3566,
      "##atures": 3567,
      "##arks": 3568,
      "##ayed": 3569,
      "##vert": 3570,
      "amount": 3571,
      "##actions": 3572,
      "americans": 3573,
      "miles": 3574,
      "historical": 3575,
      "replaced": 3576,
      "symbol": 3577,
      "labor": 3578,
      "passed": 3579,
      "agr": 3580,
      "give": 3581,
      "##ump": 3582,
      "soon": 3583,
      "failed": 3584,
      "columbia": 3585,
      "thir": 3586,
      "##oting": 3587,
      "##ologists": 3588,
      "headquar": 3589,
      "saying": 3590,
      "texts": 3591,
      "league": 3592,
      "might": 3593,
      "##uate": 3594,
      "##atively": 3595,
      "supre": 3596,
      "##ommunic": 3597,
      "borough": 3598,
      "couple": 3599,
      "kilomet": 3600,
      "surround": 3601,
      "yet": 3602,
      "##bed": 3603,
      "##iced": 3604,
      "intended": 3605,
      "twent": 3606,
      "##grad": 3607,
      "produce": 3608,
      "poin": 3609,
      "colleges": 3610,
      "combined": 3611,
      "management": 3612,
      "touch": 3613,
      "chem": 3614,
      "unc": 3615,
      "residents": 3616,
      "box": 3617,
      "patr": 3618,
      "basic": 3619,
      "##ographic": 3620,
      "rocket": 3621,
      "inspired": 3622,
      "90": 3623,
      "ment": 3624,
      "moun": 3625,
      "tro": 3626,
      "##for": 3627,
      "##ini": 3628,
      "thing": 3629,
      "compar": 3630,
      "carry": 3631,
      "flag": 3632,
      "winter": 3633,
      "determ": 3634,
      "initi": 3635,
      "jew": 3636,
      "existence": 3637,
      "young": 3638,
      "ceremony": 3639,
      "cases": 3640,
      "purch": 3641,
      "##enue": 3642,
      "##uries": 3643,
      "webs": 3644,
      "break": 3645,
      "antibiotic": 3646,
      "hollywood": 3647,
      "fle": 3648,
      "##oin": 3649,
      "##ev": 3650,
      "unl": 3651,
      "brows": 3652,
      "##encies": 3653,
      "depend": 3654,
      "friend": 3655,
      "batt": 3656,
      "lack": 3657,
      "##uth": 3658,
      "chur": 3659,
      "pron": 3660,
      "compared": 3661,
      "interv": 3662,
      "poland": 3663,
      "brother": 3664,
      "blue": 3665,
      "collection": 3666,
      "##liest": 3667,
      "purp": 3668,
      "temperature": 3669,
      "books": 3670,
      "rescue": 3671,
      "hen": 3672,
      "log": 3673,
      "##osen": 3674,
      "atticus": 3675,
      "obtain": 3676,
      "growing": 3677,
      "lisz": 3678,
      "occurred": 3679,
      "##ras": 3680,
      "##aya": 3681,
      "adj": 3682,
      "detail": 3683,
      "physical": 3684,
      "unfpa": 3685,
      "liszt": 3686,
      "bat": 3687,
      "mcc": 3688,
      "##onom": 3689,
      "sea": 3690,
      "itunes": 3691,
      "presence": 3692,
      "function": 3693,
      "vote": 3694,
      "authorities": 3695,
      "paid": 3696,
      "spirit": 3697,
      "mortgage": 3698,
      "william": 3699,
      "metaphys": 3700,
      "crown": 3701,
      "hud": 3702,
      "lam": 3703,
      "wides": 3704,
      "##pread": 3705,
      "##aging": 3706,
      "orbit": 3707,
      "prince": 3708,
      "arrang": 3709,
      "campus": 3710,
      "comprehensive": 3711,
      "agricult": 3712,
      "widespread": 3713,
      "cut": 3714,
      "mom": 3715,
      "ox": 3716,
      "pun": 3717,
      "threat": 3718,
      "##ective": 3719,
      "applied": 3720,
      "counter": 3721,
      "attend": 3722,
      "midna": 3723,
      "contemporary": 3724,
      "michael": 3725,
      "jacks": 3726,
      "sam": 3727,
      "vent": 3728,
      "elected": 3729,
      "added": 3730,
      "serious": 3731,
      "features": 3732,
      "micro": 3733,
      "ber": 3734,
      "hard": 3735,
      "inte": 3736,
      "##apt": 3737,
      "color": 3738,
      "serve": 3739,
      "consider": 3740,
      "renamed": 3741,
      "committee": 3742,
      "integr": 3743,
      "tur": 3744,
      "##istics": 3745,
      "##ugg": 3746,
      "showed": 3747,
      "transmit": 3748,
      "effort": 3749,
      "continu": 3750,
      "discuss": 3751,
      "types": 3752,
      "1970s": 3753,
      "examples": 3754,
      "valenc": 3755,
      "failure": 3756,
      "sixt": 3757,
      "reform": 3758,
      "clo": 3759,
      "province": 3760,
      "remained": 3761,
      "idea": 3762,
      "immigr": 3763,
      "dar": 3764,
      "##xic": 3765,
      "##ett": 3766,
      "exch": 3767,
      "poor": 3768,
      "defined": 3769,
      "object": 3770,
      "demand": 3771,
      "avo": 3772,
      "helped": 3773,
      "beautiful": 3774,
      "churches": 3775,
      "kh": 3776,
      "yuan": 3777,
      "champ": 3778,
      "arab": 3779,
      "finale": 3780,
      "teac": 3781,
      "mission": 3782,
      "citizens": 3783,
      "hudson": 3784,
      "mtv": 3785,
      "##hy": 3786,
      "##pts": 3787,
      "##onse": 3788,
      "##eth": 3789,
      "##ades": 3790,
      "ussr": 3791,
      "relief": 3792,
      "canis": 3793,
      "braz": 3794,
      "loans": 3795,
      "investment": 3796,
      "freed": 3797,
      "prominent": 3798,
      "fer": 3799,
      "##ume": 3800,
      "scot": 3801,
      "appar": 3802,
      "conserv": 3803,
      "remain": 3804,
      "1991": 3805,
      "transl": 3806,
      "composed": 3807,
      "additional": 3808,
      "attempt": 3809,
      "problems": 3810,
      "telecommunic": 3811,
      "thousands": 3812,
      "esc": 3813,
      "norm": 3814,
      "##apa": 3815,
      "##apers": 3816,
      "true": 3817,
      "programs": 3818,
      "treaty": 3819,
      "clear": 3820,
      "mess": 3821,
      "##endo": 3822,
      "worked": 3823,
      "create": 3824,
      "##ledge": 3825,
      "commonly": 3826,
      "resulting": 3827,
      "contestant": 3828,
      "francisc": 3829,
      "adopted": 3830,
      "mountain": 3831,
      "gaut": 3832,
      "##ze": 3833,
      "##ulated": 3834,
      "spain": 3835,
      "shar": 3836,
      "feature": 3837,
      "cultures": 3838,
      "hunting": 3839,
      "japanese": 3840,
      "journal": 3841,
      "responsible": 3842,
      "gautama": 3843,
      "necess": 3844,
      "wench": 3845,
      "##elds": 3846,
      "britain": 3847,
      "soul": 3848,
      "epis": 3849,
      "completed": 3850,
      "rapid": 3851,
      "faith": 3852,
      "festival": 3853,
      "wenchuan": 3854,
      "32": 3855,
      "dang": 3856,
      "mixed": 3857,
      "##ney": 3858,
      "##ira": 3859,
      "manuf": 3860,
      "larger": 3861,
      "supported": 3862,
      "response": 3863,
      "vocal": 3864,
      "jackson": 3865,
      "manufact": 3866,
      "oil": 3867,
      "sector": 3868,
      "##ky": 3869,
      "##ield": 3870,
      "##back": 3871,
      "##orks": 3872,
      "##ica": 3873,
      "##omas": 3874,
      "unit": 3875,
      "truth": 3876,
      "income": 3877,
      "appearance": 3878,
      "changes": 3879,
      "discovered": 3880,
      "target": 3881,
      "dou": 3882,
      "piec": 3883,
      "wire": 3884,
      "##ware": 3885,
      "notable": 3886,
      "mostly": 3887,
      "declined": 3888,
      "ethnic": 3889,
      "territory": 3890,
      "bow": 3891,
      "bay": 3892,
      "drop": 3893,
      "kr": 3894,
      "climate": 3895,
      "wealth": 3896,
      "leaders": 3897,
      "typically": 3898,
      "standards": 3899,
      "issue": 3900,
      "machine": 3901,
      "pil": 3902,
      "offered": 3903,
      "diss": 3904,
      "parents": 3905,
      "cra": 3906,
      "mayor": 3907,
      "1980s": 3908,
      "pali": 3909,
      "innov": 3910,
      "##ength": 3911,
      "structure": 3912,
      "bacteria": 3913,
      "##yk": 3914,
      "towards": 3915,
      "heres": 3916,
      "studios": 3917,
      "secondary": 3918,
      "sciences": 3919,
      "practices": 3920,
      "attempted": 3921,
      "behind": 3922,
      "academic": 3923,
      "immediately": 3924,
      "##fsr": 3925,
      "##itor": 3926,
      "##ifer": 3927,
      "beyond": 3928,
      "##ension": 3929,
      "##resp": 3930,
      "grew": 3931,
      "visited": 3932,
      "mobile": 3933,
      "cab": 3934,
      "##ining": 3935,
      "##ense": 3936,
      "stone": 3937,
      "alread": 3938,
      "sky": 3939,
      "epic": 3940,
      "already": 3941,
      "blo": 3942,
      "##uated": 3943,
      "##itz": 3944,
      "chann": 3945,
      "decided": 3946,
      "filming": 3947,
      "image": 3948,
      "electron": 3949,
      "cbs": 3950,
      "##ots": 3951,
      "amb": 3952,
      "plant": 3953,
      "account": 3954,
      "##ikely": 3955,
      "emphas": 3956,
      "coverage": 3957,
      "christianity": 3958,
      "census": 3959,
      "queens": 3960,
      "dark": 3961,
      "gar": 3962,
      "master": 3963,
      "mention": 3964,
      "rise": 3965,
      "##ler": 3966,
      "move": 3967,
      "electr": 3968,
      "value": 3969,
      "romance": 3970,
      "better": 3971,
      "cd": 3972,
      "mart": 3973,
      "inh": 3974,
      "##ici": 3975,
      "confl": 3976,
      "##ession": 3977,
      "club": 3978,
      "##achus": 3979,
      "affected": 3980,
      "reality": 3981,
      "independence": 3982,
      "lisbon": 3983,
      "fighting": 3984,
      "electricity": 3985,
      "companies": 3986,
      "sixth": 3987,
      "##band": 3988,
      "theat": 3989,
      "##edy": 3990,
      "bron": 3991,
      "joint": 3992,
      "mainly": 3993,
      "markets": 3994,
      "##asha": 3995,
      "products": 3996,
      "activities": 3997,
      "ancient": 3998,
      "organizations": 3999,
      "ec": 4000,
      "gard": 4001,
      "stations": 4002,
      "uns": 4003,
      "##ibility": 4004,
      "crime": 4005,
      "##gy": 4006,
      "chall": 4007,
      "prob": 4008,
      "##ify": 4009,
      "evolution": 4010,
      "##lands": 4011,
      "larg": 4012,
      "##ierce": 4013,
      "arrived": 4014,
      "decline": 4015,
      "encour": 4016,
      "mur": 4017,
      "##edic": 4018,
      "##arian": 4019,
      "##etts": 4020,
      "store": 4021,
      "arm": 4022,
      "spent": 4023,
      "centuries": 4024,
      "capac": 4025,
      "winning": 4026,
      "look": 4027,
      "massachus": 4028,
      "fault": 4029,
      "alexander": 4030,
      "massachusetts": 4031,
      "lu": 4032,
      "nick": 4033,
      "ring": 4034,
      "wear": 4035,
      "##ho": 4036,
      "##ias": 4037,
      "##uments": 4038,
      "location": 4039,
      "older": 4040,
      "frequently": 4041,
      "screen": 4042,
      "francisco": 4043,
      "cos": 4044,
      "item": 4045,
      "##enes": 4046,
      "##istry": 4047,
      "resour": 4048,
      "##izing": 4049,
      "bring": 4050,
      "corre": 4051,
      "polytechnic": 4052,
      "bad": 4053,
      "divers": 4054,
      "mut": 4055,
      "pain": 4056,
      "sasha": 4057,
      "##pan": 4058,
      "##yder": 4059,
      "##ream": 4060,
      "##stream": 4061,
      "fryder": 4062,
      "prices": 4063,
      "tax": 4064,
      "critical": 4065,
      "request": 4066,
      "degree": 4067,
      "knowledge": 4068,
      "conditions": 4069,
      "exclus": 4070,
      "dutch": 4071,
      "clothing": 4072,
      "fryderyk": 4073,
      "fierce": 4074,
      "rome": 4075,
      "wild": 4076,
      "##aker": 4077,
      "actress": 4078,
      "concerts": 4079,
      "basis": 4080,
      "northe": 4081,
      "limit": 4082,
      "raised": 4083,
      "animal": 4084,
      "multiple": 4085,
      "##hetic": 4086,
      "##ush": 4087,
      "finally": 4088,
      "societies": 4089,
      "initial": 4090,
      "copies": 4091,
      "dream": 4092,
      ".)": 4093,
      "daugh": 4094,
      "##kk": 4095,
      "##cul": 4096,
      "##ja": 4097,
      "forb": 4098,
      "forced": 4099,
      "und": 4100,
      "whether": 4101,
      "ground": 4102,
      "ability": 4103,
      "accoun": 4104,
      "persian": 4105,
      "awarded": 4106,
      "corresp": 4107,
      "affair": 4108,
      "temperatures": 4109,
      "watch": 4110,
      "code": 4111,
      "favor": 4112,
      "henry": 4113,
      "correspond": 4114,
      "33": 4115,
      "##val": 4116,
      "##ba": 4117,
      "##oles": 4118,
      "##ivity": 4119,
      "perman": 4120,
      "universe": 4121,
      "contrast": 4122,
      "courts": 4123,
      "##heng": 4124,
      "ideas": 4125,
      "dip": 4126,
      "ha": 4127,
      "##ga": 4128,
      "##ei": 4129,
      "##ald": 4130,
      "##omes": 4131,
      "consequ": 4132,
      "##illed": 4133,
      "italian": 4134,
      "share": 4135,
      "conson": 4136,
      "islands": 4137,
      "neighborhood": 4138,
      "corporation": 4139,
      "susp": 4140,
      "supreme": 4141,
      "twenty": 4142,
      "nint": 4143,
      "conce": 4144,
      "numbers": 4145,
      "leader": 4146,
      "featuring": 4147,
      "selected": 4148,
      "valencian": 4149,
      "nintendo": 4150,
      "49": 4151,
      "crow": 4152,
      "thomas": 4153,
      "asian": 4154,
      "spons": 4155,
      "results": 4156,
      "strateg": 4157,
      "describe": 4158,
      "currently": 4159,
      "complete": 4160,
      "destroyed": 4161,
      "premiered": 4162,
      "troops": 4163,
      "episod": 4164,
      "bish": 4165,
      "##well": 4166,
      "##itude": 4167,
      "##olved": 4168,
      "exam": 4169,
      "shown": 4170,
      "election": 4171,
      "attended": 4172,
      "transfer": 4173,
      "##arked": 4174,
      "teachings": 4175,
      "dialects": 4176,
      "newspaper": 4177,
      "angeles": 4178,
      "ultim": 4179,
      "rub": 4180,
      "sister": 4181,
      "##asts": 4182,
      "dead": 4183,
      "minim": 4184,
      "architectural": 4185,
      "explor": 4186,
      "suffered": 4187,
      "activity": 4188,
      "karma": 4189,
      "##house": 4190,
      "eliminated": 4191,
      "challen": 4192,
      "ly": 4193,
      "sens": 4194,
      "##di": 4195,
      "trial": 4196,
      "##aka": 4197,
      "places": 4198,
      "medic": 4199,
      "theme": 4200,
      "directly": 4201,
      "refused": 4202,
      "therm": 4203,
      "suggested": 4204,
      "##isation": 4205,
      "##isions": 4206,
      "frank": 4207,
      "front": 4208,
      "##pped": 4209,
      "shad": 4210,
      "gray": 4211,
      "scott": 4212,
      "earliest": 4213,
      "soft": 4214,
      "funds": 4215,
      "somalia": 4216,
      "tempor": 4217,
      "historic": 4218,
      "levels": 4219,
      "joseph": 4220,
      "quarter": 4221,
      "ultimately": 4222,
      "dna": 4223,
      "yong": 4224,
      "##hold": 4225,
      "##side": 4226,
      "comic": 4227,
      "##ologist": 4228,
      "##olled": 4229,
      "rob": 4230,
      "transport": 4231,
      "christians": 4232,
      "prompt": 4233,
      "versions": 4234,
      "academy": 4235,
      "exchange": 4236,
      "largely": 4237,
      "##uals": 4238,
      "##ino": 4239,
      "sust": 4240,
      "##ife": 4241,
      "users": 4242,
      "reports": 4243,
      "indym": 4244,
      "strugg": 4245,
      "flor": 4246,
      "declared": 4247,
      "changed": 4248,
      "gatherers": 4249,
      "panel": 4250,
      "problem": 4251,
      "accepted": 4252,
      "indymac": 4253,
      "cart": 4254,
      "jers": 4255,
      "##ali": 4256,
      "##idal": 4257,
      "craz": 4258,
      "drug": 4259,
      "satellites": 4260,
      "australia": 4261,
      "sense": 4262,
      "jersey": 4263,
      "tun": 4264,
      "##inary": 4265,
      "##lying": 4266,
      "##ids": 4267,
      "##emb": 4268,
      "##astic": 4269,
      "agency": 4270,
      "impact": 4271,
      "singing": 4272,
      "publication": 4273,
      "deploy": 4274,
      "institution": 4275,
      "doctr": 4276,
      "ladies": 4277,
      "ratings": 4278,
      "75": 4279,
      "hin": 4280,
      "mend": 4281,
      "##iration": 4282,
      "islam": 4283,
      "quick": 4284,
      "alt": 4285,
      "plat": 4286,
      "decre": 4287,
      "conclud": 4288,
      "1990": 4289,
      "collaps": 4290,
      "fields": 4291,
      "believed": 4292,
      "literary": 4293,
      "village": 4294,
      "opt": 4295,
      "##kn": 4296,
      "##iw": 4297,
      "##odox": 4298,
      "enough": 4299,
      "##ube": 4300,
      "genes": 4301,
      "settle": 4302,
      "goal": 4303,
      "processes": 4304,
      "require": 4305,
      "communications": 4306,
      "constructed": 4307,
      "bac": 4308,
      "sir": 4309,
      "save": 4310,
      "votes": 4311,
      "##ma": 4312,
      "##isted": 4313,
      "orche": 4314,
      "##try": 4315,
      "providing": 4316,
      "supporters": 4317,
      "150": 4318,
      "element": 4319,
      "doct": 4320,
      "subsequent": 4321,
      "batter": 4322,
      "moment": 4323,
      "orchestr": 4324,
      "naz": 4325,
      "race": 4326,
      "##rative": 4327,
      "##min": 4328,
      "##ires": 4329,
      "##acters": 4330,
      "format": 4331,
      "characters": 4332,
      "experi": 4333,
      "bask": 4334,
      "productions": 4335,
      "secretary": 4336,
      "rain": 4337,
      "tas": 4338,
      "##ford": 4339,
      "##bu": 4340,
      "##onic": 4341,
      "quant": 4342,
      "units": 4343,
      "priest": 4344,
      "2000s": 4345,
      "notes": 4346,
      "apart": 4347,
      "traditions": 4348,
      "address": 4349,
      "smaller": 4350,
      "funding": 4351,
      "conference": 4352,
      "frederic": 4353,
      "cosm": 4354,
      "nas": 4355,
      "##emm": 4356,
      "##osition": 4357,
      "dise": 4358,
      "peak": 4359,
      "defence": 4360,
      "alongside": 4361,
      "speakers": 4362,
      "overse": 4363,
      "male": 4364,
      "always": 4365,
      "##acts": 4366,
      "frag": 4367,
      "pros": 4368,
      "closed": 4369,
      "##ologies": 4370,
      "branch": 4371,
      "##ika": 4372,
      "consecutive": 4373,
      "draw": 4374,
      "materials": 4375,
      "agreement": 4376,
      "behavior": 4377,
      "ath": 4378,
      "dro": 4379,
      "eas": 4380,
      "ft": 4381,
      "flo": 4382,
      "munic": 4383,
      "our": 4384,
      "tre": 4385,
      "##ried": 4386,
      "board": 4387,
      "therav": 4388,
      "believe": 4389,
      "regarded": 4390,
      "girls": 4391,
      "avoid": 4392,
      "municip": 4393,
      "cf": 4394,
      "cur": 4395,
      "lamp": 4396,
      "rough": 4397,
      "##town": 4398,
      "##asc": 4399,
      "##ils": 4400,
      "compass": 4401,
      "185": 4402,
      "therefore": 4403,
      "audio": 4404,
      "treatment": 4405,
      "synt": 4406,
      "negative": 4407,
      "immigrants": 4408,
      "da": 4409,
      "gives": 4410,
      "##ule": 4411,
      "##iary": 4412,
      "##orf": 4413,
      "##track": 4414,
      "else": 4415,
      "provides": 4416,
      "affect": 4417,
      "letters": 4418,
      "respectively": 4419,
      "democratic": 4420,
      "border": 4421,
      "alternative": 4422,
      "65": 4423,
      "tim": 4424,
      "##uff": 4425,
      "##ef": 4426,
      "chosen": 4427,
      "content": 4428,
      "actions": 4429,
      "calls": 4430,
      "laemm": 4431,
      "belong": 4432,
      "divided": 4433,
      "dukk": 4434,
      "licens": 4435,
      "spoken": 4436,
      "removed": 4437,
      "400": 4438,
      "ms": 4439,
      "mol": 4440,
      "##ening": 4441,
      "##reg": 4442,
      "quality": 4443,
      "appoin": 4444,
      "meant": 4445,
      "article": 4446,
      "block": 4447,
      "coron": 4448,
      "legend": 4449,
      "running": 4450,
      "claims": 4451,
      "600": 4452,
      "liqu": 4453,
      "vow": 4454,
      "##ustr": 4455,
      "##iant": 4456,
      "advert": 4457,
      "brief": 4458,
      "subur": 4459,
      "workers": 4460,
      "restr": 4461,
      "industrial": 4462,
      "km2": 4463,
      "soundtrack": 4464,
      "methods": 4465,
      "acquired": 4466,
      "yongle": 4467,
      "700": 4468,
      "tu": 4469,
      "##tin": 4470,
      "##jected": 4471,
      "compon": 4472,
      "##ender": 4473,
      "anti": 4474,
      "1997": 4475,
      "identified": 4476,
      "heresy": 4477,
      "page": 4478,
      "rene": 4479,
      "yee": 4480,
      "##ck": 4481,
      "##isters": 4482,
      "##eless": 4483,
      "staff": 4484,
      "qual": 4485,
      "nearby": 4486,
      "refers": 4487,
      "principles": 4488,
      "nether": 4489,
      "subsequently": 4490,
      "expanded": 4491,
      "rebirth": 4492,
      "yeez": 4493,
      "38": 4494,
      "ale": 4495,
      "##rest": 4496,
      "##jo": 4497,
      "##oul": 4498,
      "##aches": 4499,
      "boyc": 4500,
      "serving": 4501,
      "apollo": 4502,
      "respond": 4503,
      "composition": 4504,
      "sources": 4505,
      "argued": 4506,
      "reduce": 4507,
      "fully": 4508,
      "vehicle": 4509,
      "interview": 4510,
      "basket": 4511,
      "dukkha": 4512,
      "ol": 4513,
      "phen": 4514,
      "##aur": 4515,
      "##ste": 4516,
      "scene": 4517,
      "medium": 4518,
      "##place": 4519,
      "reviews": 4520,
      "kar": 4521,
      "nbc": 4522,
      "sac": 4523,
      "##mission": 4524,
      "alle": 4525,
      "ago": 4526,
      "install": 4527,
      "assum": 4528,
      "anthropologists": 4529,
      "covered": 4530,
      "establishment": 4531,
      "wolves": 4532,
      "homes": 4533,
      "website": 4534,
      "##lom": 4535,
      "##hele": 4536,
      "##umin": 4537,
      "enr": 4538,
      "feel": 4539,
      "contract": 4540,
      "guest": 4541,
      "banking": 4542,
      "replace": 4543,
      "##ught": 4544,
      "korea": 4545,
      "battle": 4546,
      "dangerous": 4547,
      "dance": 4548,
      "dock": 4549,
      "##ham": 4550,
      "##laim": 4551,
      "##anced": 4552,
      "stores": 4553,
      "##uled": 4554,
      "computer": 4555,
      "marine": 4556,
      "playing": 4557,
      "olympics": 4558,
      "holy": 4559,
      "reduced": 4560,
      "understanding": 4561,
      "felt": 4562,
      "permanent": 4563,
      "aim": 4564,
      "lines": 4565,
      "mis": 4566,
      "rates": 4567,
      "##onia": 4568,
      "##rew": 4569,
      "##igration": 4570,
      "train": 4571,
      "recover": 4572,
      "grant": 4573,
      "percept": 4574,
      "medit": 4575,
      "capt": 4576,
      "taught": 4577,
      "derived": 4578,
      "breeds": 4579,
      "cycle": 4580,
      "substant": 4581,
      "headquarters": 4582,
      "thermal": 4583,
      "ast": 4584,
      "gained": 4585,
      "##abit": 4586,
      "##iber": 4587,
      "##que": 4588,
      "contain": 4589,
      "formal": 4590,
      "prep": 4591,
      "phon": 4592,
      "attack": 4593,
      "presidential": 4594,
      "volume": 4595,
      "sustain": 4596,
      "jr": 4597,
      "lou": 4598,
      "likely": 4599,
      "##down": 4600,
      "##we": 4601,
      "##teenth": 4602,
      "##usion": 4603,
      "##overs": 4604,
      "decision": 4605,
      "presented": 4606,
      "files": 4607,
      "meditation": 4608,
      "longest": 4609,
      "communities": 4610,
      "marked": 4611,
      "househol": 4612,
      "classical": 4613,
      "bush": 4614,
      "says": 4615,
      "orthodox": 4616,
      "aid": 4617,
      "dens": 4618,
      "kel": 4619,
      "pit": 4620,
      "sans": 4621,
      "##hib": 4622,
      "tower": 4623,
      "##ody": 4624,
      "hispan": 4625,
      "user": 4626,
      "ell": 4627,
      "protect": 4628,
      "##contin": 4629,
      "obl": 4630,
      "additionally": 4631,
      "liber": 4632,
      "confir": 4633,
      "achieved": 4634,
      "nominated": 4635,
      "fol": 4636,
      "hub": 4637,
      "jenn": 4638,
      "lin": 4639,
      "lives": 4640,
      "alco": 4641,
      "spring": 4642,
      "popul": 4643,
      "budget": 4644,
      "developing": 4645,
      "road": 4646,
      "positive": 4647,
      "discip": 4648,
      "titles": 4649,
      "institutes": 4650,
      "hosted": 4651,
      "focused": 4652,
      "teacher": 4653,
      ",[": 4654,
      "bul": 4655,
      "mir": 4656,
      "samp": 4657,
      "##ob": 4658,
      "seem": 4659,
      "exec": 4660,
      "recently": 4661,
      "perce": 4662,
      "scenes": 4663,
      "actor": 4664,
      "models": 4665,
      "distingu": 4666,
      "158": 4667,
      "archive": 4668,
      "audition": 4669,
      "kept": 4670,
      "lady": 4671,
      "aspirated": 4672,
      "mathemat": 4673,
      "celebrity": 4674,
      "telecommunications": 4675,
      "athlet": 4676,
      "bce": 4677,
      "bann": 4678,
      "##tz": 4679,
      "accomp": 4680,
      "offices": 4681,
      "vari": 4682,
      "creation": 4683,
      "1918": 4684,
      "fundament": 4685,
      "ruler": 4686,
      "senate": 4687,
      "demonstrators": 4688,
      "territories": 4689,
      "golden": 4690,
      "absor": 4691,
      "freedom": 4692,
      "municipal": 4693,
      "li": 4694,
      "length": 4695,
      "sams": 4696,
      "##iled": 4697,
      "cong": 4698,
      "unique": 4699,
      "##osure": 4700,
      "##ifying": 4701,
      "##apse": 4702,
      "usage": 4703,
      "managed": 4704,
      "leaving": 4705,
      "expected": 4706,
      "carl": 4707,
      "1989": 4708,
      "finalists": 4709,
      "mongols": 4710,
      "indicate": 4711,
      "purpose": 4712,
      "capacity": 4713,
      "36": 4714,
      "bart": 4715,
      "lending": 4716,
      "rose": 4717,
      "##ault": 4718,
      "##nam": 4719,
      "##eck": 4720,
      "stay": 4721,
      "sev": 4722,
      "exceed": 4723,
      "mexic": 4724,
      "charge": 4725,
      "1992": 4726,
      "1999": 4727,
      "collapse": 4728,
      "influential": 4729,
      "resulted": 4730,
      "entities": 4731,
      "jean": 4732,
      "issues": 4733,
      "\").": 4734,
      "attrib": 4735,
      "bowl": 4736,
      "skyfall": 4737,
      "barthele": 4738,
      "fear": 4739,
      "here": 4740,
      "nic": 4741,
      "roll": 4742,
      "tree": 4743,
      "##rain": 4744,
      "##wor": 4745,
      "beichuan": 4746,
      "##use": 4747,
      "projects": 4748,
      "spl": 4749,
      "180": 4750,
      "defe": 4751,
      "famil": 4752,
      "trading": 4753,
      "allowing": 4754,
      "factor": 4755,
      "viewed": 4756,
      "ruled": 4757,
      "criticized": 4758,
      "incorporated": 4759,
      "chemical": 4760,
      "bacterial": 4761,
      "cable": 4762,
      "mary": 4763,
      "mile": 4764,
      "paper": 4765,
      "van": 4766,
      "##uge": 4767,
      "##inces": 4768,
      "##elve": 4769,
      "conver": 4770,
      "##owell": 4771,
      "deep": 4772,
      "##izes": 4773,
      "twelve": 4774,
      "partners": 4775,
      "upd": 4776,
      "noble": 4777,
      "provinces": 4778,
      "player": 4779,
      "continue": 4780,
      "receive": 4781,
      "issued": 4782,
      "purs": 4783,
      "australian": 4784,
      "autonom": 4785,
      "channel": 4786,
      "conflict": 4787,
      "laemmle": 4788,
      "liquid": 4789,
      "00": 4790,
      "dub": 4791,
      "##lor": 4792,
      "##),": 4793,
      "##icient": 4794,
      "asked": 4795,
      "musl": 4796,
      "implement": 4797,
      "belief": 4798,
      "##riage": 4799,
      "penic": 4800,
      "torchbearers": 4801,
      "intellig": 4802,
      "theravada": 4803,
      "aw": 4804,
      "fuel": 4805,
      "##oned": 4806,
      "##inet": 4807,
      "##omic": 4808,
      "alone": 4809,
      "##otion": 4810,
      "##elling": 4811,
      "relatively": 4812,
      "sched": 4813,
      "scale": 4814,
      "drinking": 4815,
      "##encing": 4816,
      "songwrit": 4817,
      "annually": 4818,
      "transform": 4819,
      "northwest": 4820,
      "arrested": 4821,
      "promote": 4822,
      "policies": 4823,
      "proposed": 4824,
      "meeting": 4825,
      "virt": 4826,
      "chairman": 4827,
      "mentor": 4828,
      "dependent": 4829,
      "48": 4830,
      "done": 4831,
      "ps": 4832,
      "row": 4833,
      "vin": 4834,
      "##gin": 4835,
      "##ses": 4836,
      "search": 4837,
      "##ogue": 4838,
      "preserv": 4839,
      "##hips": 4840,
      "120": 4841,
      "simon": 4842,
      "extre": 4843,
      "formerly": 4844,
      "renew": 4845,
      "##stein": 4846,
      "cand": 4847,
      "iv": 4848,
      "makes": 4849,
      "##gi": 4850,
      "##wh": 4851,
      "##asp": 4852,
      "##erson": 4853,
      "atm": 4854,
      "ital": 4855,
      "worth": 4856,
      "shr": 4857,
      "feet": 4858,
      "navy": 4859,
      "jewish": 4860,
      "software": 4861,
      "overseas": 4862,
      "alcohol": 4863,
      "barthelemy": 4864,
      "eg": 4865,
      "ire": 4866,
      "sought": 4867,
      "ven": 4868,
      "##heless": 4869,
      "beat": 4870,
      "##utions": 4871,
      "##ulate": 4872,
      "operation": 4873,
      "##ression": 4874,
      "needs": 4875,
      "classes": 4876,
      "moon": 4877,
      "causing": 4878,
      "significantly": 4879,
      "individuals": 4880,
      "dialect": 4881,
      "consumption": 4882,
      "choice": 4883,
      "reasons": 4884,
      "unlike": 4885,
      "affairs": 4886,
      "crazy": 4887,
      "molec": 4888,
      "penicill": 4889,
      "ireland": 4890,
      "46": 4891,
      "section": 4892,
      "wood": 4893,
      "##va": 4894,
      "##inem": 4895,
      "told": 4896,
      "deaf": 4897,
      "seism": 4898,
      "assemb": 4899,
      "remaining": 4900,
      "funeral": 4901,
      "directed": 4902,
      "speaking": 4903,
      "investig": 4904,
      "walk": 4905,
      "rules": 4906,
      "properties": 4907,
      "traveled": 4908,
      "controversy": 4909,
      "occasion": 4910,
      "burn": 4911,
      "ey": 4912,
      "lun": 4913,
      "##room": 4914,
      "shared": 4915,
      "accused": 4916,
      "agencies": 4917,
      "helic": 4918,
      "publicly": 4919,
      "loan": 4920,
      "taiw": 4921,
      "178": 4922,
      "##insula": 4923,
      "constant": 4924,
      "increasingly": 4925,
      "peninsula": 4926,
      "devonport": 4927,
      "medicine": 4928,
      "netherlands": 4929,
      "families": 4930,
      "taiwan": 4931,
      "52": 4932,
      "cel": 4933,
      "die": 4934,
      "nap": 4935,
      "pac": 4936,
      "sover": 4937,
      "spac": 4938,
      "interp": 4939,
      "##ancy": 4940,
      "powerful": 4941,
      "##hesis": 4942,
      "debt": 4943,
      "debuted": 4944,
      "eleven": 4945,
      "losses": 4946,
      "benefit": 4947,
      "collaboration": 4948,
      "probably": 4949,
      "appointed": 4950,
      "households": 4951,
      "helicop": 4952,
      "sovereign": 4953,
      "dedic": 4954,
      "fish": 4955,
      "gall": 4956,
      "lingu": 4957,
      "pup": 4958,
      "##aun": 4959,
      "##oint": 4960,
      "##orage": 4961,
      "conqu": 4962,
      "##cement": 4963,
      "prefer": 4964,
      "acting": 4965,
      "governments": 4966,
      "obama": 4967,
      "powered": 4968,
      "personnel": 4969,
      "prevent": 4970,
      "allows": 4971,
      "rapper": 4972,
      "biggest": 4973,
      "condition": 4974,
      "navigation": 4975,
      "victims": 4976,
      "literature": 4977,
      "concentrated": 4978,
      "settled": 4979,
      "subsid": 4980,
      "pronoun": 4981,
      "quickly": 4982,
      "basketball": 4983,
      "42": 4984,
      "dere": 4985,
      "fant": 4986,
      "pact": 4987,
      "##ken": 4988,
      "##oons": 4989,
      "##icles": 4990,
      "##entially": 4991,
      "onto": 4992,
      "compr": 4993,
      "abd": 4994,
      "maxim": 4995,
      "invent": 4996,
      "attacks": 4997,
      "##craft": 4998,
      "networks": 4999,
      "truths": 5000,
      "forbes": 5001,
      "fantas": 5002,
      "34": 5003,
      "45": 5004,
      "cool": 5005,
      "cinem": 5006,
      "gel": 5007,
      "nuc": 5008,
      "##work": 5009,
      "##esh": 5010,
      "##eds": 5011,
      "##ocol": 5012,
      "18th": 5013,
      "parties": 5014,
      "finals": 5015,
      "dram": 5016,
      "recordings": 5017,
      "organisms": 5018,
      "pattern": 5019,
      "1960s": 5020,
      "staten": 5021,
      "250": 5022,
      "professor": 5023,
      "achieve": 5024,
      "richard": 5025,
      "daughter": 5026,
      "aer": 5027,
      "jes": 5028,
      "kaz": 5029,
      "##den": 5030,
      "enlight": 5031,
      "compounds": 5032,
      "boy": 5033,
      "dress": 5034,
      "invited": 5035,
      "##raft": 5036,
      "continues": 5037,
      "socialist": 5038,
      "1830": 5039,
      "contributed": 5040,
      "torchbearer": 5041,
      "application": 5042,
      "wireless": 5043,
      "split": 5044,
      "atmosp": 5045,
      "37": 5046,
      "bure": 5047,
      "cle": 5048,
      "gy": 5049,
      "iii": 5050,
      "luc": 5051,
      "os": 5052,
      "##harm": 5053,
      "##gs": 5054,
      "##be": 5055,
      "##79": 5056,
      "whole": 5057,
      "beings": 5058,
      "reaction": 5059,
      "##emp": 5060,
      "hear": 5061,
      "tried": 5062,
      "##ghan": 5063,
      "ministers": 5064,
      "warm": 5065,
      "progress": 5066,
      "southwest": 5067,
      "restaur": 5068,
      "producing": 5069,
      "involving": 5070,
      "motion": 5071,
      "peaceful": 5072,
      "karmapa": 5073,
      "colonial": 5074,
      "kilometres": 5075,
      "browser": 5076,
      "brazil": 5077,
      "consonants": 5078,
      "roughly": 5079,
      "jennifer": 5080,
      "%.": 5081,
      ");": 5082,
      "jon": 5083,
      "util": 5084,
      "##itter": 5085,
      "##isf": 5086,
      "##ecube": 5087,
      "storage": 5088,
      "alumn": 5089,
      "##agar": 5090,
      "orient": 5091,
      "parks": 5092,
      "assets": 5093,
      "transition": 5094,
      "technologies": 5095,
      "below": 5096,
      "opera": 5097,
      "##iques": 5098,
      "edition": 5099,
      "represented": 5100,
      "knowles": 5101,
      "distinction": 5102,
      "camer": 5103,
      "##hua": 5104,
      "hundreds": 5105,
      "gamecube": 5106,
      "settlement": 5107,
      "battery": 5108,
      "coronation": 5109,
      "cas": 5110,
      "mental": 5111,
      "pack": 5112,
      "##mes": 5113,
      "##yan": 5114,
      "##atus": 5115,
      "repe": 5116,
      "technique": 5117,
      "landing": 5118,
      "johnson": 5119,
      "nato": 5120,
      "factors": 5121,
      "credited": 5122,
      "creating": 5123,
      "pieces": 5124,
      "epicent": 5125,
      "kelly": 5126,
      "spacec": 5127,
      "gelug": 5128,
      "qing": 5129,
      "##wear": 5130,
      "##icial": 5131,
      "##ros": 5132,
      "adam": 5133,
      "organized": 5134,
      "operates": 5135,
      "1971": 5136,
      "restored": 5137,
      "magn": 5138,
      "introduction": 5139,
      "facilities": 5140,
      "discovery": 5141,
      "##iliar": 5142,
      "spacecraft": 5143,
      "ba": 5144,
      "core": 5145,
      "fast": 5146,
      "liv": 5147,
      "tend": 5148,
      "##gu": 5149,
      "##etr": 5150,
      "##aming": 5151,
      "##ador": 5152,
      "stock": 5153,
      "##irv": 5154,
      "queen": 5155,
      "prize": 5156,
      "leon": 5157,
      "alliance": 5158,
      "##ground": 5159,
      "portion": 5160,
      "invented": 5161,
      "buddhists": 5162,
      "movements": 5163,
      "surface": 5164,
      "engineers": 5165,
      "document": 5166,
      "demonstrated": 5167,
      "inspiration": 5168,
      "improved": 5169,
      "damage": 5170,
      "convention": 5171,
      "simply": 5172,
      "craig": 5173,
      "bureau": 5174,
      "55": 5175,
      "ham": 5176,
      "kenn": 5177,
      "nik": 5178,
      "sar": 5179,
      "tidal": 5180,
      "vary": 5181,
      "##haus": 5182,
      "##krit": 5183,
      "##lines": 5184,
      "##wise": 5185,
      "##35": 5186,
      "##inn": 5187,
      "##eter": 5188,
      "##udes": 5189,
      "##unt": 5190,
      "##unc": 5191,
      "enfor": 5192,
      "cann": 5193,
      "contains": 5194,
      "minutes": 5195,
      "whereas": 5196,
      "images": 5197,
      "1969": 5198,
      "##ograp": 5199,
      "destru": 5200,
      "memorial": 5201,
      "advanced": 5202,
      "jews": 5203,
      "criticism": 5204,
      "situation": 5205,
      "tsang": 5206,
      "determined": 5207,
      "martin": 5208,
      "sanskrit": 5209,
      "samsara": 5210,
      "##worth": 5211,
      "autonomous": 5212,
      "cheng": 5213,
      "hou": 5214,
      "theor": 5215,
      "##ety": 5216,
      "suit": 5217,
      "trillion": 5218,
      "estate": 5219,
      "undergrad": 5220,
      "16th": 5221,
      "occur": 5222,
      "lands": 5223,
      "anthropological": 5224,
      "producers": 5225,
      "1950s": 5226,
      "closing": 5227,
      "newspapers": 5228,
      "environmental": 5229,
      "scotland": 5230,
      "collapsed": 5231,
      "##irvana": 5232,
      "chengdu": 5233,
      "aest": 5234,
      "tang": 5235,
      "want": 5236,
      "##iel": 5237,
      "asc": 5238,
      "##umann": 5239,
      "usa": 5240,
      "plans": 5241,
      "objects": 5242,
      "liberation": 5243,
      "philosophical": 5244,
      "##iosis": 5245,
      "denied": 5246,
      "rapidly": 5247,
      "doctor": 5248,
      "57": 5249,
      "jem": 5250,
      "##cel": 5251,
      "##yst": 5252,
      "##icians": 5253,
      "price": 5254,
      "clin": 5255,
      "married": 5256,
      "##ropri": 5257,
      "consists": 5258,
      "join": 5259,
      "emplo": 5260,
      "transit": 5261,
      "familiar": 5262,
      "owners": 5263,
      "##ysis": 5264,
      "harm": 5265,
      "gradually": 5266,
      "graduate": 5267,
      "cancelled": 5268,
      "reflect": 5269,
      "details": 5270,
      "ban": 5271,
      "bought": 5272,
      "eld": 5273,
      "hyp": 5274,
      "lord": 5275,
      "pak": 5276,
      "roles": 5277,
      "viet": 5278,
      "##kin": 5279,
      "##ych": 5280,
      "disrupt": 5281,
      "branc": 5282,
      "actual": 5283,
      "ministry": 5284,
      "instance": 5285,
      "realm": 5286,
      "valley": 5287,
      "1930s": 5288,
      "creative": 5289,
      "damaged": 5290,
      "honor": 5291,
      "points": 5292,
      "necessary": 5293,
      "psych": 5294,
      "dereon": 5295,
      "##de": 5296,
      "##bb": 5297,
      "inqu": 5298,
      "##uma": 5299,
      "##anda": 5300,
      "contact": 5301,
      "indo": 5302,
      "going": 5303,
      "##inson": 5304,
      "sword": 5305,
      "approved": 5306,
      "concerned": 5307,
      "galile": 5308,
      "learning": 5309,
      ")\"": 5310,
      "mc": 5311,
      "vice": 5312,
      "##hone": 5313,
      "##nd": 5314,
      "##oud": 5315,
      "forest": 5316,
      "isps": 5317,
      "heating": 5318,
      "ens": 5319,
      "mail": 5320,
      "aircraft": 5321,
      "##ahm": 5322,
      "crew": 5323,
      "slow": 5324,
      "importance": 5325,
      "illustr": 5326,
      "tribute": 5327,
      "broadcasting": 5328,
      "violent": 5329,
      "praised": 5330,
      "conducted": 5331,
      "flags": 5332,
      "items": 5333,
      "mos": 5334,
      "##ris": 5335,
      "##mar": 5336,
      "##mas": 5337,
      "##ales": 5338,
      "alf": 5339,
      "##unk": 5340,
      "##ards": 5341,
      "compl": 5342,
      "recomm": 5343,
      "afghan": 5344,
      "metres": 5345,
      "##azz": 5346,
      "depos": 5347,
      "operated": 5348,
      "deliv": 5349,
      "\"),": 5350,
      "francis": 5351,
      "expressed": 5352,
      "merely": 5353,
      "heavily": 5354,
      "injured": 5355,
      "agriculture": 5356,
      "champions": 5357,
      "mutual": 5358,
      "hispanic": 5359,
      "epicenter": 5360,
      "##ees": 5361,
      "##ih": 5362,
      "toward": 5363,
      "##ompl": 5364,
      "##ilation": 5365,
      "##ola": 5366,
      "print": 5367,
      "enem": 5368,
      "newly": 5369,
      "##ipment": 5370,
      "firm": 5371,
      "centers": 5372,
      "##ailed": 5373,
      "acts": 5374,
      "generated": 5375,
      "revenue": 5376,
      "##anning": 5377,
      "classic": 5378,
      "visible": 5379,
      "republican": 5380,
      "1936": 5381,
      "approach": 5382,
      "peter": 5383,
      "hotel": 5384,
      "picture": 5385,
      "diverse": 5386,
      "seventh": 5387,
      "dedicated": 5388,
      "vietnam": 5389,
      "cowell": 5390,
      "fat": 5391,
      "onwards": 5392,
      "##uting": 5393,
      "unif": 5394,
      "##ills": 5395,
      "##pper": 5396,
      "maz": 5397,
      "polona": 5398,
      "protection": 5399,
      "chris": 5400,
      "179": 5401,
      "standing": 5402,
      "reduction": 5403,
      "traditionally": 5404,
      "missing": 5405,
      "philosop": 5406,
      "combination": 5407,
      "estimates": 5408,
      "predict": 5409,
      "premier": 5410,
      "##cription": 5411,
      "awaken": 5412,
      "italy": 5413,
      "uniform": 5414,
      "68": 5415,
      "cul": 5416,
      "gan": 5417,
      "tam": 5418,
      "##aug": 5419,
      "##miss": 5420,
      "##oth": 5421,
      "##osis": 5422,
      "sport": 5423,
      "##akh": 5424,
      "amoun": 5425,
      "##ondorf": 5426,
      "offers": 5427,
      "actually": 5428,
      "musician": 5429,
      "drive": 5430,
      "officers": 5431,
      "write": 5432,
      "capote": 5433,
      "moving": 5434,
      "smith": 5435,
      "harv": 5436,
      "laboratory": 5437,
      "surrounding": 5438,
      "ganondorf": 5439,
      "gender": 5440,
      "hdi": 5441,
      "iber": 5442,
      "ross": 5443,
      "sites": 5444,
      "voting": 5445,
      "##lies": 5446,
      "##ients": 5447,
      "##uration": 5448,
      "##urally": 5449,
      "really": 5450,
      "withd": 5451,
      "##iana": 5452,
      "pool": 5453,
      "imper": 5454,
      "assistance": 5455,
      "themes": 5456,
      "provid": 5457,
      "flat": 5458,
      "programming": 5459,
      "household": 5460,
      "advent": 5461,
      "voiced": 5462,
      "device": 5463,
      "drew": 5464,
      "improv": 5465,
      "democracy": 5466,
      "lamas": 5467,
      "garden": 5468,
      "perception": 5469,
      "subsidiary": 5470,
      "54": 5471,
      "cert": 5472,
      "len": 5473,
      "##theless": 5474,
      "##cious": 5475,
      "##yu": 5476,
      "##erate": 5477,
      "albert": 5478,
      "##under": 5479,
      "sees": 5480,
      "##ortun": 5481,
      "##ables": 5482,
      "##ifically": 5483,
      "tracks": 5484,
      "weight": 5485,
      "weather": 5486,
      "decades": 5487,
      "specifically": 5488,
      "writer": 5489,
      "globe": 5490,
      "combat": 5491,
      "nevertheless": 5492,
      "##owski": 5493,
      "suggests": 5494,
      "legislative": 5495,
      "figures": 5496,
      "heavy": 5497,
      "applications": 5498,
      "spiritual": 5499,
      "lamps": 5500,
      "44": 5501,
      "bound": 5502,
      "jur": 5503,
      "lay": 5504,
      "lake": 5505,
      "rural": 5506,
      "rival": 5507,
      "sout": 5508,
      "wanted": 5509,
      "##rd": 5510,
      "ones": 5511,
      "##acent": 5512,
      "##ibly": 5513,
      "aband": 5514,
      "interface": 5515,
      "genetic": 5516,
      "disaster": 5517,
      "monarch": 5518,
      "expensive": 5519,
      "1998": 5520,
      "corn": 5521,
      "equipment": 5522,
      "shortly": 5523,
      "autom": 5524,
      "estonia": 5525,
      "opportun": 5526,
      "ranging": 5527,
      "reaching": 5528,
      "##break": 5529,
      "58": 5530,
      "gin": 5531,
      "ut": 5532,
      "vul": 5533,
      "##atso": 5534,
      "seat": 5535,
      "manga": 5536,
      "##ieu": 5537,
      "resident": 5538,
      "adapt": 5539,
      "accur": 5540,
      "somali": 5541,
      "begun": 5542,
      "21st": 5543,
      "indicated": 5544,
      "principal": 5545,
      "mathematic": 5546,
      "safety": 5547,
      "electronic": 5548,
      "bronx": 5549,
      "resources": 5550,
      "doctrine": 5551,
      "dropped": 5552,
      "interpret": 5553,
      "nuclear": 5554,
      "gyatso": 5555,
      "alumni": 5556,
      "got": 5557,
      "jack": 5558,
      "send": 5559,
      "##roz": 5560,
      "##ctions": 5561,
      "leave": 5562,
      "residence": 5563,
      "##iken": 5564,
      "1995": 5565,
      "runner": 5566,
      "barb": 5567,
      "sunlight": 5568,
      "successfully": 5569,
      "##standing": 5570,
      "celeb": 5571,
      "castle": 5572,
      "madison": 5573,
      "measure": 5574,
      "mentioned": 5575,
      "##know": 5576,
      "napole": 5577,
      "39": 5578,
      "bed": 5579,
      "hi": 5580,
      "lies": 5581,
      "##ower": 5582,
      "##ero": 5583,
      "inaug": 5584,
      "##itted": 5585,
      "alab": 5586,
      "unemp": 5587,
      "comedy": 5588,
      "##uman": 5589,
      "finished": 5590,
      "portr": 5591,
      "acknow": 5592,
      "performing": 5593,
      "##rule": 5594,
      "players": 5595,
      "hyrule": 5596,
      "extended": 5597,
      "ways": 5598,
      "entity": 5599,
      "missions": 5600,
      "downtown": 5601,
      "reference": 5602,
      "businesses": 5603,
      "changing": 5604,
      "##engers": 5605,
      "unemploy": 5606,
      "bub": 5607,
      "dele": 5608,
      "gate": 5609,
      "pu": 5610,
      "rs": 5611,
      "rend": 5612,
      "tay": 5613,
      "##bour": 5614,
      "##hew": 5615,
      "think": 5616,
      "exerc": 5617,
      "boys": 5618,
      "sax": 5619,
      "1962": 5620,
      "aspects": 5621,
      "survey": 5622,
      "macau": 5623,
      "maintained": 5624,
      "distribution": 5625,
      "collabor": 5626,
      "adjacent": 5627,
      "transportation": 5628,
      "disease": 5629,
      "louis": 5630,
      "houston": 5631,
      "($": 5632,
      "az": 5633,
      "fd": 5634,
      "kim": 5635,
      "merg": 5636,
      "pul": 5637,
      "##iers": 5638,
      "##win": 5639,
      "##enk": 5640,
      "##ione": 5641,
      "excess": 5642,
      "shot": 5643,
      "shut": 5644,
      "##igned": 5645,
      "evac": 5646,
      "symp": 5647,
      "carter": 5648,
      "artific": 5649,
      "164": 5650,
      "telegr": 5651,
      "goth": 5652,
      "controls": 5653,
      "biological": 5654,
      "gatherer": 5655,
      "talk": 5656,
      "instrument": 5657,
      "etc": 5658,
      "ancest": 5659,
      "baseball": 5660,
      "narrow": 5661,
      "dropout": 5662,
      "diplom": 5663,
      "scottish": 5664,
      "component": 5665,
      "intelligence": 5666,
      "pacific": 5667,
      "alabama": 5668,
      "',": 5669,
      "lod": 5670,
      "ple": 5671,
      "vision": 5672,
      "xin": 5673,
      "##inity": 5674,
      "##anz": 5675,
      "##ician": 5676,
      "##stone": 5677,
      "bear": 5678,
      "##vern": 5679,
      "##agement": 5680,
      "##allel": 5681,
      "wheel": 5682,
      "accomm": 5683,
      "phase": 5684,
      "broke": 5685,
      "165": 5686,
      "1966": 5687,
      "advoc": 5688,
      "weekend": 5689,
      "1957": 5690,
      "1917": 5691,
      "credits": 5692,
      "completely": 5693,
      "simple": 5694,
      "boroughs": 5695,
      "carrying": 5696,
      "prompted": 5697,
      "dangerously": 5698,
      "jesus": 5699,
      "southe": 5700,
      "accommod": 5701,
      "64": 5702,
      "bes": 5703,
      "jul": 5704,
      "nights": 5705,
      "pione": 5706,
      "rand": 5707,
      "##hin": 5708,
      "##come": 5709,
      "##fort": 5710,
      "##60": 5711,
      "##isher": 5712,
      "##ida": 5713,
      "comes": 5714,
      "recon": 5715,
      "boat": 5716,
      "aftersh": 5717,
      "accompl": 5718,
      "brewer": 5719,
      "##onym": 5720,
      "temp": 5721,
      "tourists": 5722,
      "aspect": 5723,
      "illness": 5724,
      "regarding": 5725,
      "michel": 5726,
      "victor": 5727,
      "administrative": 5728,
      "spirits": 5729,
      "figure": 5730,
      "pressure": 5731,
      "sutras": 5732,
      "ordinary": 5733,
      "analysis": 5734,
      "racial": 5735,
      "##burgh": 5736,
      "horse": 5737,
      "concepts": 5738,
      "quantum": 5739,
      "perceived": 5740,
      "scheduled": 5741,
      "penicillin": 5742,
      "branches": 5743,
      "rsfsr": 5744,
      "%)": 5745,
      "face": 5746,
      "hus": 5747,
      "hock": 5748,
      "jam": 5749,
      "lot": 5750,
      "lie": 5751,
      "mamm": 5752,
      "ober": 5753,
      "pm": 5754,
      "sect": 5755,
      "zeal": 5756,
      "##time": 5757,
      "stops": 5758,
      "##aga": 5759,
      "neut": 5760,
      "grade": 5761,
      "twice": 5762,
      "colony": 5763,
      "schumann": 5764,
      "writers": 5765,
      "mainstream": 5766,
      "1964": 5767,
      "elections": 5768,
      "broadway": 5769,
      "bodybu": 5770,
      "semi": 5771,
      "grossed": 5772,
      "correct": 5773,
      "substantial": 5774,
      "rolling": 5775,
      "##hauser": 5776,
      "##unciation": 5777,
      "telegraph": 5778,
      "hockey": 5779,
      "oberhauser": 5780,
      "800": 5781,
      "ecc": 5782,
      "ko": 5783,
      "sass": 5784,
      "##kh": 5785,
      "##30": 5786,
      "##stan": 5787,
      "##olas": 5788,
      "##aded": 5789,
      "##otional": 5790,
      "##agm": 5791,
      "shift": 5792,
      "incident": 5793,
      "amid": 5794,
      "heret": 5795,
      "earning": 5796,
      "nothing": 5797,
      "meat": 5798,
      "drake": 5799,
      "attending": 5800,
      "operate": 5801,
      "educational": 5802,
      "inside": 5803,
      "donated": 5804,
      "select": 5805,
      "snow": 5806,
      "consisting": 5807,
      "venture": 5808,
      "mazur": 5809,
      "ben": 5810,
      "farm": 5811,
      "ice": 5812,
      "nig": 5813,
      "nirvana": 5814,
      "ped": 5815,
      "tied": 5816,
      "upper": 5817,
      "rejected": 5818,
      "##ima": 5819,
      "prol": 5820,
      "##akya": 5821,
      "perp": 5822,
      "earn": 5823,
      "metro": 5824,
      "supply": 5825,
      "communist": 5826,
      "weekly": 5827,
      "styles": 5828,
      "structures": 5829,
      "commander": 5830,
      "antibacterials": 5831,
      "ignor": 5832,
      "translated": 5833,
      "innovation": 5834,
      "robinson": 5835,
      "platform": 5836,
      "assembly": 5837,
      "il": 5838,
      "von": 5839,
      "##rane": 5840,
      "##field": 5841,
      "##ny": 5842,
      "intr": 5843,
      "##itled": 5844,
      "##acon": 5845,
      "proport": 5846,
      "trip": 5847,
      "notably": 5848,
      "assist": 5849,
      "cape": 5850,
      "extern": 5851,
      "arrival": 5852,
      "slaves": 5853,
      "connected": 5854,
      "relationships": 5855,
      "encomp": 5856,
      "therap": 5857,
      "watched": 5858,
      "##houses": 5859,
      "metaphysics": 5860,
      "mountains": 5861,
      "yeezy": 5862,
      "boycott": 5863,
      "variations": 5864,
      "galileo": 5865,
      "encompass": 5866,
      "cy": 5867,
      "dan": 5868,
      "fans": 5869,
      "gd": 5870,
      "rated": 5871,
      "rapp": 5872,
      "rounds": 5873,
      "##turn": 5874,
      "##iting": 5875,
      "##itarian": 5876,
      "thunder": 5877,
      "stars": 5878,
      "alter": 5879,
      "atop": 5880,
      "##agon": 5881,
      "##sohn": 5882,
      "brig": 5883,
      "aired": 5884,
      "severe": 5885,
      "tradem": 5886,
      "receiving": 5887,
      "swift": 5888,
      "catalonia": 5889,
      "publishing": 5890,
      "##bridge": 5891,
      "property": 5892,
      "talent": 5893,
      "spoke": 5894,
      "agreed": 5895,
      "purchased": 5896,
      "arrangement": 5897,
      "imperial": 5898,
      "47": 5899,
      "sud": 5900,
      "takes": 5901,
      "your": 5902,
      "##rison": 5903,
      "##mg": 5904,
      "##ania": 5905,
      "##ican": 5906,
      "##icing": 5907,
      "##ece": 5908,
      "##ationally": 5909,
      "##ista": 5910,
      "exhib": 5911,
      "perf": 5912,
      "score": 5913,
      "count": 5914,
      "expect": 5915,
      "expans": 5916,
      "serves": 5917,
      "outstanding": 5918,
      "attain": 5919,
      "endors": 5920,
      "archae": 5921,
      "162": 5922,
      "patron": 5923,
      "##lets": 5924,
      "extingu": 5925,
      "1976": 5926,
      "declar": 5927,
      "delayed": 5928,
      "1912": 5929,
      "massive": 5930,
      "bodh": 5931,
      "equal": 5932,
      "attempts": 5933,
      "emerged": 5934,
      "afghanistan": 5935,
      "taylor": 5936,
      "],": 5937,
      "doll": 5938,
      "pages": 5939,
      "ssr": 5940,
      "##car": 5941,
      "##iment": 5942,
      "marriage": 5943,
      "evolved": 5944,
      "housed": 5945,
      "opin": 5946,
      "1961": 5947,
      "swed": 5948,
      "speed": 5949,
      "advance": 5950,
      "supporting": 5951,
      "facult": 5952,
      "surviv": 5953,
      "something": 5954,
      "turned": 5955,
      "improve": 5956,
      "victory": 5957,
      "malays": 5958,
      "aspiration": 5959,
      "metaphysical": 5960,
      "theatre": 5961,
      "episode": 5962,
      "bishops": 5963,
      "mathematics": 5964,
      "occasionally": 5965,
      "destruction": 5966,
      "eccles": 5967,
      "cad": 5968,
      "mw": 5969,
      "zant": 5970,
      "##haps": 5971,
      "##put": 5972,
      "##nament": 5973,
      "##ref": 5974,
      "chain": 5975,
      "##oses": 5976,
      "nep": 5977,
      "relative": 5978,
      "perhaps": 5979,
      "formation": 5980,
      "regime": 5981,
      "drm": 5982,
      "##ifications": 5983,
      "controlled": 5984,
      "coop": 5985,
      "collected": 5986,
      "operating": 5987,
      "greece": 5988,
      "slight": 5989,
      "hands": 5990,
      "characterized": 5991,
      "expression": 5992,
      "sexual": 5993,
      "initiated": 5994,
      "northeast": 5995,
      "tunnel": 5996,
      "altan": 5997,
      "accompan": 5998,
      "mexico": 5999,
      "muslim": 6000,
      "pakistan": 6001,
      "\"?": 6002,
      "bass": 6003,
      "dates": 6004,
      "fame": 6005,
      "##cer": 6006,
      "theories": 6007,
      "arms": 6008,
      "worst": 6009,
      "##berg": 6010,
      "##rities": 6011,
      "##ordin": 6012,
      "otherwise": 6013,
      "abol": 6014,
      "##ilding": 6015,
      "protected": 6016,
      "attorn": 6017,
      "anton": 6018,
      "writings": 6019,
      "plays": 6020,
      "owner": 6021,
      "course": 6022,
      "popularity": 6023,
      "broadcasts": 6024,
      "motor": 6025,
      "buried": 6026,
      "intellect": 6027,
      "exclusively": 6028,
      "folk": 6029,
      "familiaris": 6030,
      "celebrities": 6031,
      "attorney": 6032,
      "##ram": 6033,
      "##mark": 6034,
      "##dard": 6035,
      "##onaut": 6036,
      "##ala": 6037,
      "##alist": 6038,
      "##road": 6039,
      "reactions": 6040,
      "chap": 6041,
      "spot": 6042,
      "peps": 6043,
      "##oke": 6044,
      "porto": 6045,
      "carey": 6046,
      "subway": 6047,
      "remote": 6048,
      "1996": 6049,
      "positions": 6050,
      "programme": 6051,
      "extensive": 6052,
      "backed": 6053,
      "harper": 6054,
      "lasted": 6055,
      "insur": 6056,
      "securities": 6057,
      "characteristics": 6058,
      "austria": 6059,
      "experiment": 6060,
      "railway": 6061,
      "customers": 6062,
      "conservatory": 6063,
      "inhabit": 6064,
      "proportion": 6065,
      "gdp": 6066,
      "bh": 6067,
      "bang": 6068,
      "bull": 6069,
      "hers": 6070,
      "lud": 6071,
      "lup": 6072,
      "lope": 6073,
      "##rum": 6074,
      "##equ": 6075,
      "##dam": 6076,
      "##enment": 6077,
      "##isition": 6078,
      "##inger": 6079,
      "##adel": 6080,
      "##imination": 6081,
      "trying": 6082,
      "graph": 6083,
      "clar": 6084,
      "weak": 6085,
      "##ancing": 6086,
      "doing": 6087,
      "filed": 6088,
      "proved": 6089,
      "default": 6090,
      "termin": 6091,
      "amongst": 6092,
      "##istered": 6093,
      "values": 6094,
      "labour": 6095,
      "moz": 6096,
      "historically": 6097,
      "separation": 6098,
      "selection": 6099,
      "falls": 6100,
      "attracted": 6101,
      "neighboring": 6102,
      "learned": 6103,
      "keeping": 6104,
      "agricultural": 6105,
      "message": 6106,
      "murder": 6107,
      "explorer": 6108,
      "cartoon": 6109,
      "enlightenment": 6110,
      "##harma": 6111,
      "ignorance": 6112,
      "herself": 6113,
      "lopez": 6114,
      "95": 6115,
      "file": 6116,
      "py": 6117,
      "pley": 6118,
      "sfsr": 6119,
      "vac": 6120,
      "wife": 6121,
      "##gal": 6122,
      "##dy": 6123,
      "##xi": 6124,
      "##isp": 6125,
      "isp": 6126,
      "##onda": 6127,
      "appropri": 6128,
      "index": 6129,
      "signs": 6130,
      "originated": 6131,
      "175": 6132,
      "headed": 6133,
      "swann": 6134,
      "olympia": 6135,
      "describes": 6136,
      "1958": 6137,
      "spectrum": 6138,
      "starred": 6139,
      "lowest": 6140,
      "senior": 6141,
      "manager": 6142,
      "constitutional": 6143,
      "panels": 6144,
      "rebu": 6145,
      "emergency": 6146,
      "polytechnics": 6147,
      "concluded": 6148,
      "density": 6149,
      "inquir": 6150,
      "zealand": 6151,
      "pleyel": 6152,
      "62": 6153,
      "cogn": 6154,
      "kubl": 6155,
      "nyc": 6156,
      "sav": 6157,
      "vaj": 6158,
      "wit": 6159,
      "##kas": 6160,
      "##nered": 6161,
      "##10": 6162,
      "##bek": 6163,
      "##icia": 6164,
      "stating": 6165,
      "compat": 6166,
      "planning": 6167,
      "##ludes": 6168,
      "intent": 6169,
      "parallel": 6170,
      "acclaim": 6171,
      "descent": 6172,
      "crus": 6173,
      "phill": 6174,
      "carbon": 6175,
      "metal": 6176,
      "1975": 6177,
      "1974": 6178,
      "busiest": 6179,
      "entitled": 6180,
      "lessons": 6181,
      "federation": 6182,
      "dominated": 6183,
      "nominations": 6184,
      "friendship": 6185,
      "experimental": 6186,
      "windows": 6187,
      "citizenship": 6188,
      "unemployment": 6189,
      "neutral": 6190,
      "kublai": 6191,
      "vajr": 6192,
      "!\"": 6193,
      "1st": 6194,
      "bos": 6195,
      "hits": 6196,
      "wo": 6197,
      "##itals": 6198,
      "##icit": 6199,
      "ali": 6200,
      "##otyp": 6201,
      "##ighth": 6202,
      "trou": 6203,
      "clay": 6204,
      "canons": 6205,
      "partly": 6206,
      "stra": 6207,
      "charl": 6208,
      "depression": 6209,
      "techniques": 6210,
      "belg": 6211,
      "programmes": 6212,
      "brew": 6213,
      "1968": 6214,
      "background": 6215,
      "statist": 6216,
      "titled": 6217,
      "encoun": 6218,
      "goods": 6219,
      "sunday": 6220,
      "similarly": 6221,
      "connections": 6222,
      "rooms": 6223,
      "behavi": 6224,
      "displayed": 6225,
      "links": 6226,
      "molecular": 6227,
      "xinhua": 6228,
      "baker": 6229,
      "font": 6230,
      "hors": 6231,
      "lock": 6232,
      "mca": 6233,
      "sq": 6234,
      "yell": 6235,
      "##vement": 6236,
      "##do": 6237,
      "##erce": 6238,
      "##ante": 6239,
      "##orter": 6240,
      "##arn": 6241,
      "tool": 6242,
      "##umed": 6243,
      "peoples": 6244,
      "string": 6245,
      "##ruption": 6246,
      "tavern": 6247,
      "afford": 6248,
      "visual": 6249,
      "returning": 6250,
      "passive": 6251,
      "streets": 6252,
      "holds": 6253,
      "establishments": 6254,
      "borders": 6255,
      "mortgages": 6256,
      "regularly": 6257,
      "mccl": 6258,
      "turk": 6259,
      "cabinet": 6260,
      "bachel": 6261,
      "undergraduate": 6262,
      "acknowled": 6263,
      "72": 6264,
      "jim": 6265,
      "rivers": 6266,
      "ranks": 6267,
      "sor": 6268,
      "tan": 6269,
      "##bial": 6270,
      "##atically": 6271,
      "##icks": 6272,
      "##rete": 6273,
      "##ado": 6274,
      "##ota": 6275,
      "amster": 6276,
      "##ishment": 6277,
      "exposure": 6278,
      "strains": 6279,
      "broken": 6280,
      "roots": 6281,
      "charged": 6282,
      "transp": 6283,
      "lawy": 6284,
      "citing": 6285,
      "##cribed": 6286,
      "surpr": 6287,
      "architects": 6288,
      "periods": 6289,
      "waltz": 6290,
      "1849": 6291,
      "808": 6292,
      "fulf": 6293,
      "accounts": 6294,
      "deployed": 6295,
      "executed": 6296,
      "converted": 6297,
      "atmosphere": 6298,
      "bachelor": 6299,
      "amsterdam": 6300,
      "gust": 6301,
      "##aver": 6302,
      "##more": 6303,
      "##lation": 6304,
      "##where": 6305,
      "##ivals": 6306,
      "reign": 6307,
      "enabl": 6308,
      "##ouse": 6309,
      "twitter": 6310,
      "##onds": 6311,
      "pregn": 6312,
      "weap": 6313,
      "desc": 6314,
      "acted": 6315,
      "engaged": 6316,
      "useful": 6317,
      "signals": 6318,
      "retained": 6319,
      "greatly": 6320,
      "judicial": 6321,
      "influences": 6322,
      "politics": 6323,
      "1836": 6324,
      "liberal": 6325,
      "bills": 6326,
      "claiming": 6327,
      "represents": 6328,
      "equival": 6329,
      "1842": 6330,
      "kingdoms": 6331,
      "gathering": 6332,
      "silver": 6333,
      "praise": 6334,
      "instruct": 6335,
      "millenn": 6336,
      "safe": 6337,
      "licensing": 6338,
      "confirmed": 6339,
      "aesthetic": 6340,
      "expansion": 6341,
      "lupus": 6342,
      "aiken": 6343,
      "bomb": 6344,
      "cm": 6345,
      "han": 6346,
      "jones": 6347,
      "pyr": 6348,
      "wr": 6349,
      "##vin": 6350,
      "##nes": 6351,
      "##wall": 6352,
      "##ishers": 6353,
      "##olta": 6354,
      "franz": 6355,
      "proceed": 6356,
      "##aped": 6357,
      "spaces": 6358,
      "trail": 6359,
      "##ovolta": 6360,
      "clarks": 6361,
      "genre": 6362,
      "undert": 6363,
      "governed": 6364,
      "persp": 6365,
      "origins": 6366,
      "courses": 6367,
      "1987": 6368,
      "arrest": 6369,
      "1938": 6370,
      "refuge": 6371,
      "step": 6372,
      "magazines": 6373,
      "photovolta": 6374,
      "participate": 6375,
      "communication": 6376,
      "browsers": 6377,
      "pronunciation": 6378,
      "electrical": 6379,
      "shadow": 6380,
      "restricted": 6381,
      "aimed": 6382,
      "pronounced": 6383,
      "elder": 6384,
      "iberian": 6385,
      "randy": 6386,
      "husband": 6387,
      "mazurkas": 6388,
      "ecclesi": 6389,
      "clarkson": 6390,
      "astr": 6391,
      "jun": 6392,
      "sakya": 6393,
      "tick": 6394,
      "##rid": 6395,
      "##uis": 6396,
      "##zym": 6397,
      "##eto": 6398,
      "##adic": 6399,
      "rein": 6400,
      "commerce": 6401,
      "internationally": 6402,
      "founding": 6403,
      "terminal": 6404,
      "capable": 6405,
      "effici": 6406,
      "chrom": 6407,
      "organisation": 6408,
      "##fully": 6409,
      "avest": 6410,
      "affili": 6411,
      "harbor": 6412,
      "1981": 6413,
      "listen": 6414,
      "terror": 6415,
      "streaming": 6416,
      "industries": 6417,
      "feminist": 6418,
      "causes": 6419,
      "carrier": 6420,
      "entirely": 6421,
      "northeastern": 6422,
      "franklin": 6423,
      "struggle": 6424,
      "mendes": 6425,
      "task": 6426,
      "banner": 6427,
      "##while": 6428,
      "cannot": 6429,
      "artificial": 6430,
      "besides": 6431,
      "ludw": 6432,
      "43": 6433,
      "5th": 6434,
      "900": 6435,
      "aon": 6436,
      "uz": 6437,
      "##iks": 6438,
      "##estock": 6439,
      "##stood": 6440,
      "##etically": 6441,
      "stayed": 6442,
      "chan": 6443,
      "##erse": 6444,
      "frid": 6445,
      "coming": 6446,
      "##abi": 6447,
      "formally": 6448,
      "produces": 6449,
      "##orship": 6450,
      "iron": 6451,
      "difference": 6452,
      "1982": 6453,
      "wayback": 6454,
      "evening": 6455,
      "practical": 6456,
      "connection": 6457,
      "starring": 6458,
      "profession": 6459,
      "reading": 6460,
      "opposed": 6461,
      "renown": 6462,
      "visitors": 6463,
      "experiments": 6464,
      "regulations": 6465,
      "exception": 6466,
      "category": 6467,
      "manufactur": 6468,
      "livestock": 6469,
      "napoleon": 6470,
      "trademark": 6471,
      "inhabitants": 6472,
      "aonuma": 6473,
      "59": 6474,
      "bol": 6475,
      "cst": 6476,
      "ny": 6477,
      "nam": 6478,
      "##gment": 6479,
      "##uters": 6480,
      "##la": 6481,
      "cham": 6482,
      "##utation": 6483,
      "fresh": 6484,
      "##opp": 6485,
      "entr": 6486,
      "enjo": 6487,
      "spr": 6488,
      "##bercul": 6489,
      "recall": 6490,
      "phr": 6491,
      "thereaf": 6492,
      "minute": 6493,
      "median": 6494,
      "job": 6495,
      "operational": 6496,
      "##ressed": 6497,
      "irre": 6498,
      "direction": 6499,
      "##iotic": 6500,
      "exploration": 6501,
      "promotion": 6502,
      "documents": 6503,
      "materialism": 6504,
      "morning": 6505,
      "respective": 6506,
      "visiting": 6507,
      "minority": 6508,
      "employed": 6509,
      "categor": 6510,
      "coastal": 6511,
      "obtained": 6512,
      "tubercul": 6513,
      "thereafter": 6514,
      "tuberculosis": 6515,
      "'.": 6516,
      "66": 6517,
      "99": 6518,
      "bmg": 6519,
      "donda": 6520,
      "merc": 6521,
      "nan": 6522,
      "rud": 6523,
      "rare": 6524,
      "vast": 6525,
      "##ucc": 6526,
      "##ports": 6527,
      "##lers": 6528,
      "##ding": 6529,
      "##idas": 6530,
      "execut": 6531,
      "inches": 6532,
      "complic": 6533,
      "adidas": 6534,
      "commem": 6535,
      "inde": 6536,
      "ages": 6537,
      "invitation": 6538,
      "coach": 6539,
      "compositions": 6540,
      "promoted": 6541,
      "investors": 6542,
      "elev": 6543,
      "artistic": 6544,
      "justice": 6545,
      "duke": 6546,
      "waters": 6547,
      "fuller": 6548,
      "williams": 6549,
      "legislature": 6550,
      "guardian": 6551,
      "fellow": 6552,
      "emphasis": 6553,
      "nickn": 6554,
      "neighborhoods": 6555,
      "qualities": 6556,
      "songwriter": 6557,
      "mathematica": 6558,
      "bab": 6559,
      "caf": 6560,
      "fict": 6561,
      "rod": 6562,
      "zone": 6563,
      "##uard": 6564,
      "##kan": 6565,
      "##zz": 6566,
      "##isatt": 6567,
      "storm": 6568,
      "##iminal": 6569,
      "spending": 6570,
      "finch": 6571,
      "contained": 6572,
      "prec": 6573,
      "carref": 6574,
      "buy": 6575,
      "understood": 6576,
      "invention": 6577,
      "locations": 6578,
      "officer": 6579,
      "extent": 6580,
      "postal": 6581,
      "1945": 6582,
      "entered": 6583,
      "separated": 6584,
      "predecess": 6585,
      "towns": 6586,
      "principia": 6587,
      "opposition": 6588,
      "scientists": 6589,
      "cambridge": 6590,
      "ranges": 6591,
      "telecom": 6592,
      "alleged": 6593,
      "kazakh": 6594,
      "juris": 6595,
      "temple": 6596,
      "bodhisatt": 6597,
      "accompanied": 6598,
      "ecclesiast": 6599,
      "carrefour": 6600,
      "fm": 6601,
      "follo": 6602,
      "gain": 6603,
      "pap": 6604,
      "rar": 6605,
      "##aism": 6606,
      "##mann": 6607,
      "##uates": 6608,
      "##jing": 6609,
      "##jun": 6610,
      "inher": 6611,
      "##ito": 6612,
      "##etary": 6613,
      "##etitive": 6614,
      "ont": 6615,
      "##chule": 6616,
      "##ersed": 6617,
      "##ules": 6618,
      "suc": 6619,
      "deals": 6620,
      "reconstr": 6621,
      "recession": 6622,
      "didn": 6623,
      "republ": 6624,
      "repetitive": 6625,
      "offering": 6626,
      "maur": 6627,
      "monro": 6628,
      "monaster": 6629,
      "shell": 6630,
      "brown": 6631,
      "flu": 6632,
      "##issance": 6633,
      "soccer": 6634,
      "distance": 6635,
      "152": 6636,
      "176": 6637,
      "continent": 6638,
      "classified": 6639,
      "1931": 6640,
      "1939": 6641,
      "##ennis": 6642,
      "admitted": 6643,
      "steve": 6644,
      "ordered": 6645,
      "1920s": 6646,
      "meanwhile": 6647,
      "ranking": 6648,
      "##irling": 6649,
      "austrian": 6650,
      "photos": 6651,
      "blood": 6652,
      "nazar": 6653,
      "ivy": 6654,
      "bubble": 6655,
      "ludwika": 6656,
      "73": 6657,
      "?\"": 6658,
      "].": 6659,
      "bic": 6660,
      "covers": 6661,
      "dill": 6662,
      "hurr": 6663,
      "rating": 6664,
      "tail": 6665,
      "wil": 6666,
      "##marks": 6667,
      "anx": 6668,
      "##organ": 6669,
      "##icts": 6670,
      "##ishes": 6671,
      "##elle": 6672,
      "unable": 6673,
      "arena": 6674,
      "trust": 6675,
      "permit": 6676,
      "poll": 6677,
      "monetary": 6678,
      "someone": 6679,
      "feed": 6680,
      "strips": 6681,
      "subpr": 6682,
      "internal": 6683,
      "provision": 6684,
      "retail": 6685,
      "childhood": 6686,
      "hung": 6687,
      "designer": 6688,
      "russell": 6689,
      "jane": 6690,
      "1838": 6691,
      "investments": 6692,
      "1946": 6693,
      "existed": 6694,
      "reportedly": 6695,
      "inns": 6696,
      "superior": 6697,
      "oppos": 6698,
      "committed": 6699,
      "multi": 6700,
      "participated": 6701,
      "thirteen": 6702,
      "fleming": 6703,
      "adjust": 6704,
      "champion": 6705,
      "bishop": 6706,
      "islamic": 6707,
      "orchestra": 6708,
      "fragr": 6709,
      "treas": 6710,
      "hypot": 6711,
      "saxon": 6712,
      "evacuated": 6713,
      "faculty": 6714,
      "pepsi": 6715,
      "yellow": 6716,
      "uzbek": 6717,
      "chamber": 6718,
      "ecclesiastical": 6719,
      "subprime": 6720,
      "diet": 6721,
      "eag": 6722,
      "gus": 6723,
      "jazz": 6724,
      "kid": 6725,
      "mas": 6726,
      "mand": 6727,
      "pover": 6728,
      "##ał": 6729,
      "##tt": 6730,
      "##of": 6731,
      "##bury": 6732,
      "##bra": 6733,
      "##errane": 6734,
      "##iture": 6735,
      "towers": 6736,
      "traff": 6737,
      "appeal": 6738,
      "disney": 6739,
      "studdard": 6740,
      "pref": 6741,
      "craft": 6742,
      "secular": 6743,
      "nob": 6744,
      "underwood": 6745,
      "releases": 6746,
      "soci": 6747,
      "1994": 6748,
      "economists": 6749,
      "typical": 6750,
      "goals": 6751,
      "1983": 6752,
      "runs": 6753,
      "engineer": 6754,
      "killing": 6755,
      "myth": 6756,
      "1922": 6757,
      "##uck": 6758,
      "georg": 6759,
      "identity": 6760,
      "concentration": 6761,
      "sequence": 6762,
      "distinctive": 6763,
      "1810": 6764,
      "brazz": 6765,
      "strategy": 6766,
      "experienced": 6767,
      "update": 6768,
      "vinaya": 6769,
      "maximum": 6770,
      "fantasia": 6771,
      "interpretation": 6772,
      "merged": 6773,
      "symph": 6774,
      "statistical": 6775,
      "poverty": 6776,
      "##erranean": 6777,
      "/,": 6778,
      "bapt": 6779,
      "lists": 6780,
      "ric": 6781,
      "rio": 6782,
      "wod": 6783,
      "##zins": 6784,
      "##iner": 6785,
      "##esty": 6786,
      "convers": 6787,
      "franch": 6788,
      "##uls": 6789,
      "##avia": 6790,
      "leak": 6791,
      "##enders": 6792,
      "resolution": 6793,
      "adher": 6794,
      "commod": 6795,
      "##ondo": 6796,
      "disag": 6797,
      "preludes": 6798,
      "moreover": 6799,
      "1993": 6800,
      "1970": 6801,
      "1934": 6802,
      "everyone": 6803,
      "1876": 6804,
      "journey": 6805,
      "sequences": 6806,
      "connecting": 6807,
      "shoot": 6808,
      "1898": 6809,
      "minimum": 6810,
      "phenomen": 6811,
      "mirror": 6812,
      "championships": 6813,
      "amounts": 6814,
      "southeast": 6815,
      "brigade": 6816,
      "indeed": 6817,
      "wodzins": 6818,
      "ahead": 6819,
      "bc": 6820,
      "cz": 6821,
      "ic": 6822,
      "nano": 6823,
      "ros": 6824,
      "##vis": 6825,
      "##iech": 6826,
      "conform": 6827,
      "##roc": 6828,
      "##irated": 6829,
      "quoted": 6830,
      "##agh": 6831,
      "orange": 6832,
      "firms": 6833,
      "grounds": 6834,
      "reporters": 6835,
      "dismiss": 6836,
      "monitor": 6837,
      "engagement": 6838,
      "strict": 6839,
      "founder": 6840,
      "humid": 6841,
      "flights": 6842,
      "landsc": 6843,
      "advice": 6844,
      "1833": 6845,
      "videos": 6846,
      "##going": 6847,
      "sounds": 6848,
      "1927": 6849,
      "causal": 6850,
      "donations": 6851,
      "possess": 6852,
      "effective": 6853,
      "wider": 6854,
      "territorial": 6855,
      "walls": 6856,
      "essentially": 6857,
      "measures": 6858,
      "premiere": 6859,
      "commented": 6860,
      "vehicles": 6861,
      "wealthy": 6862,
      "encouraged": 6863,
      "suspended": 6864,
      "mediterranean": 6865,
      "distinguished": 6866,
      "##aspirated": 6867,
      "kennedy": 6868,
      "ascension": 6869,
      "ensure": 6870,
      "inquiry": 6871,
      "61": 6872,
      "cited": 6873,
      "eighth": 6874,
      "jer": 6875,
      "kara": 6876,
      "pick": 6877,
      "pump": 6878,
      "rum": 6879,
      "rena": 6880,
      "zen": 6881,
      "##ront": 6882,
      "##cing": 6883,
      "theater": 6884,
      "theology": 6885,
      "##eness": 6886,
      "##arra": 6887,
      "##iling": 6888,
      "##olid": 6889,
      "stirling": 6890,
      "##legal": 6891,
      "##ulf": 6892,
      "##abul": 6893,
      "adap": 6894,
      "boost": 6895,
      "##ateral": 6896,
      "##iversary": 6897,
      "accus": 6898,
      "monks": 6899,
      "draft": 6900,
      "meters": 6901,
      "charity": 6902,
      "depending": 6903,
      "persons": 6904,
      "anniversary": 6905,
      "anything": 6906,
      "avenue": 6907,
      "appears": 6908,
      "1835": 6909,
      "existing": 6910,
      "##iveness": 6911,
      "diam": 6912,
      "younger": 6913,
      "romantic": 6914,
      "ceo": 6915,
      "essential": 6916,
      "controversial": 6917,
      "scriptures": 6918,
      "headquartered": 6919,
      "detailed": 6920,
      "discussed": 6921,
      "escape": 6922,
      "ambass": 6923,
      "resource": 6924,
      "easy": 6925,
      "vowel": 6926,
      "advertising": 6927,
      "deleg": 6928,
      "gothic": 6929,
      "sassou": 6930,
      "illegal": 6931,
      "external": 6932,
      "intellectual": 6933,
      "3rd": 6934,
      "aust": 6935,
      "cub": 6936,
      "fit": 6937,
      "fair": 6938,
      "mour": 6939,
      "sale": 6940,
      "trees": 6941,
      "wan": 6942,
      "##gm": 6943,
      "##ois": 6944,
      "##ew": 6945,
      "##yard": 6946,
      "##ivation": 6947,
      "##imic": 6948,
      "##acing": 6949,
      "##agn": 6950,
      "##abilities": 6951,
      "plus": 6952,
      "scar": 6953,
      "schem": 6954,
      "disruption": 6955,
      "param": 6956,
      "studied": 6957,
      "brand": 6958,
      "preced": 6959,
      "conscious": 6960,
      "shel": 6961,
      "output": 6962,
      "proto": 6963,
      "159": 6964,
      "signal": 6965,
      "landl": 6966,
      "140": 6967,
      "137": 6968,
      "announcement": 6969,
      "explained": 6970,
      "1924": 6971,
      "constituted": 6972,
      "equity": 6973,
      "wales": 6974,
      "securit": 6975,
      "morph": 6976,
      "immigration": 6977,
      "ceremon": 6978,
      "arabic": 6979,
      "episodes": 6980,
      "lunar": 6981,
      "hearing": 6982,
      "hiatus": 6983,
      "gift": 6984,
      "mouth": 6985,
      "pus": 6986,
      "tell": 6987,
      "vit": 6988,
      "vic": 6989,
      "voted": 6990,
      "ying": 6991,
      "##mn": 6992,
      "##iem": 6993,
      "##yz": 6994,
      "##bled": 6995,
      "##atown": 6996,
      "##rect": 6997,
      "##eland": 6998,
      "##olics": 6999,
      "##istration": 7000,
      "seek": 7001,
      "##ctive": 7002,
      "grah": 7003,
      "##ieval": 7004,
      "##izon": 7005,
      "margin": 7006,
      "braun": 7007,
      "##erman": 7008,
      "registration": 7009,
      "musicians": 7010,
      "##ictions": 7011,
      "instances": 7012,
      "jobs": 7013,
      "apost": 7014,
      "iphone": 7015,
      "17th": 7016,
      "continental": 7017,
      "1965": 7018,
      "designated": 7019,
      "##enna": 7020,
      "passage": 7021,
      "rockne": 7022,
      "hosts": 7023,
      "involve": 7024,
      "catholics": 7025,
      "##aneously": 7026,
      "strongly": 7027,
      "principle": 7028,
      "1825": 7029,
      "naval": 7030,
      "##linary": 7031,
      "reporting": 7032,
      "embass": 7033,
      "embarked": 7034,
      "thousand": 7035,
      "grossing": 7036,
      "##burg": 7037,
      "surrounded": 7038,
      "normal": 7039,
      "piece": 7040,
      "challenge": 7041,
      "sustainable": 7042,
      "therapy": 7043,
      "commemor": 7044,
      "graham": 7045,
      "?]": 7046,
      "cun": 7047,
      "jump": 7048,
      "lyn": 7049,
      "mist": 7050,
      "rocks": 7051,
      "sang": 7052,
      "##girl": 7053,
      "##pe": 7054,
      "##wu": 7055,
      "##ato": 7056,
      "##icane": 7057,
      "##asion": 7058,
      "##uther": 7059,
      "atomic": 7060,
      "##aville": 7061,
      "##ellation": 7062,
      "##ropical": 7063,
      "finn": 7064,
      "strip": 7065,
      "minaj": 7066,
      "medieval": 7067,
      "acres": 7068,
      "subd": 7069,
      "soyu": 7070,
      "deput": 7071,
      "supplies": 7072,
      "technological": 7073,
      "mainland": 7074,
      "breaking": 7075,
      "1972": 7076,
      "geographic": 7077,
      "detr": 7078,
      "everything": 7079,
      "##apped": 7080,
      "barts": 7081,
      "hosting": 7082,
      "petr": 7083,
      "surviving": 7084,
      "representing": 7085,
      "frequent": 7086,
      "violence": 7087,
      "consumer": 7088,
      "##lusion": 7089,
      "closely": 7090,
      "melo": 7091,
      "korean": 7092,
      "purchase": 7093,
      "brothers": 7094,
      "clubs": 7095,
      "dreamgirl": 7096,
      "populations": 7097,
      "fundamentally": 7098,
      "abdul": 7099,
      "culmin": 7100,
      "hurricane": 7101,
      "opposite": 7102,
      "brazzaville": 7103,
      "soyuz": 7104,
      "dreamgirls": 7105,
      ".'": 7106,
      "56": 7107,
      "bir": 7108,
      "bott": 7109,
      "ca": 7110,
      "hem": 7111,
      "ji": 7112,
      "ll": 7113,
      "nag": 7114,
      "rout": 7115,
      "vert": 7116,
      "##cast": 7117,
      "##itch": 7118,
      "##ura": 7119,
      "##abil": 7120,
      "arn": 7121,
      "shan": 7122,
      "ship": 7123,
      "##geon": 7124,
      "##awa": 7125,
      "containing": 7126,
      "deshin": 7127,
      "phone": 7128,
      "solid": 7129,
      "aged": 7130,
      "charter": 7131,
      "##conn": 7132,
      "124": 7133,
      "protesting": 7134,
      "simpl": 7135,
      "1000": 7136,
      "mathew": 7137,
      "labels": 7138,
      "bodhi": 7139,
      "feder": 7140,
      "predicted": 7141,
      "activists": 7142,
      "facing": 7143,
      "firew": 7144,
      "dreams": 7145,
      "attract": 7146,
      "codes": 7147,
      "holding": 7148,
      "employees": 7149,
      "##exp": 7150,
      "legislation": 7151,
      "situated": 7152,
      "measured": 7153,
      "mendels": 7154,
      "requirements": 7155,
      "enrolled": 7156,
      "restaurants": 7157,
      "varying": 7158,
      "alfred": 7159,
      "deposits": 7160,
      "bodybuilding": 7161,
      "86": 7162,
      "8th": 7163,
      "cav": 7164,
      "fill": 7165,
      "gay": 7166,
      "lyr": 7167,
      "mount": 7168,
      "nich": 7169,
      "ran": 7170,
      "tut": 7171,
      "vh": 7172,
      "ye": 7173,
      "##rising": 7174,
      "##mely": 7175,
      "##fo": 7176,
      "##erior": 7177,
      "ask": 7178,
      "##thgo": 7179,
      "##ithic": 7180,
      "##ulpt": 7181,
      "##emic": 7182,
      "prison": 7183,
      "sculpt": 7184,
      "interf": 7185,
      "##hedral": 7186,
      "criminal": 7187,
      "expend": 7188,
      "elimination": 7189,
      "madeira": 7190,
      "varieties": 7191,
      "functions": 7192,
      "occurs": 7193,
      "discour": 7194,
      "simult": 7195,
      "1963": 7196,
      "harry": 7197,
      "debate": 7198,
      "edward": 7199,
      "1839": 7200,
      "investigation": 7201,
      "1944": 7202,
      "views": 7203,
      "1929": 7204,
      "squad": 7205,
      "calm": 7206,
      "predomin": 7207,
      "prediction": 7208,
      "effectively": 7209,
      "##ipping": 7210,
      "favour": 7211,
      "mrs": 7212,
      "mariah": 7213,
      "happened": 7214,
      "initiative": 7215,
      "apparently": 7216,
      "necessarily": 7217,
      "evolutionary": 7218,
      "lythgo": 7219,
      "priests": 7220,
      "fundamental": 7221,
      "dubbed": 7222,
      "sovereignty": 7223,
      "psychological": 7224,
      "fictional": 7225,
      "gushi": 7226,
      "lythgoe": 7227,
      "41": 7228,
      "63": 7229,
      "hired": 7230,
      "lect": 7231,
      "mike": 7232,
      "ray": 7233,
      "rog": 7234,
      "raw": 7235,
      "##kary": 7236,
      "##oys": 7237,
      "##bal": 7238,
      "##onn": 7239,
      "##estown": 7240,
      "##ache": 7241,
      "##osy": 7242,
      "enl": 7243,
      "##anta": 7244,
      "reputation": 7245,
      "prel": 7246,
      "monument": 7247,
      "carn": 7248,
      "roads": 7249,
      "airlines": 7250,
      "economist": 7251,
      "sciarra": 7252,
      "receives": 7253,
      "1977": 7254,
      "statement": 7255,
      "explos": 7256,
      "passengers": 7257,
      "researc": 7258,
      "furthermore": 7259,
      "biography": 7260,
      "paula": 7261,
      "raise": 7262,
      "raising": 7263,
      "soldiers": 7264,
      "##hasa": 7265,
      "cells": 7266,
      "symbols": 7267,
      "bringing": 7268,
      "consequence": 7269,
      "transferred": 7270,
      "advertis": 7271,
      "sacr": 7272,
      "attributed": 7273,
      "venues": 7274,
      "tamar": 7275,
      "808s": 7276,
      "perspective": 7277,
      "succeed": 7278,
      "eur": 7279,
      "fal": 7280,
      "hh": 7281,
      "kir": 7282,
      "ng": 7283,
      "outer": 7284,
      "tap": 7285,
      "tennis": 7286,
      "wed": 7287,
      "yog": 7288,
      "##uing": 7289,
      "##lan": 7290,
      "##75": 7291,
      "##ст": 7292,
      "##iti": 7293,
      "stake": 7294,
      "chose": 7295,
      "##ifts": 7296,
      "relation": 7297,
      "becomes": 7298,
      "chinatown": 7299,
      "##athan": 7300,
      "controll": 7301,
      "##rael": 7302,
      "judaism": 7303,
      "headlin": 7304,
      "salt": 7305,
      "13th": 7306,
      "##iii": 7307,
      "fixt": 7308,
      "1848": 7309,
      "1829": 7310,
      "borro": 7311,
      "sonam": 7312,
      "categories": 7313,
      "##eville": 7314,
      "considerable": 7315,
      "crowd": 7316,
      "experiences": 7317,
      "oblig": 7318,
      "congreg": 7319,
      "patterns": 7320,
      "philosophers": 7321,
      "accomplished": 7322,
      "daniel": 7323,
      "opinion": 7324,
      "bosn": 7325,
      "equivalent": 7326,
      "republics": 7327,
      "monroeville": 7328,
      "hhc": 7329,
      "74": 7330,
      "breat": 7331,
      "fly": 7332,
      "gol": 7333,
      "noc": 7334,
      "##hou": 7335,
      "##rian": 7336,
      "##mo": 7337,
      "##ville": 7338,
      "##comb": 7339,
      "##xas": 7340,
      "##ela": 7341,
      "##amin": 7342,
      "stages": 7343,
      "chocol": 7344,
      "proc": 7345,
      "##ifies": 7346,
      "tra": 7347,
      "intens": 7348,
      "boom": 7349,
      "crimes": 7350,
      "texas": 7351,
      "subjects": 7352,
      "filmed": 7353,
      "160": 7354,
      "nova": 7355,
      "guar": 7356,
      "1932": 7357,
      "requires": 7358,
      "pianist": 7359,
      "viewing": 7360,
      "biology": 7361,
      "firef": 7362,
      "borrow": 7363,
      "keyboard": 7364,
      "adopt": 7365,
      "parliamentary": 7366,
      "ferry": 7367,
      "sponsored": 7368,
      "drugs": 7369,
      "decreased": 7370,
      "responded": 7371,
      "liberty": 7372,
      "repeated": 7373,
      "ownership": 7374,
      "recommended": 7375,
      "residential": 7376,
      "weapons": 7377,
      "nocturn": 7378,
      "85": 7379,
      "dor": 7380,
      "dish": 7381,
      "gro": 7382,
      "h2": 7383,
      "hes": 7384,
      "nut": 7385,
      "##aud": 7386,
      "##gl": 7387,
      "##pass": 7388,
      "##off": 7389,
      "##eit": 7390,
      "##da": 7391,
      "##jian": 7392,
      "##erted": 7393,
      "##onna": 7394,
      "thinking": 7395,
      "##uses": 7396,
      "comments": 7397,
      "##ections": 7398,
      "compens": 7399,
      "grid": 7400,
      "counties": 7401,
      "marsh": 7402,
      "eliz": 7403,
      "calling": 7404,
      "performer": 7405,
      "flow": 7406,
      "##aza": 7407,
      "blog": 7408,
      "setting": 7409,
      "161": 7410,
      "guid": 7411,
      "extin": 7412,
      "130": 7413,
      "statistics": 7414,
      "advis": 7415,
      "ethics": 7416,
      "possibly": 7417,
      "sonata": 7418,
      "bordered": 7419,
      "breeding": 7420,
      "hoe": 7421,
      "madonna": 7422,
      "hiller": 7423,
      "learn": 7424,
      "benefits": 7425,
      "distributed": 7426,
      "heartbreak": 7427,
      "berlin": 7428,
      "double": 7429,
      "suburban": 7430,
      "installed": 7431,
      "recovery": 7432,
      "discipline": 7433,
      "helicopters": 7434,
      "insurance": 7435,
      "followers": 7436,
      "fragrance": 7437,
      "mendelssohn": 7438,
      "4th": 7439,
      "77": 7440,
      "biot": 7441,
      "cro": 7442,
      "dur": 7443,
      "les": 7444,
      "migr": 7445,
      "tens": 7446,
      "wa": 7447,
      "wing": 7448,
      "##rich": 7449,
      "##mond": 7450,
      "##kpa": 7451,
      "##ski": 7452,
      "##edition": 7453,
      "##icon": 7454,
      "tot": 7455,
      "##olithic": 7456,
      "##rose": 7457,
      "##robial": 7458,
      "stim": 7459,
      "beaches": 7460,
      "quite": 7461,
      "chi": 7462,
      "##acrest": 7463,
      "seacrest": 7464,
      "arrow": 7465,
      "trend": 7466,
      "##berra": 7467,
      "clot": 7468,
      "canberra": 7469,
      "beck": 7470,
      "marit": 7471,
      "##enses": 7472,
      "fewer": 7473,
      "shekpa": 7474,
      "dry": 7475,
      "driven": 7476,
      "humor": 7477,
      "charges": 7478,
      "antimic": 7479,
      "variation": 7480,
      "economics": 7481,
      "judging": 7482,
      "geograph": 7483,
      "satisf": 7484,
      "monthly": 7485,
      "1928": 7486,
      "glass": 7487,
      "duo": 7488,
      "keith": 7489,
      "graduation": 7490,
      "scholar": 7491,
      "silk": 7492,
      "occurring": 7493,
      "essence": 7494,
      "orders": 7495,
      "cancer": 7496,
      "collectively": 7497,
      "thirty": 7498,
      "pointed": 7499,
      "elsewhere": 7500,
      "phenom": 7501,
      "athletic": 7502,
      "liu": 7503,
      "partnership": 7504,
      "rowland": 7505,
      "magnitude": 7506,
      "polonaises": 7507,
      "portray": 7508,
      "nepal": 7509,
      "behaviors": 7510,
      "horses": 7511,
      "enjoy": 7512,
      "antimicrobial": 7513,
      "88": 7514,
      "faced": 7515,
      "gaga": 7516,
      "icon": 7517,
      "wang": 7518,
      "##mer": 7519,
      "##uits": 7520,
      "theolog": 7521,
      "andre": 7522,
      "andrew": 7523,
      "##oux": 7524,
      "##iles": 7525,
      "stories": 7526,
      "##emen": 7527,
      "comfort": 7528,
      "pray": 7529,
      "shir": 7530,
      "ships": 7531,
      "##ords": 7532,
      "parent": 7533,
      "americas": 7534,
      "remark": 7535,
      "norway": 7536,
      "serial": 7537,
      "##atta": 7538,
      "differences": 7539,
      "appearing": 7540,
      "commonwe": 7541,
      "profit": 7542,
      "requested": 7543,
      "deterior": 7544,
      "approval": 7545,
      "tourism": 7546,
      "connector": 7547,
      "1959": 7548,
      "vienna": 7549,
      "defining": 7550,
      "recognize": 7551,
      "veget": 7552,
      "praj": 7553,
      "sutra": 7554,
      "conservative": 7555,
      "sharp": 7556,
      "lux": 7557,
      "populous": 7558,
      "extremely": 7559,
      "helicopter": 7560,
      "linguistic": 7561,
      "harvard": 7562,
      "brewery": 7563,
      "straight": 7564,
      "renowned": 7565,
      "##ucci": 7566,
      "phenomena": 7567,
      "commonwealth": 7568,
      "bail": 7569,
      "coc": 7570,
      "fan": 7571,
      "fisher": 7572,
      "lights": 7573,
      "lhasa": 7574,
      "mm": 7575,
      "mog": 7576,
      "pand": 7577,
      "ryan": 7578,
      "table": 7579,
      "waves": 7580,
      "##oir": 7581,
      "##don": 7582,
      "##ygen": 7583,
      "##water": 7584,
      "##anas": 7585,
      "##ilton": 7586,
      "##iring": 7587,
      "israel": 7588,
      "##umes": 7589,
      "##abeth": 7590,
      "overl": 7591,
      "door": 7592,
      "assert": 7593,
      "defense": 7594,
      "taip": 7595,
      "166": 7596,
      "177": 7597,
      "##oleum": 7598,
      "extra": 7599,
      "1985": 7600,
      "1930": 7601,
      "authors": 7602,
      "authorized": 7603,
      "stead": 7604,
      "departed": 7605,
      "demonstrations": 7606,
      "autumn": 7607,
      "definitions": 7608,
      "costs": 7609,
      "license": 7610,
      "observed": 7611,
      "corporate": 7612,
      "mechanism": 7613,
      "websites": 7614,
      "oxygen": 7615,
      "shares": 7616,
      "cdo": 7617,
      "temporary": 7618,
      "##minster": 7619,
      "licensed": 7620,
      "replacement": 7621,
      "burned": 7622,
      "clinical": 7623,
      "providers": 7624,
      "opportunities": 7625,
      "exercise": 7626,
      "vajrayana": 7627,
      "uzbekistan": 7628,
      "phenomenon": 7629,
      "##abulary": 7630,
      "embassy": 7631,
      "petroleum": 7632,
      "\";": 7633,
      "][": 7634,
      "aims": 7635,
      "bom": 7636,
      "cuts": 7637,
      "dated": 7638,
      "fought": 7639,
      "gh": 7640,
      "gest": 7641,
      "gym": 7642,
      "od": 7643,
      "pink": 7644,
      "penn": 7645,
      "rid": 7646,
      "rca": 7647,
      "tab": 7648,
      "##oks": 7649,
      "##ien": 7650,
      "##yd": 7651,
      "##inth": 7652,
      "##itudes": 7653,
      "##astr": 7654,
      "frame": 7655,
      "unp": 7656,
      "atom": 7657,
      "height": 7658,
      "entry": 7659,
      "disapp": 7660,
      "solely": 7661,
      "##iously": 7662,
      "maycomb": 7663,
      "daylight": 7664,
      "anthem": 7665,
      "transmission": 7666,
      "##anna": 7667,
      "organism": 7668,
      "religions": 7669,
      "explain": 7670,
      "##ographies": 7671,
      "historians": 7672,
      "##atories": 7673,
      "halls": 7674,
      "survived": 7675,
      "infection": 7676,
      "ethnographic": 7677,
      "bands": 7678,
      "neighbour": 7679,
      "acquisition": 7680,
      "honorary": 7681,
      "balear": 7682,
      "shooting": 7683,
      "occupied": 7684,
      "counterp": 7685,
      "continuously": 7686,
      "clearly": 7687,
      "encourage": 7688,
      "temporarily": 7689,
      "dockyard": 7690,
      "absorbed": 7691,
      "abandoned": 7692,
      "rappers": 7693,
      "chromos": 7694,
      "avestan": 7695,
      "predecessor": 7696,
      "mythology": 7697,
      "arnold": 7698,
      "%,": 7699,
      "76": 7700,
      "ewell": 7701,
      "m2": 7702,
      "pont": 7703,
      "veto": 7704,
      "wel": 7705,
      "yank": 7706,
      "##hr": 7707,
      "##rie": 7708,
      "##oy": 7709,
      "##die": 7710,
      "##jan": 7711,
      "##15": 7712,
      "toxic": 7713,
      "##imental": 7714,
      "##ums": 7715,
      "orb": 7716,
      "##iani": 7717,
      "##aks": 7718,
      "##eller": 7719,
      "twe": 7720,
      "centered": 7721,
      "fee": 7722,
      "##look": 7723,
      "stress": 7724,
      "prototyp": 7725,
      "publications": 7726,
      "revival": 7727,
      "composers": 7728,
      "explicit": 7729,
      "1955": 7730,
      "1943": 7731,
      "enterpr": 7732,
      "jeff": 7733,
      "civilian": 7734,
      "facility": 7735,
      "volta": 7736,
      "copper": 7737,
      "symbolic": 7738,
      "exclud": 7739,
      "##ipped": 7740,
      "sutton": 7741,
      "semif": 7742,
      "narrative": 7743,
      "correlation": 7744,
      "wildc": 7745,
      "sponsor": 7746,
      "flora": 7747,
      "deployment": 7748,
      "hindu": 7749,
      "elementary": 7750,
      "astur": 7751,
      "deeply": 7752,
      "liquidity": 7753,
      "dramatic": 7754,
      "employs": 7755,
      "awakening": 7756,
      "perpetr": 7757,
      "slightly": 7758,
      "chocolate": 7759,
      "('": 7760,
      "/.": 7761,
      "92": 7762,
      "fu": 7763,
      "kw": 7764,
      "paint": 7765,
      "tall": 7766,
      "tina": 7767,
      "##.]": 7768,
      "##ecution": 7769,
      "convert": 7770,
      "ford": 7771,
      "##cepts": 7772,
      "stan": 7773,
      "##thus": 7774,
      "chance": 7775,
      "proced": 7776,
      "##odru": 7777,
      "seats": 7778,
      "##abs": 7779,
      "##ibr": 7780,
      "##ibbe": 7781,
      "##ques": 7782,
      "shuman": 7783,
      "lex": 7784,
      "resist": 7785,
      "sche": 7786,
      "colour": 7787,
      "phagm": 7788,
      "caribbe": 7789,
      "drink": 7790,
      "protocol": 7791,
      "majorca": 7792,
      "flour": 7793,
      "defend": 7794,
      "blocks": 7795,
      "capabilities": 7796,
      "laird": 7797,
      "occitan": 7798,
      "personality": 7799,
      "marking": 7800,
      "1960": 7801,
      "swe": 7802,
      "admir": 7803,
      "##...]": 7804,
      "devices": 7805,
      "downlo": 7806,
      "1919": 7807,
      "##apping": 7808,
      "stew": 7809,
      "insight": 7810,
      "curric": 7811,
      "reserves": 7812,
      "carrie": 7813,
      "falling": 7814,
      "fifteen": 7815,
      "propos": 7816,
      "domesticated": 7817,
      "symbiosis": 7818,
      "structural": 7819,
      "tribes": 7820,
      "planet": 7821,
      "diog": 7822,
      "acceptance": 7823,
      "frequency": 7824,
      "1908": 7825,
      "choose": 7826,
      "1815": 7827,
      "millions": 7828,
      "continuing": 7829,
      "apparent": 7830,
      "telecommunication": 7831,
      "curt": 7832,
      "synthetic": 7833,
      "blocked": 7834,
      "briefly": 7835,
      "##ographer": 7836,
      "declaration": 7837,
      "malaysia": 7838,
      "belgium": 7839,
      "czech": 7840,
      "renaissance": 7841,
      "subdiv": 7842,
      "phagmodru": 7843,
      "caribbean": 7844,
      "dharma": 7845,
      "luther": 7846,
      "sail": 7847,
      "ted": 7848,
      "##har": 7849,
      "##phe": 7850,
      "##feld": 7851,
      "##atisf": 7852,
      "infer": 7853,
      "##alism": 7854,
      "##oto": 7855,
      "##otic": 7856,
      "##agan": 7857,
      "##ifa": 7858,
      "try": 7859,
      "recre": 7860,
      "bob": 7861,
      "interior": 7862,
      "cryst": 7863,
      "poet": 7864,
      "registered": 7865,
      "explo": 7866,
      "solange": 7867,
      "assigned": 7868,
      "proton": 7869,
      "attained": 7870,
      "##issions": 7871,
      "157": 7872,
      "winners": 7873,
      "demol": 7874,
      "##icken": 7875,
      "landmarks": 7876,
      "surpass": 7877,
      "radiation": 7878,
      "auditions": 7879,
      "connick": 7880,
      "1910": 7881,
      "1940": 7882,
      "membership": 7883,
      "significance": 7884,
      "specialized": 7885,
      "calcul": 7886,
      "copy": 7887,
      "survive": 7888,
      "interests": 7889,
      "moral": 7890,
      "vocals": 7891,
      "representative": 7892,
      "participation": 7893,
      "instruments": 7894,
      "mechanical": 7895,
      "cookers": 7896,
      "patrick": 7897,
      "arrangements": 7898,
      "##itzer": 7899,
      "consequently": 7900,
      "ruben": 7901,
      "##uffle": 7902,
      "##placeable": 7903,
      "conquest": 7904,
      "abolished": 7905,
      "mozart": 7906,
      "fontana": 7907,
      "irreplaceable": 7908,
      "jurisd": 7909,
      "ambassador": 7910,
      "firewire": 7911,
      "clothes": 7912,
      "balearic": 7913,
      "08": 7914,
      "6th": 7915,
      "78": 7916,
      "83": 7917,
      "cuis": 7918,
      "din": 7919,
      "diana": 7920,
      "ego": 7921,
      "kard": 7922,
      "option": 7923,
      "pair": 7924,
      "rot": 7925,
      "sid": 7926,
      "ty": 7927,
      "wave": 7928,
      "wine": 7929,
      "youth": 7930,
      "##rig": 7931,
      "##tons": 7932,
      "##atch": 7933,
      "##itage": 7934,
      "##iceless": 7935,
      "##estig": 7936,
      "##irical": 7937,
      "##ibb": 7938,
      "##ella": 7939,
      "manus": 7940,
      "adult": 7941,
      "abh": 7942,
      "abstr": 7943,
      "heritage": 7944,
      "formula": 7945,
      "uprising": 7946,
      "doz": 7947,
      "knute": 7948,
      "invasion": 7949,
      "concrete": 7950,
      "coined": 7951,
      "define": 7952,
      "remember": 7953,
      "imax": 7954,
      "economies": 7955,
      "smok": 7956,
      "protestant": 7957,
      "salv": 7958,
      "##yciech": 7959,
      "declining": 7960,
      "voiceless": 7961,
      "tournament": 7962,
      "practition": 7963,
      "skin": 7964,
      "skills": 7965,
      "steam": 7966,
      "referring": 7967,
      "finalist": 7968,
      "constitu": 7969,
      "possibility": 7970,
      "grammar": 7971,
      "presentation": 7972,
      "auto": 7973,
      "dominant": 7974,
      "1880": 7975,
      "disputed": 7976,
      "guards": 7977,
      "virgin": 7978,
      "happen": 7979,
      "ultimate": 7980,
      "comparative": 7981,
      "fleet": 7982,
      "integrated": 7983,
      "piloted": 7984,
      "cartoons": 7985,
      "beliefs": 7986,
      "pupils": 7987,
      "southwestern": 7988,
      "hamilton": 7989,
      "enemies": 7990,
      "vulner": 7991,
      "accommodation": 7992,
      "nigel": 7993,
      "endorsement": 7994,
      "woyciech": 7995,
      "traffic": 7996,
      "woyciechowski": 7997,
      "81": 7998,
      "87": 7999
    }
  }
}