#version: 0.2
Ġ t
h e
Ġ a
i n
Ġt he
e r
o n
Ġ ,
r e
Ġ s
e d
Ġ w
Ġ o
n d
Ġ .
a t
o r
Ġ c
i t
e n
Ġ f
i s
e s
Ġ b
a r
Ġo f
a n
Ġ in
a l
in g
Ġ p
a s
Ġa nd
Ġt o
r o
Ġ m
i c
Ġ d
Ġ h
i on
o u
l e
Ġ T
Ġ re
Ġ "
en t
Ġt h
i l
Ġ S
Ġ A
Ġ 1
s t
Ġ l
e l
o m
a m
Ġ n
Ġ e
Ġ C
a d
a c
Ġw as
u r
Ġ on
Ġ M
l y
e c
Ġ g
Ġ '
o l
e t
Ġ B
i d
i v
Ġf or
i m
i r
i g
ĠT he
Ġ -
o t
Ġ I
t er
Ġa s
o w
u s
u t
Ġs t
Ġ H
it h
a y
Ġ 2
v er
Ġb e
Ġth at
č Ċ
at ion
Ġw ith
he r
Ġ P
t h
u n
c e
Ġ R
e m
Ġw h
Ġ is
Ġb y
u l
Ġa l
Ġc on
c h
Ġ D
a nd
Ġa t
Ġ F
Ġ )
Ġ (
a in
o s
er s
Ġ W
Ġ it
Ġ N
c t
ro m
Ġ G
Ġa n
a g
Ġ1 9
a v
Ġ L
Ġ he
es t
u m
Ġ J
0 0
Ġ r
is t
o d
Ġf rom
r i
Ġc om
Ġ E
Ġh is
a p
Ġ O
Ġp ro
er e
or t
o re
o p
i f
Ġ v
il l
i es
Ġd e
l d
Ġs u
Ġw ere
re s
on g
Ġs e
e w
a k
ig h
ic h
at e
ar t
a b
al l
ar d
p p
Ġo r
Ġc h
b er
u d
an t
at ed
g h
Ġe x
it y
o c
Ġp l
es s
q u
e ar
am e
Ġ K
ro u
iv e
Ġs h
Ġ k
Ġh ad
Ġa re
ac k
ec t
ĠI n
s e
i an
Ġwh ich
Ġ U
re d
ou r
as t
Ġ â
m ent
o v
g e
Ġ y
Ġn ot
Ġ le
ĠS t
Ġs p
Ġâ Ģ
i p
Ġt r
al ly
in e
or d
el l
p t
r it
o st
u st
igh t
ou n
Ġ u
t her
av e
is h
i a
Ġ 3
ar y
ĠC h
Ġ un
Ġin c
o g
r a
c c
ir st
ou s
Ġthe ir
Ġcom p
Ġb ut
Ġin t
Ġcon t
f ter
s o
Ġ2 00
Ġa r
id e
ion s
ou ld
Ġ V
ou t
Ġit s
Ġw he
i al
Ġf irst
u re
w o
Ġ ;
u e
he d
r u
ow n
f f
p er
ic al
Ġal so
o k
Ġc l
Ġ her
u b
ig n
at er
as s
Ġa b
om e
Ġre s
i e
or m
Ġ2 0
e nd
i re
Ġa d
or k
ag e
Ġ us
Ġ ro
Ġon e
Ġh ave
Ġre c
ĠH e
m er
l ow
r y
on d
Ġ 4
Ġp er
Ġt wo
Ġbe en
Ġh as
ur ing
Ġ 5
re e
T he
an s
im e
l and
ĠâĢ ĵ
t ed
i le
ou gh
en ce
Ġwh o
Ġ1 8
Ġth is
p l
ĠT h
Ġa g
Ġs c
d u
an ce
a re
Ġb ec
i z
Ġd is
Ġa pp
l ud
Ġ j
it ion
Ġp art
Ġthe y
t s
ad e
Ġ :
Ġo ver
ation s
el y
Ġpl ay
r ic
ac h
an g
Ġy ear
Ġa fter
Ġd es
ou nd
an y
Ġ en
o ver
Ġs er
Ġof f
Ġo ther
i k
or y
i b
ĠI t
Ġat t
ĠA l
it e
Ġ im
Ġinc lud
t e
ul t
ur n
Ġo ut
Ġ20 1
ac e
res s
ar k
ct ion
e y
em ber
Ġ Y
w n
Ġu p
Ġint o
oun t
ic e
ac t
Ġp re
rou gh
Ġf in
Ġt ime
a il
w e
en s
Ġe v
nd er
c ed
Ġcom m
rou nd
p ort
Ġt e
Ġw ould
l es
i ed
Ġm ore
os e
re n
Ġal l
o in
c es
Ġs he
Ġh im
Ġw e
am p
ter n
e ver
Ġ 6
w ard
as ed
it ed
ent s
ab le
as on
o y
Ġc ent
ri b
ĠU n
ing s
or s
at es
m an
o od
Ġ 7
i ous
Ġw ork
ro p
i x
is s
r al
on e
il d
a w
Ġs ec
Ġs ong
Ġb et
Ġf e
Ġre m
ak e
ol d
Ġthe m
as e
f orm
Ġwhe n
Ġd uring
g an
e p
al s
ĠA n
at h
Ġe ar
er ed
or th
Ġcon s
ic k
v el
Ġd ec
at t
a us
v ed
w ay
Ġk n
Ġn ew
f er
Ġm ost
ou th
Ġon ly
ub l
s s
Ġag ain
Ġ 8
ol low
we en
on s
Ġg ame
il m
u g
in d
ot h
re at
ĠA r
ĠM ar
ĠO n
Ġ 9
o ok
Ġab out
Ġth ree
Ġre l
Ġu nder
Ġbet ween
f t
Ġf l
oc k
f ore
Ġth an
ter s
an n
ic t
r on
ation al
Ġc ol
Ġ 00
Ġn e
Ġse ason
Ġm e
Ġth rough
h ip
ul ar
Ġ19 9
Ġe nd
Ġch ar
Ġl ater
ol og
Ġwh ile
Ġn um
Ġp os
Ġde f
Ġrec ord
o b
ĠE n
v e
Ġas s
Ġa ct
or n
h n
i ew
is ion
Ġp r
Ġf ilm
ĠC om
Ġre t
Ġsu b
Ġre g
Ġwhe re
ĠN ew
Ġ ver
Ġm ade
ur y
Ġp e
am es
mer ic
Ġre le
Ġb u
at ing
Ġl ar
Ġw rit
Ġa cc
is hed
Ġs o
ĠA meric
Ġpro du
an k
ĠS e
Ġin ter
Ġfor m
Ġm ov
a id
Ġs ome
Ġc an
en er
Ġ qu
Ġf ollow
iv ed
Ġf our
Ġa c
Ġd ay
Ġsec ond
or ld
u al
Ġa m
Ġm an
Ġm us
Ġsp ec
Ġbe fore
Ġ00 0
he s
l l
Ġsu ch
Ġin d
he n
if ic
p h
b um
Ġus ed
Ġg r
ik e
i el
Ġsu pp
I n
Ġc all
Ġbe ing
le ct
ĠS c
Ġp ubl
Ġthe re
Ġh igh
Ġe p
Ġ1 2
ĠTh is
il y
iv er
ow ever
Ġd o
Ġm on
u c
er m
t on
ain ed
ĠL e
Ġs et
Ġal bum
an e
Ġyear s
Ġ ent
in es
ĠS h
Ġf ound
Ġs ur
Ġ1 0
Ġ 0
ic s
ar s
is ed
Ġb l
Ġc o
a j
Ġs y
ĠA t
Ġl oc
Ġnum ber
Ġn o
p en
ĠA ust
ot her
Ġagain st
ĠB rit
Ġse ver
ĠJ o
Ġin v
j ect
od e
Ġthe n
ir d
ig in
e k
Ġser ies
ĠEn g
i o
Ġc ap
Ġinclud ing
Ġw ell
t en
al e
it ies
aus e
Ġep is
s on
Ġb oth
in ce
i er
ur ch
ĠR e
Ġbec ame
Ġp res
ĠA s
Ġ1 6
vel op
Ġb ack
ire ct
is e
Ġper form
Ġe m
ĠâĢ Ķ
Ġ Z
ro w
Ġp op
Ġad d
id ent
Ġs ing
Ġ /
th ough
it s
Ġkn own
Ġm ain
Ġte am
Ġchar ac
Ġex p
Ġre p
iel d
ĠB r
n ing
u ch
Ġcon c
at her
Ġg o
f ul
o ol
Ġde p
ĠAust ral
if e
Ġtr ans
Ġ19 8
em ent
Ġl ong
i et
er t
Ġm in
ĠUn ited
Ġm any
ow er
l ed
a ir
u res
Ġcont in
Ġre ce
Ġor igin
over n
r am
Ġb r
Ġ1 5
Ġst ud
Ġsh ow
Ġsever al
ro ss
Ġdes c
a z
ut e
Ġcent ury
at ive
Ġc re
el f
o ber
Ġs m
Ġ est
Ġbe gan
Ġ1 1
Ġm ill
u p
Ġm et
Ġde velop
in s
a red
d er
iv ers
p r
Ġp ol
em b
ĠS he
i red
Ġal ong
Ġ1 7
ĠI nd
er n
le y
Ġle ad
Ġd id
Ġp o
Ġcomp le
ain s
i am
Ġs ign
u ally
u ed
t il
ĠJo hn
Ġex t
Ġre v
an c
Ġd irect
Ġar t
Ġc ity
Ġc ould
Ġd own
iz ed
Ġepis ode
Ġd if
ment s
o ot
el s
Ġo b
Ġ19 4
t ing
Ġm il
Ġn ear
Ġr un
Ġ19 6
Ġc rit
un e
rou p
Ġear ly
a u
Ġb el
y l
i ent
Ġcall ed
u red
Ġb ro
Ġm ay
Ġs aid
ak ing
Ġc ar
a h
Ġ19 7
ĠM ay
ĠBrit ish
op le
cc ess
Ġo per
ĠAmeric an
Ġthe se
Ġin st
Ġin f
Ġw ar
Ġsh ip
Ġfe at
Ġm at
r ap
Ġin s
Ġun til
Ġdesc rib
ist s
Ġdis c
Ġim p
Ġres p
an ge
im es
Ġa ir
ul l
Ġl and
Ġpro v
g est
Ġd ist
Ġpre v
Ġan y
ru ct
t y
Ġst art
Ġk m
id ed
Ġh ist
Ġret urn
am ed
Ġare a
i ally
v en
Ġth ough
ĠI s
Ġo pen
x t
in k
en n
Ġcon st
y p
Ġatt ack
Ġdes ign
Ġo wn
Ġp ass
ĠC on
Ġst r
h y
Ġg ener
Ġs ame
Ġmus ic
os ed
Ġbec ause
Ġsupp ort
Ġa round
Ġrele ased
Ġoff ic
Ġo cc
Ġn orth
ov e
ib le
m y
ĠThe y
Ġe ff
Ġg overn
Ġsu ccess
ĠA ug
ĠB l
ĠF r
aj or
ĠAug ust
ou se
ce pt
ĠW h
Ġ1 3
Ġs ix
Ã ©
Ġs im
as h
Ġg u
os s
ĠW ar
Ġus e
Ġsm all
Ġpe ople
Ġapp ear
Ġl ike
Ġmill ion
Ġf am
ut h
u es
ĠC ar
ĠU S
i um
ers on
ĠSe pt
Ġad v
Ġc ount
st em
ĠS p
is m
Ġhe ad
Ġg roup
ch ool
ĠSept ember
et s
ĠA fter
ĠCh r
u nd
Ġ %
ain ing
Ġp oin
Ġ19 5
Ġw in
om an
Ġe ach
Ġcharac ter
Ġfollow ing
al es
Ġd am
er v
e b
Ġcont ro
Ġcons id
Ġf ive
ĠC l
ĠH owever
Ġlar ge
Ġe le
ĠJ u
Ġm od
Ġan n
il t
ĠC ol
ĠCom m
ward s
ac ed
Ġb att
iv es
o le
Ġ ed
Ġe ver
Ġre port
Ġs outh
olog y
av ing
on y
Ġv ar
end ed
Ġp rom
ord ing
c l
ut ion
ĠA d
ĠN orth
Ġ19 1
at ely
Ġst ate
ĠS outh
Ġ19 3
Ġd r
ĠJ une
ore d
Ġwe ek
ian s
m ed
ĠSt ates
Ġto ok
Ġ1 4
ĠW orld
t le
c k
ur al
at s
Ġfin al
Ġs ince
ĠG er
Ġw ill
Ġ Q
Ġm ajor
ect ed
Ġrece ived
ĠJ an
Ġpubl ic
l ish
ĠAl l
Ġb ook
em pt
Ġpart ic
Ġre st
ĠG u
on t
o x
iv ing
l ing
ĠP l
Ġplay ed
ĠI I
Ġhe l
u rop
Ġt it
ĠH er
ĠO ct
b y
g in
er y
if ied
Ġl ast
a im
u ary
b le
Ġsy stem
he l
ro te
Ġl ine
Ġwh at
ĠT r
Ġinc re
ĠM e
Ġpro t
ĠOct ober
Ġ $
il ity
iv ision
ag ue
Ġbu ild
in a
Ġn ow
Ġn ame
d om
Ġl ate
Ġg un
a x
Ġcon f
ag ed
ĠF or
ion al
iv ely
ect ion
Ġd et
Ġp ort
ant s
. .
Ġre f
ĠD e
Ġj ust
Ġdescrib ed
ĠChr ist
Ġl ife
ĠN ov
ĠJu ly
in ed
ĠK ing
h am
od y
Ġinclud ed
Ġd ue
Ġar r
Ġcl ass
Ġm uch
ĠD ec
ag es
Ġc amp
Ġsing le
g et
om et
es p
ĠM c
Ġ2 5
Ġw on
Ġw rote
Ġsh ort
k e
Ġan other
Ġatt empt
Ġ. ..
a e
Ġgovern ment
ide o
Ġal low
Ġle ft
Ġk ill
Ġw orld
Ġal though
p le
Ġt ri
Ġapp ro
Ġs l
ent ly
Ġser v
i od
Ġm ar
Ġf ur
ĠC an
ĠJan uary
Ġb ased
a i
re t
ĠY ork
om in
Ġev ent
ic ally
Ġev en
Ġm en
ĠG r
rop ical
Ġn amed
ĠE urop
iss ion
Ġpos s
Ġo ld
b all
ard s
Ġt urn
it al
Ġpl ace
Ġ3 0
ar l
Ġto p
ĠB e
ul ation
Ġv is
Ġde ath
en g
Ġdif fer
id ge
Ġtr ack
Ġbu ilt
p ed
Ġ if
av y
Ġpro g
Ġth ird
Ġst orm
Ġwith in
Ġor gan
it ions
ec h
s ion
Ġver y
Ġest ab
ĠGer man
Ġch ild
ĠMar ch
Ġbel ie
Ġp ower
Ġprev ious
c hed
n ess
Ġg ames
Ġc our
Ġcomm and
a ur
Ġw ay
an ces
it ary
Ġs chool
ĠA pr
un g
ĠDec ember
ĠApr il
Ġw ater
Ġb re
ĠR iver
Ġc are
Ġl it
am b
Ġrev iew
Ġex pl
ra ft
Ġh ome
ĠEng land
ĠNov ember
a ff
il ar
ac hed
he st
Ġh um
Ġspec ies
Ġb est
iv en
Ġs ent
Ġc r
en e
Ġth ose
Ġper iod
m s
Ġfam ily
an es
op s
Ġh al
qu e
Ġh and
ĠEurop e
Ġ Â
is on
Ġm ake
Ġ19 2
Ġmon th
ak es
ĠP ro
ĠJ ap
Ġg reat
Ġcap t
Ġst ory
ĠA nd
Ġo pp
Ġre qu
ed er
Ġp erson
Ġd em
oc i
ar r
as ter
og rap
Ġorigin al
Ġp h
el t
Ġl ist
i ence
ar n
Ġv ideo
Ġ1 00
p or
Ġen g
o ad
Ġm ed
Ġl ed
Ġa uth
ĠP r
l ine
Ġt yp
ĠH is
ĠG e
ĠN ational
at ure
ĠC ity
ru ction
Ġle g
g ed
Ġre pl
ent ion
ivers ity
g y
Ġloc al
Ġt erm
p s
s elf
ent ed
Ġro le
Ġcontin ued
n e
n er
le t
Ġs ide
o ard
en ces
ot t
ren ch
Ġd est
Ġst ill
Ġne xt
s ide
ak en
Ġc ame
g er
s h
Ġf ew
Ġsu g
Ġm ark
ad y
ĠM an
ĠM us
Ġis s
Ġc aus
Ġmov ed
al k
id es
Ġb as
ri end
Ġfor ces
Ġst ar
emb ers
le v
en se
as tern
Ġm y
iv al
Ġcl aim
Ġres ult
Ġw est
Ġv iew
Ġ201 0
ur ric
Ġm id
ut ed
Ġadd ition
Ġof ten
ĠB ro
Ġst and
ĠCh urch
ĠB att
Ġs old
Ġw ind
ĠP h
Ġr ight
Ġex per
Ġcl ub
ĠB y
Ġhe ld
Ġan t
Ġ200 9
Ġeff ect
Ġfur ther
i or
m p
in c
at ter
Ġin it
Ġpol it
Ġto t
Ġplay er
ĠF l
Ġro ad
re w
ĠF rench
Ġle vel
Ġconsid ered
ay s
Ġp ar
Ġfor mer
Ġdef e
Ġrecord ed
l er
ĠN o
Ġcomp any
Ġsug gest
or ies
Ġde b
is ter
Ġsim ilar
Ġwith out
ĠD uring
Ġ200 8
Ġcomm on
ĠAustral ian
ĠO r
e al
v es
Ġcont r
Ġre al
es tern
Ġe ast
in t
ĠT e
ĠThe re
us s
ĠW ill
Ġtr ad
Ġam ong
Ġt ake
Ġto wn
Ġt w
Ġf r
Ġhal f
Ġim port
Ġc over
ĠW e
Ġinf l
Ġdiffer ent
Ġmil itary
ro y
Ġsong s
Ġf ore
Ġd el
ri pt
Ġpos ition
Ġever y
e ad
Ġcon v
Ġstr ong
Ġt em
Ġcomm un
c hes
it ar
Ġm embers
Ġn ort
ron t
Ġf ield
Ġh owever
Ġj oin
tern ational
Ġday s
Ġb and
Ġy ou
Ġa v
ĠC ount
b s
i pp
ĠSt ate
p ar
a ul
ra w
eb ru
ĠA f
Ġ2 1
Ġre fer
Ġinv ol
ens ive
cc ording
ĠW hen
Ġpro p
Ġbe h
Ġar ch
b e
Ġ el
Ġl ow
Ġv ict
Ġfin d
Ġpubl ished
ĠEng lish
Ġ2 3
her n
ĠF ebru
ĠFebru ary
Ġe lect
pl oy
Ġpartic ular
Ġc ur
ou ther
Ġsp e
er r
Ġm ag
Ġor der
ĠOn e
ri ed
Ġmat ch
Ġf re
ĠA b
ot s
iz e
Ġrep res
Ġhist ory
outher n
ro du
le ar
ĠP ort
urric ane
Ġf ire
is ing
Ġ2 4
Ġ200 7
er ing
Ġ2 2
ĠG ener
Ġbec ome
Ġcontro l
Ġtot al
Ġf oot
ĠD ivision
Ġwrit ten
ic es
ar m
ĠCom p
Ġauth or
Ġcomp et
Ġrele ase
ĠAustral ia
Ġp ost
ap p
se qu
ail ed
au gh
ĠA m
Ġpro f
ĠCan ad
Ġg ave
us h
en c
Ġpro ject
al y
Ġh aving
ac es
et er
Ġs it
Ġ201 1
ay ing
al ion
Ġl ost
Ġ2 6
Ġch ang
re en
at ic
Ġreport ed
Ġ200 6
y le
ĠP er
ĠE d
Ġtit le
y n
ĠW est
re et
Ġver sion
Ġt imes
on es
ap e
ĠM ich
Ġg round
lev ision
Ġl ess
Ġcom b
Ġsign ific
ĠP ar
ĠP ark
amp ions
Ġs ol
Ġch urch
Ġsur v
is c
Ġto ur
Ġprodu ced
Ġw ant
Ġa ff
Ġpoin t
ĠR ich
ab ly
Ġs ite
il le
ĠM in
Ġg iven
ress ion
ĠM iss
ĠAf ric
Ġs k
Ġe ight
Ġpop ulation
Ġp at
im ent
Ġ2 8
ĠA ss
Ġst ated
oun g
Ġhist or
Ġn ever
Ġcount ry
our s
Ġ5 0
ree k
iet y
Ġcrit ic
Ġreturn ed
w ork
a f
al d
ĠA ir
os p
Ġcare er
Ġinfl u
Ġt ropical
ĠS ong
Ġinclud e
Ġpop ular
yl an
Ġship s
Ġe qu
Ġob s
o on
Ġp ress
Ġocc ur
ĠGener al
us ed
Ġt ro
Ġm aking
Ġis land
ĠE l
Ġsh ould
ĠB ar
ĠR oman
ren t
f ic
Ġ !
Ġ X
O n
g es
s p
Ġ201 2
Ġprodu ction
ver s
Ġman ag
Ġ19 0
ĠGe or
Ġn ov
ĠC ent
m e
Ġl ight
ec hn
ĠSc ient
uc k
Ġst ruct
Ġor d
Ġprog ram
ol l
Ġac ross
Ġse en
Ġdest roy
Ã ¡
Ġre ached
anes e
Ġb o
Ġfor ce
ĠS u
Ġn ight
Ġsignific ant
in ation
at or
om en
Ġnot ed
Ġb ody
ĠThe se
a un
it her
Ġf t
as k
ric k
Ġfe et
f ord
Ġh ow
Ġl im
Ġst at
re am
Ġf riend
Ġdevelop ed
Ġc y
Ġc at
ad es
Ġbl ack
Ġestab l
es c
ĠW ith
Ġmil es
Ġchild ren
r ation
in ess
om b
ĠD ylan
Ġann oun
i ec
Ġs ound
Ġc ast
ir c
Ġear l
e v
ĠUn iversity
Ġthrough out
ĠLe ague
ĠWill iam
y ing
Ġa way
ĠA ccording
ig ade
Ġhim self
Ġc or
Ġd iv
ĠAmeric a
Ġthough t
Ġs oc
Ġp ur
c ess
Ġc ult
Ġf em
Ġp ra
Ġ2 7
Ġ201 3
e f
Ġw at
Ġg en
op e
ĠAl though
Ġpres ent
Ġg ood
im ately
Ġ2 9
iz ation
ĠL ond
Ġpl an
ĠAn g
Ġestabl ished
a ign
n a
Ġare as
re g
Ġf act
ut es
ĠD av
Ġr ad
e ared
Ġs omet
ain t
Ġsu ff
are n
Ġperform ed
Ġint rodu
Ġus ing
ĠLond on
Ġ &
ĠS im
iv il
Ġse ven
Ġsuccess ful
Ġc ross
Ġf elt
Ġh ig
ĠC or
Ġwh ite
ord s
Ġf ull
Ġl aw
Ġad m
Ġdec l
Ġw ent
ĠCount y
Ġch art
Ġperform ance
ĠJap anese
Ġc he
Ġg od
Ġvar ious
Ġkill ed
Ġ ide
ĠO ld
Ġtr av
Ġpr im
g r
ist ed
Ġh ouse
ĠJ ack
f ield
Ġg l
Ġf ather
Ġre d
st er
Ġte levision
re land
Ġto o
ri es
Ġplay ers
Ġinter est
Ġdevelop ment
Ġbuild ing
Ġs qu
Ġl ook
id ence
Ġstart ed
Ġbatt le
a el
it ted
Ġp ut
Ġm m
Ġpolit ical
ĠP ol
Ġact iv
c raft
t ain
Ġf un
ampions hip
c om
m ost
Ġt en
Ġs w
ĠE v
Ġimport ant
i ers
Ġr ange
Ġoffic ial
Ġc oun
ĠR oad
ĠRe g
it ive
Ġf ight
Ġd ied
ĠI reland
Ġne ed
olog ical
Ġwrit ing
b r
Ġhigh way
Ġhum an
Ġw id
ĠC al
Ġform ed
Ġc as
ie f
Ġconst ruction
ant ic
Ġrel ig
Ġmod ern
Ġc ou
ĠH igh
ĠR oy
Ġse e
it ing
al th
Ġrem ained
Ġcaus ed
Ġf ac
Ġcre ated
Ġdisc over
Ġprom ot
Ġf ront
Ġg et
ĠR ober
ĠAr my
Ġloc ated
Ġdo es
ĠBl ack
n ey
v iew
ant ry
Ġev ents
c on
Ġm ix
Ġab le
Ġa ge
Ġbe gin
Ġv ill
ĠAt l
Ġt echn
Ġb all
og n
Ġcamp aign
Ġs um
ress ed
d ay
Ġt re
ell ing
Ġfollow ed
Ġre ad
od es
Ġco ast
as ing
ic o
Ġl ik
ĠG l
Ġk e
Ġgun s
Ġst e
ab or
Ġ18 9
Ġser ved
Ġreg ion
Ġp ri
et h
Ġcomple ted
ĠH a
Ġro ck
Ä ģ
ĠM ag
ĠJ ames
fic ult
ent h
ĠC are
Ġbec om
ĠIs land
um ent
if f
ĠâĢ Ļ
Ġrel ations
Ġb ar
l ess
Ã Ń
Ġs on
Ġon ce
Ġdif ficult
in o
Ġf av
Ġp it
le et
ĠS w
ĠC ro
Ġst yle
ep end
f all
av es
Ġcharac ters
Ġ er
re st
du ct
Ġs outhern
Ġhe avy
rough t
Ġent ire
ĠScient ology
ĠE x
Ġro ute
Ġme et
Ġtro ops
Ġn ational
Ġother s
Ġadd ed
Ġl oss
Ġe astern
iv id
Ġr ank
Ġorigin ally
en ced
id d
Ġcom ment
Ġmonth s
Ġag re
lect ed
ĠWh ile
Ġlit tle
i que
r ing
or se
Ġc irc
al ity
Ġ200 5
Ġsc ored
Ġannoun ced
he re
Ġp red
os aur
amp le
Ġ3 1
ubl ic
Ġpe ak
Ġinst ead
o ff
Ġ ident
Ġle ast
Ġapp eared
Ġass oci
Ġh old
ĠO l
Ġv al
Ġ4 0
ĠT own
em s
Ġnov el
Ġc ert
Ġb us
Ġg row
Ġar m
ough t
Ġhel p
m ar
Ġa ud
Ġkn ow
Ġcrit ics
Ġf ig
an a
Ġwork s
Ġcol le
er rit
ar a
ĠP al
Ġacc om
Ġtrad ition
ĠComp any
c il
Ġb ird
Ġsu per
ĠN e
Ġpro cess
ount ain
Ġprodu c
ĠS om
Ġex c
Ġen c
k i
ĠS ec
Ġ200 4
Ġcon n
um b
ect s
ĠKing dom
s c
un k
ĠR ec
pl ay
Ġgo al
Ġre du
ĠF eder
Ġst ri
Ġdec ided
ĠS y
Ġl ive
Ġbro ad
o id
Ġa ver
Ġfor t
Ġan im
Ġbeh ind
o ice
Ġto wards
Ġv ol
ĠCare y
Ġb ase
Ġm i
Ġm ass
ĠH am
Ġcon d
ĠY ou
ar ch
Ġl ack
Ġst ars
em ents
Ġk ing
Ġapp oin
way s
Ġsub sequ
Ġest im
Ġevent ually
ĠGr and
ĠT o
Ġ18 8
Ġt est
Ġf if
am ent
Ġcom mer
Ġa ward
Ġf all
Ġn on
ĠC r
ĠB ill
ric t
Ġimp ro
Ġnort hern
ĠH ar
ĠCh ar
ĠM on
ĠM or
et t
Ġst age
Ġ18 5
Ġspec ial
Ġfeat ured
Ġt aken
Ġs aw
ur b
Ġb orn
Ġm other
ac y
Ġse par
Ġfeat ures
ĠM ad
em y
m b
Ġto get
Ġind ivid
Ġtoget her
ĠA ct
Ġn uc
Ġcol l
Ġw omen
Ġf ar
Ġh urricane
Ġr a
Ġy oung
i us
ist ic
Ġy ards
Ġplay ing
Ġfour th
at ors
enc y
Ġw ife
Ġd ou
Ġas k
ap er
Ġcl os
Ġins p
Ġair craft
hy s
Ġc ut
Ġm iss
Ġrec ogn
az ine
Ġopen ed
Ġrelations hip
at a
Ġse x
Ġcre w
ĠMc C
Ġprof ess
Ġb rought
ce ed
ch ie
out e
Ġcl ose
Ġfin ished
ĠInd ian
Ġoper ations
h ic
re ad
Ġbelie ved
ĠBatt alion
ĠDav id
Ġa ction
ec ut
Ġde v
Ġex ample
Ġle t
ollow ing
Ġmov e
Ġem ploy
Ġdam age
g g
o o
Ġ z
or ing
Ġm ot
ĠS l
Ġe ither
ir on
ĠW ales
Ġweek s
ĠRober t
ot a
ĠI r
Ġal most
end ing
Ġ round
ĠS er
ĠC up
ul ly
Ġar g
i ber
st on
am a
ĠSt reet
ight s
ĠFr ance
Ġrepres ent
ĠE ar
ĠE ast
Ġpro ble
Ġlead ing
c her
n ed
Ġc reat
Ġb i
Ġre n
Ġre ach
Ġac cept
Ġopen ing
Ġw all
Ġb urn
ĠRoy al
i ol
Ġc ell
ol ution
art ment
Ġcent ral
Ġlar gest
Ġdirect ed
Ġgener al
ĠMe x
Ġcour t
Ġm ater
Ġl aun
ĠH ill
Ġr ul
Ġqu ar
med i
e e
i ation
en ed
Ġd raw
ĠP res
ap s
Ġun its
wo od
ign ed
Ġreg ular
Ġprov ided
i h
Ġc e
an ch
st it
ĠR ock
Ġv oc
ill a
Ġ3 5
Ġ5 00
Ġpoin ts
Ġserv ice
ĠM er
ĠB er
Ġfl ood
c ial
al t
Ġh it
Ġre b
ĠR ep
ĠG od
ĠG erm
ort s
it t
Ġ200 3
Ġresp ect
arl iam
Ġc ost
Ġse qu
ĠTh om
Ġup on
ĠBr igade
Ġele ments
Ġvict ory
ic a
ent ial
ĠR oute
ang u
s el
Ġin form
Ġr iver
ish ing
Ġgener ally
Ġm ember
Ġind ust
Ġdirect or
eng th
c ast
g round
h ing
Ġs aying
Ġc ase
Ġh on
Ġh ost
ĠH en
um p
ann ed
ĠWh ite
b oard
ic ated
id a
Ġcon duct
Ġr ather
ell ow
Ġwant ed
s u
ĠT wo
ĠP art
ĠP aul
ĠV iet
Ġearl ier
u ter
Ġme as
Ġinv est
arliam ent
he ast
Ġm er
A F
Ġh ours
Ġ201 5
Ġparticular ly
Ġre ve
et work
ĠB o
Ġst ru
Ġst ren
ĠR ed
oun ted
Ġresp ons
Ġf oc
Ġl ength
Ġinvol ved
w est
Ġs our
ĠC ap
ĠB ut
Ġpro b
Ġpro te
Ġf und
ĠH ouse
Ġv e
Ġappear ance
ĠEurope an
v al
ing ton
Ġbe g
Ġcon dom
ĠD r
ict ion
Ġpr act
ĠZ eal
ĠZeal and
Ġt rib
as ion
ĠS ome
Ġy ard
Ġres ear
act ion
Ġstud y
ĠComm and
ĠChrist ian
Ġ ill
on st
Ġb ur
ĠC reek
Ġout side
Ġallow ed
ĠGeor ge
Ġstren g
Ġa chie
el er
ĠM y
ĠF in
ĠG ame
ĠK e
ĠK h
pt ion
Ġdes p
Ġme an
ĠS qu
Ġfor ced
Ġex ist
Ġ18 6
Ġwork ing
Ġne g
Ġcur rent
Ġmanag er
Ġbus iness
he ad
ec k
ĠI m
ĠL ove
ore s
ĠIn ternational
e um
an ia
Ġl y
ĠB ay
ord an
Ġres ul
Ġpo em
esp ite
Ġposs ible
ĠÂ £
Ġ esc
ĠC o
ĠAtl antic
Ġp ast
ĠB ra
ĠD u
ĠD ep
Ġreg ard
Ġeng ine
f or
r ay
t o
v ille
er ous
Ġc op
it a
Ġh y
Ġev idence
Ġpra ised
Ġm ult
Ġl angu
m ing
Ġc ivil
Ġwh om
Ġr ace
ĠÂ °
Ġfem ale
ĠP e
Ġconst ruct
Ġincre ased
m en
u k
u le
Ġre ason
Ġth ink
rib uted
Ġwork ed
Ġprevious ly
A fter
c ent
ou ri
Ġth reat
ĠM ed
ĠM ac
ir l
Ġob ject
Ġdesign ed
Ġjoin ed
ĠMich ael
Ġcy cl
con om
u ation
v ing
at ural
Ġqu ick
w h
z e
ĠM ark
and ing
ud e
Ġpl aced
Ġab ove
Ġrepl aced
Ġav ail
u el
ur g
im in
Ġst ation
Ġt errit
at in
av al
Ġw estern
Ġf ree
Ġits elf
c o
ul a
ĠW al
ĠJ ew
ĠPh il
Ġm ach
ir th
Ġr ail
Ġrem ains
Ġso on
Ġmater ial
g o
r ated
ĠM o
Ġg re
ĠD ay
ĠW il
Ġhig hest
Ġcommer cial
b or
or ida
Ġc lear
ac ing
ĠM ary
ec ess
Ġwith d
ag o
qu ar
Ġ18 7
Ġrem ov
Ġpo or
ĠHer o
Ġn omin
Ġclaim ed
ĠOl iv
Ġt aking
Ġs low
Ġp ain
it es
le g
Ġst op
ver t
ess ion
ĠMiss ouri
B C
n ow
ĠS m
Ġn ine
ĠE m
Ġv iol
Ġsh ot
ĠV al
Ġ4 5
Ġfoot ball
Ġt reat
Ġin j
Ġp ers
Ġm ph
Ġg old
id ing
us ion
os ing
ĠCh ampionship
ĠBrit ain
Ġp en
ĠS an
ĠSt e
Ġ6 0
ĠMus ic
Ġwind s
re m
Ġp iec
Ġl ove
om s
ell ed
Ġarr ived
Ġd on
ad ron
Ġpart s
gy pt
Ġaver age
Ġestim ated
d own
l ic
en es
Ġf ly
Ġm ust
Ġh om
ĠO ther
Ġdis s
Ġ199 0
Ġinter view
Ġtrans port
ĠQ ue
Ġ Ã
re ady
ĠP ac
ĠJ ordan
Ġr ap
Ġint ens
hen s
Ġtrav el
id s
Ġhe av
Ġgo als
Ġturn ed
Ġbre ak
t ies
Ġsur round
Ġsign ed
Ġbro ther
o or
Ġa p
er ved
Ġin ternational
ur t
Ġar my
Ġpr iv
Ġsub ject
ĠPl ay
Ġto ld
Ġwh ose
pp er
Ġ3 6
ines e
Ġtrans fer
Ġdefe ated
ĠRich ard
ĠSu per
k y
n es
Ġo p
Ġb ill
ou l
ĠA c
ul ated
os ition
Ġ200 1
ib ility
Ġim medi
ĠUn ion
Ġrelig ious
Ġdesp ite
Ġavail able
t r
Ġh ous
ĠM ost
ĠE gypt
ĠCh inese
Ġ201 4
Ġgr ad
Ġquar ter
ĠThom as
n al
t t
x imately
ar i
ar ily
ĠO ff
Ġ18 3
Ġsc ene
Ġsur f
Ġbl ock
ĠQ u
Ġcommun ity
ecut ive
Ġw ood
it z
Ġch ange
Ġwrit er
Ġcomple t
Ġinit ially
ĠFl orida
Ġsuggest ed
Ġto uch
ĠB est
ch ing
est s
Ġr ain
Ġch ap
Ġspec ific
Ġrun ning
Ġpass ed
Ġincre asing
por ary
Ġvill age
a ult
ar ies
Ġe y
Ġe conom
Ġst ates
ĠG reat
ĠSc ott
Ġpartic ip
Ġestab lish
ĠMex ico
at ory
Ġl ines
ur ity
ĠG overn
ĠL a
um e
Ġtr aining
Ġocc up
Ġord ered
Ġh ard
ĠA g
Ġdis p
ail s
Ġnear ly
Ġ197 0
Ġappoin ted
ĠViet n
h ib
ĠO d
Ġex cept
Ġ200 0
ĠV ir
Ġab s
Ġcent er
ĠCar ol
Ġdam aged
Ġant i
Ġstruct ure
ĠPac ific
Ġf ailed
Ġto w
Ġm em
Ġd ro
ĠT ech
ĠC ong
ĠB el
ĠB us
ber t
Ġstud io
Ġ196 0
ĠBro wn
Ġ esp
Ġp hys
ĠT or
Ġal ready
ĠF ort
ap h
Ġass ist
ĠAng el
ĠHen ry
al v
Ġm ight
Ġfor ward
ul f
Ġcom e
ron ic
Ġcol on
Ġind epend
Ġgo ing
Ġshow s
ĠPres ident
ĠRep ublic
g l
he m
ĠS un
Ġpro per
ate g
Ġk ey
fer ence
Ġmin or
ĠInd ia
ograp hy
ĠCanad ian
in ist
ĠF irst
ak er
Ġen ough
ann a
Ġrecord ing
b and
as es
Ġg ive
ĠH all
th let
Ġle ague
Ġacc ording
Ġwin ning
Ġprob ably
s hip
Ġs ize
Ġc ru
Ġp ot
Ġd en
ĠT imes
il ities
ĠS chool
Ġdeb ut
Ġintrodu ced
Ġbegin ning
Ã ³
Ġd oc
Ġn etwork
ĠM a
ol ic
Ġdet erm
Ġrequ ired
Ġiss ue
ĠIr ish
r d
Ġc al
om m
Ġbet ter
Ġfe el
Ġrem ain
ann ing
Ġm ale
Ġl atter
ĠN avy
Ġdec ision
Ġcap ital
Ġa ut
Ġv ot
Ġrem aining
Ġcomple te
Ġsupport ed
Ġvis it
ĠCanad a
ĠAfric a
Ġmix ed
ĠFeder er
l or
ed y
ĠM ont
Ġend ed
Ġcontr act
Ġarch ae
Ġsoc ial
ĠF e
ab it
Ġ3 8
Ġfore st
g u
k s
Ġw ide
Ġd ate
ĠH el
ch ange
ĠD on
Ġsp ent
Ġsc ore
Ġem b
Ġappro ximately
Ġcapt ured
S t
o f
Ġs ection
ec ially
ĠP eter
Ġ18 4
ĠTh at
Ġsy n
Ġpol ice
Ġed uc
Ġreview s
Ġchang es
Ġreve al
d en
h a
Ġl ower
Ġ7 5
Ġ8 0
Ġpri or
Ġcert ain
m ond
at ives
Ġf ut
ĠH ot
ĠG old
Ġ198 0
ĠJap an
ĠGerm any
on se
Ġf ace
ĠA pp
Ġn ames
ac hel
ĠM os
Ġst aff
ĠP at
ĠW estern
Ġde al
hed ral
Ġim m
Ġsomet imes
ĠOliv ier
Ġesp ecially
c ript
l in
Ġs il
Ġf ood
ĠR uss
ag on
Ġlim ited
a ut
ar ing
an ish
Ġd omin
Ġ200 2
f ect
i res
m a
ĠS ch
ĠC oun
od ies
ord er
Ġlar ger
Ġprov ide
he eler
ĠD espite
Ġan c
ill ery
Ġj our
Ġinclud es
ĠAss oci
Ġsubsequ ently
A s
n el
in ct
is es
Ġm ur
ĠT ur
um ents
ĠJ in
Ġde ad
ab ility
ĠV ict
ific ation
Ġrun s
Ġresp onse
Ġaddition al
sel ves
Ġly ric
an ies
Ġsh own
Ġpos itive
Ġmag azine
Ġfight ing
A S
ĠC our
ac ted
Ġsh oot
Ġoff ice
ĠAr ab
Ġpres ident
Ġstud ents
ĠFr ank
ĠII I
Ġ ?
Ġf leet
ĠT om
ĠF rom
ri ef
ab y
ĠU K
Ġconc ert
Ġdep ression
Ġmin utes
Ġfeat ure
Ġlit er
Ġsold iers
in ent
Ġs ch
Ġs ect
Ġst ay
ĠR h
ri an
ap t
Ġmost ly
i est
Ġs at
ĠT V
ent y
st e
id ents
and s
Ġun c
Ġconc lud
Ġdefe at
b ack
u als
re ak
at ively
Ġm ention
ĠS ing
ĠL ater
ĠIn f
Ġint ended
Ġus ually
Ġthem selves
Ġqu est
Ġbecom ing
u nder
Ġw oman
it te
Ġf ir
ĠC ath
ĠN Y
ĠO per
Ġper cent
Ġmet res
Ġgu itar
Ġsmall er
ĠChar les
Ġs em
or ial
st ant
ir t
ow l
ĠJ e
Ġex am
oy s
Ġind ic
Ġagre ed
b ers
g ely
Ġw ound
Ġb irth
Ġd augh
orn ing
Ġpo et
z y
Ġp air
ĠM ount
ĠP enn
and on
Ġsc reen
Ġgroup s
ĠBatt le
ĠOld ham
Ġlik ely
Ġfif th
Ġc m
ĠN ort
ĠL aw
Ġk il
Ġtr aff
ĠAr t
ank s
Ġrefer red
Ġdiscover ed
Ġlangu age
quar ters
N A
is ions
ĠB ur
Ġle arn
Ġrel ated
ĠGu itar
Ġtyp e
Ġfre qu
Ġd i
land s
Ġset t
Ġteam s
Ġcoun ter
Ġfav or
ĠBill board
Ġf ans
as y
ĠM al
ly mp
ĠO lymp
ĠSt ar
Ġlar gely
Ġoffic ers
Ġconstruct ed
Ġtraff ic
h ou
Ġs us
ĠC amp
ĠM il
ce an
op h
pp ed
Ġcomp l
Ġent ered
Ġpress ure
Ġoccur red
Ġide a
Ġfut ure
Ġm akes
ĠT our
ĠM art
ĠP o
un t
ĠE ver
Ġu nd
Ġ7 0
u f
w ell
Ġw ord
Ġf low
Ġd oll
Ġl ink
ĠF ollowing
av en
ĠJ er
Ġcont em
Ġ4 00
Ġconc ern
Ġdisc uss
Ġtem per
ĠReg iment
Ġrank ed
osaur us
Ġb omb
ĠH ol
te en
Ġcons ist
ĠCol le
Ġarr ang
Ġlist ed
u z
ĠA ward
Ġde ep
oc r
Ġmov ing
Ġcar ried
Ġmajor ity
Ġs elf
it er
Ġf ail
Ġse a
Ġmus ical
Ġloc ation
osp ital
Ġrad io
Ġprim ary
Ġsum mer
Ġbird s
Ġb rief
Ġd er
ĠM r
ĠP et
Ġad op
Ġen v
Ġatt r
Ġcre ate
Ġbroad cast
Ġsurf ace
ĠCoun cil
ĠVict or
c ing
i os
Ġre in
ĠA le
ĠH ist
ĠH aw
Ġv oice
ill s
ew ay
Ġle aving
ĠSt ud
ok e
Ġmon ey
hest er
Ġke ep
Ġprofess ional
Ġproble ms
ĠAssoci ation
er a
Ġin n
Ġl ab
Ġ3 2
Ġ3 3
Ġdis m
Ġgr ant
Ġcontro ll
Ġappro ach
Ġprop osed
Ġce le
Ġlyric s
Ġp urch
ĠR ad
ĠL ake
Ġr an
Ġset tle
Ġsuff ered
Ġlaun ched
ĠVir gin
d le
n ers
ĠS oc
im ate
ĠR achel
ĠW heeler
est on
pl es
Ġdestroy ed
Ġcomment ed
Ġ ult
re y
an ced
ou d
Ġl ived
Ġn ature
Ġe mer
ĠR ose
Ġal ways
ĠF ore
ĠW ood
ĠK r
ĠSt r
Ġcont ains
ĠV ar
Ġover all
Ġpos itions
Ġcrit ical
Ġsch ol
Ġc le
is er
ro wn
Ġth us
ĠY ear
ĠSp anish
Ġ195 0
Ġconsid er
Ġexper ience
ĠAfric an
Ġinvest ig
t ar
an z
Ġp aren
ic ted
ac hes
ig an
Ġsc ript
Ġfilm s
Ġacc ess
Ġac qu
Ġart illery
und red
Ġele ction
Ġconduct ed
Ġquick ly
Ġrap id
D uring
e x
er gy
Ġc red
Ġm om
Ġd ram
ĠS am
Ġr are
Ġpl ans
Ġnot es
Ġpre m
Ġam b
Ġepis odes
Ġincre ase
Ġeffect s
Ġcas ual
Ġt ar
he t
Ġc er
Ġth ick
Ġl o
im b
ĠIn ter
Ġ3 00
Ġser ious
Ġnew sp
Ġ199 5
Ġattack ed
Ġspe ed
Ġobs erv
ĠCal if
Ġask ed
g ar
Ġt akes
Ġh op
ĠM et
ĠH ow
th ing
Ġpl ot
Ġtr ade
Ġj ud
Ġver s
Ġmin ute
Ġappear s
Ġchang ed
Ġresear ch
it ation
ow s
Ġcon cept
um ed
all ed
ru it
Ġab andon
Ġcomm ission
Ġnum bers
g ing
ed ing
Ġc oin
Ġpart y
Ġco ach
ĠFor ce
ĠCalif orn
A l
k en
u ff
Ġc ann
ad o
ĠV er
Ġwhe ther
Ġfin ally
Ġear th
Ġfl ight
ĠCro at
Ġaccom p
Ġpriv ate
ste in
b ury
g en
ro l
Ġl og
im um
um n
ra f
Ġme ant
Ġmet h
yl v
Ġadv ance
Ġmed ia
ĠEar th
ĠInf antry
Ġt ons
ĠT em
Ġn atural
ĠL ight
Ġu pper
ail y
ĠPort ug
Ġinflu ence
Ġgod s
Ġo ur
iv a
ĠP arliament
ag ing
Ġun it
ous ly
Ġcomp ared
olog ist
Ġlong er
Ġbr ing
ony m
Ġfoc us
itte e
n y
on c
Ġd ed
Ġd ark
ort un
if y
Ġde g
Ġpl anned
Ġen s
Ġunder st
Ġ199 9
Ġpol ic
Ġ194 0
Ġdou ble
Ġmean ing
Ġkil omet
i ant
o ir
t ained
Ġt ell
an i
Ġd ig
ol k
ĠR es
ian o
ĠU nder
ĠIt al
Ġ199 8
Ġend ing
Ġass igned
Ġpr inc
Ġprodu ct
Ġsl ight
Ġaward ed
ĠJew ish
ĠCour t
Ġsus p
it or
ĠS ov
Ġg iving
ĠB C
Ġst ories
if t
Ġpl at
Ġk ind
Ġle ave
Ġcomp anies
Ġthem e
Ġrecord s
Ġdirect ly
Ġterm s
Ġexper i
Ġcompet ition
Ġb ound
Ġd one
ĠA wards
ay lor
ĠF ilm
ri age
oun ts
Ġear ned
Ġform s
ĠSc ot
Ġattack s
ĠCent ral
Ġassoci ated
Ġra ised
Ġindust ry
ĠCaliforn ia
Ġt or
Ġf ell
Ġb ig
Ġp il
Ġre ject
ĠS ur
ĠB en
Ġwho le
Ġj ob
Ġ9 0
Ġcomple x
Ġperson al
Ġmark et
Ġtouch down
ad ed
ĠM any
Ġg ot
ĠI ts
ĠD el
and er
ĠF I
ĠCh ic
oin t
Ġbuild ings
ĠDep artment
l o
er ve
Ġc ause
Ġl ay
ad a
et ic
Ġch all
ber y
ect ive
Ġsc hed
Ġsc enes
Ġnear by
Ġhel ped
a wn
v ement
Ġt alk
ĠC amb
Ġas p
ĠL ou
ĠJ ose
Ġy et
Ġun able
ĠEn ter
Ġacc ount
Ġmov ement
Ġcommand er
augh t
Ġstat us
ĠCath olic
Ġd om
Ġd ivision
ĠS erv
ĠR oss
ĠN ic
Ġan aly
Ġv ia
Ġcent re
ĠBr ad
Ġmat ches
Ġann ual
Ġindivid ual
Ġimmedi ately
ĠNort hern
i ated
m as
s is
u ing
Ġp ark
ĠB ey
ĠI f
ĠD em
and ed
ag an
Ġpres ence
Ġstart ing
Ġ193 0
Ġcover ed
Ġwat ers
Ġinsp ired
Ġgre ater
Ġremov ed
Ġmeth od
p ool
it ude
ar row
Ġp ay
Ġm orning
Ġh ot
ĠT aylor
Ġl iving
ĠB ob
ĠR ob
ĠO s
Ġcl osed
ib ly
Ġwe ap
ix on
Ġcol lect
Ġperform ances
row d
emb ly
Ġoper ation
Ġrequ est
Ġiss ued
Ġbeg ins
T V
e es
in ing
Ġb ad
Ġin ters
Ġh undred
us band
Ġst one
ĠR A
Ġcon ver
ĠN ot
Ġhe ro
Ġ4 7
Ġlead ers
Ġschool s
Ġstreng th
ĠChic ago
k an
Ġto urn
ro s
Ġn orm
Ġg irl
ĠN or
Ġhe alth
ĠO ver
Ġ3 7
Ġoff ered
Ġinf antry
Ġprev ent
Ġbatt alion
Ġbook s
Ġattempt ed
Ġnuc le
ĠSqu adron
Ã³ n
Ġmur der
i qu
Ġf eder
is k
ro ad
ĠS ol
ĠS aint
ab b
pt ed
Ġcontin ue
Ã¡ n
ĠC ross
ol f
ter ed
ĠL atin
ĠO tt
Ġ4 2
Ġfin anc
Ġdaugh ter
Ġp ath
om er
ĠC ard
ĠL ong
Ġro om
iz ing
ĠAn other
Ġdef end
Ġext ended
Ġart ist
Ġbel ow
Ġgreat est
Ġfig ure
Ġtradition al
for ce
Ġcasual ties
A t
c er
i en
en on
Ġb ox
Ġb atter
Ġn ative
ĠH o
if a
Ġse v
ish op
per or
ever al
ĠAustral ians
Ġcour se
stit ute
Ġ ess
Ġth row
ur s
ow ler
ĠJ ust
ip al
ip le
ĠCh arl
ra el
Ġcontro vers
Ġconf ir
Ġinit ial
Ġcult ure
ĠPart y
l ike
on na
le ment
ĠA I
ĠJ am
ĠK n
ell ig
Ġinc hes
Ġus es
Ġen j
Ġim age
Ġpre p
Ġshe ll
Ġcar ry
Ġconf l
Ġph ot
Ġmark ed
Ġstand ard
Ġsit uation
Ġaud ience
Ġmach ine
Ġheav ily
c an
s en
it ch
Ġm or
Ġh ar
Ġre ally
Ġth ings
us hed
ĠJ ane
Ġse lected
art s
ĠU p
ĠV illa
Ġ199 3
Ġwrit ers
Ġmet al
Ġref used
Ġattempt s
Ġmar ried
ĠMich igan
Ġpur p
Ġsomet hing
Ġcolle ction
Ġinform ation
a res
h old
h ouse
ĠT urn
ur ies
ĠN ixon
Ġan g
ĠL ady
ĠE mp
Ġpre c
ĠFr anc
ĠChrist mas
Ġtrack s
ĠTe x
Ġarch it
Ġcat hedral
k in
r ical
Ġc rowd
ĠC he
ad ium
Ġst ating
ers et
ĠG o
Ġ3 9
Ġcomp osed
Ġrec over
Ġsec urity
Ġbl ood
Ġpower ful
on ic
Ġs af
at re
Ġp ick
Ġh usband
ĠT w
ĠS ince
Ġn ecess
et her
ĠH urricane
ce nd
ĠN ations
ri a
Ġinc or
Ġins ide
ĠIs rael
ĠCent er
Ġfriend s
ĠSer ies
ĠCarol ina
ĠColle ge
e en
is l
ĠS al
ĠA re
ĠM ill
im s
ĠD j
ap ed
ĠCh ina
Ġ199 6
Ġ199 7
Ġhigh ly
iver pool
Ġpres ented
ĠCl ub
ĠPol ish
Ġsour ce
Ġresul ted
Ġterrit ory
alv eston
Ġconclud ed
ĠSov iet
e g
Ġb order
Ġd yn
il s
Ġsc ul
Ġte xt
ĠSe a
Ġconst it
ĠAd m
Ġserv ices
ĠSec ond
Ġrespons ible
Ġ ir
Ġt ax
es e
ĠS ix
ĠL os
ill ed
Ġde ploy
ant a
Ġsp ir
Ġ201 6
ath an
ann el
iam i
Ġcount y
Ġhead quarters
Ġmid dle
Ġadm inist
Ġrespect ively
ylv ania
or ation
and id
ĠF oot
Ġtrans l
Ġcontin ues
Ġsix th
Ġallow ing
Ġhand s
ipp ed
ĠCor ps
Ġneed ed
ĠHigh way
Ġredu ced
ĠMos ley
Ġcele br
re me
en ge
ĠT enn
ĠH u
ĠR am
ra wn
Ġnum erous
Ġmain ly
Ġcycl one
ĠQue en
ĠPenn s
I I
y c
Ġb odies
an as
Ġin tern
Ġm ountain
ĠThe ir
ĠP ri
ul ations
ĠF orm
ĠG ames
ĠL iverpool
ĠJ im
Ġse arch
ess a
Ġsp ace
Ġ4 4
Ġ5 1
ĠTh ree
Ġsc oring
ey er
Ġwe aken
Ġadv ant
Ġlevel s
ĠPar is
Ġdecl ared
Ġpeak ed
Ġfig ures
Ġproduc er
ĠSm ith
Ġwound ed
ĠTex as
m on
w are
Ġt ask
Ġs out
is her
al ty
ro ll
ĠB on
est ival
ect ing
ang er
Ġsec ret
Ġgr and
Ġsy mb
Ġsing er
Ġcount ries
Ġsepar ate
Ġcomplet ely
ĠAle x
T h
p ole
r ate
en ing
ĠT re
Ġse em
Ġk ick
ĠAl ice
Ġman aged
Ġent r
Ġstud ies
Ġmar riage
ĠMus eum
ĠJack son
tr ack
Ġeduc ation
Ġreveal ed
d ing
in y
ed s
Ġc orn
as c
Ġto day
Ġh our
Ġr ate
Ġro y
Ġatt ention
port s
Ġact ive
Ġbl ue
Ġbr idge
Ġ15 0
Ġdist ance
Ġoffic er
Ġeff orts
Ġiss ues
Ġsqu are
Ġbecom es
Ġmeet ing
Ġcop ies
ĠAc ad
ĠRose bery
onc Ã©
Ġ iron
Ġs ides
ic ient
ĠB ol
Ġbe at
Ġ18 2
Ġdis pl
Ġdis app
Ġact ions
Ġact ually
Ġbro wn
Ġvar iety
Ġcontr ast
Ġactiv ity
Ġwid ely
Ġvoc al
wh ile
ĠBus ch
Ġcontem porary
Ġenj oy
C A
g ian
k a
l ight
ĠI ll
ĠH um
ĠE r
ĠO pen
Ġ199 1
Ġexp ected
Ġresp ond
ĠChr is
Ġele v
Ġdr um
Ġright s
Ġer a
ĠSom erset
ĠScot land
ĠBey oncÃ©
ĠEmp ire
u ated
Ġb oard
Ġn ation
ĠM iami
ĠB oth
ut ch
un ic
os h
os es
ĠG alveston
ĠO ut
Ġun iversity
ens ion
Ġ7 6
Ġpe ace
Ġext r
Ġdescrib es
Ġcomb at
Ġactiv ities
ĠPenns ylvania
he w
ro om
Ġh ol
um ber
Ġr ule
ap pen
Ġrec omm
Ġ4 9
Ġdis e
Ġdis play
Ġdem onst
Ġcomb ined
rick et
Ġtre es
ĠItal ian
o ch
Ġw alk
is ation
Ġth r
Ġn in
ĠP en
ĠD an
ain e
ĠN az
Ġcomp os
Ġab ility
ĠTr ans
Ġopp ortun
ograp h
sh ire
Ġhig her
ĠSom al
Ġslight ly
r ight
Ġ x
it ness
al a
Ġp le
Ġp ow
Ġp un
Ġm ax
ic an
ĠG roup
od on
ess ions
ĠAn t
ug by
ĠAr ch
Ġme ans
Ġ199 2
Ġam ount
Ġcall ing
Ġset s
Ġeff ort
Ġnort heast
Ġgen us
Ġnuc lear
Ġstru gg
Ġprote ins
Ġve hic
Ġcondom s
Ġwithd raw
Ġhous es
Ġfeder al
Ġw ords
Ġb ene
Ġp iano
ac her
ĠB ig
ĠD am
ĠJ ul
Ġres idents
Ġ4 8
Ġoff ensive
Ġte ach
Ġshow ed
Ġresult ing
aren t
Ġprim arily
Ġquest ion
ĠVirgin ia
on ents
Ġm el
ĠS outhern
st one
Ġl ot
Ġon to
ĠH M
em ic
ĠL and
ast y
Ġtr ue
Ġ3 4
Ġcont rib
Ġdef ence
Ġinst it
Ġfeat uring
Ġtyp ically
Ġleg al
Ġterm in
Ġhistor ical
Ġofficial s
ĠHa ifa
ĠHaw ai
Ġarchit ect
l ies
t own
Ġw ing
ing u
Ġh abit
ec ause
ĠF ur
ĠL ive
ri e
ri al
Ġplay s
Ġoff er
Ġqu ality
Ġgr aph
Ġconc ent
led ge
Ġown ed
Ġappear ances
Ġobs erved
ĠLou is
ĠServ ice
B A
l ers
Ġ rough
Ġn arr
est ic
Ġr hy
ap o
Ġsu st
ber g
Ġres c
ĠHe ad
ĠTh rough
ock s
olog ists
Ġem ot
Ġinst r
Ġprog ress
Ġtw enty
Ġav oid
Ġcond itions
Ġsex ual
ĠCap tain
Ġpract ice
Ġparen ts
ã ĥ
Ġc am
Ġth ous
ĠM idd
ol s
ĠW ater
ĠL it
ĠK ent
Ġro les
Ġ5 2
Ġrel ief
Ġwrit e
Ġqu al
Ġalong side
Ġdist inct
Ġaccept ed
ĠJose ph
i ro
m itted
es b
ar ian
Ġin h
Ġh air
ĠS ir
ĠM anc
ĠW ash
og ue
Ġsc ale
Ġrel atively
Ġdesign ated
ech an
Ġsequ ence
Ġstru ck
Ġachie ved
Ġsurround ing
R A
b our
g a
h ood
p ly
Ġs ense
Ġw ear
Ġd u
il ed
ĠC er
ĠG ar
Ġpl ant
se nd
Ġsp read
Ġrec ent
Ġwe bs
Ġ6 5
Ġseason s
Ġ199 4
ĠRe v
Ġ198 6
ĠCon f
Ġorgan ization
ĠBra at
Ġanc ient
uf act
Ġscul pt
Ġa thlet
Ġp ound
Ġre ar
Ġl if
ĠH al
Ġsu c
ĠSt orm
Ġ4 6
Ġexp ressed
Ġart ists
els h
Ġfam il
Ġbas is
Ġelect ed
ĠRich mond
Ġche m
nes ota
ĠGovern ment
Ġtow er
ĠRh odes
Ġnewsp aper
b ed
at ch
Ġm ile
Ġm ole
ĠA v
ĠD ist
ĠK a
ĠAl kan
Ġdef ense
ĠAt t
Ġnorth west
Ġport ion
ĠAnd erson
Ġsound track
ceed ed
iron ment
ĠVietn am
ĠAngel es
Ġincor por
ĠFoot ball
ĠWash ington
r id
Ġf aced
il es
ĠB u
us e
ĠD ou
ĠG reen
Ġch ampionship
end s
Ġper man
ĠY ue
ors hip
Ġfound ed
ĠCol on
Ġtit led
Ġorgan ized
ĠWe ek
Ġmag n
Ġrepres ented
ĠMin nesota
Ġtransfer red
g al
Ġt err
re ct
Ġs n
or us
it ual
Ġf arm
ĠS ar
am s
Ġn arrow
ĠB re
ut ions
ĠW elsh
ak apo
Ġpre par
Ġne igh
Ġspec im
ĠSh iva
ĠSp ain
Ġmod el
Ġbatt les
Ġauthor ities
Ġflood ing
Ġult imately
Ġadvant age
ĠManc hester
m ark
en ant
Ġin ch
Ġp aper
Ġm is
Ġm ess
ĠC ast
ur a
ĠM eyer
ĠL ar
Ġcom ing
Ġ18 0
Ġag g
Ġfl oor
Ġback ground
Ġem ph
Ġshort ly
Ġtri ed
Ġenc oun
u ous
Ġw ild
ĠC ivil
Ġal tern
Ġal one
Ġr ang
ĠO cean
Ġint ellig
Ġ18 1
Ġmov ie
erv ation
Ġreport s
Ġport ray
ĠDe f
ped o
Ġleg isl
Ġaff ected
Ġexc av
Ġpiec e
Ġconfl ict
ĠLit tle
a en
p ing
Ġw a
Ġc ore
Ġto ward
Ġm ind
Ġh orse
ĠF leet
os en
ĠL i
Ġex hib
Ġsp ort
Ġar med
ire ction
Ġapp arent
ĠY oung
Ġrem ark
Ġrep e
ĠCol umb
Ġview ers
Ġdiv ided
Ġcann ot
Ġfinanc ial
ĠAcad emy
n is
Ġs ales
Ġc andid
Ġf ruit
Ġm ission
Ġth ir
ĠS en
ĠC ons
Ġr at
Ġcom edy
op er
hip s
Ġact or
Ġmus c
Ġocc asion
Ġ192 0
int in
Ġinflu enced
Ġvoc als
ĠTur k
Ġadop ted
ĠSoc iety
b on
b ird
m et
Ġs ays
Ġs ister
or a
Ġf ired
Ġm echan
ĠT ropical
Ġre ign
Ġl osing
Ġn aval
ad m
id ian
Ġpro ved
ip l
ell er
ib r
Ġ6 4
Ġact ing
Ġpr ison
ĠNew s
anc y
Ġbro ken
ĠBl ue
Ġcapt ure
ĠSec ret
ĠBraat hens
i j
w en
Ġs ac
Ġf iction
Ġh ors
Ġhe art
ack s
ast ic
per ial
ĠAn n
Ġass ault
Ġman ufact
Ġdo ing
Ġ198 8
ĠJohn son
yp e
Ġoffic ially
Ġed ge
ĠAd d
be er
Ġsoc iety
onym ous
Ġtor pedo
ĠNic ole
ĠOtt oman
Ġroy al
ĠIll ino
Ġemph as
c y
k n
l am
ĠT od
Ġl b
el a
ĠH orse
Ġr aid
ab ama
Ġ5 5
Ġsc ient
Ġwork ers
Ġprodu ce
Ġgr ass
Ġinv asion
Ġdep art
ues e
Ġtit les
ĠPr ince
Ġbeh av
Ġstruct ures
Ġearl iest
Å į
Ġf ully
ĠT ik
ĠC at
ĠB alt
ig g
Ġv ess
Ġy ellow
Ġad j
ĠTh under
ĠAr g
ĠMar ine
ĠComm on
Ġfre eway
Ġcou ple
Ġdou b
Ġmention ed
ĠPortug uese
Ġded icated
g n
Ġf le
Ġb ott
ĠT essa
ac ement
ĠM ajor
ly t
ĠB urn
ĠB oy
ĠK ore
ov ic
Ġy our
Ġapp eal
Ġatt ended
ĠY ank
Ġcons isted
Ġdef ensive
air s
pr ise
Ġtyp es
Ġdiss ip
y s
Ġf ast
al le
Ġp aid
Ġd ut
ĠS il
Ġn est
ĠW ild
iz es
Ġthem es
Ġprom inent
Ġcaus ing
ush ing
ĠAss embly
ĠTown send
Ġindivid uals
Ġill ust
ĠWal pole
Ġintens ity
Ġphys ical
Ġpot ential
Ġdism iss
Ġabandon ed
Ġentr ance
i ate
Ġa id
re l
re te
Ġf ix
an while
ĠT intin
ac ts
et te
ĠB et
Ġac ad
ĠEng ine
Ġbr igade
az z
ven ue
Ġsim ply
ĠSp ec
ĠCl ark
Ġposs ibly
ĠPro t
Ġpat tern
Ġcult ural
Ġke pt
ĠRec ords
Ġmeas ure
Ġprote in
Ġrain fall
Ġdeterm ined
ĠTurn er
esb itt
Ã ¼
Ġs ay
Ġs and
Ġl ives
Ġg ained
et ts
ĠH orn
ĠF red
ĠF owler
Ġse ems
Ġpl aces
Ġro ll
iss ipp
ath us
Ġsecond s
Ġ12 0
Ġ17 9
Ġimp act
arr ison
ĠMiss issipp
Ġcritic ized
Ġequ ip
ĠBar b
Ġmanag ement
ĠHa it
Ġhom es
ĠOlymp ic
Ġdom estic
Ġa st
ĠB ook
im ony
Ġst ep
ĠH ome
ĠP ost
ĠF ox
Ġsh ape
Ġun ivers
Ġen emy
Ġen ergy
Ġcol or
Ġent er
ĠBr idge
Ġwin ter
Ġold er
Ġauthor ity
Ġsit es
Ġplan et
Ġop in
Ġtourn ament
adm ium
l im
l ied
w ide
in n
Ġs en
Ġp aint
ic ation
Ġd irection
Ġh ospital
ĠB h
ĠP it
ĠP op
Ġch ief
ud d
oc ated
Ġtr y
Ġ5 6
ric ult
Ġform ation
Ġlead er
Ġext ra
Ġpass ing
ĠCon t
ĠComm ission
hel m
Ġrequ ire
Ġfore ign
Ġenc our
ĠVal ley
Ġdoc ument
ĠApp le
ĠFore st
Ġtar get
Ġcer em
Ġsched ul
ĠTik al
ĠMississipp i
M ont
d a
u x
ã ģ
er o
Ġs al
Ġg rew
Ġst ra
ĠR aj
ĠL ock
Ġse ek
ian a
Ġy oun
Ġcont ain
Ġad vert
Ġatt end
ĠAl abama
ĠZ hou
Ġexp ed
Ġdep th
Ġbro ke
ah a
Ġpass es
Ġbo ats
Ġarg ued
Ġkilomet res
Ġdise ase
er ry
or ter
Ġc ities
al ions
Ġh un
ou red
ent ure
ĠB owl
ir ing
ĠD irect
ĠL ord
Ġsp l
Ġsp ot
Ġar rest
Ġchar ge
ĠAmeric ans
Ġart ic
Ġ194 1
Ġoper ated
Ġstand ing
Ġsuggest s
Ġgrow ing
Ġey e
Ġjour nal
Ġenv ironment
ĠHist or
ĠMeyer beer
kn own
u ge
Ġ ut
in em
Ġs ens
ed ar
Ġf ung
Ġf ought
Ġf olk
ul ate
ĠO x
Ġch osen
orn ey
Ġalbum s
Ġ196 4
ĠDe v
Ġfr ag
ĠPer Ã³n
Ġpromot ed
Ġwall s
St ation
Ġmom ent
Ġreject ed
ĠDem ocr
Ġmax imum
p ass
u a
Ã ¨
ã Ĥ
Ġ rom
Ġt ur
Ġw ave
Ġp an
Ġm outh
ĠT ri
ent al
ĠF our
ĠN esbitt
ĠG all
ĠG ood
ĠL l
ist ry
ist ics
Ġk akapo
Ġcont ent
ĠV an
Ġim ages
Ġnew ly
Ġinter p
Ġland ing
ĠComm un
Ġed ition
Ġkill ing
arn ia
Ġclaim s
ĠEv a
Ġrelig ion
ĠPlay Station
Ġsettle ment
Ġconfir med
anas i
Ġx enon
ĠIllino is
u pp
Ġt un
Ġw or
is ters
Ġd iam
ĠT ime
Ġv en
Ġse nd
Ġk g
ect or
Ġcomp r
Ġwe ather
Ġne ut
Ġ198 5
Ġbel ong
Ġland s
ograp her
Ġdeb uted
Ġtw ice
Ġident ified
Ġlet ter
Ġreach ing
Ġhon or
Ġindepend ent
ĠOper ation
Ġgrant ed
Ġweap ons
ĠMidd le
Ġequip ment
V D
Ġt im
in ated
Ġf res
Ġf ear
Ġh appen
ĠC ra
ĠM att
un te
ĠR o
Ġse g
all s
Ġsh are
Ġun known
Ġwe ak
Ġcons ecutive
ĠCl ass
Ġtem ple
Ġlook ing
Ġcas es
ih anna
Ġresul ts
Ġpiec es
Ġfly ing
c he
at ops
Ġm ob
Ġm ounted
le ction
ĠS R
ĠS o
ĠS at
ay er
av ed
um es
ĠO m
igh th
ĠU l
Ġsp ect
og ad
Ġro w
Ġ4 1
Ġ5 3
Ġ5 7
Ġrem ix
Ġfl ank
Ġcol ony
Ġthere fore
Ġdo ct
ful ly
Ġ198 7
ins ula
Ġsupport ing
Ġadv anced
ĠAnd rew
Ġfun ction
Ġcoun cil
Ġsour ces
Ġeconom ic
Ġrapid ly
Ġwebs ite
B y
m it
m ore
w rit
is hes
Ġb it
ĠA venue
ĠM ass
im ents
un ction
ĠF ield
ĠW ay
ĠL is
Ġcont aining
Ġcont ributed
Ġser ve
Ġreg ions
Ġfollow s
Ġsing ing
Ġmat ter
Ġreturn ing
Ġbelie ve
ĠEd ward
Ġsol o
Ġincreasing ly
ĠScott ish
Ġschol ars
ĠArg ent
a ith
k are
s w
t hen
u an
Ġa ired
Ġa head
Ġm aster
ĠS everal
et y
ĠB BC
im ore
ĠL o
ĠJ up
ge nd
Ġun p
ĠV en
Ġper fect
Ġj ump
ĠAn th
Ġpr in
Ġsing les
Ġstud ent
Ġgu est
Ġexpl ained
Ġproject s
ĠMin ister
Ġknow ledge
ĠMor r
ĠSl am
ĠEar ly
ĠMer idian
Ġmult iple
Ġcontroll ed
C h
m un
y r
Ġs ought
Ġd ress
Ġre action
ot ed
ĠD VD
ĠF A
ĠG re
Ġr isk
ĠE astern
ĠK ir
ell a
Ġun ique
Ġ4 3
ĠTh ough
ick s
Ġmus eum
Ġ194 7
Ġprot est
Ġrefer ence
ĠAir port
Ġanim al
Ġemploy ed
ĠRuss ian
Ġlab el
Ġaccomp an
aen athus
L e
Ġt act
it able
ad el
ĠM at
ĠR ihanna
ĠD est
ĠF ey
ĠL ew
Ġhe re
ĠO f
Ġor b
ant ly
ish u
ie ut
Ġcol umn
Ġ198 9
Ġ194 2
Ġdel iver
Ġbo at
urb an
Ġtemper ature
ĠTem ple
Ġpolic y
ĠEnter tain
ĠFur ther
Ġstra ight
a ver
e er
e ed
Ġc ust
ĠS um
st ream
ĠM ax
ĠB ir
ĠD en
ian ce
Ġher self
Ġim ag
Ġdef in
ert ain
Ġ197 2
Ġopp osed
ĠWilliam s
Ġcoll abor
Ġbur ied
Ġdro pped
uz z
Ġfail ure
Ġplat form
ogad ishu
b l
h at
s y
Ġo x
Ġb ud
Ġp ict
as ure
Ġm ic
ĠS AF
ĠB ecause
ĠD o
ers ey
ĠG reek
ĠL ine
Ġhe ight
Ġv o
Ġsp ring
Ġinc ident
Ġcont ained
Ġwe ight
Ġ7 00
Ġfl ag
Ġass ass
Ġsupp ly
Ġmain tained
Ġ198 4
anc ing
ink el
ĠCon stant
Ġgu ard
Ġdr ive
Ġvis ited
ĠChurch ill
Ġspe ak
Ġhistor ian
Ġord ers
ĠSw ed
Ġhors es
ĠJup iter
ĠSAF E
A n
F ollowing
h aps
i ot
Ġs elling
ed kare
Ġw itness
Ġc ricket
an o
Ġm ales
ĠB art
th ur
ĠD utch
ag ement
Ġr ating
Ġr ival
Ġch ose
ĠSt ep
Ġtr ain
Ġun su
ĠV ill
Ġsc ience
Ġ9 5
ock ed
Ġwrit es
ĠInd epend
Ġph il
Ġsignificant ly
Ġstri ke
Ġcond ition
Ġproble m
wh ite
Ġsust ained
W ith
c el
en a
Ġb id
Ġb ass
Ġre act
Ġg e
ut ing
ĠE ven
ant asy
Ġex cl
ĠU s
Ġover l
ress ive
Ġte acher
Ġret ired
Ġpo ly
ĠCon ference
Ġ13 0
Ġide as
Ġgrow th
Ġconn ected
Ġinj ury
ĠCong ress
Al though
Ġbatter y
ĠOx ford
a o
i able
k et
m ission
Ã ¶
in ity
Ġo d
Ġf an
es h
Ġb ank
as ters
Ġh or
Ġl aid
ad d
ĠM ounted
ĠN ight
ĠG ulf
ĠJ ur
Ġr ac
ort al
ill o
Ġde ities
ans as
Ġ6 00
ĠAr m
Ġfam ous
ĠCar l
ĠAll ied
Ġbelie f
Ġfem ales
Ġdecl ined
Ġstri k
Ġsubsequ ent
Ġburn s
ĠDu Mont
ĠOd aenathus
ĠHel ms
Ġsil ver
Ġsev enth
ĠDist rict
Ġschedul ed
inkel stein
r idge
u ct
Ġ +
Ġo il
at o
ĠT ra
ol ved
ĠI d
ĠH art
ĠR ail
ĠG ard
ĠL ike
ĠSt an
Ġar ms
Ġres emb
iz ations
Ġmin er
hel ess
Ġref lect
Ġbre eding
Ġpopular ity
ĠSy stem
Ġvol ume
Ġnomin ated
Ġproper ty
ĠJe ff
Ġprep ared
Ġnecess ary
ĠThunder bird
Ġbott om
f ort
i as
l usion
Ġt ail
Ġs ail
Ġf ict
Ġb oy
Ġm ist
ic ed
Ġd ance
Ġre form
ĠS pr
ĠS arnia
ĠD un
av a
ĠJ on
ĠJ our
ord on
Ġcomp ar
Ġnew s
Ġ8 00
Ġact ors
Ġ194 4
Ġland fall
Ġserv ing
Ġcommon ly
Ġcreat ing
Ġstreng then
ĠWil helm
Ġpurch ased
ĠCard iff
h an
w in
he astern
re nder
Ġs we
Ġw r
Ġp arliament
Ġm o
Ġh am
ĠS ky
Ġg ain
id er
ĠP rem
ĠR os
ĠD ar
ĠN ative
Ġr idge
ĠE ll
res p
ĠIn stitute
Ġun us
amp ion
aw a
Ġend s
Ġco al
Ġconc rete
Ġcre ation
ĠInd ust
Ġ196 5
Ġstart s
Ġpass eng
ash ion
ĠGu ard
Ġperson nel
Ġmed ical
Ġfac ilities
Ġloss es
Ġanim als
ĠMcC all
Ġsem i
Ġvers ions
ĠAdm ir
ĠBalt imore
Ġsen ior
ieut enant
W hen
i y
r in
Ġt all
on ent
Ġo uter
Ġb ul
Ġd aily
Ġh app
ĠT im
ĠA D
ĠB as
Ġst reet
Ġbe aut
ul es
ĠL iber
Ġr ise
ĠE nd
Ġv irt
Ġch air
Ġex ec
Ġsh aped
ĠSt one
ĠCh ild
Ġ7 3
ĠOn ce
Ġ198 1
Ġdesc ript
Ġext ensive
ĠAd v
Ġsystem s
Ġcamp us
Ġtri al
Ġeffect ive
Ġcritic ism
Ġpit ched
Ġregard ed
Ġhy d
Ġslow ly
ĠVar anasi
Ġchall eng
ĠHM S
M L
O T
in ary
Ġthe ory
Ġs ave
ar ia
Ġp ul
Ġd ated
ĠM ov
ĠB and
Ġst ations
ĠH ib
and a
Ġcom es
ĠU N
Ġrec ently
Ġ5 4
ans ion
Ġag ricult
ĠIt aly
Ġ6 2
Ġrem n
Ġfilm ed
ames e
ph ia
Ġexp anded
Ġconc er
Ġocc as
Ġtri p
Ġturn s
Ġimpro ved
Ġneg ative
ĠEgypt ian
Ġgrad ually
Ġoccup ied
Ġfrequ ently
Ġcle an
Ġexperi enced
ĠAdd ition
ĠOm aha
adel phia
ĠEntertain ment
T C
m osp
r ine
re ll
Ġw ed
Ġc ited
Ġc admium
Ġl a
Ġg ives
iv ity
if ying
ĠU r
ip s
Ġun f
ie val
Ġro of
Ġcol lected
Ġact ress
Ġsub mar
Ġdist rib
Ġsim ple
Ġsouth west
Ġcapt ain
Ġfind ing
Ġsuccessful ly
cher s
ĠVietn amese
Ġdomin ated
Ġprem i
ĠCer es
o e
o en
r um
r ons
Ġt ree
at i
Ġb ats
Ġd ial
Ġd rop
ĠS und
ur ches
ĠM ountain
ĠB an
ĠB ost
Ġbe y
ĠR y
ĠR og
ĠN ever
ĠK ey
Ġpre fer
ĠMar io
Ġallow s
ĠAnd y
Ġpar alle
Ġdel ay
Ġsurv ey
Ġpromot ion
Ġval ue
Ġlet ters
Ġcell s
ĠKe ats
ĠSte ve
ĠMart in
ĠVictor ia
ĠCroat ia
Ġasp ects
Ġanaly sis
Ġbud get
F A
e z
Ä ĩ
á ĥ
is y
Ġd ates
st ead
Ġe as
ĠM ike
ĠM ogadishu
Ġst ages
Ġat mosp
ĠN orm
ag er
Ġhe ard
Ġr ing
ĠO h
ill ing
Ġch orus
se a
Ġsp orts
out s
The re
Ġ7 2
Ġunder ground
ĠSh ort
Ġsever e
Ġem peror
Ġ196 6
Ġoper a
Ġpublic ation
Ġprot ect
Ġhum ans
Ġeng aged
Ġentire ly
Ġproduc ers
Ġrecogn ized
Ġparticip ated
Ġliter ature
ĠDj edkare
Ġbey ond
l ines
Ġa im
Ġf at
ar p
Ġm ig
Ġd raft
ĠC old
ĠB ru
id ges
ot e
ĠP re
ĠR od
ĠD es
ĠW at
ĠN BA
ĠL es
Ġex ecutive
ang a
Ġ6 1
ann y
Ġmus h
Ġ16 0
Ġ16 4
Ġexp ress
Ġ193 9
Ġarr ival
Ġcast le
ĠPe ople
Ġstop ped
Ġsett lers
ĠRev olution
ĠDou gl
lyt he
ĠApple white
a ire
b o
l oad
Ã ¤
Ġp al
ro t
st anding
Ġe th
Ġe gg
ĠM ur
ĠM em
ul ts
ĠD ue
ĠF re
ĠF riend
ĠF estival
ĠN H
ĠG ordon
ĠL y
ĠE ach
Ġad apt
Ġ9 6
Ġ11 0
ivers ary
Ġ17 7
ĠCol or
Ġbatt alions
Ġ191 8
Ġph ase
Ġsqu ad
Ġfav our
ĠMcC art
Ġneg ot
ĠPhil adelphia
Ġbrief ly
Ġcommission ed
ĠRA AF
ĠAre a
Ġsout heast
Ġfamil ies
Ġmole c
Ġaccompan ied
Ġfict ional
W h
Å ¡
Ġb ought
ro g
Ġl abor
ad ing
ĠM ong
ly ing
ĠD er
ĠD omin
ĠF am
Ġtr ying
Ġcomp ound
ru g
Ġover se
ĠAs ia
Ġdid n
Ġdeath s
ĠOr igin
ĠTe am
Ġtreat ment
Ġdeg ree
Ġrespond ed
A C
u ate
Ġm ount
ĠA st
ĠM ore
ĠH an
ĠH aven
ĠG reg
Ġr u
Ġse at
ak a
ĠIn nis
ust ed
Ġcomp uter
ang ers
Ġfin ish
Ġdec line
Ġdec ades
Ġ8 2
Ġunder t
ann er
Ġac res
Ġsecond ary
Ġdo or
Ġco ol
Ġpop ulations
Ġadd ing
Ġ197 1
Ġhead ed
Ġele ment
Ġlast ed
ĠMe anwhile
Ġcomb ination
Ġagre ement
Ġindepend ence
Ġlearn ed
Ġnorm al
Ġweaken ed
ĠBon o
ĠDan iel
ĠCra zy
Ġunsu ccess
c hen
h m
r ig
s et
y les
Ġa wards
Ġthe at
is ers
Ġd rawn
ĠS us
am ing
ĠM ot
ĠB ull
ĠB oard
Ġst ret
and y
ĠF ive
ĠF inkelstein
Ġit ems
ist on
ist an
ap es
Ġnot able
ra it
Ġ5 9
Ġfin als
Ġev ac
Ġ6 6
Ġcent uries
Ġdec re
Ġ8 5
Ġ9 4
Ġinter change
Ġperform ing
Ġlong est
Ġ196 8
Ġown ers
Ġvis ual
Ġgl ob
Ġhold ing
Ġbeg un
Ġexist ing
ĠCo ast
Ġpil ot
Ġnucle us
Ġrough ly
c a
c hest
i ations
Ġ i
Ġa er
Ġo pt
Ġf it
Ġf ellow
Ġb ow
Ġp et
Ġd ata
Ġh ired
om p
Ġbe ach
Ġis ol
Ġnot hing
Ġcont act
Ġper haps
ĠAl f
rop ri
Ġacc ident
Ġset ting
ĠRe view
Ġrece iving
Ġ197 5
Ġins cript
Ġrest aur
Ġworld wide
Ġposs ibility
Ġstory line
ograp hic
Ġimport ance
Ġinvol vement
Ġel imin
Ġfind s
Ġcou gar
ĠMag azine
ĠPal est
Ġfoc used
Ġrein force
Ġperman ent
Ġfres h
Ġphil os
ĠDougl as
A ccording
Ġf ox
Ġto mb
ĠA ri
Ġl ane
ĠC le
ĠC ub
ĠM el
ly wood
ĠH y
ĠL u
Ġch oice
ru pt
Ġapp lic
ĠAl so
Ġcomm ittee
Ġcons ists
Ġdec ade
Ġ8 1
Ġfilm ing
Ġprot agon
esp read
ĠPro v
Ġprop os
Ġassoci ation
Ġcurrent ly
Ġregard ing
Ġreason s
bor ough
Ġattr act
Ã¡n h
ĠLew is
Ġexcl us
b ar
i ences
Ġt rou
in al
re ets
ed a
at us
it an
ing ly
ĠA thlet
Ġl oad
Ġn or
ĠC re
ad s
ĠM D
Ġg reen
ĠI ron
ĠD own
ĠW all
ĠW ork
ĠG i
Ġr if
ĠO p
ĠK ang
ĠK enn
Ġar c
are t
we alth
Ġcomm it
ubl in
ĠOn ly
ook ing
Ġem p
Ġdevelop ing
Ġdist rict
Ġcour ts
Ġsent ence
Ġmy th
Ġroad s
Ġsurv iv
Ġprogram s
Ġhouse hold
Ġcolle ge
Ġvol unte
ĠHam els
Ġreb u
ĠFin al
Ġexist ence
Ġesc ape
ĠMac Le
ĠGovern or
Ġfir m
Ġpurp ose
Ġadminist ration
Ġenjoy ed
Ġintellig ence
ĠTurk ish
Ġparalle l
l a
l ik
m es
Ġs om
ĠS or
ĠA p
ĠC a
ĠC hel
ĠM en
ĠB or
im et
Ġst ream
ĠR ol
ĠR ay
ĠJ ac
ĠJ ones
Ġnot e
Ġcomp osition
Ġcont est
ie ge
Ġro t
Ġro utes
Ġ7 1
ild ing
ĠMar ines
Ġso le
Ġsupp lies
Ġcall s
Ġinv ited
Ġext rem
Ġprov ides
Ġdist ingu
Ġany thing
ĠJu an
Ġ191 4
Ġserv es
Ġturn ing
Ġgreat ly
ĠAm ong
Ġcross ing
Ġrul ed
Ġpain ting
Ġchap el
Ġcolon ial
Ġtell s
Ġathlet es
Ġrepe ated
ĠColor ado
G N
b orn
c le
y son
er ted
Ġs le
Ġf illed
is f
Ġd ry
Ġn eck
ĠC ole
ĠB aby
ut ation
ĠR on
ĠR ow
ĠD is
Ġcom ic
op her
ew here
Ġch urches
Ġpl anning
ess ed
se y
Ġsp ons
Ġ7 7
Ġcons p
Ġne ither
Ġcap able
Ġbr anch
Ġ197 3
Ġ25 0
Ġold est
Ġopp osition
Ġbas ket
Ġview ed
ĠAb u
ĠSong s
Ġcor rect
ĠEv ita
ĠCro wn
Ġaccom pl
Ġmass ive
Ġsyn t
Ġpoet ry
Ġconsist ing
Ġconver ted
Ġsymb ol
Ġpaint ings
B S
b urg
c ome
l aim
r ang
Ġ ign
Ġt end
er c
at on
Ġf aith
Ġth ing
ĠS ub
ĠS ound
am y
ĠM u
ĠP ers
ĠR ome
ĠR idge
ĠD ublin
ĠG irl
op es
igh ter
Ġapp lied
Ġen l
Ġfin ishing
Ġchar ges
Ġass emb
Ġsub stant
Ġmov es
ĠSc ience
ĠJo e
Ġrece ive
Ġ194 3
Ġ196 9
Ġhead s
Ġ193 6
Ġprot ection
ĠPro ject
Ġauth ors
Ġclub s
Ġisland s
Ġpur s
Ġwid espread
Ġtechn ique
ĠCommand er
Ġviol ence
Ġbill ion
ĠOff ice
Ġchap ter
Ġcal c
ĠStud ios
het ic
Ġvehic les
Ġopin ion
ĠBost on
3 0
as er
il ton
ly ss
id ay
iv ered
os a
ĠL uc
ĠL ieutenant
ab il
Ġch annel
ĠCh ap
Ġres ist
Ġres erv
Ġrec onst
ib be
ĠAl bum
att le
Ġsupp osed
Ġfound ation
Ġ194 5
Ġ194 6
ĠIs ab
Ġgovern or
ĠBro ad
Ġintrodu ction
ÃŃ a
Ġclos ely
Ġmiss ing
Ġeconom y
Ġdram a
Ġsculpt ure
ibr ary
ĠTod ay
Ġdissip ated
ĠMacLe od
à ¸
Ġ err
Ġc aught
Ġf ashion
Ġd rew
ĠT ru
ent ially
ir ation
ĠThe atre
Ġst ore
ĠH ard
ĠR ox
em an
Ġal tar
ĠF ar
ĠW ind
ĠG A
ag re
Ġr ural
ap ers
ĠIn stead
ĠV ideo
ok es
Ġres ident
Ġim pr
ren ce
aw are
Ġfl ights
Ġver t
Ġso ft
Ġdown town
Ġ197 4
Ġ197 8
Ġair port
Ġed itor
Ġsk in
Ġhistor ic
idd en
ĠWal ter
ĠTor res
Ġdoll ar
Ġacqu ired
Ġdig ital
ĠCamb od
Ġtermin us
ĠCommon wealth
F or
p son
Ġt on
in j
Ġs an
Ġc it
Ġc ateg
Ġf uel
al ent
Ġd in
Ġd og
st ances
ĠC ook
ac ity
us al
ĠD ream
ag le
ĠO bs
ich ol
Ġun s
Ġj ack
rop ol
ĠAr thur
Ġ9 8
Ġmon ument
ĠSh a
Ġ196 7
Ġprov iding
Ġstr ateg
Ġ195 2
Ġinit i
Ġtown s
Ġdel ivered
ipp ing
Ġspe aking
Ġcompet itions
Ġsurv ived
ĠBar row
Ġsuff icient
Ġmot ion
ĠKh Ã¡nh
ĠBra z
Ġestablish ment
Ġarchae ological
Ġopportun ity
Ġbene f
ĠColon el
Ġspl it
ĠThunderbird s
ĠPrem ier
resp ond
i i
Ġh yp
am m
ĠC op
ur ation
Ġg as
ĠH in
ĠH omer
ĠN athan
est one
ĠJ ain
Ġr ich
Ġpl um
ious ly
Ġ8 7
Ġgame play
Ġgo es
ĠCar ibbe
Ġ191 9
Ġdet ails
Ġtri es
Ġcr imin
Ġtyp ical
Ġrepl ace
Ġview s
Ġdestroy ers
Äģ da
Ġval ley
Ġmiss ions
Ġassist ance
Ġconcern s
Ġder ived
ĠJam al
Ġinstr ument
Ġast ron
ĠAnth ony
sy ch
Wh ile
lyss es
t ty
in i
Ġs ort
Ġc rop
it ors
Ġm ort
Ġd rug
ĠC D
ĠP ublic
ĠW rit
ĠN ick
um a
ĠJ es
ri er
ear s
ĠIn g
ĠU lysses
ĠSt adium
Ġtr uth
og en
Ġro b
Ġro se
Ġdes cend
Ġsec ure
form ation
ĠLe on
Ġloc ations
Ġtrans it
Ġ197 6
Ġinst ruct
Ġland ed
ĠComm ittee
cl iff
Ġcommand ed
iec e
ĠEx p
Ġren amed
Ġfund ing
Ġden ied
Ġremain der
Ġinn ings
Ġinters ection
Ġoccasion ally
Ġwed ding
ĠCaribbe an
g ie
i ar
w ar
y m
Ġw ars
Ġm ut
Ġd ating
am in
Ġon es
ĠM ic
ĠB eck
ĠP agan
Ġwh y
Ġcon sequ
ĠJ ud
Ġr ub
ĠO reg
if ul
qu ake
Ġsh ared
ĠCh ains
Ġatt ached
man n
ĠAn onymous
Ġkn ew
Ġgr av
Ġstud ied
Ġwat ched
ĠTown ship
Ġcert ified
Ġproduc ing
Ġsepar ated
ĠIm perial
Ġshoot ing
Ġsect ions
ĠFranc isc
Ġsaf ety
Ġsuc ceeded
ĠOreg on
k now
v ar
Ġ urban
Ġt ied
Ġa ware
Ġs un
ĠA ge
el ve
ad or
ĠB ul
ĠB ern
ĠB rian
ĠB lythe
ĠL enn
ĠJ ay
ĠE RA
Ġpro s
Ġse lect
all ow
ell s
Ġshe l
ĠLe e
Ġent ering
Ġsur render
Ġdist urb
Ġ195 3
Ġ191 6
Ġ191 7
Ġprot ected
Ġcamp s
ps ons
ĠPh ill
Ġconv oy
Ġcor respond
ĠSim psons
Ġsqu adron
Ġtechn ology
Ġpit ch
Ġmot or
Ġjour ney
Ġcred ited
Ġthous ands
ĠAddition ally
I t
V N
b reak
d e
t av
on a
or al
Ġf air
Ġh a
st r
Ġl ob
ĠM od
ĠM TV
ĠI ra
ak ed
pp ing
Ġch o
Ġex act
ĠAl i
rib ed
Ġdef ined
Ġadd ress
Ġrev olution
Ġ196 3
Ġrepl acement
Ġbas ic
Ġfield s
Ġgl ass
Ġbase ball
Ġpen alty
Ġap art
ĠOd e
ĠGold en
Ġimm ig
ĠMount ains
ĠOs lo
ĠTenn yson
Ġdismiss ed
Ġacad emic
ĠSum mer
ĠHib ari
r ations
s es
Å Ĥ
Ġw ick
Ġw ins
am ber
ĠM ah
ĠB ond
Ġst em
ĠR Ã©
ĠF el
ĠJ ersey
Ġsu d
ack ed
Ġnot ing
Ġle gend
ĠSt ew
Ġad ult
Ġ6 9
Ġsec ured
Ġdec or
ĠMar l
Ġ9 7
Ġcol our
Ġdep ict
Ġ11 2
Ġlead s
Ġ197 9
Ġmod er
Ġ191 5
ĠQ edar
Ġclass ified
Ġexpl os
Ġcr ime
ĠPr inc
ival ent
Ġwind ow
ĠRoman i
Ġget ting
Ġtechn ical
Ġcirc um
Ġcreat or
Ġtrib es
ĠMo z
Ġarrang ed
Ġconsider able
ĠAtt orney
Ġportray ed
ĠDirect or
ĠSund ay
ĠBraz il
A A
m in
t ure
ic ial
ent ions
Ġl ov
ad ow
ĠM aster
ĠI GN
ce ived
ag a
ag n
ri f
Ġch ance
ĠU TC
Ġsp acing
pt on
ĠV ol
Ġpre gn
Ġcomm itted
iss ance
Ġme ets
Ġinter act
Ġinter ior
Ġsome one
Ġqu ite
Ġdep artment
Ġdep icted
Ġrece ption
Ġ191 0
Ġeven ing
Ġway s
ĠAb out
Ġcross es
gr aded
ĠIsland s
stit ution
Ġwood en
Ġey es
gu an
Ġconstit ution
Ġpow ers
Ġteach ing
ĠSecret ary
ĠConstant ine
ĠFriend s
ĠChel sea
cliff e
L I
R E
e enth
g Ã©
h i
Ġt able
re al
or i
Ġc rown
Ġb aby
Ġin land
Ġd ub
Ġh arm
ĠS av
ĠA er
el ess
ol a
ĠB ishop
ĠH on
Ġcon ference
ĠF antasy
ĠW y
ap ped
ab les
Ġsh ore
our ces
ĠCh ronic
Ġad ap
Ġoff ers
ĠY e
aw s
Ġ9 1
Ġunder w
Ġreg ime
Ġpubl isher
Ġhigh light
Ġrep utation
Ġ198 2
Ġdescrib ing
Ġsuccess or
Ġ195 1
Ġopp onents
ĠPer ry
Ġsol id
Ġoccur s
Ġcross ed
Äģ n
Ġbrother s
Ġdiscuss ed
Ġcontrovers y
Ġdyn asty
Ġdeploy ed
Ġcerem ony
Ġexped ition
Ġartic le
ĠMorr ison
ĠSpr ing
ĠAdmir al
m od
Ã ¸
Ġ ice
Ġb owl
an th
Ġin ner
Ġp uzz
ĠT en
ĠT op
om ing
ad al
Ġst ones
ĠH ug
Ġal leg
ĠW in
ĠN BC
Ġv ic
ard o
ĠSt arr
ĠCh ief
Ġatt ributed
ĠAr ts
Ġfl u
Ġsub s
ane an
Ġcap acity
Ġdown load
ruct ure
ĠCon n
Ġ195 6
Ġ191 3
Ġclass es
Ġpolit ics
Ġfr anch
Ġjoin t
ĠGeor g
Ġinterest ed
Ġfac ing
Ġcoast al
Ġmiss ed
gl ades
Ġsect or
Ġfavor ite
Ġdoll ars
ĠHow ard
ĠHo ly
ĠCharl ie
ĠLi u
Ġthir ty
Ġmush room
Ġextrem ely
ĠHin du
ĠIra q
H e
O C
h ost
i Äĩ
er ick
ed om
Ġc ard
Ġb al
Ġth in
ĠS now
Ġe ighth
ĠH ell
ĠR un
ĠF er
ĠG ram
Ġ19 00
Ġr aces
ist ol
ab in
ĠK at
Ġle aves
Ġwe alth
ĠMar c
ĠMar sh
ob a
Ġret reat
Ġac id
ĠLe v
Ġcontin uing
Ġattack ing
Ġgener ation
ĠWh at
Ġappear ing
Ġ193 7
Ġorgan izations
Ġleg s
ĠPh oen
Ġreal ity
Ġ189 0
Ġdifficult y
Ġpred ecess
Ġz one
Ġrul es
Ġforest s
ĠHol lywood
ĠRad io
ĠCroat ian
Ġmethod s
ĠAlex ander
unic ipal
Ġrecomm ended
ĠPen insula
Ġrhy th
Ġyoun ger
Ġwor st
ĠVen us
Ġpasseng ers
a ug
d al
h ol
j illo
n est
o h
o is
p e
t heless
w ise
y cl
Ġs ession
or ters
it led
Ġp y
Ġp up
Ġh ill
st ate
Ġl ic
am ar
Ġe c
ĠC ape
ĠM id
ĠM ul
Ġg al
ig ades
ĠH ung
ay a
ĠD ota
ĠD aily
ĠW alk
ĠN ether
ĠG ully
ag ues
ĠL ow
ĠL ess
ĠE u
Ġpl ants
ond er
Ġag ent
Ġj u
Ġpart ies
ĠAl an
Ġacc ur
Ġac know
Ġno isy
Ġmain tain
ĠBe fore
Ġmed ieval
Ġexper iment
Ġevery thing
ĠAb b
enc ies
Ġpat rol
ev o
Ġpur su
Ġwat ch
Ġadm itted
Ġdraw ing
Ġrespons ibility
Ġve get
Ġthreat ened
Ġnomin ation
Ġcomplet ion
ĠMa eda
ĠPat rick
Ġemer ged
Ġnin th
ĠColumb ia
ĠBet ween
ĠHorn ung
Ġdiam eter
ĠRol ling
F rom
n s
n ell
on om
re ts
Ġb es
Ġb ay
Ġp ushed
Ġp sych
ic ian
ĠT el
Ġl ap
ĠC orn
Ġg ross
ĠD anny
ĠW ars
um ps
Ġr ugby
Ġv ary
Ġsh if
ĠIn c
ip e
pt y
Ġar ts
Ġj azz
Ġpre y
Ġkn ots
Ġ8 8
Ġdef ended
Ġass umed
Ġwhere as
Ġacc used
Ġacc ounts
Ġ12 3
Ġmon arch
Ġshow ing
Ġpol l
Ġ194 8
Ġappro ached
Ġconv ection
Ġnov els
Ġchart s
Ġste el
Ġsequ el
ĠMary land
Ġspecific ally
ĠEver glades
Ġattr acted
ĠSam uel
Ġearth quake
ĠCamb ridge
Ġhot el
ĠUp on
Ġrecover ed
Ġemot ional
ĠHait i
Ġfung us
Ġunus ual
Ġsud den
b ur
r or
Ġ ur
Ġw orth
it age
Ġm ine
Ġd ie
Ġh ope
ĠS a
ĠS anta
ĠA ML
ĠB ack
us ing
Ġcon qu
ĠF ame
ĠN C
ĠG il
ri or
Ġv an
Ġk ings
ĠâĢ ĳ
ĠAn iston
Ġchar ter
Ġfollow ers
Ġoper ating
Ã© t
Ġpoin ted
Ġattempt ing
Ġreview er
Ġdem ol
ĠPr ime
ĠBro ok
Ġelect ric
ĠEl iz
Ġhold s
Ġappoin t
Ġimpro ve
ĠBo ise
Ġexcept ion
ĠHot el
Ġanc est
Ġfir ing
Ġarrang ement
Ġprinc ipal
Ġleaders hip
Ġpick ed
Ġdut ies
Ġwr ong
i ary
n ic
re c
or er
or gan
Ġc ens
Ġb rick
ĠT rib
ac ent
Ġg all
ig ation
ot hes
ĠR angers
ĠD et
ĠF ish
ĠF ire
ĠJ osh
ri en
Ġv ision
ate ur
ĠK il
Ġsh ut
ĠSt ev
Ġtr ail
ĠCh art
Ġinc ome
ok ed
Ġsc rap
ang erous
Ġout f
Ġup d
Ġso il
Ġent ry
Ġprov ince
Ġdesign ation
oss ible
Ġann iversary
Ġappro ved
Ġbas in
atter ed
ĠTe levision
Ġfr ig
uck y
Ġstat ement
Ġcat ch
Ġsee ing
ĠHam ilton
ĠMad onna
Ġlaun ch
Ġregular ly
ĠSqu are
Ġtreat y
Ġindic ate
Ġlink ed
Ġcontrovers ial
Ġcarry ing
ĠArch ae
Ġhabit at
ĠRhodes ian
Ġatmosp here
ĠTru jillo
r ain
t a
u it
or ous
Ġf al
Ġf ish
Ġb le
ing er
ĠA k
am ents
Ġn ob
ĠC hen
ur d
Ġg ather
ot es
ĠI guan
ĠH un
ĠH ere
ĠH ospital
ĠR if
Ġcon g
ĠD i
os ure
Ġhe ar
ap a
Ġpro ceed
ab eth
Ġor chest
Ġex erc
Ġsh ots
Ġun n
end er
Ġpart ners
Ġover w
ang es
Ġdes ire
Ġoff ense
Ġim pl
ult ane
amp s
Ġ6 3
Ġreg ional
Ġrele g
Ġ12 1
ĠAs h
uch i
Ġdep end
Ġdist ributed
Ġ195 8
Ġdr iving
Ġvis ible
Ġbelie ves
Ġbre aking
iven ess
Ġtw elve
Ġsurv iving
Ġlim it
ĠSim on
Ġtre ated
Ġident ity
Ġindust rial
Ġcivil ian
Ġrail road
Ġtravel ed
Ġabs or
ĠCamp b
ĠMil itary
ĠSur v
hew s
Ġresc ue
ĠThrough out
ĠCast le
ĠYank ovic
ĠEngine er
ĠStep hen
Ġsurviv ors
ĠMoz amb
a it
b ody
c ient
i ents
k ey
n i
o oth
z i
á »
Ġt aught
Ġp age
Ġp ool
Ġm anner
Ġh all
Ġh its
ĠT am
ĠT errit
il ing
ĠA R
Ġn one
Ġn ick
ĠM L
iv als
ĠI V
Ġst adium
ĠP ot
ĠP ress
ĠR io
Ġcon vers
os ite
ĠE arl
Ġpro port
Ġy outh
Ġ5 8
Ġfl o
Ġfl ed
ock ey
Ġdef ences
Ġind ig
Ġsy m
Ġmin ister
Ġsign ing
Ġ196 1
Ġ195 5
Ġ192 7
int end
Ġvict ims
Ġequ al
Ġdiv isions
Ġfall ing
Ġrecogn ition
go ing
ĠQue ens
Ġsurround ed
Ġimmedi ate
Ġblock s
Ġcolon ies
Ġexam ples
ĠHist ory
Ġschol ar
Ġrare ly
Ġchall enge
ĠWeek ly
Ġmess age
Ġcandid ate
Ġdocument ary
ĠLis a
Ġsynt hes
Ġcit iz
b les
v est
y ard
z en
Ġs oul
Ġc inem
it als
Ġf aces
ic ts
Ġd ock
Ġd ivers
ĠT s
ĠS i
ĠA ston
ot ton
ĠD om
if na
Ġv on
ew hat
Ġex isted
ĠK ar
ĠK el
Ġint ention
Ġcl oud
ub e
Ġag ed
ib l
Ġte eth
ĠAn ton
ĠMar ia
Ġind icated
Ġ12 2
Ġ0 5
aj evo
Ġpass age
ĠCar ter
Ġ195 4
Ġprot ests
Ġdet ail
Ġconv in
Ġcommun ic
Ġhistor ians
ĠSim one
Ġconn ection
ĠDu ke
ĠDep ression
Ġmult i
Ġrail way
Ġhop ed
Ġinh abit
ĠSar ajevo
Ġspecim ens
Ġrat ings
Ġrom antic
Ġconcer ts
Ġegg s
Ġisol ated
Ġsom ewhat
ĠRox as
A r
b a
k ins
r ant
Ġt ie
Ġs ed
Ġs ke
Ġw ants
or ist
Ġc ry
Ġc old
ar ning
ro sc
ĠB ank
ĠP att
ĠP oint
ĠD NA
os is
av ia
ĠL ords
ĠE lect
ab led
Ġk its
ure au
Ġres erve
Ġrec re
Ġ7 9
form ed
Ġinter cept
Ġmain t
Ġob tained
Ġwar m
rap h
ink ing
enn is
Ġclass ical
Ġmark s
ĠMus lim
Ġant imony
ĠOr der
Ġfr ame
Ġstrong ly
Ġcommun ities
Ġpost ed
omb at
Ġdiv ine
Ġdiscover y
Ġsuper v
Ġ188 0
ĠHar ry
Ġpract ices
Ġesc ort
Ġpain ted
Ġfeel ing
Ġstay ed
ĠJer usal
Ġpurch ase
ĠStr and
Ġbring ing
ĠSpec ial
ĠHistor ic
ĠIndust ry
Ġdescript ion
Ġremn ants
Ġeas ily
ĠShort ly
Ġbasket ball
ĠIsab ella
ĠLenn on
Ġfranch ise
ĠStev ens
ĠJerusal em
i Å
r ative
y a
Ġt ick
Ġs ell
Ġw orship
Ġc ul
ing ale
Ġm art
Ġd im
ĠA round
am er
Ġn av
us es
ĠP ower
ĠR ugby
ĠN ar
ĠL ab
ĠL anc
ĠJ un
ĠJ os
ĠE s
Ġv ide
Ġch ronic
Ġch ampion
ĠIn t
Ġle arning
Ġ9 9
Ġrel ie
Ġfl at
row s
Ġexp ansion
Ġdep os
Ġ198 3
Ġbr ight
Ġext ension
Ġ194 9
Ġimp lement
Ġdr iven
urop ium
Ġstand s
Ġstand ards
Ġsuff ering
ĠCal vert
Ġcirc ulation
off man
ĠGerm ans
Ġtrib ute
Ġterrit ories
Ġconcern ed
Ġwaters hed
sen al
Ġspir it
Ġseem ed
Ġlb w
Ġarrest ed
Ġhyd ro
Ġsubmar ine
Ġconsp ir
ĠFrancisc o
l an
w ick
Ã §
Ġa u
Ġs ter
Ġs essions
Ġs iege
it err
is is
ic op
Ġh ang
ĠC rit
ĠC ru
ĠB at
ĠB ang
im al
ot ic
us ad
us sion
Ġst reak
ĠH or
ĠP ope
un ion
Ġan sw
ag u
ĠL ate
Ġr ated
Ġpro hib
Ġv ac
Ġsh ark
Ġsp in
og ether
Ġag ree
te enth
ark ed
Ġ6 8
Ġ7 4
Ġdec k
Ġact s
Ġret ire
Ġco ord
Ġpo ems
ĠMay a
ĠCl in
Ġ193 5
ĠPl unk
Ġeffect ively
Ġfoot age
Ġchang ing
Ġpromot e
ĠRober ts
ÃŃ var
ĠAct ivision
Ġcoll aps
Ġassist ant
Ġvot ed
ĠSing les
Ġsett led
ĠBrad ford
ĠTrans port
ĠSomal ia
Ġbehav i
ĠKore an
ĠDest iny
Ġagricult ural
Ġoverse as
Ġunsuccess ful
Ġprotagon ist
B rien
S h
e xt
f are
Ġ Î
on ica
at ures
as hed
Ġh at
ĠT ower
Ġre ct
ĠS her
st a
am ic
ĠC E
Ġg ro
ol i
ĠH ud
ĠP ul
em ed
ĠD A
Ġr itual
ud a
Ġex change
ĠK aw
ĠK urt
ect ions
ast e
ĠSt ock
ĠSt ef
ra z
Ġad ults
Ġpart ly
Ġpart ial
Ġser ial
Ġ7 8
Ġcons um
Ġ8 9
Ġret ained
Ġmov ements
ĠSh ak
Ġ17 5
Ġcar ries
Ġ197 7
Ġair line
Ġown er
ĠUS A
Ġwin ner
ĠFor ces
Ġposs ession
Ġinvol ving
ask a
Ġgen re
ĠSim ilar
Ġlook ed
Ġread ing
Ġdifficult ies
Ġmeet ings
Ġsuper ior
sc ape
Ġclos er
Ġrelationship s
ĠMed iterr
Ġliter ary
ĠOlymp ics
Ġbomb ard
ĠRes ear
onna issance
ĠJane iro
ĠBol ÃŃvar
ĠSomal i
Ġwear ing
Ġincorpor ated
Ġvess els
Ġfix ed
ĠFred erick
Ġut il
ĠArgent ina
Ġoccas ions
Ġadap ted
ĠMediterr anean
r is
u v
w orth
Ġ ib
Ġt ank
he im
Ġo cean
Ġc art
it ated
Ġb low
Ġb ond
Ġp ric
Ġm ap
le ts
ent ional
il ly
ĠS onic
ĠA z
ĠA ld
ur i
ur rent
Ġal le
Ġal ien
ĠD C
ct ions
ĠL ife
op hy
Ġex it
Ġpl ain
ĠIn it
ĠSt ation
Ġtr a
Ġrec alled
ĠHe arts
ĠAl bert
Ġpre ced
Ġver se
Ġ0 6
Ġ0 7
Ġpres erved
Ġ16 2
velop ment
ĠSp ace
Ġ191 1
ĠBe at
Ġreview ers
Ġopp osite
Ġmed ium
Ġel abor
Ġspe ech
Ġpra ise
Ġaccom mod
Ġredu ce
Ġinsp iration
Ġstation ed
Ġpers p
Ġabs ol
Ġvisit ors
ĠJe an
Ġaccomp any
Ġinstit utions
Ġcam era
Ġaltern ative
ipl om
ĠWild e
upp et
Ġhappen ed
ĠIndepend ent
ĠStan ley
Ġrestaur ant
h l
o es
u gh
Ġ å
Ġ els
Ġt er
Ġt ack
Ġt anks
re p
Ġs ight
ing e
ĠS up
ĠM ortal
Ġg one
ĠB al
ĠB ass
ĠP ine
ĠD ark
ĠF ront
Ġan th
ĠK ombat
Ġsp aces
Ġafter wards
we et
Ġact ual
Ġent h
Ġcre st
Ġest ate
Ġ196 2
Ġcar bon
Ġinst alled
ĠCon st
Ġmusic ians
Ġcharacter istics
Ġhel icop
ĠHer gÃ©
Ġdet ailed
ĠFl ight
Ġrefer ences
Ġvict ories
Ġsk y
Ġpat ron
Ġequ ipped
Ġer ected
Ġimpro v
Ġra ise
Ġmeas ures
Ġfund s
Ġgre y
ĠEm peror
Ġemer g
ĠBC E
ĠForm ula
Ġchem ical
Ġspecim en
ĠDemocr atic
Ġcust om
Ġhapp y
Ġpy ram
ĠIguan odon
Ġels ewhere
b ie
h u
n g
s ch
Ê »
Ġ ic
Ġ ille
in als
Ġc reek
Ġb ed
ar th
ĠT ig
Ġre ady
ent ures
Ġon line
ĠB os
ĠB ert
ĠB ureau
id ers
ĠR ain
if er
Ġor n
ant i
Ġex ha
oc al
ĠK ev
ov en
Ġres ources
Ġapp ropri
Ġpart ially
Ġafter n
any on
Ġext reme
ĠBl ood
Ġ195 9
Ġmod ified
Ġann ually
Ġwill ing
ĠGu y
Ġclass ic
Ġ192 1
Ġstar ling
Ġclaim ing
Ġdefe ating
ister ed
Ġche ck
Ġcou p
Ġarm or
Ġking dom
Ġreb els
Ġhost ed
Ġintens ified
ĠMont ana
ĠVictor ian
iqu es
Ġdispl ays
Ġlegisl ation
Ġadj acent
ĠClark son
ĠProt est
Ġencour aged
ĠBan ai
ĠRy an
Ġprefer red
Ġresist ance
Ġiniti ative
ĠGeorg ia
Ġrhyth m
Ġalle ged
e per
r as
à ¤
Ġt one
Ġw rest
Ġo w
at en
Ġin aug
Ġp ure
ic ide
Ġd ens
Ġh ip
le te
il ation
ĠS and
ĠA P
Ġl oy
ĠC ory
et on
ĠB ow
ĠI mp
ĠP A
Ġal ter
ĠD yn
ĠF ree
ĠW olf
Ġr um
Ġpro l
if orm
Ġse es
ĠK it
ĠK ansas
ĠSt ory
ĠCh annel
Ġag o
Ġ6 7
Ġcons ol
Ġ8 6
Ġver te
Ġacc laim
Ġform ing
Ġ16 5
ather s
Ġimp ossible
Ġreturn s
Ġ191 2
Ġ193 2
Ġ192 9
ĠGe off
Ġdest ruction
Ġdeb ate
Ġlow est
Ġequ ivalent
Ġ190 9
Ġinterest s
ĠFeder al
Ġren ew
Ġmer ch
ĠKe amy
Ġwithd rew
ĠÃ Ĺ
Ġabs ence
Ġtow ers
Ġcru iser
Ġens ure
Ġhundred s
ĠNor way
Ġess ential
Ġnarr ative
Ġapparent ly
Ġseg ment
Ġdistrib ution
Ġdial ogue
ĠNether lands
ĠEliz abeth
Ġvide os
ĠClin ton
M O
e an
m el
r ating
w ich
y er
he me
Ġthe atre
Ġf old
al ed
al ing
ĠT est
ĠT ype
Ġre ver
ĠS ap
Ġe t
Ġe uropium
ĠC as
ĠM ir
ĠB ed
ĠB ad
ĠB all
ter bury
th osaurus
em et
em ia
ĠJ ifna
Ġcom ments
Ġex cess
ĠV ice
Ġcl oth
Ġres umed
Ġrec onnaissance
ach us
Ġev il
ĠMar g
Ġform ally
ific ations
Ġ12 7
Ġsur pr
Ġexp ensive
Ġtrans ition
Ġ17 6
ĠAd am
ĠAd ams
Ġ193 1
Ġ193 8
Ġref ers
ĠCan terbury
por ation
Ġstar red
Ġwind ows
ĠOr gan
Ġcover s
itar ian
app ing
Ġcritic ised
ĠGeor gian
Ġneed s
Ġste am
Ġburn ed
Ġobject s
Ġinj uries
ĠRichard son
Ġsat isf
Ġmom ents
Ġjud ge
oir s
ĠFI A
Ġdefend ers
Ġshell s
Ġpurp oses
Ġintern al
Ġdoub t
Ġassass ination
ĠRog er
Ġglob al
ĠBeck ham
Ġaftern oon
b an
d ess
Ġt ight
he red
er og
re es
Ġc raft
Ġf ine
Ġf ram
Ġb at
Ġb one
an j
ro se
Ġd iplom
ĠT reat
ĠS k
ĠS n
el in
el le
ac le
Ġg arrison
ĠB ron
ĠH ind
ith ic
ĠN intend
ĠJ enn
Ġle uk
ign ment
Ġrec ru
ens es
Ġ9 3
Ġrel ative
ann ah
Ġam mun
Ġent ers
Ġ16 1
ather ine
ĠInd ones
Ġbel t
Ġcar ved
Ġoper ate
esp e
ĠBe ach
aur us
Ġperiod s
Ġbi ographer
Ġ186 0
Ġengine ers
Ġengine ering
Ġestablish ing
Ġvot e
ĠFe i
Ġinvestig ation
Ġobserv ations
Ġunderst and
ĠHum an
ĠGar c
Ġscient ific
Ġvess el
Ġpan el
Ġpropos al
Ġcrimin al
ĠExp ress
Ġacknow led
Ġoverw hel
Ġbehavi our
ĠKev in
ĠNintend o
Ġammun ition
b ound
n ight
r ast
r abb
Ġ Å
Ġt ailed
on ia
Ġm ask
ĠS em
ĠS uch
Ġl iber
ĠC ab
ĠM and
ĠB ase
Ġst ock
ĠH ou
ĠP ass
Ġcon j
ĠF low
os l
ĠN eb
ĠL ang
Ġhe m
ĠJ oy
Ġr ay
ap se
ĠO t
Ġde leg
Ġsh op
ian g
Ġtr ained
Ġint ense
ue z
Ġout break
Ġfe ed
Ġent itled
ĠFr aser
Ġsim ultane
Ġadv is
Ġrest ric
Ġrest ored
ĠMc G
que z
Ġdem and
alk y
Ġtrad ing
Ġground s
Ġinflu ential
Ġprogram me
Ġtrav elled
ĠPol and
com ing
Ġvill ages
Ġpit cher
Ġdev ot
Ġbi ography
Ġreve als
for ced
Ġinj ured
ĠRad cliffe
Ġdram atic
ĠDel aware
Ġnorm ally
ĠBurn s
Ġinterp ret
ĠJour nal
ĠSky e
ĠGuard ian
Ġbats man
ĠMong ol
ĠFam ily
Ġastron om
ĠJes us
ĠKil mer
ĠResear ch
espe are
A T
E C
O K
d s
v ention
w ald
Ī Ĵ
er al
Ġs ons
Ġp in
Ġp ack
Ġp ine
Ġm unicipal
ic it
Ġd iet
ĠT er
ĠT ok
il st
ĠS weet
Ġl in
el ine
Ġwas n
Ġfor cing
im eter
Ġas h
Ġbe aring
ĠW W
ĠN atives
ĠG un
ĠE du
ĠO wen
ate gy
ĠK im
ip ed
ish ment
Ġdes ert
Ġatt rib
ĠY our
Ġte le
Ġinter action
Ġform al
Ġmon uments
ek Äģn
Ġinst ance
Ġdesign s
Ġgener ated
Ġuse ful
ĠMe ga
Ġeng age
Ġcover ing
Ġel se
Ġsk ull
Ġcy cle
ĠWith in
Ġwat ching
Ġdoes n
ĠAtl anta
Ġpred omin
ĠPal my
ĠRec ording
Ġtest s
Ġrepresent ing
ĠMex ican
Ġtrib ut
Ġobject ive
ĠWil son
Ġpers u
itz er
Ġmem orial
Ġdoc uments
Ġfeel ings
ĠLaw rence
Ġdeg rees
Ġexperi ences
Ġtouchdown s
Ġcorn er
Ġdrum s
Ġcompos er
Ġbehav ior
Ġjournal ist
Ġreconst ruction
inj e
Ġcircum stances
Ġnick n
ĠShak espeare
emet ery
D espite
S A
a fter
d ale
d ney
g raf
h ow
l ie
p ut
v a
in son
er atops
Ġs ale
Ġs ailed
Ġf itted
Ġb arr
