{
  "version": "1.0",
  "truncation": null,
  "padding": null,
  "added_tokens": [
    {
      "id": 0,
      "content": "<pad>",
      "single_word": false,
      "lstrip": false,
      "rstrip": false,
      "normalized": false,
      "special": true
    },
    {
      "id": 1,
      "content": "<s>",
      "single_word": false,
      "lstrip": false,
      "rstrip": false,
      "normalized": false,
      "special": true
    },
    {
      "id": 2,
      "content": "</s>",
      "single_word": false,
      "lstrip": false,
      "rstrip": false,
      "normalized": false,
      "special": true
    },
    {
      "id": 3,
      "content": "<unk>",
      "single_word": false,
      "lstrip": false,
      "rstrip": false,
      "normalized": false,
      "special": true
    }
  ],
  "normalizer": {
    "type": "NFKC"
  },
  "pre_tokenizer": {
    "type": "ByteLevel",
    "add_prefix_space": false,
    "trim_offsets": true,
    "use_regex": true
  },
  "post_processor": {
    "type": "TemplateProcessing",
    "single": [
      {
        "SpecialToken": {
          "id": "<s>",
          "type_id": 0
        }
      },
      {
        "Sequence": {
          "id": "A",
          "type_id": 0
        }
      },
      {
        "SpecialToken": {
          "id": "</s>",
          "type_id": 0
        }
      }
    ],
    "pair": [
      {
        "SpecialToken": {
          "id": "<s>",
          "type_id": 0
        }
      },
      {
        "Sequence": {
          "id": "A",
          "type_id": 0
        }
      },
      {
        "SpecialToken": {
          "id": "</s>",
          "type_id": 0
        }
      },
      {
        "SpecialToken": {
          "id": "<s>",
          "type_id": 0
        }
      },
      {
        "Sequence": {
          "id": "B",
          "type_id": 0
        }
      },
      {
        "SpecialToken": {
          "id": "</s>",
          "type_id": 0
        }
      }
    ],
    "special_tokens": {
      "</s>": {
        "id": "</s>",
        "ids": [
          2
        ],
        "tokens": [
          "</s>"
        ]
      },
      "<s>": {
        "id": "<s>",
        "ids": [
          1
        ],
        "tokens": [
          "<s>"
        ]
      }
    }
  },
  "decoder": null,
  "model": {
    "type": "BPE",
    "dropout": null,
    "unk_token": "<unk>",
    "continuing_subword_prefix": null,
    "end_of_word_suffix": null,
    "fuse_unk": false,
    "byte_fallback": false,
    "ignore_merges": false,
    "vocab": {
      "<pad>": 0,
      "<s>": 1,
      "</s>": 2,
      "<unk>": 3,
      "!": 4,
      "\"": 5,
      "$": 6,
      "%": 7,
      "&": 8,
      "'": 9,
      "(": 10,
      ")": 11,
      "*": 12,
      "+": 13,
      ",": 14,
      "-": 15,
      ".": 16,
      "/": 17,
      "0": 18,
      "1": 19,
      "2": 20,
      "3": 21,
      "4": 22,
      "5": 23,
      "6": 24,
      "7": 25,
      "8": 26,
      "9": 27,
      ":": 28,
      ";": 29,
      "=": 30,
      "?": 31,
      "@": 32,
      "A": 33,
      "B": 34,
      "C": 35,
      "D": 36,
      "E": 37,
      "F": 38,
      "G": 39,
      "H": 40,
      "I": 41,
      "J": 42,
      "K": 43,
      "L": 44,
      "M": 45,
      "N": 46,
      "O": 47,
      "P": 48,
      "Q": 49,
      "R": 50,
      "S": 51,
      "T": 52,
      "U": 53,
      "V": 54,
      "W": 55,
      "X": 56,
      "Y": 57,
      "Z": 58,
      "[": 59,
      "\\": 60,
      "]": 61,
      "_": 62,
      "`": 63,
      "a": 64,
      "b": 65,
      "c": 66,
      "d": 67,
      "e": 68,
      "f": 69,
      "g": 70,
      "h": 71,
      "i": 72,
      "j": 73,
      "k": 74,
      "l": 75,
      "m": 76,
      "n": 77,
      "o": 78,
      "p": 79,
      "q": 80,
      "r": 81,
      "s": 82,
      "t": 83,
      "u": 84,
      "v": 85,
      "w": 86,
      "x": 87,
      "y": 88,
      "z": 89,
      "ĉ": 90,
      "Ċ": 91,
      "č": 92,
      "Ġ": 93,
      "Ġt": 94,
      "Ġth": 95,
      "Ġa": 96,
      "čĊ": 97,
      "Ġthe": 98,
      "Ġo": 99,
      "in": 100,
      "re": 101,
      "on": 102,
      "er": 103,
      "en": 104,
      "at": 105,
      "Ġof": 106,
      "Ġw": 107,
      "it": 108,
      "Ġs": 109,
      "Ġc": 110,
      "nd": 111,
      "Ġp": 112,
      "Ġb": 113,
      "es": 114,
      "ed": 115,
      "is": 116,
      "ion": 117,
      "or": 118,
      "Ġto": 119,
      "Ġin": 120,
      "Ġf": 121,
      "Ġand": 122,
      "Ġm": 123,
      "ic": 124,
      "ar": 125,
      "an": 126,
      "al": 127,
      "Ġh": 128,
      "ent": 129,
      "ou": 130,
      "ing": 131,
      "Ġd": 132,
      "st": 133,
      "Ġre": 134,
      "Ġbe": 135,
      "ro": 136,
      "Ġn": 137,
      "ur": 138,
      "Ġe": 139,
      "il": 140,
      "ation": 141,
      "as": 142,
      "Ġl": 143,
      "ct": 144,
      "ve": 145,
      "om": 146,
      "ce": 147,
      "le": 148,
      "Ġwh": 149,
      "Ġfor": 150,
      "ly": 151,
      "ĠT": 152,
      "ut": 153,
      "ment": 154,
      "se": 155,
      "ver": 156,
      "ĠčĊ": 157,
      "Ġthat": 158,
      "ĠI": 159,
      "Ġg": 160,
      "Ġcon": 161,
      "Ġu": 162,
      "Ġpro": 163,
      "th": 164,
      "im": 165,
      "res": 166,
      "Ġis": 167,
      "ĠTh": 168,
      "Ġit": 169,
      "ith": 170,
      "Ġha": 171,
      "Ġour": 172,
      "ld": 173,
      "Ġno": 174,
      "ĠS": 175,
      "ir": 176,
      "Ġwe": 177,
      "ĠA": 178,
      "id": 179,
      "Ġsu": 180,
      "Ġex": 181,
      "Ġby": 182,
      "Ġas": 183,
      "Ġwith": 184,
      "ig": 185,
      "ill": 186,
      "Ġon": 187,
      "ll": 188,
      "ch": 189,
      "Ġde": 190,
      "ĠThe": 191,
      "ess": 192,
      "ich": 193,
      "ra": 194,
      "ul": 195,
      "Ġwhich": 196,
      "ĠC": 197,
      "est": 198,
      "Ġan": 199,
      "Ġhave": 200,
      "Ġma": 201,
      "ate": 202,
      "Ġcom": 203,
      "end": 204,
      "Ġst": 205,
      "ect": 206,
      "Ġy": 207,
      "ow": 208,
      "Ġne": 209,
      "ge": 210,
      "Ġsh": 211,
      "ies": 212,
      "ers": 213,
      "ab": 214,
      "ort": 215,
      "ore": 216,
      "ere": 217,
      "nt": 218,
      "ould": 219,
      "pp": 220,
      "ity": 221,
      "op": 222,
      "if": 223,
      "Ġthis": 224,
      "Ġnot": 225,
      "Ġwill": 226,
      "ain": 227,
      "ol": 228,
      "ust": 229,
      "Ġat": 230,
      "Ġare": 231,
      "ong": 232,
      "over": 233,
      "et": 234,
      "Ġint": 235,
      "ri": 236,
      "Ġhas": 237,
      "Ġbeen": 238,
      "qu": 239,
      "ress": 240,
      "ist": 241,
      "ĠG": 242,
      "Ġla": 243,
      "Ġor": 244,
      "mer": 245,
      "ive": 246,
      "overn": 247,
      "de": 248,
      "ations": 249,
      "ĠSt": 250,
      "ear": 251,
      "ates": 252,
      "overnment": 253,
      "ec": 254,
      "ay": 255,
      "Ġtheir": 256,
      "rom": 257,
      "igh": 258,
      "ĠW": 259,
      "reat": 260,
      "ea": 261,
      "ther": 262,
      "Ġall": 263,
      "iv": 264,
      "Ġfrom": 265,
      "Ġv": 266,
      "00": 267,
      "ant": 268,
      "ff": 269,
      "art": 270,
      "os": 271,
      "ions": 272,
      "ount": 273,
      "ary": 274,
      "em": 275,
      "Ġ1": 276,
      "iz": 277,
      "Ġad": 278,
      "Ġim": 279,
      "ure": 280,
      "ĠU": 281,
      "ĠStates": 282,
      "Ġr": 283,
      "Ġyear": 284,
      "Ġres": 285,
      "ose": 286,
      "us": 287,
      "Ġwor": 288,
      "ial": 289,
      "Ġexp": 290,
      "ĠGovernment": 291,
      "od": 292,
      "nit": 293,
      "la": 294,
      "Ġwas": 295,
      "pon": 296,
      "ip": 297,
      "ost": 298,
      "Ġen": 299,
      "Ġch": 300,
      "able": 301,
      "our": 302,
      "Ġso": 303,
      "ight": 304,
      "Ġits": 305,
      "Ġfa": 306,
      "ke": 307,
      "Ġag": 308,
      "ĠB": 309,
      "ous": 310,
      "ish": 311,
      "Ġimp": 312,
      "ĠM": 313,
      "meric": 314,
      "ens": 315,
      "ĠAmeric": 316,
      "Ġme": 317,
      "lic": 318,
      "Ġcan": 319,
      "ry": 320,
      "Ġcont": 321,
      "Ġal": 322,
      "ance": 323,
      "ĠN": 324,
      "ĠCong": 325,
      "all": 326,
      "ĠCongress": 327,
      "cc": 328,
      "ard": 329,
      "Ġshould": 330,
      "un": 331,
      "Ġj": 332,
      "ans": 333,
      "ction": 334,
      "ie": 335,
      "ice": 336,
      "Ġapp": 337,
      "nited": 338,
      "gh": 339,
      "Ġinc": 340,
      "du": 341,
      "ub": 342,
      "ire": 343,
      "ĠF": 344,
      "Ġcomm": 345,
      "ĠUnited": 346,
      "and": 347,
      "ĠP": 348,
      "um": 349,
      "Ġse": 350,
      "Ġcount": 351,
      "Ġun": 352,
      "ter": 353,
      "ome": 354,
      "per": 355,
      "Ġrec": 356,
      "am": 357,
      "ĠIt": 358,
      "ad": 359,
      "ue": 360,
      "nder": 361,
      "Ġthem": 362,
      "ot": 363,
      "ib": 364,
      "eop": 365,
      "Ġper": 366,
      "Ġmore": 367,
      "ep": 368,
      "Ġpeop": 369,
      "Ġthey": 370,
      "ence": 371,
      "Ġdis": 372,
      "very": 373,
      "Ġam": 374,
      "ublic": 375,
      "Ġwho": 376,
      "Ġpeople": 377,
      "Ġab": 378,
      "Ġbut": 379,
      "reas": 380,
      "ough": 381,
      "eral": 382,
      "ated": 383,
      "Ġgreat": 384,
      "ĠO": 385,
      "ted": 386,
      "Ġpart": 387,
      "resent": 388,
      "Ġupon": 389,
      "Ġdo": 390,
      "Ġother": 391,
      "Ġcomp": 392,
      "Ġman": 393,
      "Ġcons": 394,
      "Ġsp": 395,
      "ime": 396,
      "ces": 397,
      "Ġunder": 398,
      "ud": 399,
      "erv": 400,
      "Ġwould": 401,
      "Ġsub": 402,
      "Ġsuch": 403,
      "Ġar": 404,
      "ĠWe": 405,
      "--": 406,
      "ition": 407,
      "Ġta": 408,
      "Ġ$": 409,
      "Ġrep": 410,
      "Ġthese": 411,
      "ru": 412,
      "out": 413,
      "Ġlaw": 414,
      "Ġeff": 415,
      "Ġhe": 416,
      "ult": 417,
      "Ġthere": 418,
      "Ġany": 419,
      "Ġca": 420,
      "Ġcountry": 421,
      "Ġpre": 422,
      "Ġthan": 423,
      "ject": 424,
      "ĠE": 425,
      "ĠD": 426,
      "ĠIn": 427,
      "pt": 428,
      "Ġmay": 429,
      "Ġmust": 430,
      "tain": 431,
      "age": 432,
      "Ġus": 433,
      "Ġmade": 434,
      "ign": 435,
      "Ġprov": 436,
      "Ġact": 437,
      "fic": 438,
      "cess": 439,
      "Ġwere": 440,
      "ast": 441,
      "ĠR": 442,
      "ree": 443,
      "Ġpublic": 444,
      "Ġpow": 445,
      "Ġgo": 446,
      "ments": 447,
      "Ġwork": 448,
      "pl": 449,
      "Ġthose": 450,
      "Ġob": 451,
      "Ġnation": 452,
      "red": 453,
      "sel": 454,
      "ution": 455,
      "000": 456,
      "eg": 457,
      "ful": 458,
      "ual": 459,
      "ac": 460,
      "erest": 461,
      "Ġtime": 462,
      "Ġwar": 463,
      "omm": 464,
      "Ġbet": 465,
      "ound": 466,
      "ced": 467,
      "Ġnow": 468,
      "ise": 469,
      "ven": 470,
      "Ġinterest": 471,
      "ĠH": 472,
      "Ġpr": 473,
      "'s": 474,
      "one": 475,
      "act": 476,
      "ass": 477,
      "oc": 478,
      "Ġ18": 479,
      "Ġrel": 480,
      "wn": 481,
      "rit": 482,
      "Ġone": 483,
      "Ġind": 484,
      "Ġpresent": 485,
      "Ġacc": 486,
      "Ġlast": 487,
      "ĠAmerican": 488,
      "stit": 489,
      "Ġtr": 490,
      "ren": 491,
      "ory": 492,
      "iss": 493,
      "ious": 494,
      "Ġnew": 495,
      "for": 496,
      "Ġsec": 497,
      "Ġincreas": 498,
      "av": 499,
      "ern": 500,
      "Ġatt": 501,
      "Ġevery": 502,
      "Ġcit": 503,
      "ord": 504,
      "Ġyou": 505,
      "Ġpur": 506,
      "Ġqu": 507,
      "pos": 508,
      "Ġreg": 509,
      "we": 510,
      "ag": 511,
      "fore": 512,
      "Ġnecess": 513,
      "Ġpol": 514,
      "Ġrem": 515,
      "Ġagain": 516,
      "Ġext": 517,
      "eace": 518,
      "oin": 519,
      "Ġonly": 520,
      "Ġimport": 521,
      "Ġjust": 522,
      "rop": 523,
      "ical": 524,
      "ach": 525,
      "ĠJ": 526,
      "ures": 527,
      "Ġhad": 528,
      "Ġest": 529,
      "uring": 530,
      "Ġworld": 531,
      "Ġright": 532,
      "con": 533,
      "ber": 534,
      "Ġpeace": 535,
      "min": 536,
      "rough": 537,
      "Ġyears": 538,
      "Ġcitiz": 539,
      "Ġhis": 540,
      "ide": 541,
      "Ġpower": 542,
      "vent": 543,
      "Ġsome": 544,
      "Ġmost": 545,
      "Ġleg": 546,
      "Ġprog": 547,
      "Ġinto": 548,
      "Ġk": 549,
      "eneral": 550,
      "ĠThis": 551,
      "Ġem": 552,
      "Ġmy": 553,
      "ms": 554,
      "king": 555,
      "cy": 556,
      "Ġout": 557,
      "Ġserv": 558,
      "Ġtra": 559,
      "Ġent": 560,
      "Ġcontin": 561,
      "Ġfore": 562,
      "ts": 563,
      "Ġconsid": 564,
      "sib": 565,
      "ĠL": 566,
      "Ġown": 567,
      "uth": 568,
      "oy": 569,
      "Ġbec": 570,
      "ilit": 571,
      "ine": 572,
      "Ġinv": 573,
      "Ġdut": 574,
      "ric": 575,
      "Ġsupp": 576,
      "Ġsy": 577,
      "Ġconf": 578,
      "Ġneed": 579,
      "ween": 580,
      "Ġbetween": 581,
      "Ġif": 582,
      "ex": 583,
      "ame": 584,
      "Ġprodu": 585,
      "Ġover": 586,
      "Ġgovernment": 587,
      "Ġfe": 588,
      "arge": 589,
      "ead": 590,
      "ild": 591,
      "ile": 592,
      "Ġass": 593,
      "use": 594,
      "Ġtreat": 595,
      "Ġsubject": 596,
      "Ġshall": 597,
      "Ġpos": 598,
      "uch": 599,
      "Ġcitizens": 600,
      "ommend": 601,
      "conom": 602,
      "Ġdec": 603,
      "isl": 604,
      "Ġrecommend": 605,
      "ind": 606,
      "Ġra": 607,
      "Ġrequ": 608,
      "Ġpl": 609,
      "uthor": 610,
      "Ġdes": 611,
      "ident": 612,
      "so": 613,
      "Ġter": 614,
      "Ġeconom": 615,
      "Ġconsider": 616,
      "are": 617,
      "Ġmake": 618,
      "ission": 619,
      "Ġdef": 620,
      "abl": 621,
      "ific": 622,
      "stem": 623,
      "mit": 624,
      "ied": 625,
      "Ġauthor": 626,
      "ĠAmerica": 627,
      "ward": 628,
      "Ġsystem": 629,
      "Ġeffect": 630,
      "dition": 631,
      "Ġadv": 632,
      "Ġsa": 633,
      "nds": 634,
      "Ġfu": 635,
      "Ġprot": 636,
      "ty": 637,
      "Ġbo": 638,
      "Ġalso": 639,
      "Ġwhen": 640,
      "Ġnational": 641,
      "Ġfar": 642,
      "ors": 643,
      "ered": 644,
      "ĠBut": 645,
      "pect": 646,
      "Ġ2": 647,
      "rib": 648,
      "Ġrece": 649,
      "Ġoffic": 650,
      "ang": 651,
      "ury": 652,
      "ved": 653,
      "Ġdif": 654,
      "Ġagainst": 655,
      "ract": 656,
      "Ġtw": 657,
      "Ġgr": 658,
      "Ġcommer": 659,
      "Ġend": 660,
      "Ġwithout": 661,
      "form": 662,
      "Ġaff": 663,
      "ĠAnd": 664,
      "Ġlegisl": 665,
      "iness": 666,
      "Ġco": 667,
      "Ġgood": 668,
      "Ġhigh": 669,
      "ives": 670,
      "ia": 671,
      "Ġconc": 672,
      "ility": 673,
      "ks": 674,
      "Ġprotect": 675,
      "ense": 676,
      "now": 677,
      "Ġforeign": 678,
      "ished": 679,
      "Ġbel": 680,
      "ized": 681,
      "ative": 682,
      "stitution": 683,
      "Ġwell": 684,
      "ret": 685,
      "Ġthrough": 686,
      "Ġnecessary": 687,
      "Ġdem": 688,
      "Ġtax": 689,
      "Ġproper": 690,
      "Ġnations": 691,
      "Ġmany": 692,
      "Ġac": 693,
      "Ġfir": 694,
      "ving": 695,
      "ings": 696,
      "Ġdist": 697,
      "Ġcl": 698,
      "vel": 699,
      "el": 700,
      "Ġ19": 701,
      "Ġear": 702,
      "Ġservice": 703,
      "its": 704,
      "stru": 705,
      "Ġpay": 706,
      "ily": 707,
      "Ġlong": 708,
      "Ġduring": 709,
      "fere": 710,
      "ention": 711,
      "ision": 712,
      "Ġdep": 713,
      "Ġpolic": 714,
      "Ġmar": 715,
      "orts": 716,
      "Ġsame": 717,
      "cial": 718,
      "Ġprom": 719,
      "Ġestabl": 720,
      "Ġtwo": 721,
      "Ġmat": 722,
      "ertain": 723,
      "Ġinter": 724,
      "Ġcour": 725,
      "ond": 726,
      "cip": 727,
      "Ġ3": 728,
      "Ġredu": 729,
      "ran": 730,
      "ves": 731,
      "row": 732,
      "Ġamount": 733,
      "Ġset": 734,
      "Ġresult": 735,
      "ĠOur": 736,
      "ploy": 737,
      "Ġbefore": 738,
      "Ġknow": 739,
      "ederal": 740,
      "urn": 741,
      "Ġwhat": 742,
      "Ġhop": 743,
      "Ġexist": 744,
      "artment": 745,
      "Ġbus": 746,
      "ient": 747,
      "Ġlaws": 748,
      "ration": 749,
      "Ġord": 750,
      "pose": 751,
      "med": 752,
      "ays": 753,
      "Ġmen": 754,
      "ĠDep": 755,
      "ĠSec": 756,
      "laim": 757,
      "ally": 758,
      "Ġfirst": 759,
      "Ġequ": 760,
      "ĠCh": 761,
      "Ġoff": 762,
      "Ġbusiness": 763,
      "Ġins": 764,
      "hip": 765,
      "ĠCon": 766,
      "Ġrest": 767,
      "ĠState": 768,
      "Ġpla": 769,
      "Ġmain": 770,
      "ene": 771,
      "ap": 772,
      "Ġlarge": 773,
      "Ġmuch": 774,
      "Ġgeneral": 775,
      "Ġfree": 776,
      "ational": 777,
      "les": 778,
      "ropri": 779,
      "ian": 780,
      "bt": 781,
      "Ġprin": 782,
      "Ġimpro": 783,
      "ency": 784,
      "ating": 785,
      "Ġup": 786,
      "ĠWh": 787,
      "Ġyour": 788,
      "Ġquest": 789,
      "ove": 790,
      "Ġmeas": 791,
      "fter": 792,
      "ince": 793,
      "Ġpolicy": 794,
      "ries": 795,
      "sible": 796,
      "Ġop": 797,
      "Ġtrans": 798,
      "Ġtreaty": 799,
      "road": 800,
      "Ġappropri": 801,
      "Ġhow": 802,
      "Ġocc": 803,
      "ession": 804,
      "ken": 805,
      "ĠFederal": 806,
      "Ġbelie": 807,
      "ady": 808,
      "Ġdire": 809,
      "ase": 810,
      "Ġprincip": 811,
      "ecial": 812,
      "ob": 813,
      "Ġexpend": 814,
      "Ġuse": 815,
      "ĠInd": 816,
      "tle": 817,
      "ason": 818,
      "less": 819,
      "Ġopp": 820,
      "Ġwhere": 821,
      "Ġpri": 822,
      "ities": 823,
      "Ġsur": 824,
      "Ġfin": 825,
      "Ġimportant": 826,
      "Ġinde": 827,
      "rong": 828,
      "Ġbu": 829,
      "Ġboth": 830,
      "Ġincrease": 831,
      "ike": 832,
      "Ġvery": 833,
      "Ġmilit": 834,
      "Ġduty": 835,
      "led": 836,
      "Ġcould": 837,
      "Ġpass": 838,
      "Ġreport": 839,
      "iew": 840,
      "Ġhere": 841,
      "lect": 842,
      "exic": 843,
      "ular": 844,
      "ĠMexic": 845,
      "lp": 846,
      "nce": 847,
      "Ġwithin": 848,
      "ĠDepartment": 849,
      "Ġcommun": 850,
      "Ġlegislation": 851,
      "Ġclaim": 852,
      "ĠRep": 853,
      "Ġcent": 854,
      "Ġval": 855,
      "Ġrespect": 856,
      "ite": 857,
      "Ġmill": 858,
      "ail": 859,
      "Ġrequire": 860,
      "reasury": 861,
      "Ġinterests": 862,
      "og": 863,
      "cal": 864,
      "ness": 865,
      "Ġ\"": 866,
      "gan": 867,
      "Ġhelp": 868,
      "Ġcor": 869,
      "Ġchar": 870,
      "Ġabout": 871,
      "ever": 872,
      "Ġann": 873,
      "Ġindust": 874,
      "ese": 875,
      "Ġcare": 876,
      "Ġbeing": 877,
      "Ġgiv": 878,
      "Ġprob": 879,
      "ivil": 880,
      "su": 881,
      "selves": 882,
      "ital": 883,
      "resident": 884,
      "ute": 885,
      "Ġreven": 886,
      "ĠTreasury": 887,
      "Ġfo": 888,
      "alth": 889,
      "Ġattention": 890,
      "man": 891,
      "llow": 892,
      "Ġprogra": 893,
      "ization": 894,
      "Ġtrade": 895,
      "Ġexpendit": 896,
      "ĠUn": 897,
      "ause": 898,
      "gth": 899,
      "Ġaction": 900,
      "Ġmeans": 901,
      "Ġcap": 902,
      "ĠBrit": 903,
      "Ġmin": 904,
      "Ġpers": 905,
      "reed": 906,
      "Ġcar": 907,
      "ants": 908,
      "Ġpros": 909,
      "velop": 910,
      "Ġfact": 911,
      "Ġher": 912,
      "itions": 913,
      "Ġless": 914,
      "Ġstate": 915,
      "Ġprogress": 916,
      "Ġemploy": 917,
      "Ġret": 918,
      "minist": 919,
      "ew": 920,
      "ĠSecret": 921,
      "Ġobject": 922,
      "oint": 923,
      "ĠAs": 924,
      "als": 925,
      "lud": 926,
      "ict": 927,
      "Ġbill": 928,
      "ances": 929,
      "ceed": 930,
      "fact": 931,
      "ged": 932,
      "Ġbene": 933,
      "urity": 934,
      "ulation": 935,
      "Ġnum": 936,
      "Ġstill": 937,
      "Ġrespon": 938,
      "Ġpropos": 939,
      "Ġcol": 940,
      "Ġview": 941,
      "Ġrelations": 942,
      "Ġdisc": 943,
      "ided": 944,
      "Ġlab": 945,
      "Ġdevelop": 946,
      "Ġconsideration": 947,
      "ĠSecretary": 948,
      "Ġoper": 949,
      "Ġrights": 950,
      "Ġreason": 951,
      "Ġmilitary": 952,
      "Ġinf": 953,
      "Ġcall": 954,
      "Ġfut": 955,
      "ended": 956,
      "ath": 957,
      "Ġway": 958,
      "Ġpurpose": 959,
      "Ġcommerce": 960,
      "Ġcivil": 961,
      "ending": 962,
      "ĠTo": 963,
      "Ġcontinu": 964,
      "ices": 965,
      "Ġmeet": 966,
      "ĠPresident": 967,
      "lf": 968,
      "Ġfuture": 969,
      "imin": 970,
      "Ġcontro": 971,
      "Ġgrow": 972,
      "ĠThere": 973,
      "riend": 974,
      "ccess": 975,
      "Ġmon": 976,
      "Ġpriv": 977,
      "urther": 978,
      "Ġgive": 979,
      "ĠSp": 980,
      "Ġcountries": 981,
      "Ġref": 982,
      "old": 983,
      "Ġsecure": 984,
      "Ġsee": 985,
      "Ġstren": 986,
      "uc": 987,
      "Ġpres": 988,
      "Ġeach": 989,
      "Ġpract": 990,
      "to": 991,
      "Ġremain": 992,
      "ither": 993,
      "Ġafter": 994,
      "Ġban": 995,
      "Ġstrength": 996,
      "Ġtoo": 997,
      "Ġsupport": 998,
      "ange": 999,
      "Ġfound": 1000,
      "ural": 1001,
      "Ġbecause": 1002,
      "ĠIf": 1003,
      "ring": 1004,
      "Ġsuccess": 1005,
      "ited": 1006,
      "gg": 1007,
      "Ġfriend": 1008,
      "Ġnav": 1009,
      "ĠUnion": 1010,
      "Ġpowers": 1011,
      "atis": 1012,
      "Ġforce": 1013,
      "Ġbest": 1014,
      "Ġintern": 1015,
      "Ġlea": 1016,
      "self": 1017,
      "Ġlo": 1018,
      "Ġperson": 1019,
      "ecut": 1020,
      "ready": 1021,
      "Ġfurther": 1022,
      "ĠThey": 1023,
      "Ġestablish": 1024,
      "Ġwhole": 1025,
      "ience": 1026,
      "Ġcr": 1027,
      "Ġhope": 1028,
      "Ġdirect": 1029,
      "Ġsince": 1030,
      "Ġpast": 1031,
      "Ġwhile": 1032,
      "Ġke": 1033,
      "mitted": 1034,
      "Ġsc": 1035,
      "vers": 1036,
      "Ġstand": 1037,
      "Ġregard": 1038,
      "Ġlike": 1039,
      "ately": 1040,
      "ived": 1041,
      "Ġfav": 1042,
      "Ġcertain": 1043,
      "Ġlim": 1044,
      "Ġmaintain": 1045,
      "iod": 1046,
      "ting": 1047,
      "Ġcomple": 1048,
      "te": 1049,
      "Ġcondition": 1050,
      "Ġperiod": 1051,
      "Ġrepresent": 1052,
      "own": 1053,
      "ife": 1054,
      "ize": 1055,
      "Ġimprove": 1056,
      "Ġsuff": 1057,
      "erve": 1058,
      "ĠMexico": 1059,
      "Ġfull": 1060,
      "Ġchild": 1061,
      "ages": 1062,
      "just": 1063,
      "Ġalready": 1064,
      "irc": 1065,
      "ĠAmericans": 1066,
      "Ġmight": 1067,
      "iscal": 1068,
      "Ġofficers": 1069,
      "Ġtake": 1070,
      "cept": 1071,
      "Ġnumber": 1072,
      "Ġjud": 1073,
      "Ġfiscal": 1074,
      "oney": 1075,
      "Ġcost": 1076,
      "Ġhon": 1077,
      "Ġprosper": 1078,
      "Ġamong": 1079,
      "Ġdiffere": 1080,
      "ivid": 1081,
      "Ġappro": 1082,
      "Ġmoney": 1083,
      "Ġlead": 1084,
      "Ġsaf": 1085,
      "thing": 1086,
      "Ġev": 1087,
      "Ġquestion": 1088,
      "Ġexpenditures": 1089,
      "Ġnat": 1090,
      "Ġrev": 1091,
      "Ġneg": 1092,
      "Ġgiven": 1093,
      "Ġsatis": 1094,
      "Ġduties": 1095,
      "iet": 1096,
      "Ġeconomic": 1097,
      "Ġmark": 1098,
      "Ġdemand": 1099,
      "Ġdebt": 1100,
      "Ġsecurity": 1101,
      "Ġcirc": 1102,
      "Ġcontinue": 1103,
      "air": 1104,
      "Ġsch": 1105,
      "Ġdel": 1106,
      "Ġbetter": 1107,
      "Ġauthority": 1108,
      "Ġorder": 1109,
      "Ġcommission": 1110,
      "por": 1111,
      "Ġeven": 1112,
      "gether": 1113,
      "Ġhowever": 1114,
      "Ġlib": 1115,
      "Ġbas": 1116,
      "Ġorgan": 1117,
      "ĠConstitution": 1118,
      "Ġstrong": 1119,
      "Ġtoward": 1120,
      "Ġpost": 1121,
      "Ġsession": 1122,
      "ortun": 1123,
      "Ġfreed": 1124,
      "ources": 1125,
      "ĠComm": 1126,
      "Ġsm": 1127,
      "ently": 1128,
      "Ġeconomy": 1129,
      "Ġrevenue": 1130,
      "ĠAr": 1131,
      "essel": 1132,
      "Ġday": 1133,
      "Ġland": 1134,
      "ecutive": 1135,
      "ood": 1136,
      "Ġhome": 1137,
      "Ġgu": 1138,
      "Ġpolit": 1139,
      "Ġvessel": 1140,
      "ĠFor": 1141,
      "Ġinvest": 1142,
      "tic": 1143,
      "Ġadminist": 1144,
      "Ġtaken": 1145,
      "my": 1146,
      "ividual": 1147,
      "lu": 1148,
      "Ġbuild": 1149,
      "Ġlabor": 1150,
      "Ġestim": 1151,
      "Ġloc": 1152,
      "Ġaccom": 1153,
      "Ġlife": 1154,
      "Ġindividual": 1155,
      "Ġthus": 1156,
      "Ġprotection": 1157,
      "eration": 1158,
      "oura": 1159,
      "Ġle": 1160,
      "Ġyet": 1161,
      "ack": 1162,
      "rict": 1163,
      "Ġpossible": 1164,
      "pend": 1165,
      "ief": 1166,
      "Ġcharact": 1167,
      "Ġcur": 1168,
      "Ġconstru": 1169,
      "ĠOn": 1170,
      "Ġjob": 1171,
      "ritory": 1172,
      "Ġadop": 1173,
      "Ġproduct": 1174,
      "ĠRepublic": 1175,
      "Ġsever": 1176,
      "stitut": 1177,
      "Ġcharacter": 1178,
      "Ġplace": 1179,
      "ĠEx": 1180,
      "Ġincreased": 1181,
      "Ġfreedom": 1182,
      "ool": 1183,
      "Ġform": 1184,
      "rope": 1185,
      "ĠEu": 1186,
      "Ġfavor": 1187,
      "ditions": 1188,
      "Ġreal": 1189,
      "Ġeng": 1190,
      "ĠEurope": 1191,
      "Ġpartic": 1192,
      "Ġcourse": 1193,
      "Ġexer": 1194,
      "Ġfam": 1195,
      "ell": 1196,
      "ĠThat": 1197,
      "pr": 1198,
      "Ġever": 1199,
      "ricult": 1200,
      "isions": 1201,
      "Ġhum": 1202,
      "Ġthemselves": 1203,
      "get": 1204,
      "Ġnor": 1205,
      "Ġspir": 1206,
      "port": 1207,
      "ying": 1208,
      "arly": 1209,
      "Ġgra": 1210,
      "ars": 1211,
      "ĠNation": 1212,
      "oti": 1213,
      "Ġseveral": 1214,
      "ĠAt": 1215,
      "other": 1216,
      "ably": 1217,
      "Ġprevent": 1218,
      "Ġmeasures": 1219,
      "Ġplan": 1220,
      "ether": 1221,
      "ĠV": 1222,
      "ficult": 1223,
      "idence": 1224,
      "Ġproble": 1225,
      "ĠThese": 1226,
      "Ġnever": 1227,
      "Ġbenef": 1228,
      "Ġdifficult": 1229,
      "medi": 1230,
      "ined": 1231,
      "icient": 1232,
      "Ġdou": 1233,
      "ix": 1234,
      "itu": 1235,
      "Ġpa": 1236,
      "Ġcontrol": 1237,
      "Ġsmall": 1238,
      "bers": 1239,
      "ĠSen": 1240,
      "igation": 1241,
      "Ġexpect": 1242,
      "atives": 1243,
      "Ġhealth": 1244,
      "Ġdone": 1245,
      "Ġearn": 1246,
      "Ġbelieve": 1247,
      "ents": 1248,
      "thers": 1249,
      "ways": 1250,
      "stant": 1251,
      "Ġexper": 1252,
      "Ġdom": 1253,
      "Ġdest": 1254,
      "ases": 1255,
      "Ġaddition": 1256,
      "Ġcommit": 1257,
      "Ġfail": 1258,
      "Ġopen": 1259,
      "Ġcome": 1260,
      "ĠNav": 1261,
      "Ġdoll": 1262,
      "Ġjustice": 1263,
      "Ġequal": 1264,
      "ugh": 1265,
      "Ġprogram": 1266,
      "Ġhaving": 1267,
      "Ġspirit": 1268,
      "Ġur": 1269,
      "Ġadd": 1270,
      "Ġbecome": 1271,
      "Ġmod": 1272,
      "Ġhim": 1273,
      "Ġed": 1274,
      "Ġtogether": 1275,
      "Ġnegoti": 1276,
      "Ġhist": 1277,
      "Ġprovide": 1278,
      "ĠSo": 1279,
      "Ġindepend": 1280,
      "Ġsum": 1281,
      "Ġpolitical": 1282,
      "Ġvessels": 1283,
      "ĠY": 1284,
      "Ġcommercial": 1285,
      "Ġprosperity": 1286,
      "Ġconditions": 1287,
      "osed": 1288,
      "Ġav": 1289,
      "Ġunt": 1290,
      "Ġafford": 1291,
      "ten": 1292,
      "Ġthen": 1293,
      "ĠWith": 1294,
      "Ġhuman": 1295,
      "Ġdeter": 1296,
      "Ġprivate": 1297,
      "Ġenc": 1298,
      "xt": 1299,
      "Ġcle": 1300,
      "Ġnext": 1301,
      "ension": 1302,
      "Ġlands": 1303,
      "Ġclaims": 1304,
      "Ġmonth": 1305,
      "Ġimmedi": 1306,
      "Ġspecial": 1307,
      "ple": 1308,
      "ron": 1309,
      "Ġes": 1310,
      "stand": 1311,
      "Ġmaking": 1312,
      "cing": 1313,
      "Ġful": 1314,
      "arch": 1315,
      "olution": 1316,
      "Ġexc": 1317,
      "iol": 1318,
      "Ġsim": 1319,
      "ĠNavy": 1320,
      "Ġothers": 1321,
      "uss": 1322,
      "Ġresponsib": 1323,
      "Ġchildren": 1324,
      "Ġenter": 1325,
      "Ġdefense": 1326,
      "Ġdang": 1327,
      "ression": 1328,
      "ified": 1329,
      "Ġbeg": 1330,
      "Ġimportance": 1331,
      "ilities": 1332,
      "Ġadvant": 1333,
      "ines": 1334,
      "imes": 1335,
      "Ġreceived": 1336,
      "Ġexam": 1337,
      "Ġlocal": 1338,
      "up": 1339,
      "ash": 1340,
      "Ġcommon": 1341,
      "Ġinclud": 1342,
      "Ġeduc": 1343,
      "ues": 1344,
      "Ġ4": 1345,
      "Ġagree": 1346,
      "Ġtherefore": 1347,
      "Ġ30": 1348,
      "Ġbring": 1349,
      "Ġexisting": 1350,
      "Ġmess": 1351,
      "ouse": 1352,
      "dequ": 1353,
      "Ġannual": 1354,
      "vention": 1355,
      "Ġdue": 1356,
      "Ġschool": 1357,
      "Ġinternational": 1358,
      "Ġkeep": 1359,
      "une": 1360,
      "Ġobl": 1361,
      "sequ": 1362,
      "Ġgen": 1363,
      "Ġcapital": 1364,
      "udget": 1365,
      "ug": 1366,
      "ption": 1367,
      "Ġsettle": 1368,
      "Ġmarket": 1369,
      "Ġwhether": 1370,
      "Ġreturn": 1371,
      "ggest": 1372,
      "ph": 1373,
      "ĠGreat": 1374,
      "Ġproperty": 1375,
      "Ġcommunic": 1376,
      "Ġvalue": 1377,
      "ĠSenate": 1378,
      "Ġthough": 1379,
      "Ġport": 1380,
      "Ġfaith": 1381,
      "ield": 1382,
      "Ġcompet": 1383,
      "Ġpromot": 1384,
      "Ġinst": 1385,
      "Ġlet": 1386,
      "Ġsuggest": 1387,
      "Ġreach": 1388,
      "Ġrecog": 1389,
      "lus": 1390,
      "Ġprovision": 1391,
      "Ġask": 1392,
      "ised": 1393,
      "Ġship": 1394,
      "land": 1395,
      "Ġeffort": 1396,
      "Ġfollow": 1397,
      "..": 1398,
      "fully": 1399,
      "Ġwat": 1400,
      "Ġhapp": 1401,
      "Ġexerc": 1402,
      "ĠK": 1403,
      "ipp": 1404,
      "Ġ189": 1405,
      "Ġconcern": 1406,
      "ĠChin": 1407,
      "Ġviol": 1408,
      "Ġseem": 1409,
      "Ġuntil": 1410,
      "Ġinform": 1411,
      "Ġitself": 1412,
      "Ġchange": 1413,
      "Ġprev": 1414,
      "Ġgreater": 1415,
      "Ġanother": 1416,
      "ĠJune": 1417,
      "iding": 1418,
      "ortunity": 1419,
      "ensive": 1420,
      "Ġpop": 1421,
      "Ġresources": 1422,
      "par": 1423,
      "Ġput": 1424,
      "ranch": 1425,
      "Ġwant": 1426,
      "Ġhar": 1427,
      "Ġaccompl": 1428,
      "Ġforces": 1429,
      "Ġthree": 1430,
      "Ġmillion": 1431,
      "Ġminist": 1432,
      "Ġsay": 1433,
      "Ġclass": 1434,
      "Ġ-": 1435,
      "Ġ5": 1436,
      "Ġtrib": 1437,
      "Ġser": 1438,
      "Ġshow": 1439,
      "Ġagricult": 1440,
      "isd": 1441,
      "Ġmer": 1442,
      "ĠWar": 1443,
      "Ġopportunity": 1444,
      "Ġdetermin": 1445,
      "ufact": 1446,
      "ising": 1447,
      "Ġemb": 1448,
      "Ġentire": 1449,
      "Ġton": 1450,
      "urd": 1451,
      "ĠArmy": 1452,
      "ourage": 1453,
      "und": 1454,
      "ential": 1455,
      "ĠNo": 1456,
      "Ġfund": 1457,
      "Ġhonor": 1458,
      "Ġprof": 1459,
      "Ġagg": 1460,
      "ning": 1461,
      "Ġdesire": 1462,
      "iency": 1463,
      "nect": 1464,
      "Ġmanufact": 1465,
      "Ġcred": 1466,
      "ught": 1467,
      "ges": 1468,
      "Ġperman": 1469,
      "Ġfew": 1470,
      "Ġmatter": 1471,
      "ering": 1472,
      "gy": 1473,
      "pecial": 1474,
      "ism": 1475,
      "alf": 1476,
      "Ġefforts": 1477,
      "dequate": 1478,
      "ak": 1479,
      "most": 1480,
      "way": 1481,
      "ok": 1482,
      "unit": 1483,
      "Ġaccord": 1484,
      "Ġdevelopment": 1485,
      "ians": 1486,
      "ral": 1487,
      "Ġrequired": 1488,
      "itable": 1489,
      "orn": 1490,
      "Ġconstruction": 1491,
      "Ġcase": 1492,
      "Ġcarry": 1493,
      "wh": 1494,
      "Ġcoop": 1495,
      "Ġcause": 1496,
      "ĠCommission": 1497,
      "Ġpat": 1498,
      "day": 1499,
      "Ġsal": 1500,
      "Ġhold": 1501,
      "atic": 1502,
      "Ġconvention": 1503,
      "rought": 1504,
      "Ġtot": 1505,
      "Ġestablished": 1506,
      "Ġhistory": 1507,
      "not": 1508,
      "Ġdollars": 1509,
      "ared": 1510,
      "airs": 1511,
      "Ġwhose": 1512,
      "Ġconstitution": 1513,
      "Ġpaid": 1514,
      "Ġinstitut": 1515,
      "ĠGeneral": 1516,
      "Ġadjust": 1517,
      "Ġaid": 1518,
      "ened": 1519,
      "Ġconnect": 1520,
      "Ġmillions": 1521,
      "Ġcases": 1522,
      "Ġenl": 1523,
      "erial": 1524,
      "Ġbudget": 1525,
      "arg": 1526,
      "ĠIndian": 1527,
      "ĠBritain": 1528,
      "hib": 1529,
      "Ġmeasure": 1530,
      "ĠSpain": 1531,
      "Ġprovided": 1532,
      "ton": 1533,
      "Ġspec": 1534,
      "Ġeffective": 1535,
      "Ġappropriations": 1536,
      "ĠTer": 1537,
      "Ġdispos": 1538,
      "Ġneeds": 1539,
      "Ġparticular": 1540,
      "Ġespecial": 1541,
      "'t": 1542,
      "Ġmem": 1543,
      "uly": 1544,
      "Ġdoes": 1545,
      "Ġopin": 1546,
      "Ġmessage": 1547,
      "Ġbranch": 1548,
      "ctions": 1549,
      "Ġener": 1550,
      "Ġadministration": 1551,
      "Ġalways": 1552,
      "jor": 1553,
      "enses": 1554,
      "Ġeither": 1555,
      "empt": 1556,
      "Ġdanger": 1557,
      "rial": 1558,
      "ĠBritish": 1559,
      "val": 1560,
      "Ġthreat": 1561,
      "Ġdepend": 1562,
      "Ġfair": 1563,
      "Ġself": 1564,
      "Ġterritory": 1565,
      "Ġresults": 1566,
      "Ġestablishment": 1567,
      ".\"": 1568,
      "reg": 1569,
      "uses": 1570,
      "Ġproposed": 1571,
      "ĠExecutive": 1572,
      "duct": 1573,
      "Ġreceip": 1574,
      "Ġinstru": 1575,
      "Ġindustry": 1576,
      "Ġdown": 1577,
      "asion": 1578,
      "lection": 1579,
      "thod": 1580,
      "chie": 1581,
      "Ġtotal": 1582,
      "Ġbal": 1583,
      "Ġvar": 1584,
      "Ġartic": 1585,
      "outh": 1586,
      "Ġmethod": 1587,
      "Ġearly": 1588,
      "standing": 1589,
      "Ġable": 1590,
      "Ġserious": 1591,
      "ior": 1592,
      "Ġbrought": 1593,
      "Ġhard": 1594,
      "ressed": 1595,
      "Ġproduction": 1596,
      "Ġinsur": 1597,
      "Ġearnest": 1598,
      "Ġresponsibility": 1599,
      "Ġjobs": 1600,
      "Ġposs": 1601,
      "Ġeducation": 1602,
      "Ġinj": 1603,
      "Ġproceed": 1604,
      "iff": 1605,
      "ference": 1606,
      "Ġreduction": 1607,
      "Ġprinciples": 1608,
      "Ġfind": 1609,
      "Ġevent": 1610,
      "eal": 1611,
      "Ġcre": 1612,
      "Ġline": 1613,
      "Ġaccount": 1614,
      "ft": 1615,
      "lands": 1616,
      "Ġsoon": 1617,
      "unities": 1618,
      "Ġgrowth": 1619,
      "Ġachie": 1620,
      "ĠAl": 1621,
      "Ġexcept": 1622,
      "ability": 1623,
      "Ġprovisions": 1624,
      "Ġ6": 1625,
      "Ġespecially": 1626,
      "Ġsav": 1627,
      "Ġcut": 1628,
      "aged": 1629,
      "ink": 1630,
      "ariff": 1631,
      "Ġmajor": 1632,
      "ible": 1633,
      "Ġobtain": 1634,
      "ĠHouse": 1635,
      "Ġsurpl": 1636,
      "lfare": 1637,
      "ros": 1638,
      "Ġdet": 1639,
      "Ġregul": 1640,
      "Ġdev": 1641,
      "Ġshort": 1642,
      "ored": 1643,
      "ĠNor": 1644,
      "Ġnecessity": 1645,
      "cies": 1646,
      "Ġdefic": 1647,
      "ock": 1648,
      "Ġreceipts": 1649,
      "ps": 1650,
      "Ġess": 1651,
      "estic": 1652,
      "Ġnearly": 1653,
      "men": 1654,
      "Ġconsequ": 1655,
      "ĠNew": 1656,
      "ier": 1657,
      "lt": 1658,
      "ner": 1659,
      "Ġenfor": 1660,
      "Ġminister": 1661,
      "rance": 1662,
      "iving": 1663,
      "Ġpursu": 1664,
      "Ġkind": 1665,
      "ification": 1666,
      "Ġpassed": 1667,
      "Ġbillion": 1668,
      "Ġbegin": 1669,
      "Ġsign": 1670,
      "Ġwelfare": 1671,
      "Ġstep": 1672,
      "Ġrail": 1673,
      "Ġmaterial": 1674,
      "Ġdifferent": 1675,
      "eed": 1676,
      "ĠAn": 1677,
      "erred": 1678,
      "Ġget": 1679,
      "ually": 1680,
      "Ġsent": 1681,
      "ĠBy": 1682,
      "Ġtrust": 1683,
      "Ġonce": 1684,
      "Ġcommand": 1685,
      "Ġinstitutions": 1686,
      "Ġro": 1687,
      "Ġreform": 1688,
      "ety": 1689,
      "Ġrat": 1690,
      "poses": 1691,
      "Ġbound": 1692,
      "ories": 1693,
      "Ġcommunity": 1694,
      "Ġextent": 1695,
      "Ġnaval": 1696,
      "Ġincluding": 1697,
      "new": 1698,
      "sue": 1699,
      "Ġfour": 1700,
      "Ġpurposes": 1701,
      "Ġtariff": 1702,
      "Ġfriendly": 1703,
      "Ġadditional": 1704,
      "Ġessential": 1705,
      "pid": 1706,
      "reh": 1707,
      "Ġstat": 1708,
      "Ġenact": 1709,
      "Ġaffairs": 1710,
      "iction": 1711,
      "Ġought": 1712,
      "Ġcreat": 1713,
      "Ġconduct": 1714,
      "Ġdisp": 1715,
      "allen": 1716,
      "Ġdomestic": 1717,
      "ross": 1718,
      "rem": 1719,
      "Ġrate": 1720,
      "Ġcannot": 1721,
      "Ġgold": 1722,
      "Ġpermanent": 1723,
      "ert": 1724,
      "Ġdid": 1725,
      "Ġlow": 1726,
      "ists": 1727,
      "Ġfarm": 1728,
      "ourse": 1729,
      "Ġfamil": 1730,
      "Ġtrue": 1731,
      "range": 1732,
      "Ġcalled": 1733,
      "Ġdoubt": 1734,
      "ires": 1735,
      "Ġinflu": 1736,
      "Ġnatural": 1737,
      "Ġback": 1738,
      "ĠGovernments": 1739,
      "Ġcircum": 1740,
      "Ġcredit": 1741,
      "Ġexped": 1742,
      "Ġchang": 1743,
      "acific": 1744,
      "Ġinterc": 1745,
      "Ġdra": 1746,
      "Ġissu": 1747,
      "ides": 1748,
      "Ġcontinued": 1749,
      "inary": 1750,
      "Ġsuper": 1751,
      "ointed": 1752,
      "Ġgovernments": 1753,
      "Ġoblig": 1754,
      "Ġmonths": 1755,
      "Ġdeal": 1756,
      "Ġrates": 1757,
      "Ġprompt": 1758,
      "Ġrecogn": 1759,
      "Ġtimes": 1760,
      "Ġhand": 1761,
      "Ġheld": 1762,
      "Ġincreasing": 1763,
      "cent": 1764,
      "Ġhear": 1765,
      "ĠInt": 1766,
      "Ġsaid": 1767,
      "Ġsatisf": 1768,
      "Ġfully": 1769,
      "Ġenergy": 1770,
      "Ġintercourse": 1771,
      "Ġsettlement": 1772,
      "Ġcircumst": 1773,
      "Ġinvol": 1774,
      "Ġclose": 1775,
      "Ġprinciple": 1776,
      "mn": 1777,
      "Ġcontract": 1778,
      "Ġgrat": 1779,
      "Ġbanks": 1780,
      "Ġcomplete": 1781,
      "Ġsurplus": 1782,
      "ng": 1783,
      "ained": 1784,
      "ĠPro": 1785,
      "Ġparties": 1786,
      "ĠIndians": 1787,
      "Ġago": 1788,
      "50": 1789,
      "aries": 1790,
      "Ġlit": 1791,
      "Ġallow": 1792,
      "Ġunf": 1793,
      "Ġrapid": 1794,
      "ta": 1795,
      "Ġabroad": 1796,
      "Ġlat": 1797,
      "ember": 1798,
      "Ġimprovement": 1799,
      "Ġinformation": 1800,
      "Ġfra": 1801,
      "arily": 1802,
      "Ġel": 1803,
      "Ġsatisfact": 1804,
      "Ġexercise": 1805,
      "Ġopinion": 1806,
      "Ġstru": 1807,
      "Ġterms": 1808,
      "Ġfinan": 1809,
      "Ġoperation": 1810,
      "Ġadequate": 1811,
      "orm": 1812,
      "Ġmet": 1813,
      "Ġsufficient": 1814,
      "Ġproducts": 1815,
      "action": 1816,
      "Ġtoday": 1817,
      "Ġmere": 1818,
      "vere": 1819,
      "Ġfriends": 1820,
      "eav": 1821,
      "Ġaffect": 1822,
      "imate": 1823,
      "ĠCub": 1824,
      "Ġoccur": 1825,
      "Ġtonight": 1826,
      "ĠCol": 1827,
      "Ġsubmitted": 1828,
      "Ġprice": 1829,
      "arent": 1830,
      "Ġacqu": 1831,
      "Ġpersons": 1832,
      "Ġte": 1833,
      "ington": 1834,
      "Ġassist": 1835,
      "wise": 1836,
      "Ġfight": 1837,
      "Ġimm": 1838,
      "Ġcontrib": 1839,
      "Ġcoast": 1840,
      "rate": 1841,
      "ĠAll": 1842,
      "Ġvol": 1843,
      "Ġworking": 1844,
      "Ġenterpr": 1845,
      "Ġwise": 1846,
      "Ġconv": 1847,
      "the": 1848,
      "ĠAd": 1849,
      "Ġfeel": 1850,
      "Ġoperations": 1851,
      "Ġestimated": 1852,
      "mp": 1853,
      "Ġprograms": 1854,
      "Ġbond": 1855,
      "Ġburd": 1856,
      "omes": 1857,
      "rent": 1858,
      "Ġenem": 1859,
      "Ġconfidence": 1860,
      "Ġexperience": 1861,
      "Ġpopulation": 1862,
      "Ġfamilies": 1863,
      "pted": 1864,
      "Ġsure": 1865,
      "Ġappear": 1866,
      "Ġperform": 1867,
      "Ġadopted": 1868,
      "any": 1869,
      "Ġ194": 1870,
      "Ġquestions": 1871,
      "Ġfl": 1872,
      "Ġappropriation": 1873,
      "Ġvarious": 1874,
      "lied": 1875,
      "Ġold": 1876,
      "ences": 1877,
      "ils": 1878,
      "ĠWash": 1879,
      "Ġpurch": 1880,
      "ĠWashington": 1881,
      "ev": 1882,
      "mber": 1883,
      "Ġthings": 1884,
      "ination": 1885,
      "Ġmove": 1886,
      "Ġrenew": 1887,
      "leg": 1888,
      "ird": 1889,
      "ured": 1890,
      "ards": 1891,
      "ĠFrance": 1892,
      "Ġacts": 1893,
      "bit": 1894,
      "Ġcomb": 1895,
      "Ġadvance": 1896,
      "Ġpayment": 1897,
      "Ġconstitutional": 1898,
      "Ġcircumstances": 1899,
      "ining": 1900,
      "Ġdeem": 1901,
      "Ġ--": 1902,
      "Ġfac": 1903,
      "Ġimmediate": 1904,
      "ried": 1905,
      "Ġri": 1906,
      "Ġelect": 1907,
      "Ġobs": 1908,
      "Ġlarg": 1909,
      "oun": 1910,
      "ask": 1911,
      "ĠJuly": 1912,
      "ĠWhen": 1913,
      "Ġportion": 1914,
      "ck": 1915,
      "Ġpoint": 1916,
      "Ġhost": 1917,
      "of": 1918,
      "iciency": 1919,
      "ĠOf": 1920,
      "Ġtaxes": 1921,
      "Ġoccup": 1922,
      "Ġproblems": 1923,
      "Ġships": 1924,
      "encies": 1925,
      "Ġpercent": 1926,
      "Ġremo": 1927,
      "Ġofficial": 1928,
      "Ġdemoc": 1929,
      "ĠChina": 1930,
      "Ġund": 1931,
      "ervation": 1932,
      "ĠDe": 1933,
      "Ġgrant": 1934,
      "Ġadvantage": 1935,
      "Ġsupply": 1936,
      "Ġmed": 1937,
      "ops": 1938,
      "Ġabs": 1939,
      "Ġsil": 1940,
      "ership": 1941,
      "ĠPacific": 1942,
      "Ġreduced": 1943,
      "Ġbuilding": 1944,
      "Ġtem": 1945,
      "Ġenj": 1946,
      "Ġbl": 1947,
      "Ġauthorized": 1948,
      "Ġoccasion": 1949,
      "Ġpractical": 1950,
      "Ġagreement": 1951,
      "Ġsect": 1952,
      "ody": 1953,
      "Ġcho": 1954,
      "Ġrelief": 1955,
      "Ġtransport": 1956,
      "Ġcorpor": 1957,
      "Ġmo": 1958,
      "Ġpresented": 1959,
      "ork": 1960,
      "itude": 1961,
      "iation": 1962,
      "Ġconstant": 1963,
      "rency": 1964,
      "Ġneeded": 1965,
      "Ġbenefit": 1966,
      "Ġthink": 1967,
      "Ġsea": 1968,
      "ĠMarch": 1969,
      "Ġreceive": 1970,
      "Ġsatisfactory": 1971,
      "Ġproviding": 1972,
      "Ġground": 1973,
      "Ġfield": 1974,
      "ĠNational": 1975,
      "Ġliber": 1976,
      "Ġengaged": 1977,
      "ade": 1978,
      "unt": 1979,
      "ighb": 1980,
      "Ġsocial": 1981,
      "ĠSuch": 1982,
      "tion": 1983,
      "Ġwrong": 1984,
      "Ġmis": 1985,
      "ark": 1986,
      "Ġchallen": 1987,
      "Ġrecent": 1988,
      "Ġfellow": 1989,
      "Ġleast": 1990,
      "with": 1991,
      "Ġtend": 1992,
      "Ġneighb": 1993,
      "ĠWest": 1994,
      "Ġalmost": 1995,
      "Ġindustrial": 1996,
      "Ġprevious": 1997,
      "Ġir": 1998,
      "Ġsubjects": 1999,
      "apan": 2000,
      "Ġcurrency": 2001,
      "'ve": 2002,
      "Ġlives": 2003,
      "icable": 2004,
      "vey": 2005,
      "Ġknown": 2006,
      "Ġoffice": 2007,
      "Ġemployment": 2008,
      "Ġbeh": 2009,
      "Ġarrange": 2010,
      "Ġextra": 2011,
      "Ġassum": 2012,
      "Ġthroughout": 2013,
      "ĠWhile": 2014,
      "ront": 2015,
      "ivers": 2016,
      "Ġdeg": 2017,
      "Ġsecond": 2018,
      "ĠJapan": 2019,
      "ĠLet": 2020,
      "Ġobligations": 2021,
      "Ġlos": 2022,
      "arter": 2023,
      "Ġpossess": 2024,
      "Ġourselves": 2025,
      "ired": 2026,
      "ĠRepresent": 2027,
      "Ġencourage": 2028,
      "Ġalone": 2029,
      "Ġorganization": 2030,
      "ror": 2031,
      "Ġve": 2032,
      "Ġturn": 2033,
      "Ġimpos": 2034,
      "Ġproblem": 2035,
      "Ġenforce": 2036,
      "Ġmom": 2037,
      "Ġbank": 2038,
      "Ġsafe": 2039,
      "Ġbasis": 2040,
      "Ġapplic": 2041,
      "Ġappointed": 2042,
      "Ġprep": 2043,
      "Ġfinancial": 2044,
      "though": 2045,
      "respon": 2046,
      "yond": 2047,
      "Ġissue": 2048,
      "Ġexpenses": 2049,
      "ON": 2050,
      "kes": 2051,
      "Ġtro": 2052,
      "Ġsing": 2053,
      "Ġsitu": 2054,
      "Ġwhom": 2055,
      "Ġru": 2056,
      "Ġarm": 2057,
      "Ġlimit": 2058,
      "anced": 2059,
      "Ġformer": 2060,
      "Ġexceed": 2061,
      "Ġrecommended": 2062,
      "Ġrecommendations": 2063,
      "Ġexpected": 2064,
      "Ġmembers": 2065,
      "Ġmut": 2066,
      "Ġstud": 2067,
      "ify": 2068,
      "ĠMr": 2069,
      "Ġincome": 2070,
      "Ġefficiency": 2071,
      "Ġposition": 2072,
      "ĠRepresentatives": 2073,
      "Ġcourts": 2074,
      "Ġgrowing": 2075,
      "Ġfavorable": 2076,
      "Ġlittle": 2077,
      "izing": 2078,
      "Ġ188": 2079,
      "Ġsilver": 2080,
      "Ġ(": 2081,
      "Ġprices": 2082,
      "Ġliberal": 2083,
      "Ġsense": 2084,
      "Ġstead": 2085,
      "Ġextended": 2086,
      "Ġdesir": 2087,
      "Ġports": 2088,
      "ĠSouth": 2089,
      "Ġexch": 2090,
      "Ġexec": 2091,
      "Ġpermit": 2092,
      "Ġindependence": 2093,
      "Ġcooperation": 2094,
      "Ġtest": 2095,
      "ality": 2096,
      "Ġleft": 2097,
      "Ġschools": 2098,
      "urea": 2099,
      "Ġreduce": 2100,
      "Ġlines": 2101,
      "sec": 2102,
      "Ġstri": 2103,
      "Ġbelieved": 2104,
      "Ġachieve": 2105,
      "erate": 2106,
      "Ġfurn": 2107,
      "ĠTex": 2108,
      "artments": 2109,
      "ĠHe": 2110,
      "Ġenjoy": 2111,
      "by": 2112,
      "mon": 2113,
      "Ġsol": 2114,
      "Ġpress": 2115,
      "urb": 2116,
      "ĠPost": 2117,
      "Ġcust": 2118,
      "Ġhands": 2119,
      "Ġshe": 2120,
      "ĠFrom": 2121,
      "Ġ186": 2122,
      "Ġdesign": 2123,
      "Ġbeyond": 2124,
      "ishment": 2125,
      "Ġcitizen": 2126,
      "Ġtroops": 2127,
      "Ġhalf": 2128,
      "Ġlive": 2129,
      "ĠSh": 2130,
      "ĠNow": 2131,
      "Ġattempt": 2132,
      "lusive": 2133,
      "ĠCuba": 2134,
      "ters": 2135,
      "Ġlaid": 2136,
      "Ġvast": 2137,
      "Ġbenefits": 2138,
      "Ġ7": 2139,
      "eak": 2140,
      "Ġjur": 2141,
      "Ġcentury": 2142,
      "Ġliberty": 2143,
      "Ġwom": 2144,
      "Ġworth": 2145,
      "Ġsold": 2146,
      "Ġcurrent": 2147,
      "Ġwater": 2148,
      "Ġbalance": 2149,
      "Ġinfluence": 2150,
      "Ġsound": 2151,
      "Ġproc": 2152,
      "aster": 2153,
      "'re": 2154,
      "acy": 2155,
      "Ġdecl": 2156,
      "Ġcourt": 2157,
      "Ġlook": 2158,
      "Ġdetail": 2159,
      "Ġbonds": 2160,
      "ling": 2161,
      "atever": 2162,
      "Ġgreatly": 2163,
      "Ġuseful": 2164,
      "Ġcollect": 2165,
      "Ġobjects": 2166,
      "Ġindependent": 2167,
      "ick": 2168,
      "Ġtreaties": 2169,
      "Ġdirection": 2170,
      "Ġsingle": 2171,
      "app": 2172,
      "certain": 2173,
      "Ġfix": 2174,
      "Ġwea": 2175,
      "ipl": 2176,
      "Ġparty": 2177,
      "Ġenterprise": 2178,
      "Ġmoment": 2179,
      "Ġfort": 2180,
      "Ġexpand": 2181,
      "ĠDuring": 2182,
      "ĠJan": 2183,
      "Ġproduce": 2184,
      "iplom": 2185,
      "Ġtea": 2186,
      "erman": 2187,
      "Ġsl": 2188,
      "Ġsla": 2189,
      "Ġforward": 2190,
      "ĠCom": 2191,
      "Ġrecommendation": 2192,
      "Ġvot": 2193,
      "Ġactual": 2194,
      "Ġsafety": 2195,
      "respond": 2196,
      "Ġlate": 2197,
      "Ġworks": 2198,
      "Ġconflic": 2199,
      "Ġlegislative": 2200,
      "Ġdelay": 2201,
      "hil": 2202,
      "Ġnothing": 2203,
      "Ġwealth": 2204,
      "ource": 2205,
      "luded": 2206,
      "Ġstrengthen": 2207,
      "gment": 2208,
      "iver": 2209,
      "Ġce": 2210,
      "ison": 2211,
      "ises": 2212,
      "igin": 2213,
      "erence": 2214,
      "Ġunderta": 2215,
      "Ġending": 2216,
      "Ġloss": 2217,
      "fect": 2218,
      "Ġliving": 2219,
      "Ġappoint": 2220,
      "Ġamend": 2221,
      "Ġsett": 2222,
      "Ġgener": 2223,
      "Ġtransportation": 2224,
      "nces": 2225,
      "Ġread": 2226,
      "ilar": 2227,
      "ĠCan": 2228,
      "Ġmanner": 2229,
      "Ġdiscuss": 2230,
      "Ġcrime": 2231,
      "Ġjudic": 2232,
      "10": 2233,
      "umer": 2234,
      "Ġinh": 2235,
      "Ġgl": 2236,
      "Ġdisch": 2237,
      "Ġcorrespond": 2238,
      "ble": 2239,
      "iary": 2240,
      "Ġpo": 2241,
      "uted": 2242,
      "lam": 2243,
      "Ġface": 2244,
      "erved": 2245,
      "Ġfamily": 2246,
      "rat": 2247,
      "ature": 2248,
      "Ġdiplom": 2249,
      "Ġsust": 2250,
      "Ġexhib": 2251,
      "ifying": 2252,
      "Ġavail": 2253,
      "Ġthought": 2254,
      "ĠTexas": 2255,
      "ank": 2256,
      "used": 2257,
      "Ġclear": 2258,
      "Ġtempor": 2259,
      "iance": 2260,
      "Ġcoin": 2261,
      "Ġsus": 2262,
      "Ġspeed": 2263,
      "Ġservices": 2264,
      "Ġmethods": 2265,
      "ament": 2266,
      "ĠUnder": 2267,
      "ĠĠ": 2268,
      "Ġmor": 2269,
      "Ġexecutive": 2270,
      "Ġabove": 2271,
      "rench": 2272,
      "uary": 2273,
      "Ġpar": 2274,
      "Ġinternal": 2275,
      "Ġpromote": 2276,
      "ĠIs": 2277,
      "Ġconsist": 2278,
      "agement": 2279,
      "Ġworkers": 2280,
      "ifications": 2281,
      "Ġrevenues": 2282,
      "Ġavo": 2283,
      "Ġdepos": 2284,
      "ulated": 2285,
      "ĠGerman": 2286,
      "Ġorigin": 2287,
      "Ġhoped": 2288,
      "12": 2289,
      "wa": 2290,
      "Ġnotes": 2291,
      "Ġused": 2292,
      "acity": 2293,
      "Ġhigher": 2294,
      "iety": 2295,
      "Ġtribes": 2296,
      "Ġoften": 2297,
      "Ġfront": 2298,
      "arant": 2299,
      "Ġready": 2300,
      "ased": 2301,
      "Ġgreatest": 2302,
      "ather": 2303,
      "Ġnature": 2304,
      "Ġsituation": 2305,
      "General": 2306,
      "Ġprocess": 2307,
      "Ġvig": 2308,
      "Ġexpl": 2309,
      "Ġpreced": 2310,
      "Ġshare": 2311,
      "Ġlonger": 2312,
      "Ġcustom": 2313,
      "ĠJanuary": 2314,
      "Ġ8": 2315,
      "read": 2316,
      "Ġpropose": 2317,
      "Ġmean": 2318,
      "Ġremed": 2319,
      "roads": 2320,
      "reme": 2321,
      "Ġjurisd": 2322,
      "Ġcompl": 2323,
      "ĠRuss": 2324,
      "Ġseek": 2325,
      "Ġlimits": 2326,
      "Ġvolunt": 2327,
      "arr": 2328,
      "racy": 2329,
      "Ġsimilar": 2330,
      "Ġmerch": 2331,
      "bia": 2332,
      "Ġli": 2333,
      "Ġshown": 2334,
      "ishing": 2335,
      "Ġhighest": 2336,
      "Ġlevel": 2337,
      "Ġmodern": 2338,
      "Ġcommunication": 2339,
      "AT": 2340,
      "Ġdiv": 2341,
      "ĠAf": 2342,
      "Ġsuccessful": 2343,
      "Ġagriculture": 2344,
      "isdom": 2345,
      "Ġbless": 2346,
      "ously": 2347,
      "Ġdegree": 2348,
      "iment": 2349,
      "onst": 2350,
      "ingu": 2351,
      "rain": 2352,
      "Ġ10": 2353,
      "Ġexpense": 2354,
      "Ġterror": 2355,
      "Ġwish": 2356,
      "Ġwisdom": 2357,
      "idd": 2358,
      "Ġprincipal": 2359,
      "Ġaccomplished": 2360,
      "ics": 2361,
      "Ġparts": 2362,
      "Ġcauses": 2363,
      "Ġdirected": 2364,
      "stantial": 2365,
      "Ġcommitted": 2366,
      "Ġjurisdiction": 2367,
      "Ġill": 2368,
      "Ġden": 2369,
      "ĠMexican": 2370,
      "Ġgradu": 2371,
      "Ġagricultural": 2372,
      "ey": 2373,
      "iles": 2374,
      "Ġauthorities": 2375,
      "Ġaccording": 2376,
      "io": 2377,
      "Ġpun": 2378,
      "Ġina": 2379,
      "ested": 2380,
      "Ġstates": 2381,
      "ĠFe": 2382,
      "Ġsubs": 2383,
      "Ġarbit": 2384,
      "Ġdifficulties": 2385,
      "Ġexecution": 2386,
      "ium": 2387,
      "Ġbear": 2388,
      "chn": 2389,
      "Ġyoung": 2390,
      "Ġdistrib": 2391,
      "Ġemployed": 2392,
      "Ġsecured": 2393,
      "Ġcreated": 2394,
      "rated": 2395,
      "thern": 2396,
      "Ġsole": 2397,
      "Ġcommunities": 2398,
      "ept": 2399,
      "Ġrepresentatives": 2400,
      "Ġindividuals": 2401,
      "ĠTerritory": 2402,
      "Ġmutual": 2403,
      "Ġprosec": 2404,
      "Ġmanif": 2405,
      "ĠEast": 2406,
      "Ġcarried": 2407,
      "Ġimmediately": 2408,
      "Ġreached": 2409,
      "ĠAdminist": 2410,
      "Ġut": 2411,
      "ains": 2412,
      "Ġorganized": 2413,
      "Ġurg": 2414,
      "Ġstrugg": 2415,
      "Ġenemy": 2416,
      "Ġdeemed": 2417,
      "Ġsac": 2418,
      "Ġside": 2419,
      "Ġeas": 2420,
      "Ġele": 2421,
      "employ": 2422,
      "Ġ187": 2423,
      "Ġviews": 2424,
      "Ġsatisfaction": 2425,
      "Ġemer": 2426,
      "Ġgovern": 2427,
      "Ġproject": 2428,
      "Ġproport": 2429,
      "Ġislands": 2430,
      "Ġvital": 2431,
      "Ġsubstantial": 2432,
      "ĠDist": 2433,
      "Ġdisturb": 2434,
      "Ġpersonal": 2435,
      "Ġjudgment": 2436,
      "Ġdemands": 2437,
      "Ġadvantages": 2438,
      "Ġarticles": 2439,
      "ery": 2440,
      "Ġcal": 2441,
      "Ġmind": 2442,
      "anish": 2443,
      "cted": 2444,
      "riot": 2445,
      "Ġsave": 2446,
      "Ġsurvey": 2447,
      "Ġbenefic": 2448,
      "Ġreasonable": 2449,
      "tofore": 2450,
      "Ġwomen": 2451,
      "viet": 2452,
      "Ġfre": 2453,
      "ffice": 2454,
      "Ġexpress": 2455,
      "Ġfunds": 2456,
      "Ġacross": 2457,
      "Ġgiving": 2458,
      "Ġcapacity": 2459,
      "Ġearnestly": 2460,
      "iers": 2461,
      "Ġaver": 2462,
      "iting": 2463,
      "Ġrend": 2464,
      "Ġenable": 2465,
      "ousand": 2466,
      "Ġconsum": 2467,
      "Ġcolon": 2468,
      "Ġleave": 2469,
      "Ġmarkets": 2470,
      "Ġfear": 2471,
      "Ġdays": 2472,
      "ĠAct": 2473,
      "ĠApr": 2474,
      "Ġdeep": 2475,
      "ought": 2476,
      "Ġspending": 2477,
      "Ġmaintained": 2478,
      "Ġadjustment": 2479,
      "Ġdeficit": 2480,
      "Ġtechn": 2481,
      "ĠApril": 2482,
      "Ġunless": 2483,
      "amp": 2484,
      "Ġcompens": 2485,
      "Ġrespective": 2486,
      "Ġlimited": 2487,
      "Ġguarant": 2488,
      "Ġcompetition": 2489,
      "Ġdesirable": 2490,
      "Ġwage": 2491,
      "Ġchief": 2492,
      "ĠNations": 2493,
      "ĠFrench": 2494,
      "Ġnavigation": 2495,
      "ĠSoviet": 2496,
      "Ġpatriot": 2497,
      "mission": 2498,
      "ned": 2499,
      "Ġdate": 2500,
      "ĠSept": 2501,
      "Ġenough": 2502,
      "Ġcreate": 2503,
      "ĠNorth": 2504,
      "ĠDistrict": 2505,
      "ĠSeptember": 2506,
      "bted": 2507,
      "lation": 2508,
      "Ġ9": 2509,
      "Ġsan": 2510,
      "Ġmail": 2511,
      "Ġrecord": 2512,
      "Ġrepe": 2513,
      "ritories": 2514,
      "Ġcities": 2515,
      "Ġconnection": 2516,
      "Ġteach": 2517,
      "11": 2518,
      "Ġserve": 2519,
      "ĠAg": 2520,
      "Ġarms": 2521,
      "Ġprec": 2522,
      "Ġentit": 2523,
      "Ġconsiderable": 2524,
      "Ġdestru": 2525,
      "20": 2526,
      "enced": 2527,
      "Ġlear": 2528,
      "Ġplaced": 2529,
      "ledge": 2530,
      "Ġimprovements": 2531,
      "Ġseems": 2532,
      "where": 2533,
      "Ġsk": 2534,
      "Ġpec": 2535,
      "Ġfive": 2536,
      "Ġfun": 2537,
      "illed": 2538,
      "Ġcharge": 2539,
      "Ġsovere": 2540,
      "Ġsubmit": 2541,
      "Ġheretofore": 2542,
      "lude": 2543,
      "Ġwhy": 2544,
      "ĠSome": 2545,
      "Ġwithd": 2546,
      "lag": 2547,
      "Ġability": 2548,
      "ically": 2549,
      "ellig": 2550,
      "Ġlarger": 2551,
      "crib": 2552,
      "Ġthousand": 2553,
      "Ġbody": 2554,
      "empl": 2555,
      "ensions": 2556,
      "Ġattack": 2557,
      "Ġexample": 2558,
      "undred": 2559,
      "ĠAdministration": 2560,
      "30": 2561,
      "Ġrul": 2562,
      "Ġjoin": 2563,
      "Ġextension": 2564,
      "Ġtermin": 2565,
      "Ġfinal": 2566,
      "mb": 2567,
      "Ġcity": 2568,
      "Ġstart": 2569,
      "Ġ20": 2570,
      "ĠEuropean": 2571,
      "ER": 2572,
      "rimin": 2573,
      "Ġbr": 2574,
      "Ġbord": 2575,
      "Ġhundred": 2576,
      "Ġintellig": 2577,
      "Ġactiv": 2578,
      "Ġmatters": 2579,
      "hold": 2580,
      "Ġinit": 2581,
      "imum": 2582,
      "ĠSpanish": 2583,
      "Ġdestro": 2584,
      "Ġaway": 2585,
      "Ġattain": 2586,
      "Ġdecla": 2587,
      "Ġnegotiations": 2588,
      "Ġide": 2589,
      "ons": 2590,
      "itive": 2591,
      "esty": 2592,
      "ĠHis": 2593,
      "Ġdemonst": 2594,
      "Ġbranches": 2595,
      "Ġwithdra": 2596,
      "Ġsix": 2597,
      "Ġwhatever": 2598,
      "Ġrecently": 2599,
      "Ġpayments": 2600,
      "Ġissued": 2601,
      "ee": 2602,
      "rec": 2603,
      "Ġhous": 2604,
      "Ġlight": 2605,
      "Ġcong": 2606,
      "pons": 2607,
      "Ġunemploy": 2608,
      "Ġrecip": 2609,
      "ama": 2610,
      "Ġefficient": 2611,
      "Ġextend": 2612,
      "Ġpeaceful": 2613,
      "Ġrule": 2614,
      "ĠMa": 2615,
      "Ġunif": 2616,
      "ĠEvery": 2617,
      "Ġsteps": 2618,
      "Ġimmig": 2619,
      "vision": 2620,
      "anies": 2621,
      "Ġder": 2622,
      "Ġexcess": 2623,
      "ĠMiss": 2624,
      "Ġconference": 2625,
      "Ġurge": 2626,
      "Ġboundary": 2627,
      "Ġchanges": 2628,
      "Ġvict": 2629,
      "Ġrelation": 2630,
      "Ġcompleted": 2631,
      "Ġtemporary": 2632,
      "ees": 2633,
      "Ġsource": 2634,
      "olog": 2635,
      "Ġseen": 2636,
      "Ġrequires": 2637,
      "Ġexpenditure": 2638,
      "Ġremains": 2639,
      "Ġemerg": 2640,
      "Ġtask": 2641,
      "atory": 2642,
      "Ġbat": 2643,
      "Ġisland": 2644,
      "Ġconcluded": 2645,
      "Ġprepared": 2646,
      "Ġrede": 2647,
      "Ġsoc": 2648,
      "ĠPhil": 2649,
      "Ġdeb": 2650,
      "Ġstea": 2651,
      "Ġsepar": 2652,
      "Ġ184": 2653,
      "lusion": 2654,
      "Ġdisposition": 2655,
      "Ġproportion": 2656,
      "Ġmass": 2657,
      "Ġcontempl": 2658,
      "Ġcrimin": 2659,
      "Ġcommissioners": 2660,
      "Ġparticip": 2661,
      "Ġexclusive": 2662,
      "Ġuniform": 2663,
      "rust": 2664,
      "Ġfall": 2665,
      "rown": 2666,
      "utions": 2667,
      "Ġordinary": 2668,
      "Ġpreserve": 2669,
      "Ġcarrying": 2670,
      "Ġbeginning": 2671,
      "ureau": 2672,
      "Ġapplied": 2673,
      "Ġcareful": 2674,
      "Ġleaving": 2675,
      "Ġstandard": 2676,
      "Ġinjur": 2677,
      "Ġdiplomatic": 2678,
      "come": 2679,
      "Ġprepar": 2680,
      "Ġconfident": 2681,
      "Ġapproach": 2682,
      "Ġmerely": 2683,
      "Ġchallenge": 2684,
      "Ġer": 2685,
      "isan": 2686,
      "Ġnone": 2687,
      "Ġperfect": 2688,
      "Ġfulf": 2689,
      "Ġinsurance": 2690,
      "Ġassistance": 2691,
      "Ġfacilities": 2692,
      "ION": 2693,
      "ĠMay": 2694,
      "ĠInter": 2695,
      "Ġcorporations": 2696,
      "Ġreb": 2697,
      "Ġrender": 2698,
      "Ġult": 2699,
      "ĠBo": 2700,
      "Ġdoing": 2701,
      "Ġtaking": 2702,
      "Ġreports": 2703,
      "Ġconsidered": 2704,
      "Ġproduced": 2705,
      "Ġvalu": 2706,
      "Ġarticle": 2707,
      "Ġwhol": 2708,
      "olute": 2709,
      "Ġquarter": 2710,
      "Ġgoods": 2711,
      "Ġdifferences": 2712,
      "Ġestimates": 2713,
      "Ġavailable": 2714,
      "18": 2715,
      "ream": 2716,
      "Ġbroad": 2717,
      "Ġwilling": 2718,
      "Ġarmed": 2719,
      "Ġexistence": 2720,
      "Ġequally": 2721,
      "Ġnegotiation": 2722,
      "sw": 2723,
      "Ġten": 2724,
      "Ġdimin": 2725,
      "Ġelection": 2726,
      "Ġantic": 2727,
      "Ġstock": 2728,
      "Ġneither": 2729,
      "Ġaccept": 2730,
      "Ġindustries": 2731,
      "tenance": 2732,
      "Ġanticip": 2733,
      "Ġcover": 2734,
      "Ġflag": 2735,
      "Ġhead": 2736,
      "Ġboard": 2737,
      "Ġreferred": 2738,
      "Ġgratifying": 2739,
      "lies": 2740,
      "inite": 2741,
      "Ġneut": 2742,
      "Ġ183": 2743,
      "Ġindic": 2744,
      "Ġknowledge": 2745,
      "Ġmaintenance": 2746,
      "Ġimpossible": 2747,
      "ace": 2748,
      "rs": 2749,
      "itation": 2750,
      "Ġple": 2751,
      "iring": 2752,
      "Ġstip": 2753,
      "Ġexpressed": 2754,
      "Ġregulations": 2755,
      "Ġmoral": 2756,
      "Ġentitled": 2757,
      "Ġrecipro": 2758,
      "Ġthird": 2759,
      "Ġgun": 2760,
      "Ġjoint": 2761,
      "Ġoffices": 2762,
      "Ġdiscrimin": 2763,
      "Ġrevolution": 2764,
      "Ġparticularly": 2765,
      "Ġneighbor": 2766,
      "Ġsources": 2767,
      "imately": 2768,
      "Ġunderstanding": 2769,
      "Ġdecision": 2770,
      "Ġpreceding": 2771,
      "arrass": 2772,
      "Ġdestroy": 2773,
      "head": 2774,
      "erative": 2775,
      "cean": 2776,
      "Ġcompanies": 2777,
      "Ġlegal": 2778,
      "Ġharmon": 2779,
      "13": 2780,
      "79": 2781,
      "rection": 2782,
      "ilt": 2783,
      "Ġenv": 2784,
      "Ġnecessarily": 2785,
      "Ġdemocracy": 2786,
      "Ġapplication": 2787,
      "Ġsusp": 2788,
      "pet": 2789,
      "ators": 2790,
      "oming": 2791,
      "Ġrun": 2792,
      "ĠMy": 2793,
      "Ġincident": 2794,
      "Ġcompreh": 2795,
      "rug": 2796,
      "Ġlargely": 2797,
      "Ġresponsible": 2798,
      "ucle": 2799,
      "Ġtook": 2800,
      "Ġguard": 2801,
      "....": 2802,
      "Ġmajority": 2803,
      "16": 2804,
      "lant": 2805,
      "Ġair": 2806,
      "Ġwast": 2807,
      "oud": 2808,
      "Ġareas": 2809,
      "Ġofficer": 2810,
      "Ġcolle": 2811,
      "Ġbased": 2812,
      "Ġadded": 2813,
      "Ġharb": 2814,
      "Ġembarrass": 2815,
      "Ġweapons": 2816,
      "enn": 2817,
      "Ġpending": 2818,
      "Ġbre": 2819,
      "Ġheav": 2820,
      "utes": 2821,
      "ĠSince": 2822,
      "Ġword": 2823,
      "Ġotherwise": 2824,
      "Ġactive": 2825,
      "agu": 2826,
      "ĠLeg": 2827,
      "wards": 2828,
      "Ġacres": 2829,
      "Ġcivilization": 2830,
      "Ġmanufacture": 2831,
      "Ġneutral": 2832,
      "25": 2833,
      "Ġansw": 2834,
      "Ġcoming": 2835,
      "ĠMed": 2836,
      "Ġregular": 2837,
      "Ġtaxation": 2838,
      "Ġrestrict": 2839,
      "Ġplaces": 2840,
      "Ġprobably": 2841,
      "Ġfood": 2842,
      "Ġmeeting": 2843,
      "Ġhonest": 2844,
      "ĠChinese": 2845,
      "Ġevents": 2846,
      "ĠRussia": 2847,
      "inguished": 2848,
      "Ġcompensation": 2849,
      "40": 2850,
      "Ġnear": 2851,
      "ĠWor": 2852,
      "Ġgoing": 2853,
      "Ġacce": 2854,
      "Ġfacts": 2855,
      "Ġrapidly": 2856,
      "Ġgranted": 2857,
      "Ġinhab": 2858,
      "bur": 2859,
      "cceed": 2860,
      "Ġsucceed": 2861,
      "Ġresort": 2862,
      "Ġextensive": 2863,
      "Ġbelong": 2864,
      "Ġpracticable": 2865,
      "Ġarrangement": 2866,
      "Ġenforcement": 2867,
      "Ġfit": 2868,
      "aragu": 2869,
      "state": 2870,
      "overy": 2871,
      "Ġgrou": 2872,
      "Ġcirculation": 2873,
      "Ġaggreg": 2874,
      "Ġburden": 2875,
      "Ġiniti": 2876,
      "know": 2877,
      "ulate": 2878,
      "ĠCent": 2879,
      "Ġaband": 2880,
      "Ġforest": 2881,
      "Ġassur": 2882,
      "Ġkept": 2883,
      "ugust": 2884,
      "Ġlatter": 2885,
      "Ġfriendship": 2886,
      "Ġamendment": 2887,
      "uclear": 2888,
      "ave": 2889,
      "rary": 2890,
      "enty": 2891,
      "rodu": 2892,
      "cember": 2893,
      "raq": 2894,
      "Ġgenerally": 2895,
      "Ġinflation": 2896,
      "Ġcivilized": 2897,
      "Ġapproved": 2898,
      "Ġaccomp": 2899,
      "Ġprevail": 2900,
      "Ġpromptly": 2901,
      "Ġfraud": 2902,
      "Ġrendered": 2903,
      "rest": 2904,
      "Ġwages": 2905,
      "Ġcult": 2906,
      "Ġindu": 2907,
      "Ġprohib": 2908,
      "ĠAugust": 2909,
      "Ġimposed": 2910,
      "Ġappreh": 2911,
      "Ġmanagement": 2912,
      "Ġobtained": 2913,
      "Ġallowed": 2914,
      "Ġoccurred": 2915,
      "Ġworthy": 2916,
      "Ġabandon": 2917,
      "orough": 2918,
      "ctive": 2919,
      "ĠIraq": 2920,
      "ift": 2921,
      "Ġallies": 2922,
      "Ġ15": 2923,
      "Ġagents": 2924,
      "Ġgoal": 2925,
      "Ġobv": 2926,
      "Ġfelt": 2927,
      "aps": 2928,
      "Ġpractice": 2929,
      "Ġevil": 2930,
      "Ġdelib": 2931,
      "ober": 2932,
      "Ġthorough": 2933,
      "Ġmiles": 2934,
      "Ġasse": 2935,
      "ĠCour": 2936,
      "Ġalong": 2937,
      "Ġalthough": 2938,
      "Ġsociety": 2939,
      "inations": 2940,
      "Ġrese": 2941,
      "Ġadj": 2942,
      "Ġresist": 2943,
      "Ġreserv": 2944,
      "Ġrelie": 2945,
      "oints": 2946,
      "Ġpled": 2947,
      "Ġcosts": 2948,
      "ĠOne": 2949,
      "Ġrecognized": 2950,
      "ĠDecember": 2951,
      "ĠLegisl": 2952,
      ",\"": 2953,
      "Ġfirm": 2954,
      "Ġfinally": 2955,
      "Ġstatute": 2956,
      "Ġveter": 2957,
      "28": 2958,
      "Ġapparent": 2959,
      "Ġtreatment": 2960,
      "Ġrestor": 2961,
      "Ġimproved": 2962,
      "Ġbasic": 2963,
      "Ġdetermination": 2964,
      "15": 2965,
      "75": 2966,
      "go": 2967,
      "Ġpoints": 2968,
      "Ġbar": 2969,
      "ortunities": 2970,
      "Ġvis": 2971,
      "Ġentered": 2972,
      "Ġendeav": 2973,
      "Ġamounted": 2974,
      "Ġadoption": 2975,
      "Ġremedy": 2976,
      "26": 2977,
      "70": 2978,
      "Ġahead": 2979,
      "ening": 2980,
      "Ġparent": 2981,
      "ional": 2982,
      "Ġplans": 2983,
      "Ġpolicies": 2984,
      "Ġfollowed": 2985,
      "Ġentirely": 2986,
      "Ġexchange": 2987,
      "iddle": 2988,
      "Ġascertain": 2989,
      "Ġmag": 2990,
      "ĠPan": 2991,
      "ĠOct": 2992,
      "Ġpowerful": 2993,
      "Ġdepartment": 2994,
      "Ġremaining": 2995,
      "Ġtry": 2996,
      "int": 2997,
      "Ġwest": 2998,
      "Ġcoun": 2999,
      "Ġnuclear": 3000,
      "Ġarri": 3001,
      "Ġprospect": 3002,
      "ĠOctober": 3003,
      "Ġcontinent": 3004,
      "Ġinvite": 3005,
      "Ġprior": 3006,
      "Ġdirectly": 3007,
      "Ġconsequence": 3008,
      "Ġinvolved": 3009,
      "Ġdischarge": 3010,
      "Ġavoid": 3011,
      "Ġaverage": 3012,
      "lantic": 3013,
      "Ġresearch": 3014,
      "EN": 3015,
      "bru": 3016,
      "master": 3017,
      "Ġlost": 3018,
      "Ġrace": 3019,
      "Ġopportunities": 3020,
      "Ġinvestment": 3021,
      "bruary": 3022,
      "ging": 3023,
      "Ġways": 3024,
      "arged": 3025,
      "Ġred": 3026,
      "Ġstop": 3027,
      "Ġrather": 3028,
      "ansion": 3029,
      "Ġpeoples": 3030,
      "Ġindis": 3031,
      "Ġhighly": 3032,
      "ape": 3033,
      "Ġpostal": 3034,
      "Ġconstantly": 3035,
      "Ġconflict": 3036,
      "29": 3037,
      "Ġtal": 3038,
      "ĠNove": 3039,
      "Ġconsent": 3040,
      "Ġfarmers": 3041,
      "ĠProv": 3042,
      "Ġfixed": 3043,
      "Ġcustoms": 3044,
      "ĠFebruary": 3045,
      "ĠPhilipp": 3046,
      "ĠCourt": 3047,
      "ĠNovember": 3048,
      "mper": 3049,
      "Ġage": 3050,
      "Ġpen": 3051,
      "Ġconven": 3052,
      "irst": 3053,
      "ervice": 3054,
      "Ġpromise": 3055,
      "Ġvalues": 3056,
      "Ġencoura": 3057,
      "Ġabsolute": 3058,
      "lamation": 3059,
      "Ġvigor": 3060,
      "23": 3061,
      "jesty": 3062,
      "Ġcourage": 3063,
      "alif": 3064,
      "Ġhomes": 3065,
      "ĠGod": 3066,
      "osition": 3067,
      "Ġrout": 3068,
      "nition": 3069,
      "Ġbecame": 3070,
      "Ġleaders": 3071,
      "14": 3072,
      "Ġfle": 3073,
      "Ġprop": 3074,
      "Ġrich": 3075,
      "Ġchec": 3076,
      "Ġtraining": 3077,
      "Ġshows": 3078,
      "Ġdangerous": 3079,
      "Ġjudicial": 3080,
      "Ġdestruction": 3081,
      "ĠWorld": 3082,
      "19": 3083,
      "ores": 3084,
      "Ġbig": 3085,
      "Ġconstit": 3086,
      "ĠMore": 3087,
      "Ġregret": 3088,
      "Ġindemn": 3089,
      "Ġemployees": 3090,
      "Ġinstead": 3091,
      "Ġrecognition": 3092,
      "Ġfrontier": 3093,
      "li": 3094,
      "Ġmission": 3095,
      "icaragu": 3096,
      "Ġreference": 3097,
      "Ġexports": 3098,
      "tern": 3099,
      "Ġabund": 3100,
      "Ġfailure": 3101,
      "Ġembra": 3102,
      "ĠColum": 3103,
      "Ġcomplain": 3104,
      "Ġvaluable": 3105,
      "hood": 3106,
      "Ġty": 3107,
      "Ġ12": 3108,
      "ĠNicaragu": 3109,
      "ĠPar": 3110,
      "Ġsecuring": 3111,
      "Ġevils": 3112,
      "Ġobligation": 3113,
      "Ġmanufactures": 3114,
      "Ġelimin": 3115,
      "Ġrules": 3116,
      "equ": 3117,
      "ply": 3118,
      "cell": 3119,
      "ulations": 3120,
      "Ġunp": 3121,
      "Ġraise": 3122,
      "Ġ190": 3123,
      "Ġapproval": 3124,
      "Ġinvestigation": 3125,
      "Ġviolence": 3126,
      "Ġdetermined": 3127,
      "Ġaggression": 3128,
      "ĠAfric": 3129,
      "aff": 3130,
      "rants": 3131,
      "Ġaim": 3132,
      "Ġcru": 3133,
      "orial": 3134,
      "Ġconstitut": 3135,
      "ĠCalif": 3136,
      "Ġagencies": 3137,
      "Ġpartn": 3138,
      "Ġproved": 3139,
      "Ġconclusion": 3140,
      "Ġbuilt": 3141,
      "ĠAtlantic": 3142,
      "ĠGermany": 3143,
      "Ġbeneficial": 3144,
      "Ġfulfill": 3145,
      "ĠCaliforn": 3146,
      "Ġexpansion": 3147,
      "Ġunn": 3148,
      "Ġpermitted": 3149,
      "Ġloan": 3150,
      "Ġloans": 3151,
      "Ġhappy": 3152,
      "Ġaccomplish": 3153,
      "Ġmedical": 3154,
      "Ġskill": 3155,
      "24": 3156,
      "60": 3157,
      "ake": 3158,
      "ins": 3159,
      "Ġph": 3160,
      "Ġinev": 3161,
      "ĠTheir": 3162,
      "ulted": 3163,
      "ĠCor": 3164,
      "Ġresum": 3165,
      "Ġuns": 3166,
      "Ġrepeal": 3167,
      "Ġcitizenship": 3168,
      "Ġappropriate": 3169,
      "Ġevidence": 3170,
      "Ġgeneration": 3171,
      "Ġfundament": 3172,
      "Ġrecognize": 3173,
      "Ġfighting": 3174,
      "Ġhousing": 3175,
      "haps": 3176,
      "Ġseason": 3177,
      "ada": 3178,
      "Ġrequest": 3179,
      "Ġretire": 3180,
      "Ġhumanity": 3181,
      "Ġburdens": 3182,
      "Ġfurnish": 3183,
      "Ġsettled": 3184,
      "Ġpecul": 3185,
      "ĠMajesty": 3186,
      "Ġemergency": 3187,
      "Ġinhabit": 3188,
      "80": 3189,
      "orrow": 3190,
      "Ġunit": 3191,
      "Ġchance": 3192,
      "Ġentertain": 3193,
      "Ġassoc": 3194,
      "Ġfailed": 3195,
      "Ġsale": 3196,
      "Ġappears": 3197,
      "Ġtechnolog": 3198,
      "ĠCentral": 3199,
      "Ġpeculi": 3200,
      "Ġexact": 3201,
      "ĠPort": 3202,
      "Ġaround": 3203,
      "Ġregulation": 3204,
      "Ġoffer": 3205,
      "Ġtransf": 3206,
      "Ġfoot": 3207,
      "Ġdifference": 3208,
      "Ġconnected": 3209,
      "Ġvote": 3210,
      "Ġcomprehensive": 3211,
      "Ġaccompan": 3212,
      "ĠColumbia": 3213,
      "500": 3214,
      "Ġsought": 3215,
      "Ġcord": 3216,
      "Ġdrug": 3217,
      "ĠAm": 3218,
      "ĠAfter": 3219,
      "Ġenabl": 3220,
      "Ġproud": 3221,
      "Ġimports": 3222,
      "Ġconsiderations": 3223,
      "ĠSecurity": 3224,
      "Ġpurchase": 3225,
      "Ġwholly": 3226,
      "pens": 3227,
      "ys": 3228,
      "Ġthing": 3229,
      "atch": 3230,
      "Ġpension": 3231,
      "Ġforb": 3232,
      "ĠBureau": 3233,
      "forms": 3234,
      "Ġdefend": 3235,
      "Ġpassage": 3236,
      "Ġcontrovers": 3237,
      "Ġmarked": 3238,
      "ĠIntern": 3239,
      "Ġstruggle": 3240,
      "Ġwaste": 3241,
      "Ġobvious": 3242,
      "be": 3243,
      "gu": 3244,
      "rant": 3245,
      "stood": 3246,
      "Ġstated": 3247,
      "aining": 3248,
      "Ġintended": 3249,
      "Ġexport": 3250,
      "Ġreasons": 3251,
      "Ġwaters": 3252,
      "Ġconcerned": 3253,
      "Ġconsequences": 3254,
      "Ġsacr": 3255,
      "Ġunemployment": 3256,
      "Ġveterans": 3257,
      "ĠPanama": 3258,
      "he": 3259,
      "Ġregarded": 3260,
      "ĠTerritories": 3261,
      "Ġextraord": 3262,
      "Ġappointment": 3263,
      "Ġaggregate": 3264,
      "Ġcordial": 3265,
      "17": 3266,
      "line": 3267,
      "Ġcrit": 3268,
      "Ġmakes": 3269,
      "Ġintrodu": 3270,
      "ĠMany": 3271,
      "Ġrecon": 3272,
      "Ġcontinuing": 3273,
      "Ġdifficulty": 3274,
      "ĠYou": 3275,
      "Ġcommunicated": 3276,
      "Ġdevot": 3277,
      "ĠAgricult": 3278,
      "'ll": 3279,
      "AL": 3280,
      "Ġmot": 3281,
      "Ġgives": 3282,
      "Ġwee": 3283,
      "Ġalike": 3284,
      "Ġapply": 3285,
      "Ġspeak": 3286,
      "ounded": 3287,
      "Ġacknow": 3288,
      "Ġasked": 3289,
      "Ġenacted": 3290,
      "Ġchoice": 3291,
      "Ġaccepted": 3292,
      "Ġsend": 3293,
      "Ġprove": 3294,
      "Ġnotice": 3295,
      "Ġ185": 3296,
      "ĠLast": 3297,
      "Ġinsist": 3298,
      "Ġsuggested": 3299,
      "Ġmanifest": 3300,
      "ĠCalifornia": 3301,
      "63": 3302,
      "Ġz": 3303,
      "arm": 3304,
      "ann": 3305,
      "Ġhour": 3306,
      "Ġnon": 3307,
      "ower": 3308,
      "ecess": 3309,
      "Ġsoil": 3310,
      "Ġagreed": 3311,
      "issipp": 3312,
      "Ġdistant": 3313,
      "Ġcharged": 3314,
      "Ġrevision": 3315,
      "ĠYet": 3316,
      "Ġfollowing": 3317,
      "Ġsupervision": 3318,
      "Ġdistribution": 3319,
      "Ġdeclared": 3320,
      "ĠMississipp": 3321,
      "ĠMississippi": 3322,
      "iments": 3323,
      "ratic": 3324,
      "Ġid": 3325,
      "Ġinteg": 3326,
      "Ġunivers": 3327,
      "Ġcapt": 3328,
      "ĠJust": 3329,
      "Ġsupplies": 3330,
      "ĠDepartments": 3331,
      "Ġhonorable": 3332,
      "Ġsavings": 3333,
      "Ġheart": 3334,
      "mpire": 3335,
      "mpath": 3336,
      "Ġharmony": 3337,
      "Ġstim": 3338,
      "Ġstrate": 3339,
      "Ġcanal": 3340,
      "Ġarmy": 3341,
      "Ġregion": 3342,
      "Ġremove": 3343,
      "Ġsympath": 3344,
      "Ġdecreas": 3345,
      "Ġconcur": 3346,
      "Ġdepartments": 3347,
      "Ġstandards": 3348,
      "Ġmaintaining": 3349,
      "Ġdollar": 3350,
      "Ġclean": 3351,
      "Ġriver": 3352,
      "Ġglob": 3353,
      "Ġcorrespondence": 3354,
      "Ġbattle": 3355,
      "ĠInterior": 3356,
      "Ġextraordinary": 3357,
      "organ": 3358,
      "Ġdon": 3359,
      "Ġled": 3360,
      "Ġsuitable": 3361,
      "Ġresolution": 3362,
      "Ġunion": 3363,
      "ĠIts": 3364,
      "Ġperpet": 3365,
      "Ġdecisions": 3366,
      "Ġexists": 3367,
      "Ġleadership": 3368,
      "Ġopened": 3369,
      "Ġclasses": 3370,
      "Ġelse": 3371,
      "Ġbehalf": 3372,
      "Ġinqu": 3373,
      "irt": 3374,
      "Ġdeath": 3375,
      "Ġapprec": 3376,
      "ĠFirst": 3377,
      "ĠOr": 3378,
      "rence": 3379,
      "cont": 3380,
      "Ġbusinesses": 3381,
      "Ġrestrain": 3382,
      "Ġcorre": 3383,
      "Ġscience": 3384,
      "Ġcommitte": 3385,
      "Ġclearly": 3386,
      "Ġhappiness": 3387,
      "Ġsustained": 3388,
      "Ġinhabitants": 3389,
      "IC": 3390,
      "Ġforth": 3391,
      "ĠTon": 3392,
      "ĠSoc": 3393,
      "raph": 3394,
      "Ġyield": 3395,
      "Ġconsol": 3396,
      "Ġart": 3397,
      "Ġrelating": 3398,
      "Ġaccum": 3399,
      "Ġquality": 3400,
      "Ġadvanced": 3401,
      "lected": 3402,
      "ĠPostmaster": 3403,
      "ATION": 3404,
      "Ġsanction": 3405,
      "Ġfunctions": 3406,
      "Ġstability": 3407,
      "Ġdistinguished": 3408,
      "Ġpreservation": 3409,
      "Ġsincere": 3410,
      "ĠYork": 3411,
      "Ġremoval": 3412,
      "Ġindispens": 3413,
      "ĠNicaragua": 3414,
      "Ġfundamental": 3415,
      "Ġwin": 3416,
      "Ġsqu": 3417,
      "outhern": 3418,
      "uls": 3419,
      "Ġ14": 3420,
      "Ġrelig": 3421,
      "ĠWhat": 3422,
      "Ġpursued": 3423,
      "Ġmovement": 3424,
      "Ġunnecess": 3425,
      "ĠTonight": 3426,
      "33": 3427,
      "Ġwants": 3428,
      "itiz": 3429,
      "Ġeight": 3430,
      "osp": 3431,
      "Ġcommend": 3432,
      "Ġinterested": 3433,
      "ritorial": 3434,
      "Ġstatement": 3435,
      "ĠAsia": 3436,
      "Ġspecific": 3437,
      "Ġcontracts": 3438,
      "umerous": 3439,
      "cu": 3440,
      "Ġtit": 3441,
      "Ġawa": 3442,
      "isen": 3443,
      "isis": 3444,
      "erent": 3445,
      "Ġinterv": 3446,
      "Ġadmitted": 3447,
      "ĠNot": 3448,
      "Ġrepublic": 3449,
      "Ġplain": 3450,
      "Ġtwenty": 3451,
      "Ġdistin": 3452,
      "Ġorders": 3453,
      "hips": 3454,
      "Ġnumbers": 3455,
      "Ġcrisis": 3456,
      "Ġlower": 3457,
      "78": 3458,
      "oking": 3459,
      "inking": 3460,
      "Ġda": 3461,
      "lement": 3462,
      "arters": 3463,
      "Ġample": 3464,
      "Ġcompar": 3465,
      "rupt": 3466,
      "Ġlegit": 3467,
      "Ġproperly": 3468,
      "Ġrestore": 3469,
      "Ġequality": 3470,
      "ĠKing": 3471,
      "Ġmode": 3472,
      "Ġsolemn": 3473,
      "Ġwithdraw": 3474,
      "Ġindemnity": 3475,
      "itizens": 3476,
      "ger": 3477,
      "rity": 3478,
      "Ġstrict": 3479,
      "ffic": 3480,
      "Ġresulted": 3481,
      "ĠPer": 3482,
      "Ġdise": 3483,
      "Ġunderstood": 3484,
      "erving": 3485,
      "eless": 3486,
      "Ġnavy": 3487,
      "Ġrepresentative": 3488,
      "Ġengage": 3489,
      "Ġaccordance": 3490,
      "Ġsoldiers": 3491,
      "Ġarbitration": 3492,
      "Ġindispensable": 3493,
      "itime": 3494,
      "aration": 3495,
      "asing": 3496,
      "Ġmach": 3497,
      "Ġrise": 3498,
      "ouses": 3499,
      "ĠMem": 3500,
      "Ġconsc": 3501,
      "Ġincreases": 3502,
      "Ġearth": 3503,
      "Ġindeed": 3504,
      "Ġrefer": 3505,
      "Ġbegun": 3506,
      "phere": 3507,
      "Ġremoved": 3508,
      "cribed": 3509,
      "Ġcultiv": 3510,
      "76": 3511,
      "ileg": 3512,
      "Ġadmit": 3513,
      "Ġrecovery": 3514,
      "Ġdoct": 3515,
      "Ġterm": 3516,
      "Ġ21": 3517,
      "Ġ25": 3518,
      "Ġproductive": 3519,
      "Ġexamination": 3520,
      "Ġbringing": 3521,
      "Ġexpedient": 3522,
      "AR": 3523,
      "ets": 3524,
      "rie": 3525,
      "Ġabol": 3526,
      "Ġclos": 3527,
      "Ġhistor": 3528,
      "Ġsigned": 3529,
      "Ġsteadily": 3530,
      "Ġdesigned": 3531,
      "AN": 3532,
      "aw": 3533,
      "Ġdict": 3534,
      "Ġreforms": 3535,
      "Ġreorgan": 3536,
      "Ġname": 3537,
      "Ġperhaps": 3538,
      "Ġthereby": 3539,
      "Ġsomething": 3540,
      "anged": 3541,
      "Ġproposals": 3542,
      "Ġcontinues": 3543,
      "Ġprosperous": 3544,
      "elled": 3545,
      "Ġsimple": 3546,
      "Ġinstructions": 3547,
      "Ġhostile": 3548,
      "Ġeasy": 3549,
      "Ġcollege": 3550,
      "Ġassemb": 3551,
      "Ġparents": 3552,
      "ospital": 3553,
      "ĠTH": 3554,
      "Ġgave": 3555,
      "Ġweak": 3556,
      "Ġvirt": 3557,
      "ĠBra": 3558,
      "Ġqual": 3559,
      "Ġmilitia": 3560,
      "Ġadministr": 3561,
      "Ġenactment": 3562,
      "Ġconviction": 3563,
      "Ġperformance": 3564,
      "Ġwords": 3565,
      "Ġunnecessary": 3566,
      "74": 3567,
      "ounce": 3568,
      "cture": 3569,
      "owed": 3570,
      "Ġdisapp": 3571,
      "ĠEmpire": 3572,
      "Ġaccess": 3573,
      "Ġextending": 3574,
      "Ġafforded": 3575,
      "Ġinstance": 3576,
      "Ġsuggestions": 3577,
      "ĠIslands": 3578,
      "Ġurgent": 3579,
      "Ġthousands": 3580,
      "Ġcriminal": 3581,
      "iable": 3582,
      "Ġwide": 3583,
      "Ġcamp": 3584,
      "Ġformed": 3585,
      "ĠThose": 3586,
      "Ġshipp": 3587,
      "pped": 3588,
      "emis": 3589,
      "Ġincur": 3590,
      "Ġwars": 3591,
      "Ġminimum": 3592,
      "ĠRepublics": 3593,
      "Ġmaterials": 3594,
      "ĠĠĠĠ": 3595,
      "Ġprojects": 3596,
      "Ġfrequ": 3597,
      "Ġintelligence": 3598,
      "54": 3599,
      "90": 3600,
      "pay": 3601,
      "ats": 3602,
      "Ġsw": 3603,
      "Ġours": 3604,
      "Ġadh": 3605,
      "Ġresol": 3606,
      "Ġpret": 3607,
      "ĠRic": 3608,
      "Ġoffered": 3609,
      "Ġdeveloped": 3610,
      "Ġcertainly": 3611,
      "Ġstronger": 3612,
      "Ġtribun": 3613,
      "Ġthreatened": 3614,
      "Ġproceedings": 3615,
      "Ġrailroads": 3616,
      "ĠWestern": 3617,
      "Ġencouragement": 3618,
      "ĠSocial": 3619,
      "ĠMembers": 3620,
      "sh": 3621,
      "Ġtri": 3622,
      "Ġcame": 3623,
      "ented": 3624,
      "abor": 3625,
      "Ġfast": 3626,
      "ĠEng": 3627,
      "Ġjustify": 3628,
      "Ġdefinite": 3629,
      "Ġfarmer": 3630,
      "Ġprotected": 3631,
      "Ġinspect": 3632,
      "Ġbelief": 3633,
      "Ġcontinuance": 3634,
      "Ġprivileg": 3635,
      "Ġfoundation": 3636,
      "Ġscar": 3637,
      "Ġjudges": 3638,
      "Ġestimate": 3639,
      "Ġresponsibilities": 3640,
      "Ġexercised": 3641,
      "Ġpopular": 3642,
      "Ġdisposed": 3643,
      "Ġissues": 3644,
      "Ġneighbors": 3645,
      "Ġvolunte": 3646,
      "Ġrepeated": 3647,
      "Ġlegitimate": 3648,
      "oke": 3649,
      "Ġwa": 3650,
      "edu": 3651,
      "Ġdign": 3652,
      "Ġnumerous": 3653,
      "Ġ13": 3654,
      "Ġinclude": 3655,
      "ĠOffice": 3656,
      "acks": 3657,
      "ĠHa": 3658,
      "Ġpossib": 3659,
      "Ġinterstate": 3660,
      "Ġviolation": 3661,
      "Ġpossession": 3662,
      "Ġrailroad": 3663,
      "Ġsteady": 3664,
      "Ġimmigration": 3665,
      "Ġanswer": 3666,
      "ĠMedic": 3667,
      "work": 3668,
      "Ġfish": 3669,
      "Ġmention": 3670,
      "aring": 3671,
      "Ġretain": 3672,
      "Ġproof": 3673,
      "artisan": 3674,
      "ush": 3675,
      "Ġunjust": 3676,
      "Ġconsular": 3677,
      "Ġinvited": 3678,
      "Ġconfir": 3679,
      "Ġcoll": 3680,
      "Ġbills": 3681,
      "Ġscient": 3682,
      "Ġlikely": 3683,
      "Ġrepresented": 3684,
      "Ġdetermine": 3685,
      "Ġoccupation": 3686,
      "Ġsection": 3687,
      "Ġdeposit": 3688,
      "OR": 3689,
      "government": 3690,
      "Ġroad": 3691,
      "Ġtell": 3692,
      "Ġoil": 3693,
      "ites": 3694,
      "omin": 3695,
      "Ġforms": 3696,
      "Ġunited": 3697,
      "that": 3698,
      "ulating": 3699,
      "Ġanx": 3700,
      "quest": 3701,
      "Ġlay": 3702,
      "ival": 3703,
      "Ġcontest": 3704,
      "Ġspread": 3705,
      "ĠRiver": 3706,
      "Ġinsure": 3707,
      "Ġherewith": 3708,
      "Ġrequirements": 3709,
      "Ġadopt": 3710,
      "Ġinsurrection": 3711,
      "Ġratified": 3712,
      "Ġdiscussion": 3713,
      "ĠBoard": 3714,
      "after": 3715,
      "iated": 3716,
      "Ġhither": 3717,
      "Ġreward": 3718,
      "idation": 3719,
      "Ġsup": 3720,
      "ignt": 3721,
      "Ġant": 3722,
      "ope": 3723,
      "istic": 3724,
      "Ġunderstand": 3725,
      "Ġeffects": 3726,
      "Ġtransmitted": 3727,
      "Ġproposition": 3728,
      "Ġdangers": 3729,
      "Ġdealing": 3730,
      "Ġmerchant": 3731,
      "Ġpunishment": 3732,
      "Ġrestoration": 3733,
      "cri": 3734,
      "den": 3735,
      "time": 3736,
      "uild": 3737,
      "atures": 3738,
      "Ġsolution": 3739,
      "Ġbro": 3740,
      "Ġdream": 3741,
      "Ġemph": 3742,
      "Ġassure": 3743,
      "Ġinterference": 3744,
      "Ġmonop": 3745,
      "Ġestablishing": 3746,
      "Ġenlist": 3747,
      "Ġsovereignt": 3748,
      "Ġendeavor": 3749,
      "Ġacknowled": 3750,
      "ES": 3751,
      "ties": 3752,
      "Ġbra": 3753,
      "Ġmult": 3754,
      "Ġrele": 3755,
      "Ġlen": 3756,
      "overty": 3757,
      "Ġrelative": 3758,
      "Ġtrou": 3759,
      "Ġbecomes": 3760,
      "Ġraised": 3761,
      "els": 3762,
      "Ġproposal": 3763,
      "Ġsuffered": 3764,
      "Ġstrongly": 3765,
      "Ġdesired": 3766,
      "Ġspecie": 3767,
      "ĠAlthough": 3768,
      "Ġassumed": 3769,
      "Ġcalc": 3770,
      "Ġpropri": 3771,
      "ĠAgriculture": 3772,
      "emisphere": 3773,
      "93": 3774,
      "Ġaug": 3775,
      "ressive": 3776,
      "Ġ11": 3777,
      "Ġreserve": 3778,
      "oday": 3779,
      "Ġtruth": 3780,
      "Ġdecided": 3781,
      "Ġdefe": 3782,
      "Ġamounting": 3783,
      "Ġleading": 3784,
      "Ġprofits": 3785,
      "Ġinjury": 3786,
      "ĠColom": 3787,
      "Ġlargest": 3788,
      "Ġstudy": 3789,
      "Ġretirement": 3790,
      "ĠTHE": 3791,
      "Ġocean": 3792,
      "eness": 3793,
      "Ġcert": 3794,
      "Ġinn": 3795,
      "Ġhospital": 3796,
      "ĠToday": 3797,
      "Ġconform": 3798,
      "ching": 3799,
      "Ġseas": 3800,
      "Ġdiss": 3801,
      "Ġinteresting": 3802,
      "Ġeffected": 3803,
      "Ġdistrict": 3804,
      "orney": 3805,
      "Ġenlarge": 3806,
      "Ġinstrument": 3807,
      "Ġundertaken": 3808,
      "Ġblessings": 3809,
      "Ġcontemplated": 3810,
      "ĠParis": 3811,
      "Ġintegrity": 3812,
      "27": 3813,
      "65": 3814,
      "ha": 3815,
      "Ġborn": 3816,
      "Ġdri": 3817,
      "sth": 3818,
      "Ġlist": 3819,
      "set": 3820,
      "Ġcommence": 3821,
      "Ġactually": 3822,
      "Ġgrants": 3823,
      "Ġmaritime": 3824,
      "ĠSpeak": 3825,
      "Ġurged": 3826,
      "Ġhimself": 3827,
      "Ġadjusted": 3828,
      "Ġlater": 3829,
      "Ġenemies": 3830,
      "Ġrenewed": 3831,
      "ĠCommer": 3832,
      "Ġgenerous": 3833,
      "Ġheavy": 3834,
      "Ġlength": 3835,
      "ĠSpeaker": 3836,
      "34": 3837,
      "Ġtru": 3838,
      "Ġpoverty": 3839,
      "Ġinstitution": 3840,
      "Ġbell": 3841,
      "ĠService": 3842,
      "Ġens": 3843,
      "Ġali": 3844,
      "Ġrequis": 3845,
      "Ġadvis": 3846,
      "Ġended": 3847,
      "Ġengine": 3848,
      "Ġopening": 3849,
      "Ġratification": 3850,
      "Ġdemocratic": 3851,
      "Ġactivities": 3852,
      "ĠInternational": 3853,
      "Ġadministrative": 3854,
      "Ġdignity": 3855,
      "sthm": 3856,
      "64": 3857,
      "city": 3858,
      "lo": 3859,
      "ray": 3860,
      "Ġstation": 3861,
      "decess": 3862,
      "izations": 3863,
      "Ġpredecess": 3864,
      "Ġprim": 3865,
      "Ġjustly": 3866,
      "Ġrestored": 3867,
      "Ġreview": 3868,
      "ĠCommun": 3869,
      "Ġnorth": 3870,
      "Ġinstances": 3871,
      "Ġhostilities": 3872,
      "Ġblood": 3873,
      "Ġarrangements": 3874,
      "Ġpossessions": 3875,
      "Ġbellig": 3876,
      "nam": 3877,
      "ĠQ": 3878,
      "Ġtrial": 3879,
      "Ġcrop": 3880,
      "Ġdam": 3881,
      "ĠSan": 3882,
      "Ġcomf": 3883,
      "Ġarea": 3884,
      "ĠItal": 3885,
      "ilege": 3886,
      "Ġconcent": 3887,
      "cale": 3888,
      "Ġprivilege": 3889,
      "Ġdemanded": 3890,
      "Ġpaper": 3891,
      "Ġaddress": 3892,
      "ĠKore": 3893,
      "Ġbehind": 3894,
      "Ġassume": 3895,
      "Ġfortun": 3896,
      "'m": 3897,
      "Ġroads": 3898,
      "Ġwid": 3899,
      "Ġfederal": 3900,
      "ĠIsthm": 3901,
      "iron": 3902,
      "ids": 3903,
      "ecause": 3904,
      "Ġrising": 3905,
      "otent": 3906,
      "Ġsubsequ": 3907,
      "Ġarising": 3908,
      "Ġprison": 3909,
      "Ġeverywhere": 3910,
      "Ġremember": 3911,
      "Ġcompletion": 3912,
      "Ġdrawn": 3913,
      "Ġunfortun": 3914,
      "ounced": 3915,
      "ĠCanada": 3916,
      "Ġpatriotic": 3917,
      "Ġredeem": 3918,
      "Ġassurance": 3919,
      "Ġpenal": 3920,
      "Ġtechnology": 3921,
      "Ġprivileges": 3922,
      "Ġaugment": 3923,
      "22": 3924,
      "cil": 3925,
      "Ġaward": 3926,
      "Ġtouch": 3927,
      "Ġfif": 3928,
      "omet": 3929,
      "ĠAust": 3930,
      "Ġdeleg": 3931,
      "Ġcontrary": 3932,
      "Ġcompared": 3933,
      "Ġarise": 3934,
      "Ġobst": 3935,
      "iously": 3936,
      "Ġcreation": 3937,
      "Ġconducted": 3938,
      "Ġaffecting": 3939,
      "Ġchoose": 3940,
      "Ġpoor": 3941,
      "Ġinadequate": 3942,
      "Ġcongrat": 3943,
      "Ġderived": 3944,
      "Ġsteam": 3945,
      "Ġcheck": 3946,
      "Ġcontroversy": 3947,
      "Ġsovereignty": 3948,
      "ironment": 3949,
      "cl": 3950,
      "uard": 3951,
      "ĠSup": 3952,
      "lls": 3953,
      "Ġmax": 3954,
      "Ġstr": 3955,
      "Ġris": 3956,
      "ightened": 3957,
      "ades": 3958,
      "Ġthereof": 3959,
      "Ġattended": 3960,
      "Ġeverything": 3961,
      "Ġexisted": 3962,
      "Ġstanding": 3963,
      "Ġchanged": 3964,
      "Ġexceeding": 3965,
      "ĠSupreme": 3966,
      "ean": 3967,
      "zil": 3968,
      "Ġwon": 3969,
      "Ġpath": 3970,
      "Ġbad": 3971,
      "law": 3972,
      "ordin": 3973,
      "angu": 3974,
      "Ġpassing": 3975,
      "Ġcents": 3976,
      "Ġcarefully": 3977,
      "Ġrealize": 3978,
      "Ġcommitment": 3979,
      "Ġmerit": 3980,
      "Ġdepends": 3981,
      "Ġaffected": 3982,
      "Ġcontribute": 3983,
      "withstanding": 3984,
      "Ġconsistent": 3985,
      "Ġfooting": 3986,
      "ĠBrazil": 3987,
      "Ġhitherto": 3988,
      "der": 3989,
      "jud": 3990,
      "Ġwrit": 3991,
      "Ġreject": 3992,
      "Ġreally": 3993,
      "Ġexecut": 3994,
      "Ġvo": 3995,
      "uel": 3996,
      "Ġabuses": 3997,
      "ruption": 3998,
      "Ġprovides": 3999,
      "Ġemp": 4000,
      "Ġdesp": 4001,
      "Ġsystems": 4002,
      "Ġequip": 4003,
      "Ġsafeg": 4004,
      "Ġsimply": 4005,
      "Ġrivers": 4006,
      "Ġwrongs": 4007,
      "Ġcolonies": 4008,
      "Ġsovereign": 4009,
      "Ġmurd": 4010,
      "Ġimpart": 4011,
      "Ġcontained": 4012,
      "amber": 4013,
      "ĠRec": 4014,
      "Ġgoals": 4015,
      "ĠHow": 4016,
      "Ġattend": 4017,
      "Ġimported": 4018,
      "Ġassured": 4019,
      "Ġtaxpay": 4020,
      "Ġhelping": 4021,
      "Ġexperiment": 4022,
      "Ġesc": 4023,
      "Ġkeeping": 4024,
      "Ġreturned": 4025,
      "Ġconcerns": 4026,
      "Ġseparate": 4027,
      "Ġabundant": 4028,
      "Ġpeculiar": 4029,
      "Ġhistoric": 4030,
      "side": 4031,
      "inc": 4032,
      "inced": 4033,
      "Ġsens": 4034,
      "eded": 4035,
      "Ġcommenced": 4036,
      "Ġcaused": 4037,
      "ricts": 4038,
      "Ġdependent": 4039,
      "Ġfeeling": 4040,
      "Ġflow": 4041,
      "Ġgrounds": 4042,
      "Ġenvironment": 4043,
      "Ġenabled": 4044,
      "ĠCommerce": 4045,
      "ĠIsthmus": 4046,
      "Ġobstac": 4047,
      "aign": 4048,
      "ler": 4049,
      "Ġthir": 4050,
      "Ġcop": 4051,
      "anqu": 4052,
      "ĠCo": 4053,
      "ourn": 4054,
      "ung": 4055,
      "unic": 4056,
      "Ġappeal": 4057,
      "Ġdisbur": 4058,
      "ĠRe": 4059,
      "Ġdecade": 4060,
      "Ġpaying": 4061,
      "Ġresulting": 4062,
      "Ġcollection": 4063,
      "Ġsuffering": 4064,
      "ĠAtt": 4065,
      "Ġcuts": 4066,
      "Ġdispatch": 4067,
      "Ġdraw": 4068,
      "Ġcorresponding": 4069,
      "Ġcoinage": 4070,
      "Ġoriginal": 4071,
      "Ġborder": 4072,
      "Ġactivity": 4073,
      "Ġtyp": 4074,
      "Ġcorrect": 4075,
      "ĠKorea": 4076,
      "kind": 4077,
      "iny": 4078,
      "inces": 4079,
      "ane": 4080,
      "Ġlove": 4081,
      "Ġcomes": 4082,
      "Ġagency": 4083,
      "Ġseven": 4084,
      "Ġargu": 4085,
      "igned": 4086,
      "Ġquarters": 4087,
      "Ġgovernmental": 4088,
      "Ġrequiring": 4089,
      "Ġagreements": 4090,
      "Ġsales": 4091,
      "Ġ1947": 4092,
      "Ġproclamation": 4093,
      "Ġexhibit": 4094,
      "Ġliqu": 4095,
      "Ġvictory": 4096,
      "Ġconfidently": 4097,
      "Ġinitiative": 4098,
      "Ġscarce": 4099,
      "68": 4100,
      "69": 4101,
      "lor": 4102,
      "wor": 4103,
      "Ġwit": 4104,
      "Ġpensions": 4105,
      "Ġtown": 4106,
      "Ġfost": 4107,
      "ched": 4108,
      "Ġadver": 4109,
      "Ġrig": 4110,
      "ĠBel": 4111,
      "Ġimper": 4112,
      "Ġmeant": 4113,
      "Ġarisen": 4114,
      "Ġanything": 4115,
      "Ġsupposed": 4116,
      "Ġdistress": 4117,
      "Ġprevented": 4118,
      "ĠAlask": 4119,
      "Ġofficials": 4120,
      "Ġcampaign": 4121,
      "ometimes": 4122,
      "gic": 4123,
      "Ġscale": 4124,
      "Ġmiss": 4125,
      "Ġgone": 4126,
      "ĠThus": 4127,
      "ulf": 4128,
      "ifice": 4129,
      "Ġchea": 4130,
      "ĠBe": 4131,
      "ĠBecause": 4132,
      "Ġcompany": 4133,
      "Ġprem": 4134,
      "ĠHer": 4135,
      "Ġquite": 4136,
      "Ġserved": 4137,
      "Ġreducing": 4138,
      "Ġappropriated": 4139,
      "Ġsurre": 4140,
      "Ġreported": 4141,
      "Ġbanking": 4142,
      "ĠViet": 4143,
      "Ġinstall": 4144,
      "Ġsuggestion": 4145,
      "Ġconcerning": 4146,
      "Ġseemed": 4147,
      "Ġaccounts": 4148,
      "Ġsentiment": 4149,
      "Ġperformed": 4150,
      "Ġobserv": 4151,
      "Ġlevels": 4152,
      "Ġpreparation": 4153,
      "Ġultimately": 4154,
      "ĠAmong": 4155,
      "21": 4156,
      "38": 4157,
      "IN": 4158,
      "dden": 4159,
      "mir": 4160,
      "Ġmount": 4161,
      "Ġsums": 4162,
      "Ġstable": 4163,
      "Ġnet": 4164,
      "Ġshores": 4165,
      "osen": 4166,
      "irect": 4167,
      "Ġdiscip": 4168,
      "ĠOF": 4169,
      "Ġtraffic": 4170,
      "Ġconferred": 4171,
      "Ġadvoc": 4172,
      "Ġhopes": 4173,
      "ĠSecond": 4174,
      "Ġinsp": 4175,
      "Ġsuccessfully": 4176,
      "Ġinvestig": 4177,
      "Ġcompetent": 4178,
      "Ġnaturalization": 4179,
      "Ġexpedition": 4180,
      "Ġsections": 4181,
      "Ġdetails": 4182,
      "Ġinjuries": 4183,
      "Ġanticipated": 4184,
      "Ġpleas": 4185,
      "Ġredress": 4186,
      "Ġpropriety": 4187,
      "eff": 4188,
      "lin": 4189,
      "Ġow": 4190,
      "Ġsometimes": 4191,
      "Ġfru": 4192,
      "Ġlately": 4193,
      "ĠTur": 4194,
      "Ġgain": 4195,
      "Ġsudden": 4196,
      "Ġrural": 4197,
      "usion": 4198,
      "lace": 4199,
      "ipartisan": 4200,
      "Ġenorm": 4201,
      "Ġcher": 4202,
      "ĠMon": 4203,
      "Ġworked": 4204,
      "Ġpride": 4205,
      "retion": 4206,
      "Ġdistricts": 4207,
      "Ġmarine": 4208,
      "Ġprobable": 4209,
      "Ġdiscretion": 4210,
      "Ġlabors": 4211,
      "Ġlooking": 4212,
      "Ġ40": 4213,
      "Ġannually": 4214,
      "ĠJapanese": 4215,
      "wai": 4216,
      "Ġbreak": 4217,
      "ĠAfrica": 4218,
      "Ġidea": 4219,
      "Ġtitle": 4220,
      "Ġdaily": 4221,
      "ĠHawai": 4222,
      "99": 4223,
      "aid": 4224,
      "Ġaut": 4225,
      "Ġweight": 4226,
      "Ġlack": 4227,
      "ensus": 4228,
      "Ġunex": 4229,
      "Ġtranqu": 4230,
      "Ġpolice": 4231,
      "Ġsupported": 4232,
      "Ġbuildings": 4233,
      "Ġpromotion": 4234,
      "Ġbalanced": 4235,
      "Ġinsurg": 4236,
      "Ġcreating": 4237,
      "Ġpractically": 4238,
      "Ġguns": 4239,
      "Ġinduce": 4240,
      "ĠLegislature": 4241,
      "Ġmachin": 4242,
      "Ġscientific": 4243,
      "ull": 4244,
      "ator": 4245,
      "Ġfire": 4246,
      "Ġmob": 4247,
      "Ġbegan": 4248,
      "Ġgrown": 4249,
      "Ġincon": 4250,
      "Ġincent": 4251,
      "Ġunity": 4252,
      "ĠOreg": 4253,
      "Ġattach": 4254,
      "Ġquick": 4255,
      "Ġmyself": 4256,
      "Ġdefect": 4257,
      "Ġdepression": 4258,
      "Ġhelped": 4259,
      "Ġseeking": 4260,
      "Ġfavored": 4261,
      "Ġjudge": 4262,
      "Ġdoub": 4263,
      "Ġdomin": 4264,
      "Ġfaithful": 4265,
      "Ġmanufacturing": 4266,
      "Ġexception": 4267,
      "Ġacquis": 4268,
      "ĠComp": 4269,
      "Ġdemonstrated": 4270,
      "Ġrelieve": 4271,
      "Ġdecrease": 4272,
      "ĠMedicare": 4273,
      "Ġmachinery": 4274,
      "ĠOregon": 4275,
      "55": 4276,
      "apt": 4277,
      "right": 4278,
      "uit": 4279,
      "wo": 4280,
      "Ġduly": 4281,
      "illing": 4282,
      "Ġstay": 4283,
      "Ġadmission": 4284,
      "ĠMiddle": 4285,
      "ume": 4286,
      "Ġuncertain": 4287,
      "Ġspace": 4288,
      "Ġprud": 4289,
      "Ġremark": 4290,
      "Ġtrained": 4291,
      "Ġexpended": 4292,
      "Ġrespecting": 4293,
      "Ġpractices": 4294,
      "Ġ50": 4295,
      "Ġseriously": 4296,
      "Ġfram": 4297,
      "Ġfurnished": 4298,
      "Ġterrorists": 4299,
      "Ġdenied": 4300,
      "Ġbearing": 4301,
      "Ġborders": 4302,
      "Ġdebts": 4303,
      "Ġparticipation": 4304,
      "Ġharbors": 4305,
      "Ġrestrictions": 4306,
      "Ġinevitable": 4307,
      "Ġinquir": 4308,
      "Ġcomparative": 4309,
      "Ġreorganization": 4310,
      "oly": 4311,
      "rine": 4312,
      "uous": 4313,
      "Ġign": 4314,
      "esides": 4315,
      "Ġlot": 4316,
      "Ġwel": 4317,
      "Ġchosen": 4318,
      "Ġarrest": 4319,
      "Ġprejud": 4320,
      "ĠHav": 4321,
      "Ġsupplement": 4322,
      "Ġplay": 4323,
      "Ġinterp": 4324,
      "Ġannex": 4325,
      "Ġachieved": 4326,
      "Ġelections": 4327,
      "Ġdetailed": 4328,
      "Ġslight": 4329,
      "ĠCanal": 4330,
      "Ġutmost": 4331,
      "Ġreciprocal": 4332,
      "Ġgroups": 4333,
      "Ġcertific": 4334,
      "Ġbelligerent": 4335,
      "mal": 4336,
      "ude": 4337,
      "Ġbipartisan": 4338,
      "Ġmunic": 4339,
      "anim": 4340,
      "Ġeast": 4341,
      "Ġdocu": 4342,
      "ommod": 4343,
      "ventions": 4344,
      "Ġdecide": 4345,
      "Ġamounts": 4346,
      "Ġcharges": 4347,
      "Ġincluded": 4348,
      "Ġsettlements": 4349,
      "Ġenlightened": 4350,
      "Ġsaving": 4351,
      "Ġcollected": 4352,
      "Ġslave": 4353,
      "Ġslavery": 4354,
      "Ġteachers": 4355,
      "ĠPhilippines": 4356,
      "Ġabsolutely": 4357,
      "Ġglobal": 4358,
      "rief": 4359,
      "Ġscarcely": 4360,
      "Ġwitness": 4361,
      "Ġmunicip": 4362,
      "Ġmist": 4363,
      "asions": 4364,
      "Ġgall": 4365,
      "Ġexcell": 4366,
      "Ġintention": 4367,
      "lad": 4368,
      "ĠMost": 4369,
      "Ġaccommod": 4370,
      "Ġregions": 4371,
      "ext": 4372,
      "Ġplant": 4373,
      "enez": 4374,
      "Ġannounce": 4375,
      "Ġletter": 4376,
      "Ġenlarged": 4377,
      "Ġadvancement": 4378,
      "Ġstudents": 4379,
      "ĠShould": 4380,
      "Ġinaug": 4381,
      "Ġprosecution": 4382,
      "Ġrepeat": 4383,
      "Ġlearn": 4384,
      "Ġsacrifice": 4385,
      "35": 4386,
      "rained": 4387,
      "Ġnote": 4388,
      "Ġcontra": 4389,
      "Ġcomprom": 4390,
      "Ġmankind": 4391,
      "Ġactions": 4392,
      "Ġdeserve": 4393,
      "Ġauthorizing": 4394,
      "Ġcoal": 4395,
      "Ġfinances": 4396,
      "Ġdeveloping": 4397,
      "Ġfounded": 4398,
      "Ġsuffer": 4399,
      "ĠCommissioner": 4400,
      "Ġgenerations": 4401,
      "Ġsustain": 4402,
      "Ġdeposits": 4403,
      "Ġvigil": 4404,
      "Ġsubsid": 4405,
      "Ġultimate": 4406,
      "Ġstipulations": 4407,
      "Ġdeliber": 4408,
      "Ġpledge": 4409,
      "Ġcounsel": 4410,
      "Ġpartnership": 4411,
      "Ġentertained": 4412,
      "Ġdisease": 4413,
      "Ġtribunal": 4414,
      "Ġemphas": 4415,
      "ĠColombia": 4416,
      "ĠVietnam": 4417,
      "98": 4418,
      "Ġasking": 4419,
      "ĠBank": 4420,
      "Ġalle": 4421,
      "Ġsevere": 4422,
      "adron": 4423,
      "Ġamb": 4424,
      "ĠDem": 4425,
      "Ġattitude": 4426,
      "minent": 4427,
      "Ġtravel": 4428,
      "Ġrad": 4429,
      "Ġtransact": 4430,
      "Ġcentral": 4431,
      "teen": 4432,
      "Ġlev": 4433,
      "Ġgrave": 4434,
      "Ġnegotiated": 4435,
      "Ġopinions": 4436,
      "regard": 4437,
      "Ġspeedy": 4438,
      "ĠAfgh": 4439,
      "Ġharbor": 4440,
      "Ġcomplaint": 4441,
      "Ġcruis": 4442,
      "cation": 4443,
      "ding": 4444,
      "eries": 4445,
      "Ġfal": 4446,
      "Ġlie": 4447,
      "Ġmast": 4448,
      "Ġste": 4449,
      "ister": 4450,
      "empted": 4451,
      "Ġcommod": 4452,
      "Ġusual": 4453,
      "Ġ22": 4454,
      "Ġdiff": 4455,
      "Ġwherever": 4456,
      "Ġrespects": 4457,
      "Ġreflect": 4458,
      "Ġpreserved": 4459,
      "ĠVenez": 4460,
      "Ġcommunications": 4461,
      "Ġportions": 4462,
      "Ġprofit": 4463,
      "Ġsaved": 4464,
      "Ġwisely": 4465,
      "Ġtendency": 4466,
      "Ġpatriotism": 4467,
      "Ġgroup": 4468,
      "being": 4469,
      "Ġcommencement": 4470,
      "Ġcand": 4471,
      "oubted": 4472,
      "Ġlies": 4473,
      "Ġlangu": 4474,
      "istan": 4475,
      "ĠFlor": 4476,
      "ĠPr": 4477,
      "Ġcomplic": 4478,
      "ĠEmper": 4479,
      "Ġemig": 4480,
      "Ġoutl": 4481,
      "ĠLabor": 4482,
      "oyal": 4483,
      "struction": 4484,
      "Ġrealized": 4485,
      "Ġaccomplishment": 4486,
      "Ġholding": 4487,
      "Ġinstructed": 4488,
      "Ġstructure": 4489,
      "Ġelected": 4490,
      "Ġchallenges": 4491,
      "Ġundertaking": 4492,
      "Ġvoluntary": 4493,
      "Ġelements": 4494,
      "Ġroutes": 4495,
      "ĠJustice": 4496,
      "Ġsympathy": 4497,
      "haust": 4498,
      "Ġequipment": 4499,
      "ĠAttorney": 4500,
      "ĠFlorid": 4501,
      "ĠEmperor": 4502,
      "48": 4503,
      "ault": 4504,
      "oh": 4505,
      "Ġinjust": 4506,
      "Ġmort": 4507,
      "Ġadap": 4508,
      "Ġexpression": 4509,
      "ipotent": 4510,
      "Ġagent": 4511,
      "ibility": 4512,
      "Ġdisregard": 4513,
      "Ġpartial": 4514,
      "Ġpursue": 4515,
      "Ġextreme": 4516,
      "Ġauthorize": 4517,
      "apers": 4518,
      "Ġsurv": 4519,
      "Ġapprove": 4520,
      "Ġschem": 4521,
      "ĠVice": 4522,
      "Ġpromoting": 4523,
      "Ġshowing": 4524,
      "akes": 4525,
      "evolution": 4526,
      "Ġsolic": 4527,
      "Ġlosses": 4528,
      "Ġgradually": 4529,
      "Ġsacred": 4530,
      "Ġdeeply": 4531,
      "Ġdiscrimination": 4532,
      "Ġneutrality": 4533,
      "Ġassoci": 4534,
      "Ġcritical": 4535,
      "Ġzeal": 4536,
      "Ġcalculated": 4537,
      "Ġmaximum": 4538,
      "Ġcopy": 4539,
      "Ġmunicipal": 4540,
      "ĠAfghan": 4541,
      "Ġadapted": 4542,
      "45": 4543,
      "67": 4544,
      "acc": 4545,
      "year": 4546,
      "Ġdivers": 4547,
      "theless": 4548,
      "Ġaltern": 4549,
      "Ġdisaster": 4550,
      "ĠRes": 4551,
      "ĠHere": 4552,
      "Ġquant": 4553,
      "Ġoutside": 4554,
      "ĠLou": 4555,
      "Ġbecoming": 4556,
      "Ġconfined": 4557,
      "Ġplen": 4558,
      "Ġprotecting": 4559,
      "Ġbelow": 4560,
      "Ġcorps": 4561,
      "Ġremained": 4562,
      "Ġstrengthened": 4563,
      "Ġ1890": 4564,
      "Ġslow": 4565,
      "Ġredem": 4566,
      "Ġreciprocity": 4567,
      "Ġencouraging": 4568,
      "Ġuniversal": 4569,
      "Ġmentioned": 4570,
      "Ġacquisition": 4571,
      "ĠDemoc": 4572,
      "Ġcash": 4573,
      "ancing": 4574,
      "Ġconcess": 4575,
      "ĠThrough": 4576,
      "eared": 4577,
      "Ġensu": 4578,
      "Ġamicable": 4579,
      "Ġ200": 4580,
      "ĠChile": 4581,
      "ĠConference": 4582,
      "Ġtransit": 4583,
      "Ġsummer": 4584,
      "Ġeffectively": 4585,
      "Ġsatisfied": 4586,
      "Ġacquired": 4587,
      "Ġfacilit": 4588,
      "Ġpressing": 4589,
      "Ġillust": 4590,
      "Ġinjurious": 4591,
      "ENT": 4592,
      "ĠCorps": 4593,
      "Ġcommittee": 4594,
      "cription": 4595,
      "Ġrequisite": 4596,
      "ĠAlaska": 4597,
      "Ġdiscipline": 4598,
      "Ġenormous": 4599,
      "ĠLouis": 4600,
      "des": 4601,
      "ming": 4602,
      "mark": 4603,
      "oks": 4604,
      "Ġburea": 4605,
      "Ġtop": 4606,
      "Ġforced": 4607,
      "lling": 4608,
      "rand": 4609,
      "ĠCar": 4610,
      "ĠCivil": 4611,
      "Ġ17": 4612,
      "Ġ100": 4613,
      "Ġimpose": 4614,
      "Ġeveryone": 4615,
      "Ġjustified": 4616,
      "Ġreductions": 4617,
      "Ġcapable": 4618,
      "Ġpostpon": 4619,
      "Ġfairly": 4620,
      "Ġimmense": 4621,
      "Ġundoubted": 4622,
      "Ġprepare": 4623,
      "Ġelement": 4624,
      "Ġsquadron": 4625,
      "class": 4626,
      "Ġinconven": 4627,
      "Ġplenipotent": 4628,
      "ux": 4629,
      "Ġsides": 4630,
      "urs": 4631,
      "Ġlose": 4632,
      "ĠII": 4633,
      "Ġitem": 4634,
      "ĠSant": 4635,
      "Ġexposed": 4636,
      "ĠBudget": 4637,
      "Ġimperative": 4638,
      "Ġcompelled": 4639,
      "Ġtherein": 4640,
      "Ġacted": 4641,
      "position": 4642,
      "Ġends": 4643,
      "Ġfinance": 4644,
      "Ġobjection": 4645,
      "Ġscope": 4646,
      "Ġexperi": 4647,
      "Ġeducational": 4648,
      "Ġcompetitive": 4649,
      "Ġselfish": 4650,
      "Ġdivision": 4651,
      "Ġattained": 4652,
      "Ġwithdrawn": 4653,
      "Ġdrugs": 4654,
      "ĠRico": 4655,
      "IT": 4656,
      "co": 4657,
      "ded": 4658,
      "uff": 4659,
      "vest": 4660,
      "Ġsouth": 4661,
      "Ġbrief": 4662,
      "third": 4663,
      "Ġexhaust": 4664,
      "ria": 4665,
      "ĠGovern": 4666,
      "ĠMan": 4667,
      "Ġselection": 4668,
      "Ġdiscont": 4669,
      "ĠHouses": 4670,
      "Ġlasting": 4671,
      "Ġinvasion": 4672,
      "Ġreceiving": 4673,
      "Ġconcil": 4674,
      "rank": 4675,
      "Ġhero": 4676,
      "Ġoperate": 4677,
      "version": 4678,
      "Ġdomain": 4679,
      "Ġmessages": 4680,
      "Ġinformed": 4681,
      "Ġobserved": 4682,
      "Ġenjoyment": 4683,
      "Ġusefulness": 4684,
      "Ġfunction": 4685,
      "Ġcoverage": 4686,
      "Ġascertained": 4687,
      "Ġconstitu": 4688,
      "Ġtransfer": 4689,
      "Ġaccompanying": 4690,
      "ĠPeru": 4691,
      "Ġensure": 4692,
      "Ġimpartial": 4693,
      "Ġpleasure": 4694,
      "Ġcertificates": 4695,
      "Ġinaugur": 4696,
      "ĠFlorida": 4697,
      "uge": 4698,
      "inet": 4699,
      "Ġsear": 4700,
      "Ġtough": 4701,
      "alle": 4702,
      "ilization": 4703,
      "Ġconde": 4704,
      "ĠAb": 4705,
      "idable": 4706,
      "ateful": 4707,
      "ĠGulf": 4708,
      "ĠMar": 4709,
      "umb": 4710,
      "Ġunable": 4711,
      "uela": 4712,
      "Ġarts": 4713,
      "Ġacting": 4714,
      "Ġremot": 4715,
      "ĠLond": 4716,
      "Ġpositions": 4717,
      "Ġsail": 4718,
      "Ġwhenever": 4719,
      "Ġrespectfully": 4720,
      "luding": 4721,
      "oked": 4722,
      "Ġdispute": 4723,
      "Ġflood": 4724,
      "Ġcombined": 4725,
      "Ġachievement": 4726,
      "Ġspeedily": 4727,
      "Ġmanifested": 4728,
      "Ġterminated": 4729,
      "Ġconstitute": 4730,
      "Ġcomfort": 4731,
      "ordinate": 4732,
      "Ġthirty": 4733,
      "Ġinterpret": 4734,
      "Ġinjustice": 4735,
      "Ġredemption": 4736,
      "ĠLondon": 4737,
      "az": 4738,
      "aking": 4739,
      "gra": 4740,
      "ls": 4741,
      "limin": 4742,
      "part": 4743,
      "anks": 4744,
      "ilst": 4745,
      "Ġwhite": 4746,
      "ĠSe": 4747,
      "rage": 4748,
      "Ġintent": 4749,
      "Ġ16": 4750,
      "Ġenh": 4751,
      "ĠFin": 4752,
      "ĠRio": 4753,
      "Ġassigned": 4754,
      "Ġterritories": 4755,
      "Ġopposition": 4756,
      "Ġlabore": 4757,
      "Ġrepresentation": 4758,
      "Ġevident": 4759,
      "Ġposts": 4760,
      "Ġhappen": 4761,
      "ĠNothing": 4762,
      "Ġsuperior": 4763,
      "Ġcombinations": 4764,
      "Ġenjoyed": 4765,
      "Ġideals": 4766,
      "Ġinspection": 4767,
      "Ġtruly": 4768,
      "ĠVenezuela": 4769,
      "Office": 4770,
      "lers": 4771,
      "mar": 4772,
      "rep": 4773,
      "erted": 4774,
      "Ġpain": 4775,
      "Ġnam": 4776,
      "leb": 4777,
      "ĠSw": 4778,
      "riers": 4779,
      "ĠGe": 4780,
      "ansas": 4781,
      "Ġthank": 4782,
      "Ġpresents": 4783,
      "Ġraising": 4784,
      "Ġclaimed": 4785,
      "Ġdouble": 4786,
      "Ġexpectation": 4787,
      "Ġrailway": 4788,
      "Ġoccupied": 4789,
      "Ġpreviously": 4790,
      "Ġlimitation": 4791,
      "Ġtrying": 4792,
      "Ġmotives": 4793,
      "Ġshipping": 4794,
      "Ġanxious": 4795,
      "Ġacknowledged": 4796,
      "ĠItaly": 4797,
      "Ġrisk": 4798,
      "Ġexecuted": 4799,
      "Ġtransactions": 4800,
      ".,": 4801,
      "nage": 4802,
      "rist": 4803,
      "Ġtim": 4804,
      "orable": 4805,
      "Ġhouse": 4806,
      "uting": 4807,
      "ĠSouthern": 4808,
      "Ġincons": 4809,
      "Ġabuse": 4810,
      "Ġindul": 4811,
      "Ġquiet": 4812,
      "Ġoutstanding": 4813,
      "Ġdecades": 4814,
      "Ġdepri": 4815,
      "Ġdepart": 4816,
      "ĠConf": 4817,
      "Ġrests": 4818,
      "Ġbuy": 4819,
      "Ġinvested": 4820,
      "Ġexert": 4821,
      "Ġreturns": 4822,
      "Ġcooperate": 4823,
      "Ġgratitude": 4824,
      "Ġsufficiently": 4825,
      "Ġacquies": 4826,
      "Ġblock": 4827,
      "Ġpressure": 4828,
      "Ġfortifications": 4829,
      "Ġexpanding": 4830,
      "Ġimmigrants": 4831,
      "Ġreservations": 4832,
      "Ġwestern": 4833,
      "liest": 4834,
      "100": 4835,
      "gin": 4836,
      "under": 4837,
      "Ġsen": 4838,
      "Ġnative": 4839,
      "Ġanim": 4840,
      "Ġunanim": 4841,
      "term": 4842,
      "Ġdisord": 4843,
      "Ġspend": 4844,
      "Ġinvitation": 4845,
      "ĠWhere": 4846,
      "Ġstands": 4847,
      "Ġsmaller": 4848,
      "ĠWithout": 4849,
      "Ġministers": 4850,
      "Ġmember": 4851,
      "Ġdeficiency": 4852,
      "Ġmaterially": 4853,
      "Ġinvolve": 4854,
      "Ġinvolving": 4855,
      "Ġvolume": 4856,
      "Ġconvinced": 4857,
      "Ġ1946": 4858,
      "Ġcombination": 4859,
      "Ġcease": 4860,
      "Ġchiefly": 4861,
      "Ġprecious": 4862,
      "Ġenlisted": 4863,
      "Ġsafeguard": 4864,
      "Ġdocuments": 4865,
      "Ġcruisers": 4866,
      "com": 4867,
      "morrow": 4868,
      "itably": 4869,
      "Ġpresident": 4870,
      "Ġmiddle": 4871,
      "Ġproced": 4872,
      "Ġaspect": 4873,
      "lled": 4874,
      "Ġshape": 4875,
      "etary": 4876,
      "Ġintend": 4877,
      "Ġlaun": 4878,
      "osing": 4879,
      "Ġrank": 4880,
      "Ġchann": 4881,
      "ĠOver": 4882,
      "Ġpartisan": 4883,
      "Ġprelimin": 4884,
      "ĠEach": 4885,
      "issions": 4886,
      "Ġattract": 4887,
      "Ġattempted": 4888,
      "Ġsubjected": 4889,
      "Ġgrateful": 4890,
      "Ġrefus": 4891,
      "Ġpresence": 4892,
      "Ġdoubted": 4893,
      "Ġfollows": 4894,
      "Ġprofitable": 4895,
      "Ġproceeding": 4896,
      "Ġcompletely": 4897,
      "Ġsurely": 4898,
      "Ġproclaim": 4899,
      "Ġvisit": 4900,
      "ĠMoreover": 4901,
      "Ġphys": 4902,
      "Ġhours": 4903,
      "ĠCompany": 4904,
      "37": 4905,
      "58": 4906,
      "66": 4907,
      "UR": 4908,
      "pro": 4909,
      "ino": 4910,
      "ication": 4911,
      "ĠAN": 4912,
      "Ġnotwithstanding": 4913,
      "nitude": 4914,
      "Ġspring": 4915,
      "ĠEven": 4916,
      "ditional": 4917,
      "Ġ28": 4918,
      "Ġhereafter": 4919,
      "Ġminor": 4920,
      "Ġobjectives": 4921,
      "Ġrefused": 4922,
      "together": 4923,
      "Ġlikewise": 4924,
      "Ġmoneys": 4925,
      "Ġaffords": 4926,
      "Ġregulate": 4927,
      "Ġceleb": 4928,
      "Ġsettlers": 4929,
      "Ġsurveys": 4930,
      "Ġneighborhood": 4931,
      "Ġdestroyed": 4932,
      "Ġforests": 4933,
      "Ġapprehension": 4934,
      "Ġmagnitude": 4935,
      "ĠPortug": 4936,
      "Ġpredecessor": 4937,
      "Ġcondemn": 4938,
      "oard": 4939,
      "tered": 4940,
      "Ġtempt": 4941,
      "inqu": 4942,
      "rees": 4943,
      "Ġwent": 4944,
      "iter": 4945,
      "Ġsinking": 4946,
      "Ġhemisphere": 4947,
      "Ġdur": 4948,
      "urch": 4949,
      "urities": 4950,
      "Ġere": 4951,
      "illity": 4952,
      "urely": 4953,
      "ĠBay": 4954,
      "Ġaltogether": 4955,
      "aded": 4956,
      "Ġamity": 4957,
      "ounds": 4958,
      "Ġforever": 4959,
      "ĠLat": 4960,
      "Ġownership": 4961,
      "Ġproducing": 4962,
      "Ġdefenses": 4963,
      "Ġpromises": 4964,
      "iana": 4965,
      "Ġprogressive": 4966,
      "Ġprescribed": 4967,
      "Ġcommissioner": 4968,
      "Ġproductions": 4969,
      "Ġlocalities": 4970,
      "Ġtonnage": 4971,
      "Ġkinds": 4972,
      "Ġdisputes": 4973,
      "Ġobserve": 4974,
      "Ġsubstantially": 4975,
      "Ġguarantee": 4976,
      "Ġintelligent": 4977,
      "ĠPhilippine": 4978,
      "Ġfleet": 4979,
      "Ġconstituted": 4980,
      "Ġweek": 4981,
      "Ġweeks": 4982,
      "Ġreligious": 4983,
      "Ġdistinct": 4984,
      "uilding": 4985,
      "Ġmultip": 4986,
      "Ġdisburse": 4987,
      "Ġcompromise": 4988,
      "44": 4989,
      "ST": 4990,
      "fare": 4991,
      "ped": 4992,
      "rig": 4993,
      "Ġcat": 4994,
      "eds": 4995,
      "Ġloyal": 4996,
      "oms": 4997,
      "Ġanc": 4998,
      "Ġsto": 4999,
      "ĠMad": 5000,
      "andise": 5001,
      "ador": 5002,
      "Ġtakes": 5003,
      "Ġpref": 5004,
      "seless": 5005,
      "Ġremind": 5006,
      "Ġ24": 5007,
      "Ġ27": 5008,
      "Ġlegislature": 5009,
      "ĠChief": 5010,
      "ĠCons": 5011,
      "Ġoccasions": 5012,
      "Ġcalling": 5013,
      "Ġpostage": 5014,
      "Ġconstructive": 5015,
      "Ġmoderate": 5016,
      "Ġratifications": 5017,
      "Ġexpediency": 5018,
      "Ġcontributions": 5019,
      "Ġhostility": 5020,
      "Ġturned": 5021,
      "Ġdeclaration": 5022,
      "Ġdischarged": 5023,
      "Ġgradual": 5024,
      "Ġenvoy": 5025,
      "Ġskills": 5026,
      "Ġenlargement": 5027,
      "Ġtranquillity": 5028,
      "ohn": 5029,
      "iate": 5030,
      "vation": 5031,
      "erable": 5032,
      "alk": 5033,
      "urally": 5034,
      "utary": 5035,
      "Ġgot": 5036,
      "Ġconced": 5037,
      "ĠCap": 5038,
      "Ġalleg": 5039,
      "Ġselected": 5040,
      "Ġunh": 5041,
      "Ġperil": 5042,
      "Ġperse": 5043,
      "rupted": 5044,
      "ĠJohn": 5045,
      "Ġowners": 5046,
      "Ġadvances": 5047,
      "ograph": 5048,
      "Ġannounced": 5049,
      "Ġpreserving": 5050,
      "Ġrevol": 5051,
      "Ġcircuit": 5052,
      "Ġpolitics": 5053,
      "Ġexcite": 5054,
      "Ġincludes": 5055,
      "Ġfunding": 5056,
      "Ġprofess": 5057,
      "Ġsentiments": 5058,
      "Ġrole": 5059,
      "Ġabsence": 5060,
      "Ġreadily": 5061,
      "Ġmerchandise": 5062,
      "Ġideas": 5063,
      "Ġassurances": 5064,
      "Ġabandoned": 5065,
      "Ġreserves": 5066,
      "Ġaccompanied": 5067,
      "Ġtroub": 5068,
      "Ġalien": 5069,
      "Ġadvisable": 5070,
      "Ġprimary": 5071,
      "ĠBelg": 5072,
      "RO": 5073,
      "pir": 5074,
      "Ġ.": 5075,
      "Ġil": 5076,
      "Ġhes": 5077,
      "Ġey": 5078,
      "vered": 5079,
      "Ġstre": 5080,
      "ĠGu": 5081,
      "Ġvision": 5082,
      "key": 5083,
      "ĠNeg": 5084,
      "uniary": 5085,
      "Ġunw": 5086,
      "Ġdisast": 5087,
      "Ġconservation": 5088,
      "Ġpred": 5089,
      "stitute": 5090,
      "Ġsecurities": 5091,
      "ago": 5092,
      "Ġsuppression": 5093,
      "Ġeconomical": 5094,
      "Ġadvice": 5095,
      "ĠIndeed": 5096,
      "Ġorganizations": 5097,
      "ellion": 5098,
      "Ġpreventing": 5099,
      "Ġfaithfully": 5100,
      "Ġcooperative": 5101,
      "Ġhardly": 5102,
      "Ġpursuance": 5103,
      "Ġlowest": 5104,
      "Ġ1945": 5105,
      "Ġmoving": 5106,
      "Ġmeaning": 5107,
      "Ġpecuniary": 5108,
      "Ġera": 5109,
      "ĠProvinces": 5110,
      "Ġstrategic": 5111,
      "Ġincurred": 5112,
      "ĠTurkey": 5113,
      "Ġinquiry": 5114,
      "Ġensuing": 5115,
      "ĠGeor": 5116,
      "Ġpreliminary": 5117,
      "Ġilleg": 5118,
      "MENT": 5119,
      "eas": 5120,
      "iest": 5121,
      "vag": 5122,
      "ze": 5123,
      "Ġowe": 5124,
      "ony": 5125,
      "Ġswe": 5126,
      "Ġcable": 5127,
      "entle": 5128,
      "ceive": 5129,
      "ims": 5130,
      "resh": 5131,
      "irth": 5132,
      "abilities": 5133,
      "Ġvic": 5134,
      "ĠCongressional": 5135,
      "Ġunus": 5136,
      "ĠOther": 5137,
      "Ġconsumer": 5138,
      "ague": 5139,
      "Ġnecessities": 5140,
      "Ġtreated": 5141,
      "Ġdecent": 5142,
      "anges": 5143,
      "Ġearliest": 5144,
      "Ġordered": 5145,
      "ĠChrist": 5146,
      "Ġimproving": 5147,
      "Ġrelationship": 5148,
      "Ġpresum": 5149,
      "Ġapprox": 5150,
      "Ġnaturally": 5151,
      "Ġinvestments": 5152,
      "Ġgrade": 5153,
      "Ġdisposal": 5154,
      "Ġpursuits": 5155,
      "ĠAnother": 5156,
      "Ġsafely": 5157,
      "Ġstriking": 5158,
      "Ġroute": 5159,
      "ĠCommunist": 5160,
      "Ġsteamers": 5161,
      "ĠHawaii": 5162,
      "Ġlanguage": 5163,
      "ĠAfghanistan": 5164,
      "ĠConfed": 5165,
      "),": 5166,
      "39": 5167,
      "bre": 5168,
      "band": 5169,
      "yn": 5170,
      "ale": 5171,
      "lying": 5172,
      "Ġgross": 5173,
      "Ġdead": 5174,
      "Ġmails": 5175,
      "iveness": 5176,
      "Ġincomes": 5177,
      "Ġuncon": 5178,
      "Ġterritorial": 5179,
      "Ġclimate": 5180,
      "Ġcalls": 5181,
      "Ġviolent": 5182,
      "Ġpermanently": 5183,
      "Ġsignific": 5184,
      "Ġfourth": 5185,
      "Ġpurchasing": 5186,
      "Ġwishes": 5187,
      "Ġpunish": 5188,
      "Ġlearned": 5189,
      "Ġtermination": 5190,
      "rusted": 5191,
      "Ġthoroughly": 5192,
      "Ġconvenient": 5193,
      "Ġvigorous": 5194,
      "Ġvolunteers": 5195,
      "Ġbrave": 5196,
      "Ġescape": 5197,
      "Ġinsurgents": 5198,
      "Ġremarkable": 5199,
      "Ġfalse": 5200,
      "Ġscheme": 5201,
      "Ġremote": 5202,
      "gent": 5203,
      "uity": 5204,
      "Ġtreas": 5205,
      "Ġbase": 5206,
      "Ġtomorrow": 5207,
      "omic": 5208,
      "Ġforget": 5209,
      "ĠTwo": 5210,
      "Ġisol": 5211,
      "ĠThird": 5212,
      "Ġche": 5213,
      "ĠMuch": 5214,
      "Ġcontent": 5215,
      "Ġunav": 5216,
      "ots": 5217,
      "eping": 5218,
      "ĠWell": 5219,
      "ĠDE": 5220,
      "Ġindirect": 5221,
      "Ġplants": 5222,
      "Ġfarms": 5223,
      "Ġequitable": 5224,
      "Ġupward": 5225,
      "Ġopposed": 5226,
      "Ġclaimants": 5227,
      "Ġcargo": 5228,
      "Ġdiscl": 5229,
      "athers": 5230,
      "Ġhealthy": 5231,
      "Ġseries": 5232,
      "Ġmerits": 5233,
      "Ġthreaten": 5234,
      "Ġproceeded": 5235,
      "Ġmetals": 5236,
      "ĠShe": 5237,
      "Ġdeclined": 5238,
      "Ġundertake": 5239,
      "Ġreadjust": 5240,
      "Ġexcessive": 5241,
      "Ġparticipate": 5242,
      "Ġneighboring": 5243,
      "Ġfrequent": 5244,
      "Ġtaxpayers": 5245,
      "Ġundoubtedly": 5246,
      "aired": 5247,
      "rid": 5248,
      "war": 5249,
      "Ġtried": 5250,
      "ina": 5251,
      "iled": 5252,
      "Ġgas": 5253,
      "Ġconver": 5254,
      "Ġconventions": 5255,
      "Ġwithhold": 5256,
      "ivity": 5257,
      "izes": 5258,
      "ourth": 5259,
      "ĠRevolution": 5260,
      "Ġwarfare": 5261,
      "Ġpeacetime": 5262,
      "Ġinterfere": 5263,
      "Ġresponse": 5264,
      "Ġcomplex": 5265,
      "Ġaddressed": 5266,
      "Ġmodification": 5267,
      "Ġrailways": 5268,
      "Ġcoasts": 5269,
      "Ġcorporation": 5270,
      "Ġaccordingly": 5271,
      "ĠFellow": 5272,
      "Ġdiminished": 5273,
      "Ġdevoted": 5274,
      "Ġengagements": 5275,
      "Ġdoctrine": 5276,
      "Ġcloser": 5277,
      "Ġsurrender": 5278,
      "Ġannexation": 5279,
      "Ġdeliberations": 5280,
      "ĠAND": 5281,
      ".--": 5282,
      "59": 5283,
      "__": 5284,
      "fe": 5285,
      "ship": 5286,
      "Ġwool": 5287,
      "Ġband": 5288,
      "ancy": 5289,
      "enth": 5290,
      "uries": 5291,
      "Ġforg": 5292,
      "ĠIran": 5293,
      "idst": 5294,
      "Ġstream": 5295,
      "Ġdispl": 5296,
      "Ġcompact": 5297,
      "Ġcomposed": 5298,
      "Ġrecommending": 5299,
      "Ġforeigners": 5300,
      "Ġwhereby": 5301,
      "Ġindef": 5302,
      "Ġobjective": 5303,
      "Ġafterwards": 5304,
      "Ġestablishments": 5305,
      "Ġentering": 5306,
      "Ġexamine": 5307,
      "Ġharm": 5308,
      "Ġprofound": 5309,
      "Ġsalutary": 5310,
      "Ġproceeds": 5311,
      "Ġstatutes": 5312,
      "Ġextravag": 5313,
      "Ġutter": 5314,
      "Ġgovernor": 5315,
      "Ġguaranty": 5316,
      "Ġcriminals": 5317,
      "Ġarrived": 5318,
      "Ġsubsequent": 5319,
      "Ġmeantime": 5320,
      "Ġincentives": 5321,
      "Ġwelcome": 5322,
      "Americ": 5323,
      "citizens": 5324,
      "fense": 5325,
      "like": 5326,
      "lier": 5327,
      "wide": 5328,
      "reach": 5329,
      "Ġsize": 5330,
      "Ġpot": 5331,
      "Ġbount": 5332,
      "Ġbirth": 5333,
      "orpor": 5334,
      "Ġfide": 5335,
      "Ġfallen": 5336,
      "ouri": 5337,
      "Ġaside": 5338,
      "Ġones": 5339,
      "istent": 5340,
      "emb": 5341,
      "ĠUpon": 5342,
      "Ġexposition": 5343,
      "Ġconting": 5344,
      "Ġunwise": 5345,
      "ĠOh": 5346,
      "Ġconfer": 5347,
      "Ġclo": 5348,
      "Ġimproper": 5349,
      "Ġindebted": 5350,
      "Ġsupporting": 5351,
      "Ġsalaries": 5352,
      "Ġshortly": 5353,
      "Ġdoubtless": 5354,
      "Ġmedium": 5355,
      "Ġfields": 5356,
      "Ġruin": 5357,
      "Ġavoided": 5358,
      "Ġexplan": 5359,
      "Ġminds": 5360,
      "Ġtechnical": 5361,
      "Ġrecords": 5362,
      "Ġdestructive": 5363,
      "Ġlearning": 5364,
      "Ġunemployed": 5365,
      "Ġsuspended": 5366,
      "Ġmanufacturers": 5367,
      "Ġinduced": 5368,
      "Ġresistance": 5369,
      "Ġwidely": 5370,
      "Ġconformity": 5371,
      "ĠAustria": 5372,
      "Ġgallant": 5373,
      "acco": 5374,
      "OM": 5375,
      "body": 5376,
      "dom": 5377,
      "sp": 5378,
      "Ġtor": 5379,
      "Ġfert": 5380,
      "rog": 5381,
      "see": 5382,
      "Ġglad": 5383,
      "ĠSea": 5384,
      "Ġexempt": 5385,
      "Ġvac": 5386,
      "anship": 5387,
      "Ġunch": 5388,
      "Ġunequ": 5389,
      "Ġrecur": 5390,
      "Ġrelated": 5391,
      "ilitary": 5392,
      "Ġassert": 5393,
      "Ġsaw": 5394,
      "Ġoffense": 5395,
      "ĠWhite": 5396,
      "Ġcareer": 5397,
      "Ġmineral": 5398,
      "Ġherself": 5399,
      "ictions": 5400,
      "Ġhappily": 5401,
      "Ġputting": 5402,
      "Ġdeficits": 5403,
      "Ġenforced": 5404,
      "Ġpursuit": 5405,
      "Ġchanging": 5406,
      "Ġteleg": 5407,
      "Ġarmies": 5408,
      "Ġexceeded": 5409,
      "Ġamendments": 5410,
      "Ġcompliance": 5411,
      "Ġdisturbed": 5412,
      "Ġfreight": 5413,
      "Ġheads": 5414,
      "Ġindicated": 5415,
      "Ġencouraged": 5416,
      "Ġembraced": 5417,
      "Ġunpre": 5418,
      "Ġstrategy": 5419,
      "Ġassembled": 5420,
      "Ġmonopoly": 5421,
      "Ġunfortunate": 5422,
      "Ġmurder": 5423,
      "Ġobstacles": 5424,
      "Ġobservance": 5425,
      "ĠLouisiana": 5426,
      "Ġexperienced": 5427,
      "entlemen": 5428,
      "ĠOhio": 5429,
      "power": 5430,
      "west": 5431,
      "yl": 5432,
      "Ġawards": 5433,
      "Ġcla": 5434,
      "Ġbind": 5435,
      "ĠThank": 5436,
      "ulous": 5437,
      "Ġshr": 5438,
      "Ġadmir": 5439,
      "Ġimpair": 5440,
      "Ġincorpor": 5441,
      "ĠPeace": 5442,
      "Ġabst": 5443,
      "Ġrepair": 5444,
      "ĠRE": 5445,
      "ĠReg": 5446,
      "Ġwarrant": 5447,
      "Ġproduc": 5448,
      "Ġfeatures": 5449,
      "ĠWhatever": 5450,
      "overed": 5451,
      "Ġsurr": 5452,
      "Ġmines": 5453,
      "Ġhopeful": 5454,
      "Ġstrongest": 5455,
      "Ġdestiny": 5456,
      "Ġexaminations": 5457,
      "Ġ1899": 5458,
      "Ġtons": 5459,
      "ĠAny": 5460,
      "Ġgetting": 5461,
      "Ġcombat": 5462,
      "Ġveto": 5463,
      "Ġsolve": 5464,
      "Ġdecline": 5465,
      "Ġexpanded": 5466,
      "Ġstrengthening": 5467,
      "Ġceased": 5468,
      "Ġexhibits": 5469,
      "Ġsolely": 5470,
      "Ġconsumption": 5471,
      "ĠMissouri": 5472,
      "Ġrebellion": 5473,
      "Ġsuspension": 5474,
      "Ġpartners": 5475,
      "Ġforbear": 5476,
      "Ġwait": 5477,
      "Ġdefeat": 5478,
      "sett": 5479,
      "Ġvoice": 5480,
      "Ġvigilance": 5481,
      "Ġcandid": 5482,
      "Ġitems": 5483,
      "ĠPortugal": 5484,
      "Ġdisplay": 5485,
      "31": 5486,
      "nel": 5487,
      "rew": 5488,
      "atically": 5489,
      "Ġwild": 5490,
      "Ġtool": 5491,
      "iced": 5492,
      "Ġdedu": 5493,
      "ĠImper": 5494,
      "chan": 5495,
      "Ġcharter": 5496,
      "Ġrecall": 5497,
      "Ġgoes": 5498,
      "cedented": 5499,
      "Ġkilled": 5500,
      "Ġbooks": 5501,
      "Ġemployers": 5502,
      "Ġadministered": 5503,
      "Ġhumane": 5504,
      "what": 5505,
      "while": 5506,
      "whel": 5507,
      "Ġobtaining": 5508,
      "Ġregulating": 5509,
      "ĠCuban": 5510,
      "Ġcontribution": 5511,
      "Ġenterprises": 5512,
      "Ġoccupy": 5513,
      "Ġprosecuted": 5514,
      "cribe": 5515,
      "Ġrelieved": 5516,
      "Ġtalk": 5517,
      "Ġdreams": 5518,
      "Ġtowns": 5519,
      "Ġrigid": 5520,
      "Ġimperfect": 5521,
      "Ġalternative": 5522,
      "Ġplenipotentiary": 5523,
      "Ġlaborers": 5524,
      "Ġprocedure": 5525,
      "36": 5526,
      "77": 5527,
      "iqu": 5528,
      "itte": 5529,
      "Ġsouthern": 5530,
      "Ġinequ": 5531,
      "Ġfought": 5532,
      "Ġnight": 5533,
      "asks": 5534,
      "Ġlend": 5535,
      "Ġgained": 5536,
      "Ġconquest": 5537,
      "establ": 5538,
      "abinet": 5539,
      "Ġallot": 5540,
      "Ġrange": 5541,
      "Ġreserved": 5542,
      "Ġworse": 5543,
      "odies": 5544,
      "Ġmechan": 5545,
      "ĠNe": 5546,
      "Ġseiz": 5547,
      "adv": 5548,
      "otton": 5549,
      "Ġconsult": 5550,
      "ĠDo": 5551,
      "Ġuses": 5552,
      "Ġyouth": 5553,
      "Ġservants": 5554,
      "Ġoverwhel": 5555,
      "Ġ26": 5556,
      "Ġclosed": 5557,
      "Ġinterior": 5558,
      "Ġmonetary": 5559,
      "Ġorderly": 5560,
      "Ġnegotiate": 5561,
      "Ġpromoted": 5562,
      "Ġ1891": 5563,
      "Ġholds": 5564,
      "Ġspeculation": 5565,
      "Ġthreats": 5566,
      "Ġexchanged": 5567,
      "Ġcollective": 5568,
      "Ġweaken": 5569,
      "Ġdelayed": 5570,
      "Ġmerchants": 5571,
      "Ġdivided": 5572,
      "Ġconsumers": 5573,
      "ĠBoth": 5574,
      "Ġdiminish": 5575,
      "Ġstipulated": 5576,
      "Ġembarrassment": 5577,
      "Ġprevailed": 5578,
      "Ġmagn": 5579,
      "Ġinevitably": 5580,
      "Ġrestraint": 5581,
      "Ġrepublican": 5582,
      "Ġcrops": 5583,
      "Ġcherish": 5584,
      "Ġcomparatively": 5585,
      "ĠHaving": 5586,
      "Ġpotential": 5587,
      "ĠImperial": 5588,
      "49": 5589,
      "do": 5590,
      "here": 5591,
      "Ġaw": 5592,
      "Ġtheory": 5593,
      "itate": 5594,
      "itors": 5595,
      "Ġineff": 5596,
      "icted": 5597,
      "roach": 5598,
      "Ġnar": 5599,
      "Ġlif": 5600,
      "Ġhast": 5601,
      "iration": 5602,
      "Ġstood": 5603,
      "Ġintrusted": 5604,
      "ĠGrand": 5605,
      "Ġimag": 5606,
      "Ġresource": 5607,
      "Ġincom": 5608,
      "Ġrecession": 5609,
      "ĠDen": 5610,
      "Ġobstru": 5611,
      "force": 5612,
      "Ġsecret": 5613,
      "Ġattacks": 5614,
      "Ġconsidering": 5615,
      "Ġenduring": 5616,
      "Ġprotective": 5617,
      "Ġdeprec": 5618,
      "Ġ31": 5619,
      "Ġoppression": 5620,
      "Ġcivilian": 5621,
      "Ġcrimes": 5622,
      "ĠOnly": 5623,
      "Ġnorthern": 5624,
      "Ġnormal": 5625,
      "ĠKansas": 5626,
      "Ġdevol": 5627,
      "Ġdevised": 5628,
      "Ġboundaries": 5629,
      "Ġsuperint": 5630,
      "Ġheard": 5631,
      "Ġcolonial": 5632,
      "Ġprecise": 5633,
      "Ġhundreds": 5634,
      "Ġbelonging": 5635,
      "ĠLegislation": 5636,
      "Ġflex": 5637,
      "Ġeliminate": 5638,
      "Ġstimulate": 5639,
      "Ġconsolid": 5640,
      "Ġresolve": 5641,
      "Ġconfirmed": 5642,
      "Ġrelease": 5643,
      "Ġfortunate": 5644,
      "Ġargument": 5645,
      "Ġcheap": 5646,
      "Ġpremium": 5647,
      "Ġquickly": 5648,
      "Ġprudent": 5649,
      "Ġcommodities": 5650,
      "ĠGovernor": 5651,
      "08": 5652,
      "ban": 5653,
      "ius": 5654,
      "iences": 5655,
      "rigation": 5656,
      "Ġ....": 5657,
      "erity": 5658,
      "Ġwond": 5659,
      "Ġsick": 5660,
      "edience": 5661,
      "Ġdish": 5662,
      "ceived": 5663,
      "ĠTr": 5664,
      "Ġconst": 5665,
      "Ġprol": 5666,
      "rages": 5667,
      "ests": 5668,
      "Ġstations": 5669,
      "umph": 5670,
      "Ġunb": 5671,
      "ibly": 5672,
      "Ġcountrymen": 5673,
      "Ġusing": 5674,
      "Ġimportation": 5675,
      "Ġ23": 5676,
      "Ġoffers": 5677,
      "ĠCont": 5678,
      "Ġcolored": 5679,
      "Ġremainder": 5680,
      "Ġregards": 5681,
      "Ġperiods": 5682,
      "Ġsafer": 5683,
      "Ġformal": 5684,
      "Ġprofession": 5685,
      "arging": 5686,
      "Ġregulated": 5687,
      "Ġhearts": 5688,
      "Ġcontributed": 5689,
      "Ġfeelings": 5690,
      "Ġrenewal": 5691,
      "Ġapplicable": 5692,
      "Ġreadiness": 5693,
      "Ġsubsist": 5694,
      "Ġurgently": 5695,
      "Ġsteams": 5696,
      "Ġembarrassments": 5697,
      "Ġsucceeded": 5698,
      "Ġpledged": 5699,
      "Ġfirmly": 5700,
      "ĠAfrican": 5701,
      "Ġappreciation": 5702,
      "Ġvirtue": 5703,
      "ĠĠĠĠĠĠĠĠ": 5704,
      "Ġsupreme": 5705,
      "Ġinnoc": 5706,
      "Ġfruit": 5707,
      "Ġalleged": 5708,
      "Ġphysical": 5709,
      "Ġillegal": 5710,
      "Ġunprecedented": 5711,
      "IS": 5712,
      "off": 5713,
      "vate": 5714,
      "Ġball": 5715,
      "isive": 5716,
      "Ġfig": 5717,
      "Ġfine": 5718,
      "urate": 5719,
      "ĠSam": 5720,
      "ĠAcc": 5721,
      "ĠCity": 5722,
      "ivered": 5723,
      "Ġworst": 5724,
      "lack": 5725,
      "ĠBer": 5726,
      "Ġseal": 5727,
      "iber": 5728,
      "Ġconsul": 5729,
      "Ġspent": 5730,
      "rup": 5731,
      "Ġthereon": 5732,
      "ĠRail": 5733,
      "wel": 5734,
      "aging": 5735,
      "Ġkids": 5736,
      "Ġtrain": 5737,
      "Ġovercome": 5738,
      "Ġearlier": 5739,
      "Ġdepred": 5740,
      "Ġtransition": 5741,
      "Ġpersu": 5742,
      "ĠAss": 5743,
      "ĠTherefore": 5744,
      "Ġpersonnel": 5745,
      "Ġneglect": 5746,
      "Ġdeliver": 5747,
      "Ġexpectations": 5748,
      "ĠWithin": 5749,
      "Ġreaching": 5750,
      "Ġinstituted": 5751,
      "ĠTerritorial": 5752,
      "Ġsignal": 5753,
      "Ġcreditors": 5754,
      "Ġclosely": 5755,
      "Ġcontracted": 5756,
      "Ġpossessed": 5757,
      "Ġstrike": 5758,
      "Ġappointments": 5759,
      "Ġeasily": 5760,
      "Ġsacrific": 5761,
      "Ġconsolidation": 5762,
      "Ġreligion": 5763,
      "Ġwithdrawal": 5764,
      "Ġprisoners": 5765,
      "Ġradical": 5766,
      "Ġassociations": 5767,
      "Ġunusual": 5768,
      "American": 5769,
      "Ġtelegraph": 5770,
      "300": 5771,
      "88": 5772,
      "gue": 5773,
      "pass": 5774,
      "Ġcensus": 5775,
      "Ġcotton": 5776,
      "Ġpapers": 5777,
      "Ġhom": 5778,
      "Ġhab": 5779,
      "ortion": 5780,
      "Ġcontains": 5781,
      "Ġlawful": 5782,
      "Ġlawless": 5783,
      "Ġthanks": 5784,
      "Ġworker": 5785,
      "ples": 5786,
      "Ġpositive": 5787,
      "Ġeconomies": 5788,
      "Ġeffectual": 5789,
      "rible": 5790,
      "Ġcler": 5791,
      "Ġ1900": 5792,
      "Ġequival": 5793,
      "Ġoffenses": 5794,
      "ĠConvention": 5795,
      "ĠCommitte": 5796,
      "Ġwatch": 5797,
      "Ġconsequent": 5798,
      "Ġrolls": 5799,
      "Ġratio": 5800,
      "Ġstatus": 5801,
      "Ġcorporate": 5802,
      "Ġirrigation": 5803,
      "Ġconflicts": 5804,
      "ĠRussian": 5805,
      "Ġbrings": 5806,
      "ĠProvidence": 5807,
      "Ġabundance": 5808,
      "Ġunite": 5809,
      "Ġintroduced": 5810,
      "Ġcommittees": 5811,
      "Ġcultivation": 5812,
      "Ġpossibility": 5813,
      "Ġmonopol": 5814,
      "Ġborne": 5815,
      "Ġdamage": 5816,
      "Ġpenalties": 5817,
      "Ġdefects": 5818,
      "Ġconstituents": 5819,
      "Ġtimber": 5820,
      "settled": 5821,
      "aments": 5822,
      "cks": 5823,
      "ports": 5824,
      "Ġaided": 5825,
      "Ġpet": 5826,
      "Ġpush": 5827,
      "orious": 5828,
      "Ġtold": 5829,
      "icated": 5830,
      "Ġrely": 5831,
      "Ġnine": 5832,
      "Ġvested": 5833,
      "ĠMess": 5834,
      "ĠNever": 5835,
      "Ġappeared": 5836,
      "ĠPu": 5837,
      "Ġcompass": 5838,
      "Ġobedience": 5839,
      "ĠChamber": 5840,
      "Ġfreely": 5841,
      "Ġfactor": 5842,
      "Ġdelivered": 5843,
      "Ġprevention": 5844,
      "Ġcommitments": 5845,
      "Ġmoderation": 5846,
      "Ġ1898": 5847,
      "Ġdependence": 5848,
      "Ġcommanding": 5849,
      "Ġcommanders": 5850,
      "Ġinfluences": 5851,
      "Ġflour": 5852,
      "ĠEastern": 5853,
      "Ġdisturbances": 5854,
      "Ġvisited": 5855,
      "interest": 5856,
      "ĠCorpor": 5857,
      "Ġelsewhere": 5858,
      "Ġfisheries": 5859,
      "Ġbroken": 5860,
      "Ġowing": 5861,
      "Ġquantity": 5862,
      "Ġsearch": 5863,
      "Ġancient": 5864,
      "Ġpresumed": 5865,
      "ĠDenmark": 5866,
      "ED": 5867,
      "gies": 5868,
      "lity": 5869,
      "no": 5870,
      "pic": 5871,
      "Ġtasks": 5872,
      "Ġbom": 5873,
      "ede": 5874,
      "Ġfilled": 5875,
      "Ġfresh": 5876,
      "Ġmidst": 5877,
      "arb": 5878,
      "Ġhor": 5879,
      "ental": 5880,
      "Ġhaz": 5881,
      "Ġresident": 5882,
      "Ġenumer": 5883,
      "Ġagitation": 5884,
      "ott": 5885,
      "Ġsubordinate": 5886,
      "ĠHague": 5887,
      "ĠLaw": 5888,
      "Ġmarsh": 5889,
      "Ġequity": 5890,
      "Ġreasonably": 5891,
      "Ġtribute": 5892,
      "Ġcredits": 5893,
      "ĠCommissioners": 5894,
      "Ġpurchased": 5895,
      "Ġabsor": 5896,
      "Ġarmaments": 5897,
      "Ġslaves": 5898,
      "Ġdiscussions": 5899,
      "Ġstruggling": 5900,
      "Ġgoverned": 5901,
      "Ġdemonstrate": 5902,
      "Ġrestoring": 5903,
      "Ġbarriers": 5904,
      "Ġfulfillment": 5905,
      "Ġdevotion": 5906,
      "Ġcultivate": 5907,
      "Ġtriumph": 5908,
      "Ġrepeatedly": 5909,
      "Ġtouching": 5910,
      "Ġsensible": 5911,
      "Ġprejudice": 5912,
      "ĠDemocrat": 5913,
      "Ġproclaimed": 5914,
      "ĠLatin": 5915,
      "Ġstreets": 5916,
      "Ġforgot": 5917,
      "IL": 5918,
      "aut": 5919,
      "iant": 5920,
      "ivery": 5921,
      "mation": 5922,
      "Ġapart": 5923,
      "Ġcession": 5924,
      "Ġcross": 5925,
      "Ġbureau": 5926,
      "ana": 5927,
      "ingly": 5928,
      "ĠTa": 5929,
      "thy": 5930,
      "Ġexig": 5931,
      "Ġstage": 5932,
      "Ġatomic": 5933,
      "earing": 5934,
      "ĠBesides": 5935,
      "ĠNether": 5936,
      "unction": 5937,
      "Ġselect": 5938,
      "Ġunsettled": 5939,
      "erves": 5940,
      "Ġthereto": 5941,
      "ĠEar": 5942,
      "ĠEdu": 5943,
      "ocks": 5944,
      "Ġeman": 5945,
      "Ġsupplied": 5946,
      "Ġdecisive": 5947,
      "Ġdefin": 5948,
      "Ġmarch": 5949,
      "Ġmenace": 5950,
      "Ġdiscover": 5951,
      "Ġkey": 5952,
      "Ġnevertheless": 5953,
      "Ġaggressive": 5954,
      "Ġ60": 5955,
      "Ġgranting": 5956,
      "Ġmoved": 5957,
      "Ġexecute": 5958,
      "Ġguarded": 5959,
      "Ġadjud": 5960,
      "Ġtransferred": 5961,
      "Ġconscience": 5962,
      "Ġaugmented": 5963,
      "Ġdelegates": 5964,
      "Ġstrife": 5965,
      "Ġtype": 5966,
      "aneous": 5967,
      "Ġcomplicated": 5968,
      "Ġinterpretation": 5969,
      "Ġallegiance": 5970,
      "Ġinnocent": 5971,
      "ĠBerlin": 5972,
      "47": 5973,
      "aires": 5974,
      "ued": 5975,
      "uper": 5976,
      "erto": 5977,
      "ater": 5978,
      "Ġwalk": 5979,
      "Ġborrow": 5980,
      "Ġbodies": 5981,
      "Ġfat": 5982,
      "Ġfol": 5983,
      "alt": 5984,
      "Ġela": 5985,
      "Ġemin": 5986,
      "ctu": 5987,
      "ĠIN": 5988,
      "Ġgains": 5989,
      "irgin": 5990,
      "Ġdelic": 5991,
      "ows": 5992,
      "Ġadapt": 5993,
      "Ġreservation": 5994,
      "ĠNear": 5995,
      "ubl": 5996,
      "uman": 5997,
      "Ġunrest": 5998,
      "Ġreck": 5999,
      "Ġamended": 6000,
      "udge": 6001,
      "Ġsubstitute": 6002,
      "ptions": 6003,
      "ĠRel": 6004,
      "Ġsuppress": 6005,
      "Ġeffectually": 6006,
      "Ġadvancing": 6007,
      "Ġpromised": 6008,
      "Ġoffend": 6009,
      "Ġoffensive": 6010,
      "Ġbull": 6011,
      "Ġobjections": 6012,
      "Ġdelivery": 6013,
      "Ġ1892": 6014,
      "Ġmovements": 6015,
      "Ġirre": 6016,
      "Ġlimitations": 6017,
      "Ġtemporarily": 6018,
      "Ġexplor": 6019,
      "Ġdeny": 6020,
      "Ġdisturbance": 6021,
      "Ġrestriction": 6022,
      "Ġdeliberate": 6023,
      "Ġpriorities": 6024,
      "ĠEngland": 6025,
      "Ġdrive": 6026,
      "ING": 6027,
      "Ġconcession": 6028,
      "ĠFinally": 6029,
      "Ġexertions": 6030,
      "Ġrefusal": 6031,
      "Ġstopped": 6032,
      "Ġindefinite": 6033,
      "Ġfidelity": 6034,
      "Ġoverwhelming": 6035,
      "Ġsuperintend": 6036,
      "Ġdishon": 6037,
      "welve": 6038,
      "Ġequivalent": 6039,
      "ĠPuerto": 6040,
      "ĠNetherlands": 6041,
      "200": 6042,
      "Ġtwelve": 6043,
      "Ġphil": 6044,
      "Ġdiver": 6045,
      "Ġet": 6046,
      "ley": 6047,
      "Ġge": 6048,
      "Ġuseless": 6049,
      "ulent": 6050,
      "Ġshared": 6051,
      "Ġintim": 6052,
      "riage": 6053,
      "Ġchamber": 6054,
      "ĠMount": 6055,
      "Ġjeop": 6056,
      "ĠPol": 6057,
      "Ġseized": 6058,
      "Ġreclamation": 6059,
      "ambers": 6060,
      "ĠOcean": 6061,
      "Ġsomewhat": 6062,
      "Ġentry": 6063,
      "Ġadvised": 6064,
      "racted": 6065,
      "Ġlegislatures": 6066,
      "Ġcode": 6067,
      "Ġcovered": 6068,
      "Ġmainly": 6069,
      "Ġcenters": 6070,
      "Ġfactories": 6071,
      "Ġretard": 6072,
      "Ġrefuse": 6073,
      "ĠArgent": 6074,
      "Ġconstruct": 6075,
      "ĠExper": 6076,
      "Ġgrand": 6077,
      "Ġaffording": 6078,
      "Ġviolations": 6079,
      "Ġdoubtful": 6080,
      "Ġformerly": 6081,
      "Ġmutually": 6082,
      "Ġsoldier": 6083,
      "Ġprocure": 6084,
      "Ġjudiciary": 6085,
      "Ġpoll": 6086,
      "Ġoriginally": 6087,
      "Ġcalam": 6088,
      "Ġpreca": 6089,
      "Ġjoined": 6090,
      "Ġhouses": 6091,
      "Ġdebate": 6092,
      "Ġexclusively": 6093,
      "Ġsuspic": 6094,
      "Ġadjourn": 6095,
      "going": 6096,
      "ternal": 6097,
      "Ġresumed": 6098,
      "Ġfurnishes": 6099,
      "Ġunits": 6100,
      "Ġweakness": 6101,
      "Ġretained": 6102,
      "Ġredeemed": 6103,
      "Ġfifty": 6104,
      "Ġfacilitate": 6105,
      "Ġapproximately": 6106,
      "Ġcargoes": 6107,
      "Ġclause": 6108,
      "Ġtools": 6109,
      "Ġhabits": 6110,
      "Ġbullion": 6111,
      "Ġjeopard": 6112,
      "Citizens": 6113,
      "but": 6114,
      "gar": 6115,
      "ky": 6116,
      "rut": 6117,
      "rous": 6118,
      "uine": 6119,
      "ĠZ": 6120,
      "ones": 6121,
      "eracy": 6122,
      "atible": 6123,
      "itter": 6124,
      "orily": 6125,
      "Ġfoc": 6126,
      "Ġdwe": 6127,
      "Ġrent": 6128,
      "Ġnomin": 6129,
      "Ġerection": 6130,
      "Ġwhilst": 6131,
      "Ġforty": 6132,
      "ĠIm": 6133,
      "ĠSc": 6134,
      "rade": 6135,
      "iful": 6136,
      "lax": 6137,
      "ights": 6138,
      "ĠMilitary": 6139,
      "alled": 6140,
      "Ġsell": 6141,
      "Ġrecru": 6142,
      "Ġdisag": 6143,
      "Ġgreatness": 6144,
      "Ġdoor": 6145,
      "Ġreplace": 6146,
      "Ġrelinqu": 6147,
      "ĠLand": 6148,
      "Ġconfron": 6149,
      "Ġterrible": 6150,
      "Ġendang": 6151,
      "Ġconclusive": 6152,
      "Ġtransmit": 6153,
      "ĠTogether": 6154,
      "Ġnavig": 6155,
      "Ġlibert": 6156,
      "Ġguide": 6157,
      "luctu": 6158,
      "ĠVirgin": 6159,
      "Ġgenuine": 6160,
      "Ġ1897": 6161,
      "Ġpatient": 6162,
      "Ġthreatening": 6163,
      "Ġcommander": 6164,
      "Ġextradition": 6165,
      "Ġbankrupt": 6166,
      "Ġpermitting": 6167,
      "Ġconflicting": 6168,
      "Ġdistributed": 6169,
      "Ġdeclare": 6170,
      "Ġerr": 6171,
      "Ġrevolutionary": 6172,
      "Ġprohibit": 6173,
      "Ġprohibition": 6174,
      "Ġglobe": 6175,
      "Ġintervention": 6176,
      "Ġconscious": 6177,
      "ĠHowever": 6178,
      "Ġconciliation": 6179,
      "ĠBelgium": 6180,
      "Ġforbearance": 6181,
      "ĠGrande": 6182,
      "ĠEducation": 6183,
      "Ġliberties": 6184,
      "09": 6185,
      "IG": 6186,
      "fortun": 6187,
      "more": 6188,
      "miss": 6189,
      "oll": 6190,
      "vol": 6191,
      "Ġties": 6192,
      "rel": 6193,
      "ĠIll": 6194,
      "oph": 6195,
      "laced": 6196,
      "ĠMos": 6197,
      "Ġalter": 6198,
      "Ġappe": 6199,
      "amps": 6200,
      "Ġcast": 6201,
      "ĠEconom": 6202,
      "Ġusually": 6203,
      "venue": 6204,
      "ager": 6205,
      "Ġoutbre": 6206,
      "Ġdesires": 6207,
      "Ġboats": 6208,
      "rann": 6209,
      "Ġequipp": 6210,
      "ailing": 6211,
      "Ġemployer": 6212,
      "Ġbillions": 6213,
      "Ġinflic": 6214,
      "Ġfoundations": 6215,
      "Ġcruel": 6216,
      "Ġcirculating": 6217,
      "Ġguided": 6218,
      "ĠRepublicans": 6219,
      "Ġformidable": 6220,
      "Ġmodifications": 6221,
      "Ġencount": 6222,
      "ashion": 6223,
      "Ġcompete": 6224,
      "Ġ1893": 6225,
      "Ġdetermining": 6226,
      "Ġenergies": 6227,
      "Ġinstruction": 6228,
      "Ġtrusts": 6229,
      "Ġnaturalized": 6230,
      "Ġacquire": 6231,
      "Ġrival": 6232,
      "Ġiron": 6233,
      "Ġwoman": 6234,
      "Ġexhibited": 6235,
      "Ġfrontiers": 6236,
      "Ġincidents": 6237,
      "Ġtyrann": 6238,
      "Ġresumption": 6239,
      "Ġpeculiarly": 6240,
      "held": 6241,
      "ĠKingdom": 6242,
      "Ġengineers": 6243,
      "Ġcongratulate": 6244,
      "Ġuncertainty": 6245,
      "Ġignor": 6246,
      "pedo": 6247,
      "reaching": 6248,
      "Ġtorpedo": 6249,
      "advant": 6250,
      "Ġdepredations": 6251,
      "ĠDemocrats": 6252,
      "Ġeminently": 6253,
      "Ġetc": 6254,
      "32": 6255,
      "bacco": 6256,
      "gr": 6257,
      "half": 6258,
      "service": 6259,
      "Ġident": 6260,
      "itting": 6261,
      "Ġtobacco": 6262,
      "Ġfathers": 6263,
      "icism": 6264,
      "Ġded": 6265,
      "ĠTreat": 6266,
      "ĠTrib": 6267,
      "seas": 6268,
      "Ġgath": 6269,
      "Ġstaff": 6270,
      "ĠGree": 6271,
      "Ġadvent": 6272,
      "Ġadvers": 6273,
      "Ġchurch": 6274,
      "ĠMin": 6275,
      "ĠFurther": 6276,
      "Ġcommissions": 6277,
      "Ġseat": 6278,
      "ĠDoming": 6279,
      "ĠDomin": 6280,
      "ĠRo": 6281,
      "ĠHon": 6282,
      "Ġlegation": 6283,
      "Ġknew": 6284,
      "Ġconfront": 6285,
      "Ġassault": 6286,
      "Ġdecree": 6287,
      "Ġrequested": 6288,
      "Ġdefensive": 6289,
      "pected": 6290,
      "Ġ29": 6291,
      "Ġaffir": 6292,
      "Ġplacing": 6293,
      "iances": 6294,
      "Ġsuccessive": 6295,
      "Ġgrades": 6296,
      "Ġadding": 6297,
      "ĠYour": 6298,
      "Ġletters": 6299,
      "Ġ1894": 6300,
      "Ġcrew": 6301,
      "Ġstatist": 6302,
      "Ġpurchases": 6303,
      "Ġundue": 6304,
      "Ġturning": 6305,
      "Ġ1889": 6306,
      "Ġstrive": 6307,
      "Ġ1860": 6308,
      "Ġ1861": 6309,
      "Ġdesignated": 6310,
      "Ġattempts": 6311,
      "Ġglory": 6312,
      "Ġ1878": 6313,
      "Ġ1846": 6314,
      "Ġapproaching": 6315,
      "Ġwholes": 6316,
      "Ġarrival": 6317,
      "Ġconvenience": 6318,
      "Ġelimination": 6319,
      "Ġaccumulation": 6320,
      "Ġplainly": 6321,
      "Ġfrequently": 6322,
      "Ġinno": 6323,
      "Ġaccommodation": 6324,
      "Ġsolicitude": 6325,
      "Ġchannels": 6326,
      "inois": 6327,
      "Ġunhapp": 6328,
      "Ġeyes": 6329,
      "Ġindebtedness": 6330,
      "Ġaware": 6331,
      "Ġ......": 6332,
      "Ġforgotten": 6333,
      "ĠDomingo": 6334,
      "The": 6335,
      "ah": 6336,
      "cence": 6337,
      "lia": 6338,
      "point": 6339,
      "pread": 6340,
      "Ġ[": 6341,
      "Ġaus": 6342,
      "Ġwides": 6343,
      "Ġsister": 6344,
      "Ġbur": 6345,
      "oral": 6346,
      "orad": 6347,
      "Ġfrank": 6348,
      "Ġfluctu": 6349,
      "Ġmouth": 6350,
      "roe": 6351,
      "Ġnurs": 6352,
      "leans": 6353,
      "ĠThough": 6354,
      "Ġaspir": 6355,
      "estead": 6356,
      "Ġstake": 6357,
      "ifth": 6358,
      "ifiable": 6359,
      "Ġvind": 6360,
      "Ġfaced": 6361,
      "Ġimpract": 6362,
      "Ġdisarm": 6363,
      "Ġdisadvant": 6364,
      "redited": 6365,
      "Ġaccident": 6366,
      "Ġregist": 6367,
      "Ġextinguished": 6368,
      "Ġasserted": 6369,
      "Ġinterruption": 6370,
      "Ġsetting": 6371,
      "Ġrespected": 6372,
      "Ġhelpful": 6373,
      "Ġannum": 6374,
      "Ġscrut": 6375,
      "Ġdelays": 6376,
      "Ġformation": 6377,
      "Ġreality": 6378,
      "Ġsimpl": 6379,
      "Ġmemory": 6380,
      "Ġfairness": 6381,
      "Ġexceptions": 6382,
      "Ġroot": 6383,
      "Ġinvolves": 6384,
      "Ġremoving": 6385,
      "Ġadvantageous": 6386,
      "Ġarmament": 6387,
      "Ġexchanges": 6388,
      "ĠIsland": 6389,
      "Ġliable": 6390,
      "Ġrulers": 6391,
      "Ġstarted": 6392,
      "Ġideal": 6393,
      "Ġmassive": 6394,
      "Ġpreparing": 6395,
      "Ġrunning": 6396,
      "Ġbelongs": 6397,
      "Ġfrauds": 6398,
      "ĠOrleans": 6399,
      "Ġstrictly": 6400,
      "Ġtrouble": 6401,
      "Ġunfortunately": 6402,
      "Ġliquidation": 6403,
      "Ġeastern": 6404,
      "Ġexcellent": 6405,
      "Ġsteel": 6406,
      "Ġmortg": 6407,
      "Ġbureaus": 6408,
      "Ġinconvenience": 6409,
      "Ġdisbursements": 6410,
      "Ġnarrow": 6411,
      "Ġhomestead": 6412,
      "ĠIllinois": 6413,
      "liament": 6414,
      "Ġwidespread": 6415,
      "400": 6416,
      "89": 6417,
      "hab": 6418,
      "iaries": 6419,
      "Ġtrem": 6420,
      "income": 6421,
      "reet": 6422,
      "Ġceded": 6423,
      "Ġpacific": 6424,
      "Ġbul": 6425,
      "Ġinvent": 6426,
      "Ġfill": 6427,
      "ania": 6428,
      "stic": 6429,
      "illion": 6430,
      "raft": 6431,
      "Ġstor": 6432,
      "Ġintimate": 6433,
      "Ġ179": 6434,
      "using": 6435,
      "Ġalive": 6436,
      "Ġjeal": 6437,
      "ĠFOR": 6438,
      "ĠLake": 6439,
      "Ġfees": 6440,
      "Ġdefined": 6441,
      "Ġpayable": 6442,
      "Ġproposing": 6443,
      "Ġcertainty": 6444,
      "Ġrepresents": 6445,
      "Ġsuffrage": 6446,
      "Ġleads": 6447,
      "Ġcurt": 6448,
      "Ġproductivity": 6449,
      "Ġcontrols": 6450,
      "Ġgenius": 6451,
      "Ġviolated": 6452,
      "Ġroom": 6453,
      "Ġpercentage": 6454,
      "Ġliberality": 6455,
      "Ġliability": 6456,
      "Ġbeneficent": 6457,
      "Ġrespectively": 6458,
      "Ġattainment": 6459,
      "Ġvictims": 6460,
      "Ġacceptance": 6461,
      "ĠIraqi": 6462,
      "Ġintroduction": 6463,
      "Ġsincerely": 6464,
      "Ġvolunteer": 6465,
      "Ġanti": 6466,
      "Ġsubsequently": 6467,
      "Ġrejected": 6468,
      "ographical": 6469,
      "Ġprolong": 6470,
      "Ġadjournment": 6471,
      "Ġdisagree": 6472,
      "41": 6473,
      "46": 6474,
      "57": 6475,
      "dy": 6476,
      "iating": 6477,
      "nance": 6478,
      "Ġver": 6479,
      "Ġtarge": 6480,
      "eda": 6481,
      "isc": 6482,
      "Ġtoler": 6483,
      "Ġinex": 6484,
      "Ġdivid": 6485,
      "Ġrein": 6486,
      "Ġrelax": 6487,
      "Ġgri": 6488,
      "ĠSy": 6489,
      "emption": 6490,
      "Ġexpiration": 6491,
      "Ġimpost": 6492,
      "Ġcontain": 6493,
      "Ġcontaining": 6494,
      "ĠFore": 6495,
      "ĠPublic": 6496,
      "Ġdisabl": 6497,
      "Ġspect": 6498,
      "Ġanyone": 6499,
      "ĠHemisphere": 6500,
      "Ġrememb": 6501,
      "Ġextrem": 6502,
      "Ġconfine": 6503,
      "Ġoverseas": 6504,
      "Ġassent": 6505,
      "Ġbold": 6506,
      "Ġhighways": 6507,
      "Ġdistance": 6508,
      "Ġmath": 6509,
      "ranean": 6510,
      "Ġcorruption": 6511,
      "Ġdirecting": 6512,
      "Ġscrup": 6513,
      "Ġfullest": 6514,
      "Ġspiritual": 6515,
      "Ġembod": 6516,
      "Ġcutting": 6517,
      "Ġsurpluses": 6518,
      "Ġsatisfy": 6519,
      "Ġsatisfactorily": 6520,
      "Ġolder": 6521,
      "ĠDefense": 6522,
      "Ġstrikes": 6523,
      "Ġarbitrary": 6524,
      "Ġeasier": 6525,
      "Ġteaching": 6526,
      "ĠInterstate": 6527,
      "Ġwillingness": 6528,
      "Ġunpro": 6529,
      "affaires": 6530,
      "Ġperpetu": 6531,
      "Ġdistinction": 6532,
      "Ġabolition": 6533,
      "question": 6534,
      "ĠQu": 6535,
      "Ġfoster": 6536,
      "Ġexcellence": 6537,
      "Ġpostponed": 6538,
      "ĠSwed": 6539,
      "Ġcattle": 6540,
      "Ġconceded": 6541,
      "Ġpersever": 6542,
      "Ġreadjustment": 6543,
      "ĠMessage": 6544,
      "600": 6545,
      "DS": 6546,
      "from": 6547,
      "houses": 6548,
      "ias": 6549,
      "itol": 6550,
      "Ġpurely": 6551,
      "Ġing": 6552,
      "Ġinland": 6553,
      "Ġfashion": 6554,
      "arian": 6555,
      "ila": 6556,
      "Ġlic": 6557,
      "utation": 6558,
      "ĠCl": 6559,
      "Ġstar": 6560,
      "pper": 6561,
      "Ġintr": 6562,
      "Ġvain": 6563,
      "Ġresiding": 6564,
      "Ġcha": 6565,
      "ĠPri": 6566,
      "Ġunlaw": 6567,
      "reason": 6568,
      "Ġreparation": 6569,
      "ĠDes": 6570,
      "pled": 6571,
      "Ġwarning": 6572,
      "Ġaccru": 6573,
      "Ġtraditional": 6574,
      "ricted": 6575,
      "Ġfeature": 6576,
      "Ġknows": 6577,
      "Ġinsuff": 6578,
      "Ġuphold": 6579,
      "ĠWhether": 6580,
      "Ġtransmission": 6581,
      "Ġstatements": 6582,
      "Ġcontrolled": 6583,
      "Ġreflection": 6584,
      "Ġcostly": 6585,
      "Ġplanning": 6586,
      "Ġexclude": 6587,
      "Ġreturning": 6588,
      "lusions": 6589,
      "Ġviolate": 6590,
      "parable": 6591,
      "Ġaggra": 6592,
      "Ġaccorded": 6593,
      "Ġfinding": 6594,
      "ĠNorthern": 6595,
      "Ġessentially": 6596,
      "ĠProvision": 6597,
      "Ġsector": 6598,
      "Ġtestim": 6599,
      "Ġsolid": 6600,
      "Ġdiscussed": 6601,
      "Ġinher": 6602,
      "Ġprocesses": 6603,
      "Ġdivisions": 6604,
      "Ġemergencies": 6605,
      "Ġfulfilled": 6606,
      "Ġindicate": 6607,
      "ennial": 6608,
      "Ġmanufacturer": 6609,
      "ĠMediter": 6610,
      "Ġprospects": 6611,
      "Ġchecks": 6612,
      "Ġresume": 6613,
      "Ġpensioners": 6614,
      "Ġcapture": 6615,
      "Ġperpetual": 6616,
      "Ġlevied": 6617,
      "Ġdeparture": 6618,
      "ĠCapitol": 6619,
      "Ġcheer": 6620,
      "Ġunavo": 6621,
      "Ġseizure": 6622,
      "Ġwonder": 6623,
      "ĠCommittee": 6624,
      "Ġdelicate": 6625,
      "ĠSweden": 6626,
      "ĠMediterranean": 6627,
      "bation": 6628,
      "cend": 6629,
      "een": 6630,
      "house": 6631,
      "rations": 6632,
      "Ġaf": 6633,
      "inter": 6634,
      "itious": 6635,
      "Ġpan": 6636,
      "Ġpir": 6637,
      "Ġpra": 6638,
      "Ġpubl": 6639,
      "Ġmother": 6640,
      "Ġreestabl": 6641,
      "ĠAc": 6642,
      "Ġmand": 6643,
      "erson": 6644,
      "erences": 6645,
      "eck": 6646,
      "Ġvent": 6647,
      "Ġexpensive": 6648,
      "Ġimperial": 6649,
      "licit": 6650,
      "Ġunim": 6651,
      "Ġunreason": 6652,
      "Ġspea": 6653,
      "Ġextingu": 6654,
      "Ġconferences": 6655,
      "Ġprotest": 6656,
      "Ġtwice": 6657,
      "Ġhighway": 6658,
      "Ġconclude": 6659,
      "ĠChambers": 6660,
      "lessly": 6661,
      "Ġsurpr": 6662,
      "Ġpassen": 6663,
      "Ġcenter": 6664,
      "ailed": 6665,
      "Ġrefund": 6666,
      "Ġdirections": 6667,
      "Ġrepresentations": 6668,
      "Ġevid": 6669,
      "ieties": 6670,
      "Ġorganize": 6671,
      "Ġconstructed": 6672,
      "ĠSenators": 6673,
      "Ġencroach": 6674,
      "which": 6675,
      "Ġinjured": 6676,
      "Ġachievements": 6677,
      "ĠCanad": 6678,
      "Ġdeposited": 6679,
      "holders": 6680,
      "Ġdiscriminating": 6681,
      "Ġfraudulent": 6682,
      "Ġembrace": 6683,
      "Ġunsatis": 6684,
      "Ġforbidd": 6685,
      "Ġadherence": 6686,
      "Ġreleased": 6687,
      "Ġaliens": 6688,
      "ĠCoast": 6689,
      "ĠPruss": 6690,
      "Ġdeprived": 6691,
      "ĠMadrid": 6692,
      "Ġsignificant": 6693,
      "Ġcompassion": 6694,
      "Ġbomb": 6695,
      "Ġfatal": 6696,
      "Ġoffenders": 6697,
      "ĠArgentine": 6698,
      "ĠExperience": 6699,
      "ĠVirginia": 6700,
      "Ġtyranny": 6701,
      "Ġtremend": 6702,
      "42": 6703,
      "51": 6704,
      "iar": 6705,
      "rich": 6706,
      "uen": 6707,
      "Ġtide": 6708,
      "Ġthinking": 6709,
      "Ġadequ": 6710,
      "Ġoath": 6711,
      "Ġwart": 6712,
      "Ġsou": 6713,
      "Ġpointed": 6714,
      "Ġboy": 6715,
      "Ġbarg": 6716,
      "Ġfuel": 6717,
      "Ġhire": 6718,
      "Ġdues": 6719,
      "Ġbeaut": 6720,
      "roll": 6721,
      "ilty": 6722,
      "utory": 6723,
      "seen": 6724,
      "Ġanarch": 6725,
      "pping": 6726,
      "ĠGood": 6727,
      "Ġresidence": 6728,
      "ĠNAT": 6729,
      "ĠPenn": 6730,
      "Ġsevent": 6731,
      "Ġseize": 6732,
      "Ġcounter": 6733,
      "Ġcompel": 6734,
      "Ġspo": 6735,
      "ĠRock": 6736,
      "Ġattrib": 6737,
      "Ġoutrages": 6738,
      "ĠLe": 6739,
      "Ġsake": 6740,
      "ranc": 6741,
      "laims": 6742,
      "Ġoppressive": 6743,
      "Ġcars": 6744,
      "factory": 6745,
      "Ġoperating": 6746,
      "Ġcontinuation": 6747,
      "ception": 6748,
      "Ġrevival": 6749,
      "Ġguilty": 6750,
      "Ġdestit": 6751,
      "Ġexclusion": 6752,
      "Ġclassified": 6753,
      "Ġfunded": 6754,
      "Ġpatience": 6755,
      "Ġsavages": 6756,
      "Ġdevise": 6757,
      "Ġincreasingly": 6758,
      "Ġunfav": 6759,
      "Ġfacility": 6760,
      "Ġsectional": 6761,
      "Ġfurnishing": 6762,
      "Ġvoluntarily": 6763,
      "arrison": 6764,
      "Ġ90": 6765,
      "ĠAgain": 6766,
      "Ġbatt": 6767,
      "Ġheavily": 6768,
      "Ġanswered": 6769,
      "Ġapparently": 6770,
      "Ġcouncil": 6771,
      "Ġwasteful": 6772,
      "Ġreconstruction": 6773,
      "Ġcaptured": 6774,
      "ART": 6775,
      "Ġqualified": 6776,
      "edule": 6777,
      "Ġdriven": 6778,
      "Ġobstacle": 6779,
      "ĠMonroe": 6780,
      "thirds": 6781,
      "Ġnamed": 6782,
      "Ġtroubles": 6783,
      "ĠEarth": 6784,
      "Ġdisabled": 6785,
      "Ġwartime": 6786,
      "called": 6787,
      "rating": 6788,
      "sen": 6789,
      "attered": 6790,
      "Ġcou": 6791,
      "Ġbesides": 6792,
      "Ġdro": 6793,
      "Ġreim": 6794,
      "rol": 6795,
      "ĠSever": 6796,
      "essions": 6797,
      "Ġstab": 6798,
      "Ġresc": 6799,
      "Ġimpr": 6800,
      "ĠMean": 6801,
      "lication": 6802,
      "alls": 6803,
      "Ġincl": 6804,
      "Ġspite": 6805,
      "Ġundermin": 6806,
      "Ġsubmission": 6807,
      "ĠHad": 6808,
      "ocation": 6809,
      "Ġextin": 6810,
      "ĠJu": 6811,
      "Ġtrading": 6812,
      "ĠLakes": 6813,
      "Ġovert": 6814,
      "Ġdeserving": 6815,
      "Ġdeserves": 6816,
      "Ġcold": 6817,
      "Ġcoff": 6818,
      "Ġmarks": 6819,
      "Ġinterposition": 6820,
      "ĠIndies": 6821,
      "Ġcommunist": 6822,
      "ĠBritann": 6823,
      "Ġinfer": 6824,
      "Ġmonu": 6825,
      "otiations": 6826,
      "Ġearned": 6827,
      "Ġexperts": 6828,
      "Ġdestined": 6829,
      "Ġexcluded": 6830,
      "Ġexcluding": 6831,
      "Ġholders": 6832,
      "Ġspecul": 6833,
      "Ġsavage": 6834,
      "Ġdetach": 6835,
      "Ġunfair": 6836,
      "Ġseamen": 6837,
      "Ġimposing": 6838,
      "Ġapplications": 6839,
      "Ġ1885": 6840,
      "Ġlooked": 6841,
      "Ġuniformity": 6842,
      "ennes": 6843,
      "Ġinitiatives": 6844,
      "Ġdictators": 6845,
      "Ġexceedingly": 6846,
      "Ġautom": 6847,
      "Ġattached": 6848,
      "Ġmaster": 6849,
      "uxil": 6850,
      "Ġsailors": 6851,
      "Ġinconsistent": 6852,
      "Ġacquiescence": 6853,
      "Ġdisorder": 6854,
      "ĠNegotiations": 6855,
      "ĠAccord": 6856,
      "Ġabsorb": 6857,
      "Ġappeals": 6858,
      "Ġimpracticable": 6859,
      "Ġtremendous": 6860,
      "ĠMeanwhile": 6861,
      "ĠBritannic": 6862,
      "'d": 6863,
      "73": 6864,
      "cast": 6865,
      "five": 6866,
      "hia": 6867,
      "iam": 6868,
      "len": 6869,
      "oved": 6870,
      "syl": 6871,
      "vania": 6872,
      "Ġthr": 6873,
      "Ġthrow": 6874,
      "Ġthrown": 6875,
      "ata": 6876,
      "Ġwind": 6877,
      "Ġbudge": 6878,
      "Ġtoil": 6879,
      "alys": 6880,
      "Ġreve": 6881,
      "Ġrewards": 6882,
      "Ġlux": 6883,
      "let": 6884,
      "Ġconvey": 6885,
      "ĠSub": 6886,
      "ĠApp": 6887,
      "ĠCost": 6888,
      "ĠCON": 6889,
      "oles": 6890,
      "oliv": 6891,
      "rious": 6892,
      "ĠBuen": 6893,
      "ĠAmericas": 6894,
      "Ġalarm": 6895,
      "unity": 6896,
      "ĠPO": 6897,
      "Ġunquestion": 6898,
      "Ġrecover": 6899,
      "ading": 6900,
      "Ġspee": 6901,
      "Ġspoke": 6902,
      "Ġsphere": 6903,
      "Ġarch": 6904,
      "Ġindif": 6905,
      "Ġnewly": 6906,
      "cons": 6907,
      "Ġserving": 6908,
      "Ġdescription": 6909,
      "Ġeconomically": 6910,
      "Ġ1911": 6911,
      "Ġpromising": 6912,
      "ĠIndia": 6913,
      "Ġfinished": 6914,
      "lphia": 6915,
      "Ġrequirement": 6916,
      "Ġpersist": 6917,
      "Ġleaves": 6918,
      "arsh": 6919,
      "ĠSenator": 6920,
      "Ġspecially": 6921,
      "Ġcommunicate": 6922,
      "Ġmanufactured": 6923,
      "Ġpatron": 6924,
      "Ġsooner": 6925,
      "Ġpursuing": 6926,
      "Ġfinancing": 6927,
      "Ġobservation": 6928,
      "Ġchoices": 6929,
      "ademy": 6930,
      "adelphia": 6931,
      "Ġtender": 6932,
      "Ġcollecting": 6933,
      "Ġdiplomacy": 6934,
      "Ġconsistently": 6935,
      "Ġblessing": 6936,
      "Ġterminate": 6937,
      "Ġderive": 6938,
      "ĠPhiladelphia": 6939,
      "Ġfalling": 6940,
      "Ġdiminution": 6941,
      "Ġincidental": 6942,
      "Ġresorted": 6943,
      "Ġapprehended": 6944,
      "Ġresisted": 6945,
      "Ġrepealed": 6946,
      "Ġexported": 6947,
      "Ġmotive": 6948,
      "Ġrestraints": 6949,
      "Ġsanctioned": 6950,
      "Ġdiseases": 6951,
      "Ġabolished": 6952,
      "Ġadhere": 6953,
      "Ġdefinitely": 6954,
      "ĠQa": 6955,
      "Ġdoubled": 6956,
      "Ġarrested": 6957,
      "Ġexhausted": 6958,
      "Ġexcitement": 6959,
      "Ġdisastrous": 6960,
      "Ġstreams": 6961,
      "Ġemancip": 6962,
      "Ġreckless": 6963,
      "orado": 6964,
      "Ġjealous": 6965,
      "Ġunlawful": 6966,
      "Ġtestimony": 6967,
      "ĠNATO": 6968,
      "ĠPennsyl": 6969,
      "Ġreimbur": 6970,
      "ĠSeveral": 6971,
      "Ġspeech": 6972,
      "ĠPennsylvania": 6973,
      "72": 6974,
      "85": 6975,
      "cils": 6976,
      "gers": 6977,
      "put": 6978,
      "Ġauxil": 6979,
      "itary": 6980,
      "Ġpounds": 6981,
      "Ġblack": 6982,
      "Ġfrust": 6983,
      "icate": 6984,
      "alc": 6985,
      "Ġhur": 6986,
      "Ġren": 6987,
      "Ġlift": 6988,
      "ceans": 6989,
      "Ġwhe": 6990,
      "respect": 6991,
      "ĠSix": 6992,
      "illery": 6993,
      "raining": 6994,
      "ĠClaims": 6995,
      "enda": 6996,
      "Ġshel": 6997,
      "pport": 6998,
      "olic": 6999,
      "ĠStill": 7000,
      "arying": 7001,
      "ĠUta": 7002,
      "Ġagenda": 7003,
      "ĠMich": 7004,
      "Ġincumb": 7005,
      "ĠFort": 7006,
      "Ġperceive": 7007,
      "Ġsubstitut": 7008,
      "Ġarr": 7009,
      "Ġarsen": 7010,
      "Ġ1818": 7011,
      "Ġreliance": 7012,
      "Ġaccredited": 7013,
      "Ġattending": 7014,
      "posed": 7015,
      "Ġregime": 7016,
      "Ġfeas": 7017,
      "Ġdefray": 7018,
      "Ġeffectiveness": 7019,
      "anging": 7020,
      "Ġtransaction": 7021,
      "Ġvalid": 7022,
      "ĠUnless": 7023,
      "Ġrefuge": 7024,
      "Ġbestowed": 7025,
      "Ġapprobation": 7026,
      "Ġrevised": 7027,
      "Ġadopting": 7028,
      "Ġaffordable": 7029,
      "ressional": 7030,
      "Ġmarketing": 7031,
      "Ġaggress": 7032,
      "Ġconventional": 7033,
      "Ġadjusting": 7034,
      "Ġbalances": 7035,
      "Ġdram": 7036,
      "ĠColorado": 7037,
      "Ġconvictions": 7038,
      "Ġelectors": 7039,
      "Ġenjoin": 7040,
      "Ġwrongdo": 7041,
      "Ġmisunder": 7042,
      "Ġvex": 7043,
      "Ġstriving": 7044,
      "Ġjudicious": 7045,
      "Ġparks": 7046,
      "Ġconsisting": 7047,
      "Ġterrorist": 7048,
      "Ġexpressly": 7049,
      "Ġfears": 7050,
      "Ġcolleges": 7051,
      "Ġcouncils": 7052,
      "Ġpriority": 7053,
      "Ġregretted": 7054,
      "Ġwinter": 7055,
      "Ġrepublics": 7056,
      "Ġhospitals": 7057,
      "Ġpredecessors": 7058,
      "Ġconcentration": 7059,
      "Ġwritten": 7060,
      "Ġdespite": 7061,
      "worthy": 7062,
      "Ġadvert": 7063,
      "Ġframers": 7064,
      "Ġslightest": 7065,
      "Ġdiscontin": 7066,
      "Ġinaugurated": 7067,
      "Ġsenior": 7068,
      "Ġtemptation": 7069,
      "Ġhesitate": 7070,
      "Ġunwilling": 7071,
      "Ġextravagance": 7072,
      "Ġproducers": 7073,
      "ĠNeither": 7074,
      "ĠMountains": 7075,
      "Ġfocus": 7076,
      "habilit": 7077,
      "Ġimprison": 7078,
      "ĠBuenos": 7079,
      "ĠUtah": 7080,
      "250": 7081,
      "71": 7082,
      "700": 7083,
      "IV": 7084,
      "US": 7085,
      "We": 7086,
      "bar": 7087,
      "gam": 7088,
      "mast": 7089,
      "rue": 7090,
      "tt": 7091,
      "vated": 7092,
      "Ġoceans": 7093,
      "Ġpray": 7094,
      "Ġmal": 7095,
      "omed": 7096,
      "Ġhabit": 7097,
      "ĠSur": 7098,
      "Ġshar": 7099,
      "eter": 7100,
      "emen": 7101,
      "Ġadditions": 7102,
      "Ġreside": 7103,
      "ĠBoliv": 7104,
      "Ġcommended": 7105,
      "amount": 7106,
      "ota": 7107,
      "Ġdispose": 7108,
      "Ġspr": 7109,
      "Ġspared": 7110,
      "ĠRed": 7111,
      "ounding": 7112,
      "Ġprime": 7113,
      "ocol": 7114,
      "rences": 7115,
      "Ġnecessaries": 7116,
      "ĠLo": 7117,
      "Ġprotocol": 7118,
      "Ġconclusions": 7119,
      "Ġinterrupted": 7120,
      "Ġ35": 7121,
      "Ġmenac": 7122,
      "ĠCher": 7123,
      "Ġfinish": 7124,
      "Ġbuying": 7125,
      "ĠPresidential": 7126,
      "Ġcharacterized": 7127,
      "Ġengagement": 7128,
      "Ġearnings": 7129,
      "Ġmodified": 7130,
      "Ġprovisional": 7131,
      "Ġhappened": 7132,
      "Ġsaying": 7133,
      "Ġclassro": 7134,
      "Ġenforcing": 7135,
      "Ġbegins": 7136,
      "Ġobliged": 7137,
      "Ġgratification": 7138,
      "Ġflo": 7139,
      "Ġmedic": 7140,
      "Ġoccasional": 7141,
      "Ġirrit": 7142,
      "Ġtested": 7143,
      "ĠHealth": 7144,
      "Ġattempting": 7145,
      "Ġfixing": 7146,
      "Ġ80": 7147,
      "Ġblessed": 7148,
      "Ġgovernors": 7149,
      "Ġrenders": 7150,
      "Ġcongressional": 7151,
      "Ġpreparations": 7152,
      "Ġerror": 7153,
      "Ġrebuild": 7154,
      "Ġanticipate": 7155,
      "Ġflagrant": 7156,
      "burg": 7157,
      "Ġcontroversies": 7158,
      "Ġartillery": 7159,
      "Ġsquare": 7160,
      "Ġswift": 7161,
      "Ġdefeated": 7162,
      "Ġfortunes": 7163,
      "Ġwider": 7164,
      "Ġtaxpayer": 7165,
      "Ġinstallments": 7166,
      "Ġfruits": 7167,
      "ĠReserve": 7168,
      "Ġbureauc": 7169,
      "Ġpainful": 7170,
      "Ġlaunched": 7171,
      "ĠConsid": 7172,
      "ĠConfederacy": 7173,
      "Ġindirectly": 7174,
      "Ġsacrifices": 7175,
      "ĠCorporation": 7176,
      "Ġremembered": 7177,
      "ĠCanadian": 7178,
      "Ġbattles": 7179,
      "ĠQaeda": 7180,
      "aks": 7181,
      "fourth": 7182,
      "gress": 7183,
      "nant": 7184,
      "oa": 7185,
      "six": 7186,
      "ona": 7187,
      "Ġwounded": 7188,
      "Ġsort": 7189,
      "Ġsight": 7190,
      "Ġcrown": 7191,
      "Ġbitter": 7192,
      "Ġinstant": 7193,
      "Ġfishing": 7194,
      "alities": 7195,
      "Ġdied": 7196,
      "Ġdread": 7197,
      "Ġease": 7198,
      "ilip": 7199,
      "ĠTrade": 7200,
      "Ġsugar": 7201,
      "ĠCapt": 7202,
      "owers": 7203,
      "Ġsharing": 7204,
      "aine": 7205,
      "ĠGentlemen": 7206,
      "Ġalliances": 7207,
      "Ġexpire": 7208,
      "Ġchart": 7209,
      "ighted": 7210,
      "ĠMc": 7211,
      "ĠMary": 7212,
      "ĠFree": 7213,
      "ĠFilip": 7214,
      "ander": 7215,
      "ĠPe": 7216,
      "ĠPoint": 7217,
      "Ġrecol": 7218,
      "eople": 7219,
      "Ġcompuls": 7220,
      "Ġconsists": 7221,
      "Ġconsuls": 7222,
      "uded": 7223,
      "Ġanywhere": 7224,
      "acle": 7225,
      "Ġwarrants": 7226,
      "Ġ180": 7227,
      "Ġtraditions": 7228,
      "ĠLea": 7229,
      "Ġrecommends": 7230,
      "Ġsystematic": 7231,
      "Ġboards": 7232,
      "stitutional": 7233,
      "Ġoppos": 7234,
      "Ġdevelopments": 7235,
      "Ġneglected": 7236,
      "Ġdemanding": 7237,
      "Ġschedule": 7238,
      "Ġlocation": 7239,
      "Ġ1895": 7240,
      "Ġcooper": 7241,
      "Ġfamiliar": 7242,
      "Ġhearing": 7243,
      "Ġframed": 7244,
      "Ġelig": 7245,
      "Ġperforming": 7246,
      "Ġsupplying": 7247,
      "Ġoccasioned": 7248,
      "Ġassuming": 7249,
      "Ġ70": 7250,
      "Ġvotes": 7251,
      "Ġremedies": 7252,
      "Ġbrid": 7253,
      "Ġcongress": 7254,
      "ĠMajor": 7255,
      "Ġmasses": 7256,
      "Ġperfectly": 7257,
      "Ġrendering": 7258,
      "Ġactively": 7259,
      "Ġhonestly": 7260,
      "Ġfitted": 7261,
      "Ġvigorously": 7262,
      "Ġassociation": 7263,
      "Ġexactly": 7264,
      "ĠPorto": 7265,
      "Ġidle": 7266,
      "Ġconcurrence": 7267,
      "Ġaccumulated": 7268,
      "Ġawait": 7269,
      "Ġclosing": 7270,
      "Ġqualities": 7271,
      "Ġarguments": 7272,
      "miral": 7273,
      "Ġinvestigations": 7274,
      "Ġdiversity": 7275,
      "Ġnames": 7276,
      "Ġbinding": 7277,
      "Ġshrink": 7278,
      "Ġfigures": 7279,
      "ĠNearly": 7280,
      "Ġprecaution": 7281,
      "Ġdisarmament": 7282,
      "Ġingen": 7283,
      "Ġunreasonable": 7284,
      "Ġunsatisfactory": 7285,
      "ĠPrussia": 7286,
      "Ġadequately": 7287,
      "ĠRocky": 7288,
      "Ġcoffee": 7289,
      "habilitation": 7290,
      "ĠCaptain": 7291,
      "62": 7292,
      "TER": 7293,
      "bo": 7294,
      "lim": 7295,
      "lish": 7296,
      "uct": 7297,
      "upon": 7298,
      "yards": 7299,
      "Ġwaged": 7300,
      "itage": 7301,
      "ndered": 7302,
      "Ġinse": 7303,
      "aled": 7304,
      "Ġdr": 7305,
      "Ġreaction": 7306,
      "Ġgarrison": 7307,
      "Ġnoble": 7308,
      "ĠAff": 7309,
      "Ġsucc": 7310,
      "Ġexternal": 7311,
      "Ġdepl": 7312,
      "racies": 7313,
      "ĠCabinet": 7314,
      "ection": 7315,
      "ntil": 7316,
      "Ġlaying": 7317,
      "Ġalliance": 7318,
      "osity": 7319,
      "emical": 7320,
      "Ġrid": 7321,
      "Ġenrich": 7322,
      "Ġincap": 7323,
      "ĠFar": 7324,
      "ĠFrank": 7325,
      "ĠPl": 7326,
      "ĠPat": 7327,
      "ĠPres": 7328,
      "perate": 7329,
      "Ġmoreover": 7330,
      "epend": 7331,
      "Ġrepairs": 7332,
      "Ġpreference": 7333,
      "Ġrelates": 7334,
      "Ġpresenting": 7335,
      "agers": 7336,
      "Ġsuppose": 7337,
      "Ġraw": 7338,
      "arer": 7339,
      "ables": 7340,
      "Ġcenturies": 7341,
      "Ġretired": 7342,
      "Ġrespond": 7343,
      "Ġrelationships": 7344,
      "Ġdiscovery": 7345,
      "Ġinfant": 7346,
      "ĠPresidents": 7347,
      "Ġstandpoint": 7348,
      "Ġrepresenting": 7349,
      "ceptible": 7350,
      "Ġnatives": 7351,
      "Ġtowards": 7352,
      "Ġlocated": 7353,
      "...": 7354,
      "Ġpatents": 7355,
      "Ġspecified": 7356,
      "Ġdoesn": 7357,
      "Ġhardship": 7358,
      "Ġeventually": 7359,
      "ĠAlab": 7360,
      "Ġexceptional": 7361,
      "psed": 7362,
      "Ġkindly": 7363,
      "Ġcommanded": 7364,
      "Ġrob": 7365,
      "Ġenactments": 7366,
      "Ġdraft": 7367,
      "Ġunfin": 7368,
      "Ġmisch": 7369,
      "Ġtends": 7370,
      "Ġ1884": 7371,
      "Ġparalle": 7372,
      "Ġparamount": 7373,
      "Ġbrut": 7374,
      "Ġbarbar": 7375,
      "Ġendeavors": 7376,
      "Ġembracing": 7377,
      "Ġqualifications": 7378,
      "ĠEnglish": 7379,
      "Ġpossibilities": 7380,
      "workers": 7381,
      "Ġcollision": 7382,
      "Ġmissile": 7383,
      "Ġcheaper": 7384,
      "ĠBefore": 7385,
      "Ġsubsidies": 7386,
      "Ġintentions": 7387,
      "Ġloyalty": 7388,
      "ĠDEP": 7389,
      "Ġflexibility": 7390,
      "Ġsubsistence": 7391,
      "Ġsteamship": 7392,
      "offices": 7393,
      "Ġsuspicion": 7394,
      "Ġgriev": 7395,
      "alysis": 7396,
      "CE": 7397,
      "FF": 7398,
      "aken": 7399,
      "building": 7400,
      "eper": 7401,
      "gments": 7402,
      "ien": 7403,
      "making": 7404,
      "manship": 7405,
      "pe": 7406,
      "pse": 7407,
      "rates": 7408,
      "Ġtreasury": 7409,
      "Ġthence": 7410,
      "itated": 7411,
      "Ġcure": 7412,
      "Ġpound": 7413,
      "Ġhat": 7414,
      "Ġhuge": 7415,
      "Ġeager": 7416,
      "iling": 7417,
      "ilize": 7418,
      "Ġlob": 7419,
      "Ġlying": 7420,
      "Ġlyn": 7421,
      "ĠTe": 7422,
      "ĠTennes": 7423,
      "Ġgift": 7424,
      "Ġprominent": 7425,
      "ĠSal": 7426,
      "ĠSch": 7427,
      "Ġwithheld": 7428,
      "ĠCoun": 7429,
      "ighth": 7430,
      "ĠWill": 7431,
      "Ġvarying": 7432,
      "oss": 7433,
      "usband": 7434,
      "ĠMe": 7435,
      "Ġcanals": 7436,
      "Ġjourn": 7437,
      "Ġunsu": 7438,
      "Ġpartis": 7439,
      "Ġpartly": 7440,
      "udes": 7441,
      "Ġsubmar": 7442,
      "Ġarid": 7443,
      "Ġheed": 7444,
      "ĠInst": 7445,
      "Ġusur": 7446,
      "ĠHond": 7447,
      "Ġtrillion": 7448,
      "Ġoutrage": 7449,
      "Ġtract": 7450,
      "ĠLiber": 7451,
      "Ġconfed": 7452,
      "Ġdescribed": 7453,
      "Ġauthorizations": 7454,
      "Ġpays": 7455,
      "ĠIndepend": 7456,
      "Ġoppose": 7457,
      "Ġclaiming": 7458,
      "Ġannivers": 7459,
      "Ġheritage": 7460,
      "Ġlesson": 7461,
      "Ġretal": 7462,
      "Ġdiscovered": 7463,
      "Ġcontrolling": 7464,
      "Ġregardless": 7465,
      "Ġguests": 7466,
      "Ġpolitic": 7467,
      "Ġadminister": 7468,
      "ĠRepublican": 7469,
      "mediate": 7470,
      "Ġmeasured": 7471,
      "Ġinstruments": 7472,
      "Ġdevast": 7473,
      "Ġconsequently": 7474,
      "Ġlatest": 7475,
      "Ġoccurrences": 7476,
      "Ġlimiting": 7477,
      "Ġtests": 7478,
      "lame": 7479,
      "Ġexplos": 7480,
      "Ġ1875": 7481,
      "Ġcalm": 7482,
      "Ġguaranteed": 7483,
      "Ġcomplaints": 7484,
      "Ġ1909": 7485,
      "Ġcriticism": 7486,
      "Ġinsisted": 7487,
      "Ġawaiting": 7488,
      "Ġtribunals": 7489,
      "ĠEngine": 7490,
      "Ġsupers": 7491,
      "Ġaugmentation": 7492,
      "Ġawarded": 7493,
      "Ġtypes": 7494,
      "Ġmountains": 7495,
      "Ġemphasize": 7496,
      "ĠManila": 7497,
      "Ġdiscontent": 7498,
      "Ġenhanced": 7499,
      "Ġduration": 7500,
      "Ġerected": 7501,
      "ĠGeorge": 7502,
      "Ġunconstitutional": 7503,
      "Ġtreasure": 7504,
      "Ġbounty": 7505,
      "Ġfertile": 7506,
      "Ġineffect": 7507,
      "Ġpollution": 7508,
      "ĠGreece": 7509,
      "Ġscrutiny": 7510,
      "Ġbudgets": 7511,
      "Ġauxiliary": 7512,
      "ĠBolivia": 7513,
      "ĠAlabama": 7514,
      "Ġunfinished": 7515,
      "Ġmischief": 7516,
      "ĠTennessee": 7517,
      "61": 7518,
      "AS": 7519,
      "LE": 7520,
      "MER": 7521,
      "ares": 7522,
      "bian": 7523,
      "cle": 7524,
      "eous": 7525,
      "gence": 7526,
      "iors": 7527,
      "lerate": 7528,
      "son": 7529,
      "va": 7530,
      "erous": 7531,
      "itor": 7532,
      "itations": 7533,
      "Ġcas": 7534,
      "Ġfab": 7535,
      "Ġfrig": 7536,
      "Ġhusband": 7537,
      "Ġdil": 7538,
      "uten": 7539,
      "ĠSim": 7540,
      "ulse": 7541,
      "ĠCertain": 7542,
      "Ġstamp": 7543,
      "Ġstocks": 7544,
      "rip": 7545,
      "Ġrounded": 7546,
      "lac": 7547,
      "Ġfault": 7548,
      "Ġimpression": 7549,
      "Ġcontending": 7550,
      "ĠFarm": 7551,
      "ĠFranc": 7552,
      "umber": 7553,
      "Ġspur": 7554,
      "Ġprovince": 7555,
      "fulness": 7556,
      "Ġtimely": 7557,
      "Ġreluct": 7558,
      "Ġkill": 7559,
      "Ġforemost": 7560,
      "ĠLike": 7561,
      "Ġrare": 7562,
      "Ġdefiance": 7563,
      "Ġfug": 7564,
      "Ġbeloved": 7565,
      "aped": 7566,
      "Ġbenevol": 7567,
      "Ġregarding": 7568,
      "Ġlanding": 7569,
      "Ġbenefited": 7570,
      "Ġurban": 7571,
      "Ġavowed": 7572,
      "Ġ500": 7573,
      "Ġpatent": 7574,
      "Ġconnecting": 7575,
      "Ġenlarging": 7576,
      "Ġdependents": 7577,
      "Ġvariety": 7578,
      "Ġachieving": 7579,
      "ĠAlready": 7580,
      "Ġallowances": 7581,
      "Ġcontributing": 7582,
      "Ġblind": 7583,
      "Ġmiscon": 7584,
      "Ġmiscell": 7585,
      "Ġ1888": 7586,
      "Ġsolved": 7587,
      "Ġwaterways": 7588,
      "Ġinherent": 7589,
      "Ġexhibition": 7590,
      "Ġconsisted": 7591,
      "Ġsubmitting": 7592,
      "Ġattacked": 7593,
      "Ġdemonstration": 7594,
      "Ġsixty": 7595,
      "Ġ1837": 7596,
      "Ġfitting": 7597,
      "Ġapprehensions": 7598,
      "Ġcordially": 7599,
      "ĠNotwithstanding": 7600,
      "Ġsolemnly": 7601,
      "Ġdoctors": 7602,
      "Ġprimarily": 7603,
      "Ġconcentrated": 7604,
      "Ġempire": 7605,
      "Ġdispatched": 7606,
      "Ġadverse": 7607,
      "Ġrigor": 7608,
      "Ġcherished": 7609,
      "Ġdominions": 7610,
      "ĠHavana": 7611,
      "Ġwitnessed": 7612,
      "Ġambition": 7613,
      "Ġmasters": 7614,
      "Ġconcessions": 7615,
      "ĠCarol": 7616,
      "Ġenhance": 7617,
      "marks": 7618,
      "Ġmultiplied": 7619,
      "ĠChristian": 7620,
      "ique": 7621,
      "Ġballot": 7622,
      "Ġmonopolies": 7623,
      "Ġgeographical": 7624,
      "Ġdwell": 7625,
      "Ġendanger": 7626,
      "Ġbankruptcy": 7627,
      "ĠEconomic": 7628,
      "Ġequipped": 7629,
      "ĠTreaty": 7630,
      "Ġaspirations": 7631,
      "Ġinsufficient": 7632,
      "Ġpraise": 7633,
      "Ġspeaking": 7634,
      "Ġspoken": 7635,
      "Ġunfavorable": 7636,
      "masters": 7637,
      "ĠCheroke": 7638,
      "Ġparallel": 7639,
      "Ġhatred": 7640,
      "ĠCouncil": 7641,
      "ĠHondur": 7642,
      "ĠFrancis": 7643,
      "Ġmiscellaneous": 7644,
      "95": 7645,
      "author": 7646,
      "based": 7647,
      "bearing": 7648,
      "office": 7649,
      "Ġ'": 7650,
      "Ġ+": 7651,
      "itures": 7652,
      "Ġcreed": 7653,
      "Ġpal": 7654,
      "Ġbread": 7655,
      "Ġeth": 7656,
      "oman": 7657,
      "Ġgir": 7658,
      "Ġconqu": 7659,
      "ĠThree": 7660,
      "ĠAy": 7661,
      "Ġsun": 7662,
      "iguous": 7663,
      "rael": 7664,
      "ected": 7665,
      "Ġshut": 7666,
      "etic": 7667,
      "Ġintol": 7668,
      "ĠGuard": 7669,
      "ĠUntil": 7670,
      "Ġranks": 7671,
      "licity": 7672,
      "ĠNext": 7673,
      "ĠFive": 7674,
      "ĠFortun": 7675,
      "ĠPeople": 7676,
      "Ġreclaim": 7677,
      "ĠInc": 7678,
      "Ġpron": 7679,
      "Ġnewsp": 7680,
      "Ġimportations": 7681,
      "Ġneedy": 7682,
      "Ġoverth": 7683,
      "Ġfee": 7684,
      "Ġdefining": 7685,
      "Ġafflic": 7686,
      "Ġtransform": 7687,
      "Ġpropositions": 7688,
      "atholic": 7689,
      "Ġquestioned": 7690,
      "Ġlaboring": 7691,
      "ĠExpend": 7692,
      "Ġforming": 7693,
      "Ġplanes": 7694,
      "ixed": 7695,
      "Ġpace": 7696,
      "Ġexcited": 7697,
      "Ġ1896": 7698,
      "Ġharvest": 7699,
      "Ġsalary": 7700,
      "Ġdispositions": 7701,
      "Ġstatutory": 7702,
      "Ġsuperv": 7703,
      "Ġunfriend": 7704,
      "Ġoccurrence": 7705,
      "Ġundes": 7706,
      "Ġstudent": 7707,
      "Ġpermits": 7708,
      "Ġpressures": 7709,
      "Ġcustody": 7710,
      "Ġdesigns": 7711,
      "Ġvoting": 7712,
      "Ġillness": 7713,
      "Ġarbitrat": 7714,
      "Ġutility": 7715,
      "Ġavert": 7716,
      "Ġcolony": 7717,
      "Ġskilled": 7718,
      "Ġinitial": 7719,
      "Ġcontemplates": 7720,
      "Ġbroader": 7721,
      "Ġbreach": 7722,
      "Ġregularly": 7723,
      "known": 7724,
      "Ġculture": 7725,
      "Ġprohibiting": 7726,
      "Ġdeliberation": 7727,
      "Ġcontinental": 7728,
      "Ġtalents": 7729,
      "Ġconstitutes": 7730,
      "Ġenabling": 7731,
      "Ġcomparison": 7732,
      "Ġfaster": 7733,
      "Ġwaiting": 7734,
      "Ġpossibly": 7735,
      "Ġproofs": 7736,
      "Ġempower": 7737,
      "Ġsurrendered": 7738,
      "Ġinvestigate": 7739,
      "Ġunexpected": 7740,
      "Ġattachment": 7741,
      "Ġmistakes": 7742,
      "Ġcontrast": 7743,
      "Ġemigration": 7744,
      "Ġsurviv": 7745,
      "ĠMarine": 7746,
      "Ġunanimity": 7747,
      "Ġcelebration": 7748,
      "Ġcondemned": 7749,
      "Ġprefer": 7750,
      "Ġrevolutions": 7751,
      "ĠNevertheless": 7752,
      "Ġelapsed": 7753,
      "Ġoutbreak": 7754,
      "Ġgathered": 7755,
      "Ġchaos": 7756,
      "Ġventure": 7757,
      "ARTMENT": 7758,
      "Ġdropped": 7759,
      "Ġextinction": 7760,
      "ĠJuan": 7761,
      "ĠCosta": 7762,
      "Ġemancipation": 7763,
      "Ġarsenals": 7764,
      "Ġopposite": 7765,
      "ĠAffairs": 7766,
      "ĠDEPARTMENT": 7767,
      "Ġfabric": 7768,
      "ĠHonduras": 7769,
      "IDS": 7770,
      "field": 7771,
      "gia": 7772,
      "jo": 7773,
      "liness": 7774,
      "mpt": 7775,
      "po": 7776,
      "ships": 7777,
      "Ġoption": 7778,
      "atri": 7779,
      "Ġwood": 7780,
      "itudes": 7781,
      "Ġsem": 7782,
      "Ġcri": 7783,
      "Ġpressed": 7784,
      "Ġfur": 7785,
      "Ġfate": 7786,
      "urm": 7787,
      "lements": 7788,
      "mented": 7789,
      "Ġdear": 7790,
      "ulously": 7791,
      "ĠCatholic": 7792,
      "Ġstra": 7793,
      "Ġstory": 7794,
      "orem": 7795,
      "erers": 7796,
      "Ġnotable": 7797,
      "ĠGran": 7798,
      "ĠGene": 7799,
      "Ġtheirs": 7800,
      "Ġallied": 7801,
      "Ġvoy": 7802,
      "Ġresolute": 7803,
      "keeping": 7804,
      "Ġages": 7805,
      "ĠBill": 7806,
      "ĠPRO": 7807,
      "Ġunm": 7808,
      "otal": 7809,
      "Ġdisinterest": 7810,
      "Ġdoors": 7811,
      "Ġcomplied": 7812,
      "Ġspl": 7813,
      "Ġeffic": 7814,
      "Ġtherefor": 7815,
      "ĠEgy": 7816,
      "Ġpublication": 7817,
      "Ġ1824": 7818,
      "Ġreliable": 7819,
      "agon": 7820,
      "ĠLa": 7821,
      "Ġneedless": 7822,
      "Ġfeed": 7823,
      "Ġfell": 7824,
      "Ġraces": 7825,
      "Ġdefra": 7826,
      "Ġreception": 7827,
      "Ġdemoral": 7828,
      "ferent": 7829,
      "Ġmarriage": 7830,
      "ĠIndust": 7831,
      "Ġvalorem": 7832,
      "Ġmining": 7833,
      "Ġfactory": 7834,
      "Ġinfra": 7835,
      "Ġscattered": 7836,
      "Ġhonored": 7837,
      "Ġrealization": 7838,
      "ĠKen": 7839,
      "ĠKent": 7840,
      "Ġwanted": 7841,
      "Ġtribe": 7842,
      "Ġharder": 7843,
      "Ġinjunction": 7844,
      "Ġdidn": 7845,
      "Ġdealt": 7846,
      "Ġallowing": 7847,
      "Ġallowance": 7848,
      "Ġtele": 7849,
      "Ġassumption": 7850,
      "Ġimposes": 7851,
      "Ġexceeds": 7852,
      "ĠIsrael": 7853,
      "Ġseparation": 7854,
      "Ġseparated": 7855,
      "Ġ1842": 7856,
      "Ġtenure": 7857,
      "Ġanticipation": 7858,
      "Ġ1832": 7859,
      "Ġextensively": 7860,
      "Ġassociated": 7861,
      "Ġreconversion": 7862,
      "Ġinquire": 7863,
      "ICE": 7864,
      "Ġdisappear": 7865,
      "Ġdisappoint": 7866,
      "Ġdisappointed": 7867,
      "Ġincurs": 7868,
      "ĠRica": 7869,
      "Ġengineering": 7870,
      "Ġstationed": 7871,
      "Ġcomforts": 7872,
      "Ġfifteen": 7873,
      "Ġcongratulation": 7874,
      "Ġchecked": 7875,
      "ungary": 7876,
      "Ġliquid": 7877,
      "working": 7878,
      "Ġfostering": 7879,
      "Ġinspire": 7880,
      "Ġinspired": 7881,
      "Ġowes": 7882,
      "Ġincentive": 7883,
      "Ġprudence": 7884,
      "Ġpartially": 7885,
      "Ġpostpone": 7886,
      "coast": 7887,
      "Ġblockade": 7888,
      "Ġminority": 7889,
      "Ġneighborhoods": 7890,
      "Ġutterly": 7891,
      "Ġsurrounded": 7892,
      "Ġmagnific": 7893,
      "Ġprofessional": 7894,
      "Ġhazard": 7895,
      "Ġexigencies": 7896,
      "Ġadventure": 7897,
      "Ġstatistics": 7898,
      "Ġwholesome": 7899,
      "Ġdisadvantage": 7900,
      "Ġunavoidable": 7901,
      "ĠAcademy": 7902,
      "Ġpatronage": 7903,
      "Ġjourney": 7904,
      "Ġanniversary": 7905,
      "ĠFrancisco": 7906,
      "atriation": 7907,
      "Ġcripp": 7908,
      "ĠGranada": 7909,
      "ĠGeneva": 7910,
      "Ġdisinterested": 7911,
      "ĠEgypt": 7912,
      "43": 7913,
      "96": 7914,
      "Th": 7915,
      "free": 7916,
      "iencies": 7917,
      "iatory": 7918,
      "ode": 7919,
      "place": 7920,
      "ris": 7921,
      "run": 7922,
      "ti": 7923,
      "uards": 7924,
      "Ġtre": 7925,
      "Ġtable": 7926,
      "Ġsites": 7927,
      "Ġpac": 7928,
      "Ġfranch": 7929,
      "Ġmine": 7930,
      "aling": 7931,
      "Ġreen": 7932,
      "urance": 7933,
      "Ġeminent": 7934,
      "cting": 7935,
      "lets": 7936,
      "lease": 7937,
      "Ġforc": 7938,
      "ĠTotal": 7939,
      "Ġweigh": 7940,
      "Ġstern": 7941,
      "Ġstag": 7942,
      "east": 7943,
      "Ġadmon": 7944,
      "Ġyearly": 7945,
      "Ġexplicit": 7946,
      "Ġimpress": 7947,
      "ensurate": 7948,
      "Ġincalc": 7949,
      "ĠFourth": 7950,
      "Ġcommensurate": 7951,
      "ĠPart": 7952,
      "ĠPowers": 7953,
      "Ġseals": 7954,
      "Ġcompr": 7955,
      "Ġconserv": 7956,
      "Ġconspic": 7957,
      "Ġtact": 7958,
      "Ġreplen": 7959,
      "Ġcaution": 7960,
      "ĠEn": 7961,
      "ĠDiv": 7962,
      "Ġproven": 7963,
      "acent": 7964,
      "Ġwarm": 7965,
      "ĠHay": 7966,
      "Ġ1827": 7967,
      "Ġaccur": 7968,
      "Ġregiments": 7969,
      "Ġremonst": 7970,
      "ĠJud": 7971,
      "ĠJeff": 7972,
      "Ġconfusion": 7973,
      "Ġoverc": 7974,
      "Ġdecrees": 7975,
      "Ġdefine": 7976,
      "ificial": 7977,
      "Ġauthorization": 7978,
      "Ġadvise": 7979,
      "ellect": 7980,
      "ĠWhilst": 7981,
      "Ġfactors": 7982,
      "Ġlessons": 7983,
      "Ġseeks": 7984,
      "Ġprescribe": 7985,
      "Ġscene": 7986,
      "Ġfavors": 7987,
      "Ġorganizing": 7988,
      "Ġguid": 7989,
      "ĠExposition": 7990,
      "elling": 7991,
      "Ġplanned": 7992,
      "Ġdomination": 7993,
      "Ġnegotiating": 7994,
      "Ġexamined": 7995,
      "Ġtotally": 7996,
      "Ġvaried": 7997,
      "Ġdisputed": 7998,
      "Ġfarming": 7999
    },
    "merges": [
      [
        "Ġ",
        "t"
      ],
      [
        "Ġt",
        "h"
      ],
      [
        "Ġ",
        "a"
      ],
      [
        "č",
        "Ċ"
      ],
      [
        "Ġth",
        "e"
      ],
      [
        "Ġ",
        "o"
      ],
      [
        "i",
        "n"
      ],
      [
        "r",
        "e"
      ],
      [
        "o",
        "n"
      ],
      [
        "e",
        "r"
      ],
      [
        "e",
        "n"
      ],
      [
        "a",
        "t"
      ],
      [
        "Ġo",
        "f"
      ],
      [
        "Ġ",
        "w"
      ],
      [
        "i",
        "t"
      ],
      [
        "Ġ",
        "s"
      ],
      [
        "Ġ",
        "c"
      ],
      [
        "n",
        "d"
      ],
      [
        "Ġ",
        "p"
      ],
      [
        "Ġ",
        "b"
      ],
      [
        "e",
        "s"
      ],
      [
        "e",
        "d"
      ],
      [
        "i",
        "s"
      ],
      [
        "i",
        "on"
      ],
      [
        "o",
        "r"
      ],
      [
        "Ġt",
        "o"
      ],
      [
        "Ġ",
        "in"
      ],
      [
        "Ġ",
        "f"
      ],
      [
        "Ġa",
        "nd"
      ],
      [
        "Ġ",
        "m"
      ],
      [
        "i",
        "c"
      ],
      [
        "a",
        "r"
      ],
      [
        "a",
        "n"
      ],
      [
        "a",
        "l"
      ],
      [
        "Ġ",
        "h"
      ],
      [
        "en",
        "t"
      ],
      [
        "o",
        "u"
      ],
      [
        "in",
        "g"
      ],
      [
        "Ġ",
        "d"
      ],
      [
        "s",
        "t"
      ],
      [
        "Ġ",
        "re"
      ],
      [
        "Ġb",
        "e"
      ],
      [
        "r",
        "o"
      ],
      [
        "Ġ",
        "n"
      ],
      [
        "u",
        "r"
      ],
      [
        "Ġ",
        "e"
      ],
      [
        "i",
        "l"
      ],
      [
        "at",
        "ion"
      ],
      [
        "a",
        "s"
      ],
      [
        "Ġ",
        "l"
      ],
      [
        "c",
        "t"
      ],
      [
        "v",
        "e"
      ],
      [
        "o",
        "m"
      ],
      [
        "c",
        "e"
      ],
      [
        "l",
        "e"
      ],
      [
        "Ġw",
        "h"
      ],
      [
        "Ġf",
        "or"
      ],
      [
        "l",
        "y"
      ],
      [
        "Ġ",
        "T"
      ],
      [
        "u",
        "t"
      ],
      [
        "m",
        "ent"
      ],
      [
        "s",
        "e"
      ],
      [
        "v",
        "er"
      ],
      [
        "Ġ",
        "čĊ"
      ],
      [
        "Ġth",
        "at"
      ],
      [
        "Ġ",
        "I"
      ],
      [
        "Ġ",
        "g"
      ],
      [
        "Ġc",
        "on"
      ],
      [
        "Ġ",
        "u"
      ],
      [
        "Ġp",
        "ro"
      ],
      [
        "t",
        "h"
      ],
      [
        "i",
        "m"
      ],
      [
        "re",
        "s"
      ],
      [
        "Ġ",
        "is"
      ],
      [
        "ĠT",
        "h"
      ],
      [
        "Ġ",
        "it"
      ],
      [
        "it",
        "h"
      ],
      [
        "Ġh",
        "a"
      ],
      [
        "Ġo",
        "ur"
      ],
      [
        "l",
        "d"
      ],
      [
        "Ġn",
        "o"
      ],
      [
        "Ġ",
        "S"
      ],
      [
        "i",
        "r"
      ],
      [
        "Ġw",
        "e"
      ],
      [
        "Ġ",
        "A"
      ],
      [
        "i",
        "d"
      ],
      [
        "Ġs",
        "u"
      ],
      [
        "Ġe",
        "x"
      ],
      [
        "Ġb",
        "y"
      ],
      [
        "Ġa",
        "s"
      ],
      [
        "Ġw",
        "ith"
      ],
      [
        "i",
        "g"
      ],
      [
        "il",
        "l"
      ],
      [
        "Ġo",
        "n"
      ],
      [
        "l",
        "l"
      ],
      [
        "c",
        "h"
      ],
      [
        "Ġd",
        "e"
      ],
      [
        "ĠTh",
        "e"
      ],
      [
        "es",
        "s"
      ],
      [
        "ic",
        "h"
      ],
      [
        "r",
        "a"
      ],
      [
        "u",
        "l"
      ],
      [
        "Ġwh",
        "ich"
      ],
      [
        "Ġ",
        "C"
      ],
      [
        "es",
        "t"
      ],
      [
        "Ġa",
        "n"
      ],
      [
        "Ġha",
        "ve"
      ],
      [
        "Ġm",
        "a"
      ],
      [
        "at",
        "e"
      ],
      [
        "Ġc",
        "om"
      ],
      [
        "en",
        "d"
      ],
      [
        "Ġs",
        "t"
      ],
      [
        "e",
        "ct"
      ],
      [
        "Ġ",
        "y"
      ],
      [
        "o",
        "w"
      ],
      [
        "Ġn",
        "e"
      ],
      [
        "g",
        "e"
      ],
      [
        "Ġs",
        "h"
      ],
      [
        "i",
        "es"
      ],
      [
        "er",
        "s"
      ],
      [
        "a",
        "b"
      ],
      [
        "or",
        "t"
      ],
      [
        "o",
        "re"
      ],
      [
        "e",
        "re"
      ],
      [
        "n",
        "t"
      ],
      [
        "ou",
        "ld"
      ],
      [
        "p",
        "p"
      ],
      [
        "it",
        "y"
      ],
      [
        "o",
        "p"
      ],
      [
        "i",
        "f"
      ],
      [
        "Ġth",
        "is"
      ],
      [
        "Ġno",
        "t"
      ],
      [
        "Ġw",
        "ill"
      ],
      [
        "a",
        "in"
      ],
      [
        "o",
        "l"
      ],
      [
        "u",
        "st"
      ],
      [
        "Ġa",
        "t"
      ],
      [
        "Ġa",
        "re"
      ],
      [
        "on",
        "g"
      ],
      [
        "o",
        "ver"
      ],
      [
        "e",
        "t"
      ],
      [
        "Ġin",
        "t"
      ],
      [
        "r",
        "i"
      ],
      [
        "Ġh",
        "as"
      ],
      [
        "Ġbe",
        "en"
      ],
      [
        "q",
        "u"
      ],
      [
        "res",
        "s"
      ],
      [
        "is",
        "t"
      ],
      [
        "Ġ",
        "G"
      ],
      [
        "Ġl",
        "a"
      ],
      [
        "Ġo",
        "r"
      ],
      [
        "m",
        "er"
      ],
      [
        "i",
        "ve"
      ],
      [
        "over",
        "n"
      ],
      [
        "d",
        "e"
      ],
      [
        "ation",
        "s"
      ],
      [
        "ĠS",
        "t"
      ],
      [
        "e",
        "ar"
      ],
      [
        "at",
        "es"
      ],
      [
        "overn",
        "ment"
      ],
      [
        "e",
        "c"
      ],
      [
        "a",
        "y"
      ],
      [
        "Ġthe",
        "ir"
      ],
      [
        "ro",
        "m"
      ],
      [
        "ig",
        "h"
      ],
      [
        "Ġ",
        "W"
      ],
      [
        "re",
        "at"
      ],
      [
        "e",
        "a"
      ],
      [
        "th",
        "er"
      ],
      [
        "Ġa",
        "ll"
      ],
      [
        "i",
        "v"
      ],
      [
        "Ġf",
        "rom"
      ],
      [
        "Ġ",
        "v"
      ],
      [
        "0",
        "0"
      ],
      [
        "an",
        "t"
      ],
      [
        "f",
        "f"
      ],
      [
        "ar",
        "t"
      ],
      [
        "o",
        "s"
      ],
      [
        "ion",
        "s"
      ],
      [
        "ou",
        "nt"
      ],
      [
        "ar",
        "y"
      ],
      [
        "e",
        "m"
      ],
      [
        "Ġ",
        "1"
      ],
      [
        "i",
        "z"
      ],
      [
        "Ġa",
        "d"
      ],
      [
        "Ġ",
        "im"
      ],
      [
        "u",
        "re"
      ],
      [
        "Ġ",
        "U"
      ],
      [
        "ĠSt",
        "ates"
      ],
      [
        "Ġ",
        "r"
      ],
      [
        "Ġy",
        "ear"
      ],
      [
        "Ġre",
        "s"
      ],
      [
        "o",
        "se"
      ],
      [
        "u",
        "s"
      ],
      [
        "Ġw",
        "or"
      ],
      [
        "i",
        "al"
      ],
      [
        "Ġex",
        "p"
      ],
      [
        "ĠG",
        "overnment"
      ],
      [
        "o",
        "d"
      ],
      [
        "n",
        "it"
      ],
      [
        "l",
        "a"
      ],
      [
        "Ġw",
        "as"
      ],
      [
        "p",
        "on"
      ],
      [
        "i",
        "p"
      ],
      [
        "o",
        "st"
      ],
      [
        "Ġ",
        "en"
      ],
      [
        "Ġc",
        "h"
      ],
      [
        "ab",
        "le"
      ],
      [
        "ou",
        "r"
      ],
      [
        "Ġs",
        "o"
      ],
      [
        "igh",
        "t"
      ],
      [
        "Ġit",
        "s"
      ],
      [
        "Ġf",
        "a"
      ],
      [
        "k",
        "e"
      ],
      [
        "Ġa",
        "g"
      ],
      [
        "Ġ",
        "B"
      ],
      [
        "ou",
        "s"
      ],
      [
        "is",
        "h"
      ],
      [
        "Ġim",
        "p"
      ],
      [
        "Ġ",
        "M"
      ],
      [
        "mer",
        "ic"
      ],
      [
        "en",
        "s"
      ],
      [
        "ĠA",
        "meric"
      ],
      [
        "Ġm",
        "e"
      ],
      [
        "l",
        "ic"
      ],
      [
        "Ġc",
        "an"
      ],
      [
        "r",
        "y"
      ],
      [
        "Ġcon",
        "t"
      ],
      [
        "Ġa",
        "l"
      ],
      [
        "an",
        "ce"
      ],
      [
        "Ġ",
        "N"
      ],
      [
        "ĠC",
        "ong"
      ],
      [
        "al",
        "l"
      ],
      [
        "ĠCong",
        "ress"
      ],
      [
        "c",
        "c"
      ],
      [
        "ar",
        "d"
      ],
      [
        "Ġsh",
        "ould"
      ],
      [
        "u",
        "n"
      ],
      [
        "Ġ",
        "j"
      ],
      [
        "an",
        "s"
      ],
      [
        "ct",
        "ion"
      ],
      [
        "i",
        "e"
      ],
      [
        "ic",
        "e"
      ],
      [
        "Ġa",
        "pp"
      ],
      [
        "nit",
        "ed"
      ],
      [
        "g",
        "h"
      ],
      [
        "Ġin",
        "c"
      ],
      [
        "d",
        "u"
      ],
      [
        "u",
        "b"
      ],
      [
        "i",
        "re"
      ],
      [
        "Ġ",
        "F"
      ],
      [
        "Ġcom",
        "m"
      ],
      [
        "ĠU",
        "nited"
      ],
      [
        "a",
        "nd"
      ],
      [
        "Ġ",
        "P"
      ],
      [
        "u",
        "m"
      ],
      [
        "Ġs",
        "e"
      ],
      [
        "Ġc",
        "ount"
      ],
      [
        "Ġu",
        "n"
      ],
      [
        "t",
        "er"
      ],
      [
        "om",
        "e"
      ],
      [
        "p",
        "er"
      ],
      [
        "Ġre",
        "c"
      ],
      [
        "a",
        "m"
      ],
      [
        "ĠI",
        "t"
      ],
      [
        "a",
        "d"
      ],
      [
        "u",
        "e"
      ],
      [
        "nd",
        "er"
      ],
      [
        "Ġthe",
        "m"
      ],
      [
        "o",
        "t"
      ],
      [
        "i",
        "b"
      ],
      [
        "e",
        "op"
      ],
      [
        "Ġp",
        "er"
      ],
      [
        "Ġm",
        "ore"
      ],
      [
        "e",
        "p"
      ],
      [
        "Ġp",
        "eop"
      ],
      [
        "Ġthe",
        "y"
      ],
      [
        "en",
        "ce"
      ],
      [
        "Ġd",
        "is"
      ],
      [
        "ver",
        "y"
      ],
      [
        "Ġa",
        "m"
      ],
      [
        "ub",
        "lic"
      ],
      [
        "Ġwh",
        "o"
      ],
      [
        "Ġpeop",
        "le"
      ],
      [
        "Ġa",
        "b"
      ],
      [
        "Ġb",
        "ut"
      ],
      [
        "re",
        "as"
      ],
      [
        "ou",
        "gh"
      ],
      [
        "er",
        "al"
      ],
      [
        "at",
        "ed"
      ],
      [
        "Ġg",
        "reat"
      ],
      [
        "Ġ",
        "O"
      ],
      [
        "t",
        "ed"
      ],
      [
        "Ġp",
        "art"
      ],
      [
        "res",
        "ent"
      ],
      [
        "Ġu",
        "pon"
      ],
      [
        "Ġd",
        "o"
      ],
      [
        "Ġo",
        "ther"
      ],
      [
        "Ġcom",
        "p"
      ],
      [
        "Ġm",
        "an"
      ],
      [
        "Ġcon",
        "s"
      ],
      [
        "Ġs",
        "p"
      ],
      [
        "im",
        "e"
      ],
      [
        "c",
        "es"
      ],
      [
        "Ġu",
        "nder"
      ],
      [
        "u",
        "d"
      ],
      [
        "er",
        "v"
      ],
      [
        "Ġw",
        "ould"
      ],
      [
        "Ġsu",
        "b"
      ],
      [
        "Ġsu",
        "ch"
      ],
      [
        "Ġa",
        "r"
      ],
      [
        "ĠW",
        "e"
      ],
      [
        "-",
        "-"
      ],
      [
        "it",
        "ion"
      ],
      [
        "Ġt",
        "a"
      ],
      [
        "Ġ",
        "$"
      ],
      [
        "Ġre",
        "p"
      ],
      [
        "Ġthe",
        "se"
      ],
      [
        "r",
        "u"
      ],
      [
        "ou",
        "t"
      ],
      [
        "Ġla",
        "w"
      ],
      [
        "Ġe",
        "ff"
      ],
      [
        "Ġh",
        "e"
      ],
      [
        "ul",
        "t"
      ],
      [
        "Ġthe",
        "re"
      ],
      [
        "Ġan",
        "y"
      ],
      [
        "Ġc",
        "a"
      ],
      [
        "Ġcount",
        "ry"
      ],
      [
        "Ġp",
        "re"
      ],
      [
        "Ġth",
        "an"
      ],
      [
        "j",
        "ect"
      ],
      [
        "Ġ",
        "E"
      ],
      [
        "Ġ",
        "D"
      ],
      [
        "ĠI",
        "n"
      ],
      [
        "p",
        "t"
      ],
      [
        "Ġma",
        "y"
      ],
      [
        "Ġm",
        "ust"
      ],
      [
        "t",
        "ain"
      ],
      [
        "a",
        "ge"
      ],
      [
        "Ġu",
        "s"
      ],
      [
        "Ġma",
        "de"
      ],
      [
        "ig",
        "n"
      ],
      [
        "Ġpro",
        "v"
      ],
      [
        "Ġa",
        "ct"
      ],
      [
        "f",
        "ic"
      ],
      [
        "c",
        "ess"
      ],
      [
        "Ġwe",
        "re"
      ],
      [
        "a",
        "st"
      ],
      [
        "Ġ",
        "R"
      ],
      [
        "re",
        "e"
      ],
      [
        "Ġp",
        "ublic"
      ],
      [
        "Ġp",
        "ow"
      ],
      [
        "Ġg",
        "o"
      ],
      [
        "ment",
        "s"
      ],
      [
        "Ġwor",
        "k"
      ],
      [
        "p",
        "l"
      ],
      [
        "Ġth",
        "ose"
      ],
      [
        "Ġo",
        "b"
      ],
      [
        "Ġn",
        "ation"
      ],
      [
        "re",
        "d"
      ],
      [
        "se",
        "l"
      ],
      [
        "ut",
        "ion"
      ],
      [
        "00",
        "0"
      ],
      [
        "e",
        "g"
      ],
      [
        "f",
        "ul"
      ],
      [
        "u",
        "al"
      ],
      [
        "a",
        "c"
      ],
      [
        "ere",
        "st"
      ],
      [
        "Ġt",
        "ime"
      ],
      [
        "Ġw",
        "ar"
      ],
      [
        "om",
        "m"
      ],
      [
        "Ġbe",
        "t"
      ],
      [
        "ou",
        "nd"
      ],
      [
        "c",
        "ed"
      ],
      [
        "Ġno",
        "w"
      ],
      [
        "is",
        "e"
      ],
      [
        "v",
        "en"
      ],
      [
        "Ġint",
        "erest"
      ],
      [
        "Ġ",
        "H"
      ],
      [
        "Ġp",
        "r"
      ],
      [
        "'",
        "s"
      ],
      [
        "on",
        "e"
      ],
      [
        "a",
        "ct"
      ],
      [
        "as",
        "s"
      ],
      [
        "o",
        "c"
      ],
      [
        "Ġ1",
        "8"
      ],
      [
        "Ġre",
        "l"
      ],
      [
        "w",
        "n"
      ],
      [
        "r",
        "it"
      ],
      [
        "Ġon",
        "e"
      ],
      [
        "Ġin",
        "d"
      ],
      [
        "Ġp",
        "resent"
      ],
      [
        "Ġa",
        "cc"
      ],
      [
        "Ġla",
        "st"
      ],
      [
        "ĠAmeric",
        "an"
      ],
      [
        "st",
        "it"
      ],
      [
        "Ġt",
        "r"
      ],
      [
        "re",
        "n"
      ],
      [
        "or",
        "y"
      ],
      [
        "is",
        "s"
      ],
      [
        "i",
        "ous"
      ],
      [
        "Ġne",
        "w"
      ],
      [
        "f",
        "or"
      ],
      [
        "Ġs",
        "ec"
      ],
      [
        "Ġinc",
        "reas"
      ],
      [
        "a",
        "v"
      ],
      [
        "er",
        "n"
      ],
      [
        "Ġat",
        "t"
      ],
      [
        "Ġe",
        "very"
      ],
      [
        "Ġc",
        "it"
      ],
      [
        "or",
        "d"
      ],
      [
        "Ġy",
        "ou"
      ],
      [
        "Ġp",
        "ur"
      ],
      [
        "Ġ",
        "qu"
      ],
      [
        "p",
        "os"
      ],
      [
        "Ġre",
        "g"
      ],
      [
        "w",
        "e"
      ],
      [
        "a",
        "g"
      ],
      [
        "f",
        "ore"
      ],
      [
        "Ġne",
        "cess"
      ],
      [
        "Ġp",
        "ol"
      ],
      [
        "Ġre",
        "m"
      ],
      [
        "Ġag",
        "ain"
      ],
      [
        "Ġex",
        "t"
      ],
      [
        "ea",
        "ce"
      ],
      [
        "o",
[...]
