{
  "version": "1.0",
  "truncation": null,
  "padding": null,
  "added_tokens": [
    {
      "id": 0,
      "content": "<pad>",
      "single_word": false,
      "lstrip": false,
      "rstrip": false,
      "normalized": false,
      "special": true
    },
    {
      "id": 1,
      "content": "<s>",
      "single_word": false,
      "lstrip": false,
      "rstrip": false,
      "normalized": false,
      "special": true
    },
    {
      "id": 2,
      "content": "</s>",
      "single_word": false,
      "lstrip": false,
      "rstrip": false,
      "normalized": false,
      "special": true
    },
    {
      "id": 3,
      "content": "<unk>",
      "single_word": false,
      "lstrip": false,
      "rstrip": false,
      "normalized": false,
      "special": true
    }
  ],
  "normalizer": {
    "type": "NFKC"
  },
  "pre_tokenizer": {
    "type": "ByteLevel",
    "add_prefix_space": false,
    "trim_offsets": true,
    "use_regex": true
  },
  "post_processor": {
    "type": "TemplateProcessing",
    "single": [
      {
        "SpecialToken": {
          "id": "<s>",
          "type_id": 0
        }
      },
      {
        "Sequence": {
          "id": "A",
          "type_id": 0
        }
      },
      {
        "SpecialToken": {
          "id": "</s>",
          "type_id": 0
        }
      }
    ],
    "pair": [
      {
        "SpecialToken": {
          "id": "<s>",
          "type_id": 0
        }
      },
      {
        "Sequence": {
          "id": "A",
          "type_id": 0
        }
      },
      {
        "SpecialToken": {
          "id": "</s>",
          "type_id": 0
        }
      },
      {
        "SpecialToken": {
          "id": "<s>",
          "type_id": 0
        }
      },
      {
        "Sequence": {
          "id": "B",
          "type_id": 0
        }
      },
      {
        "SpecialToken": {
          "id": "</s>",
          "type_id": 0
        }
      }
    ],
    "special_tokens": {
      "</s>": {
        "id": "</s>",
        "ids": [
          2
        ],
        "tokens": [
          "</s>"
        ]
      },
      "<s>": {
        "id": "<s>",
        "ids": [
          1
        ],
        "tokens": [
          "<s>"
        ]
      }
    }
  },
  "decoder": null,
  "model": {
    "type": "BPE",
    "dropout": null,
    "unk_token": "<unk>",
    "continuing_subword_prefix": null,
    "end_of_word_suffix": null,
    "fuse_unk": false,
    "byte_fallback": false,
    "ignore_merges": false,
    "vocab": {
      "<pad>": 0,
      "<s>": 1,
      "</s>": 2,
      "<unk>": 3,
      "!": 4,
      "\"": 5,
      "$": 6,
      "%": 7,
      "&": 8,
      "'": 9,
      "(": 10,
      ")": 11,
      "+": 12,
      ",": 13,
      "-": 14,
      ".": 15,
      "/": 16,
      "0": 17,
      "1": 18,
      "2": 19,
      "3": 20,
      "4": 21,
      "5": 22,
      "6": 23,
      "7": 24,
      "8": 25,
      "9": 26,
      ":": 27,
      ";": 28,
      "=": 29,
      "?": 30,
      "A": 31,
      "B": 32,
      "C": 33,
      "D": 34,
      "E": 35,
      "F": 36,
      "G": 37,
      "H": 38,
      "I": 39,
      "J": 40,
      "K": 41,
      "L": 42,
      "M": 43,
      "N": 44,
      "O": 45,
      "P": 46,
      "Q": 47,
      "R": 48,
      "S": 49,
      "T": 50,
      "U": 51,
      "V": 52,
      "W": 53,
      "X": 54,
      "Y": 55,
      "Z": 56,
      "^": 57,
      "_": 58,
      "`": 59,
      "a": 60,
      "b": 61,
      "c": 62,
      "d": 63,
      "e": 64,
      "f": 65,
      "g": 66,
      "h": 67,
      "i": 68,
      "j": 69,
      "k": 70,
      "l": 71,
      "m": 72,
      "n": 73,
      "o": 74,
      "p": 75,
      "q": 76,
      "r": 77,
      "s": 78,
      "t": 79,
      "u": 80,
      "v": 81,
      "w": 82,
      "x": 83,
      "y": 84,
      "z": 85,
      "~": 86,
      "¡": 87,
      "¢": 88,
      "£": 89,
      "¤": 90,
      "¥": 91,
      "¦": 92,
      "§": 93,
      "¨": 94,
      "©": 95,
      "ª": 96,
      "«": 97,
      "¬": 98,
      "®": 99,
      "¯": 100,
      "°": 101,
      "±": 102,
      "²": 103,
      "³": 104,
      "´": 105,
      "µ": 106,
      "¶": 107,
      "·": 108,
      "¸": 109,
      "¹": 110,
      "º": 111,
      "»": 112,
      "¼": 113,
      "½": 114,
      "¾": 115,
      "¿": 116,
      "Â": 117,
      "Ã": 118,
      "Ä": 119,
      "Å": 120,
      "Æ": 121,
      "Ç": 122,
      "È": 123,
      "É": 124,
      "Ê": 125,
      "Ë": 126,
      "Ì": 127,
      "Í": 128,
      "Î": 129,
      "Ï": 130,
      "Ð": 131,
      "Ñ": 132,
      "Ö": 133,
      "×": 134,
      "Ø": 135,
      "Ù": 136,
      "Ü": 137,
      "à": 138,
      "á": 139,
      "â": 140,
      "ã": 141,
      "ä": 142,
      "å": 143,
      "æ": 144,
      "ç": 145,
      "è": 146,
      "é": 147,
      "ë": 148,
      "ì": 149,
      "ï": 150,
      "Ċ": 151,
      "č": 152,
      "Ġ": 153,
      "Ģ": 154,
      "ģ": 155,
      "Ĥ": 156,
      "ĥ": 157,
      "Ħ": 158,
      "ħ": 159,
      "Ĩ": 160,
      "ĩ": 161,
      "Ī": 162,
      "ī": 163,
      "Ĭ": 164,
      "ĭ": 165,
      "Į": 166,
      "į": 167,
      "İ": 168,
      "ı": 169,
      "Ĳ": 170,
      "ĳ": 171,
      "Ĵ": 172,
      "ĵ": 173,
      "Ķ": 174,
      "ķ": 175,
      "ĸ": 176,
      "Ĺ": 177,
      "ĺ": 178,
      "Ļ": 179,
      "ļ": 180,
      "Ľ": 181,
      "ľ": 182,
      "Ŀ": 183,
      "ŀ": 184,
      "Ł": 185,
      "ł": 186,
      "Ń": 187,
      "Ġt": 188,
      "he": 189,
      "Ġa": 190,
      "in": 191,
      "Ġthe": 192,
      "er": 193,
      "on": 194,
      "Ġ,": 195,
      "re": 196,
      "Ġs": 197,
      "ed": 198,
      "Ġw": 199,
      "Ġo": 200,
      "nd": 201,
      "Ġ.": 202,
      "at": 203,
      "or": 204,
      "Ġc": 205,
      "it": 206,
      "en": 207,
      "Ġf": 208,
      "is": 209,
      "es": 210,
      "Ġb": 211,
      "ar": 212,
      "Ġof": 213,
      "an": 214,
      "Ġin": 215,
      "al": 216,
      "ing": 217,
      "Ġp": 218,
      "as": 219,
      "Ġand": 220,
      "Ġto": 221,
      "ro": 222,
      "Ġm": 223,
      "ic": 224,
      "Ġd": 225,
      "Ġh": 226,
      "ion": 227,
      "ou": 228,
      "le": 229,
      "ĠT": 230,
      "Ġre": 231,
      "Ġ\"": 232,
      "ent": 233,
      "ĠA": 234,
      "Ġth": 235,
      "il": 236,
      "ĠS": 237,
      "Ġ1": 238,
      "st": 239,
      "Ġl": 240,
      "el": 241,
      "om": 242,
      "am": 243,
      "ĠC": 244,
      "Ġn": 245,
      "Ġe": 246,
      "ad": 247,
      "ac": 248,
      "Ġwas": 249,
      "ĠM": 250,
      "ur": 251,
      "ĠThe": 252,
      "Ġon": 253,
      "ly": 254,
      "ec": 255,
      "Ġg": 256,
      "ĠB": 257,
      "Ġ'": 258,
      "ol": 259,
      "et": 260,
      "ĠI": 261,
      "id": 262,
      "iv": 263,
      "Ġfor": 264,
      "im": 265,
      "ir": 266,
      "ig": 267,
      "Ġ-": 268,
      "ot": 269,
      "ter": 270,
      "Ġas": 271,
      "ow": 272,
      "ĠH": 273,
      "us": 274,
      "ut": 275,
      "Ġst": 276,
      "ith": 277,
      "ay": 278,
      "Ġ2": 279,
      "ver": 280,
      "Ġbe": 281,
      "Ġthat": 282,
      "čĊ": 283,
      "ation": 284,
      "Ġwith": 285,
      "her": 286,
      "ĠP": 287,
      "ĠR": 288,
      "th": 289,
      "un": 290,
      "ce": 291,
      "em": 292,
      "Ġwh": 293,
      "Ġis": 294,
      "ĠD": 295,
      "Ġby": 296,
      "ul": 297,
      "Ġal": 298,
      "Ġcon": 299,
      "ch": 300,
      "ĠF": 301,
      "ĠW": 302,
      "and": 303,
      "Ġat": 304,
      "Ġ)": 305,
      "Ġ(": 306,
      "ain": 307,
      "ĠN": 308,
      "os": 309,
      "ers": 310,
      "Ġit": 311,
      "ĠG": 312,
      "ct": 313,
      "rom": 314,
      "ĠL": 315,
      "Ġan": 316,
      "ag": 317,
      "Ġ19": 318,
      "av": 319,
      "Ġhe": 320,
      "est": 321,
      "ĠJ": 322,
      "um": 323,
      "00": 324,
      "Ġr": 325,
      "ist": 326,
      "od": 327,
      "Ġfrom": 328,
      "ri": 329,
      "ĠE": 330,
      "ĠO": 331,
      "Ġcom": 332,
      "Ġhis": 333,
      "ap": 334,
      "Ġpro": 335,
      "ere": 336,
      "ort": 337,
      "ore": 338,
      "op": 339,
      "if": 340,
      "Ġv": 341,
      "ill": 342,
      "ies": 343,
      "Ġde": 344,
      "ld": 345,
      "Ġsu": 346,
      "Ġwere": 347,
      "res": 348,
      "ong": 349,
      "Ġse": 350,
      "ew": 351,
      "ĠIn": 352,
      "ak": 353,
      "igh": 354,
      "ich": 355,
      "ate": 356,
      "art": 357,
      "ab": 358,
      "all": 359,
      "ard": 360,
      "pp": 361,
      "Ġor": 362,
      "Ġch": 363,
      "ber": 364,
      "ud": 365,
      "ant": 366,
      "ated": 367,
      "gh": 368,
      "Ġex": 369,
      "ity": 370,
      "oc": 371,
      "Ġpl": 372,
      "ess": 373,
      "qu": 374,
      "ear": 375,
      "ĠK": 376,
      "ame": 377,
      "rou": 378,
      "ive": 379,
      "Ġsh": 380,
      "Ġk": 381,
      "Ġhad": 382,
      "Ġare": 383,
      "ack": 384,
      "ect": 385,
      "ĠU": 386,
      "se": 387,
      "ian": 388,
      "Ġwhich": 389,
      "red": 390,
      "our": 391,
      "ast": 392,
      "ĠSt": 393,
      "ment": 394,
      "Ġâ": 395,
      "ov": 396,
      "ge": 397,
      "Ġy": 398,
      "Ġnot": 399,
      "Ġle": 400,
      "Ġsp": 401,
      "ip": 402,
      "ĠâĢ": 403,
      "Ġtr": 404,
      "ally": 405,
      "ine": 406,
      "ord": 407,
      "ell": 408,
      "pt": 409,
      "rit": 410,
      "ost": 411,
      "ust": 412,
      "ight": 413,
      "oun": 414,
      "Ġu": 415,
      "ther": 416,
      "ave": 417,
      "ish": 418,
      "ia": 419,
      "Ġ3": 420,
      "ary": 421,
      "ĠCh": 422,
      "Ġun": 423,
      "Ġinc": 424,
      "og": 425,
      "ra": 426,
      "cc": 427,
      "irst": 428,
      "ous": 429,
      "Ġtheir": 430,
      "Ġcomp": 431,
      "Ġbut": 432,
      "Ġint": 433,
      "Ġcont": 434,
      "ĠV": 435,
      "fter": 436,
      "so": 437,
      "Ġ200": 438,
      "Ġar": 439,
      "ide": 440,
      "ions": 441,
      "ould": 442,
      "out": 443,
      "Ġits": 444,
      "Ġwhe": 445,
      "ial": 446,
      "Ġfirst": 447,
      "ure": 448,
      "wo": 449,
      "Ġ;": 450,
      "ue": 451,
      "hed": 452,
      "ru": 453,
      "own": 454,
      "ff": 455,
      "per": 456,
      "ical": 457,
      "Ġalso": 458,
      "ok": 459,
      "Ġcl": 460,
      "Ġher": 461,
      "ub": 462,
      "ign": 463,
      "ater": 464,
      "ass": 465,
      "Ġab": 466,
      "ome": 467,
      "Ġres": 468,
      "ie": 469,
      "orm": 470,
      "Ġ20": 471,
      "end": 472,
      "ire": 473,
      "Ġad": 474,
      "ork": 475,
      "age": 476,
      "Ġus": 477,
      "Ġro": 478,
      "ĠHe": 479,
      "Ġone": 480,
      "Ġhave": 481,
      "Ġrec": 482,
      "mer": 483,
      "low": 484,
      "ry": 485,
      "ond": 486,
      "Ġ4": 487,
      "Ġper": 488,
      "Ġtwo": 489,
      "Ġbeen": 490,
      "Ġhas": 491,
      "ĠTh": 492,
      "uring": 493,
      "Ġ5": 494,
      "ree": 495,
      "ans": 496,
      "ime": 497,
      "land": 498,
      "ĠâĢĵ": 499,
      "ted": 500,
      "ile": 501,
      "ough": 502,
      "ence": 503,
      "Ġwho": 504,
      "Ġ18": 505,
      "Ġthis": 506,
      "pl": 507,
      "Ġag": 508,
      "Ġsc": 509,
      "du": 510,
      "ance": 511,
      "are": 512,
      "Ġbec": 513,
      "iz": 514,
      "Ġdis": 515,
      "Ġapp": 516,
      "ĠIt": 517,
      "lud": 518,
      "Ġj": 519,
      "ition": 520,
      "Ġpart": 521,
      "Ġthey": 522,
      "ade": 523,
      "Ġ:": 524,
      "Ġover": 525,
      "ations": 526,
      "ely": 527,
      "Ġplay": 528,
      "ĠAl": 529,
      "ric": 530,
      "ach": 531,
      "ang": 532,
      "ult": 533,
      "Ġyear": 534,
      "Ġafter": 535,
      "Ġdes": 536,
      "ound": 537,
      "any": 538,
      "Ġen": 539,
      "over": 540,
      "Ġser": 541,
      "Ġoff": 542,
      "Ġother": 543,
      "ik": 544,
      "ory": 545,
      "ib": 546,
      "Ġatt": 547,
      "ite": 548,
      "ount": 549,
      "Ġim": 550,
      "Ġinclud": 551,
      "urn": 552,
      "act": 553,
      "Ġout": 554,
      "te": 555,
      "Ġ201": 556,
      "ace": 557,
      "ĠY": 558,
      "ress": 559,
      "ark": 560,
      "ction": 561,
      "ember": 562,
      "ey": 563,
      "wn": 564,
      "Ġup": 565,
      "Ġinto": 566,
      "ice": 567,
      "Ġpre": 568,
      "rough": 569,
      "Ġfin": 570,
      "Ġtime": 571,
      "ail": 572,
      "we": 573,
      "ens": 574,
      "Ġev": 575,
      "nder": 576,
      "ced": 577,
      "Ġcomm": 578,
      "round": 579,
      "port": 580,
      "Ġte": 581,
      "Ġwould": 582,
      "les": 583,
      "ied": 584,
      "Ġmore": 585,
      "ĠOn": 586,
      "ose": 587,
      "ren": 588,
      "Ġall": 589,
      "oin": 590,
      "ces": 591,
      "Ġshe": 592,
      "Ġhim": 593,
      "Ġwe": 594,
      "amp": 595,
      "tern": 596,
      "ever": 597,
      "Ġ6": 598,
      "ward": 599,
      "ased": 600,
      "ited": 601,
      "ĠUn": 602,
      "ents": 603,
      "able": 604,
      "ason": 605,
      "oy": 606,
      "ts": 607,
      "Ġcent": 608,
      "rib": 609,
      "ings": 610,
      "ors": 611,
      "ates": 612,
      "man": 613,
      "ood": 614,
      "Ġ7": 615,
      "ious": 616,
      "Ġwork": 617,
      "rop": 618,
      "ix": 619,
      "iss": 620,
      "ral": 621,
      "one": 622,
      "ĠAn": 623,
      "ild": 624,
      "aw": 625,
      "Ġsec": 626,
      "Ġsong": 627,
      "Ġbet": 628,
      "Ġfe": 629,
      "Ġrem": 630,
      "ake": 631,
      "old": 632,
      "Ġthem": 633,
      "ase": 634,
      "form": 635,
      "Ġwhen": 636,
      "Ġduring": 637,
      "gan": 638,
      "ep": 639,
      "als": 640,
      "ath": 641,
      "Ġear": 642,
      "ered": 643,
      "orth": 644,
      "Ġcons": 645,
      "ick": 646,
      "vel": 647,
      "Ġdec": 648,
      "att": 649,
      "aus": 650,
      "ved": 651,
      "way": 652,
      "Ġkn": 653,
      "Ġnew": 654,
      "fer": 655,
      "Ġmost": 656,
      "outh": 657,
      "Ġonly": 658,
      "ubl": 659,
      "ĠAs": 660,
      "Ġagain": 661,
      "Ġ8": 662,
      "ollow": 663,
      "ween": 664,
      "ons": 665,
      "Ġgame": 666,
      "ĠAr": 667,
      "ilm": 668,
      "ug": 669,
      "ind": 670,
      "ĠMar": 671,
      "oth": 672,
      "reat": 673,
      "Ġ9": 674,
      "ook": 675,
      "Ġabout": 676,
      "Ġthree": 677,
      "Ġrel": 678,
      "Ġunder": 679,
      "Ġbetween": 680,
      "ft": 681,
      "Ġfl": 682,
      "ock": 683,
      "fore": 684,
      "Ġthan": 685,
      "ters": 686,
      "ann": 687,
      "ict": 688,
      "ron": 689,
      "ational": 690,
      "Ġcol": 691,
      "Ġ00": 692,
      "Ġne": 693,
      "Ġseason": 694,
      "Ġme": 695,
      "Ġthrough": 696,
      "ĠEn": 697,
      "hip": 698,
      "Ġ199": 699,
      "ular": 700,
      "Ġend": 701,
      "Ġchar": 702,
      "Ġlater": 703,
      "olog": 704,
      "Ġwhile": 705,
      "Ġnum": 706,
      "Ġpos": 707,
      "Ġdef": 708,
      "Ġrecord": 709,
      "ob": 710,
      "ve": 711,
      "ĠCom": 712,
      "Ġass": 713,
      "Ġact": 714,
      "orn": 715,
      "hn": 716,
      "iew": 717,
      "ision": 718,
      "Ġpr": 719,
      "Ġfilm": 720,
      "ĠNew": 721,
      "Ġret": 722,
      "Ġsub": 723,
      "Ġwhere": 724,
      "Ġreg": 725,
      "Ġver": 726,
      "Ġmade": 727,
      "ury": 728,
      "Ġpe": 729,
      "ames": 730,
      "meric": 731,
      "Ġrele": 732,
      "Ġbu": 733,
      "ĠSe": 734,
      "ating": 735,
      "ĠAmeric": 736,
      "Ġlar": 737,
      "Ġwrit": 738,
      "Ġacc": 739,
      "ished": 740,
      "Ġso": 741,
      "Ġprodu": 742,
      "ank": 743,
      "Ġinter": 744,
      "Ġform": 745,
      "Ġmov": 746,
      "aid": 747,
      "hes": 748,
      "Ġsome": 749,
      "Ġcan": 750,
      "ener": 751,
      "Ġqu": 752,
      "Ġfollow": 753,
      "ived": 754,
      "Ġfour": 755,
      "Ġac": 756,
      "Ġday": 757,
      "Ġsecond": 758,
      "orld": 759,
      "ĠAt": 760,
      "ual": 761,
      "Ġam": 762,
      "Ġman": 763,
      "Ġmus": 764,
      "Ġspec": 765,
      "Ġbefore": 766,
      "Ġ000": 767,
      "ros": 768,
      "Ġsuch": 769,
      "Ġind": 770,
      "hen": 771,
      "ific": 772,
      "ĠThis": 773,
      "bum": 774,
      "ĠSc": 775,
      "ph": 776,
      "Ġused": 777,
      "Ġgr": 778,
      "ike": 779,
      "iel": 780,
      "Ġsupp": 781,
      "Ġcall": 782,
      "ll": 783,
      "Ġbeing": 784,
      "lect": 785,
      "Ġpubl": 786,
      "Ġthere": 787,
      "Ġhigh": 788,
      "Ġep": 789,
      "Ġ12": 790,
      "ĠSh": 791,
      "ily": 792,
      "iver": 793,
      "owever": 794,
      "Ġdo": 795,
      "ĠLe": 796,
      "Ġmon": 797,
      "uc": 798,
      "erm": 799,
      "ton": 800,
      "ained": 801,
      "Ġset": 802,
      "Ġalbum": 803,
      "ane": 804,
      "Ġyears": 805,
      "Ġent": 806,
      "ines": 807,
      "Ġfound": 808,
      "Ġsur": 809,
      "ars": 810,
      "Ġ10": 811,
      "Ġ0": 812,
      "ics": 813,
      "ĠJo": 814,
      "ised": 815,
      "Ġbl": 816,
      "Ġco": 817,
      "aj": 818,
      "ĠAust": 819,
      "Ġsy": 820,
      "Ġno": 821,
      "Ġloc": 822,
      "Ġnumber": 823,
      "pen": 824,
      "ĠBrit": 825,
      "other": 826,
      "ĠRe": 827,
      "Ġagainst": 828,
      "Ġsever": 829,
      "son": 830,
      "Ġinv": 831,
      "ject": 832,
      "ĠEng": 833,
      "ode": 834,
      "Ġthen": 835,
      "ird": 836,
      "igin": 837,
      "ek": 838,
      "Ġseries": 839,
      "io": 840,
      "Ġcap": 841,
      "Ġincluding": 842,
      "Ġwell": 843,
      "ten": 844,
      "ale": 845,
      "ities": 846,
      "ause": 847,
      "Ġepis": 848,
      "Ġboth": 849,
      "ince": 850,
      "ier": 851,
      "urch": 852,
      "ĠZ": 853,
      "Ġbecame": 854,
      "Ġpres": 855,
      "Ġ16": 856,
      "velop": 857,
      "Ġback": 858,
      "irect": 859,
      "ise": 860,
      "Ġperform": 861,
      "Ġem": 862,
      "ĠâĢĶ": 863,
      "row": 864,
      "Ġpop": 865,
      "ĠBr": 866,
      "Ġadd": 867,
      "ident": 868,
      "Ġsing": 869,
      "Ġ/": 870,
      "though": 871,
      "its": 872,
      "Ġknown": 873,
      "Ġmain": 874,
      "Ġteam": 875,
      "Ġcharac": 876,
      "Ġexp": 877,
      "Ġrep": 878,
      "ield": 879,
      "ĠAustral": 880,
      "ning": 881,
      "uch": 882,
      "Ġconc": 883,
      "ather": 884,
      "Ġgo": 885,
      "ful": 886,
      "ool": 887,
      "Ġdep": 888,
      "ife": 889,
      "Ġtrans": 890,
      "Ġ198": 891,
      "ement": 892,
      "Ġlong": 893,
      "iet": 894,
      "ert": 895,
      "Ġmin": 896,
      "ĠUnited": 897,
      "Ġmany": 898,
      "ower": 899,
      "led": 900,
      "air": 901,
      "ures": 902,
      "Ġcontin": 903,
      "Ġrece": 904,
      "Ġorigin": 905,
      "Ġ15": 906,
      "overn": 907,
      "Ġbr": 908,
      "ram": 909,
      "Ġstud": 910,
      "Ġshow": 911,
      "Ġseveral": 912,
      "Ġdesc": 913,
      "ross": 914,
      "az": 915,
      "ute": 916,
      "Ġcentury": 917,
      "ative": 918,
      "Ġcre": 919,
      "ĠAfter": 920,
      "elf": 921,
      "ober": 922,
      "Ġsm": 923,
      "Ġest": 924,
      "Ġbegan": 925,
      "ĠShe": 926,
      "Ġ11": 927,
      "Ġmill": 928,
      "up": 929,
      "Ġmet": 930,
      "Ġdevelop": 931,
      "ins": 932,
      "ared": 933,
      "der": 934,
      "ivers": 935,
      "pr": 936,
      "Ġpol": 937,
      "emb": 938,
      "ĠJohn": 939,
      "ĠInd": 940,
      "ired": 941,
      "Ġalong": 942,
      "Ġ17": 943,
      "ern": 944,
      "ley": 945,
      "Ġlead": 946,
      "Ġdid": 947,
      "Ġpo": 948,
      "Ġcomple": 949,
      "ains": 950,
      "iam": 951,
      "Ġsign": 952,
      "ually": 953,
      "ued": 954,
      "til": 955,
      "Ġext": 956,
      "Ġrev": 957,
      "anc": 958,
      "Ġdirect": 959,
      "Ġart": 960,
      "Ġcity": 961,
      "Ġcould": 962,
      "Ġdown": 963,
      "ized": 964,
      "Ġepisode": 965,
      "Ġdif": 966,
      "els": 967,
      "ments": 968,
      "oot": 969,
      "Ġob": 970,
      "Ġ194": 971,
      "ting": 972,
      "Ġmil": 973,
      "Ġnear": 974,
      "Ġrun": 975,
      "Ġ196": 976,
      "Ġcrit": 977,
      "une": 978,
      "roup": 979,
      "Ġearly": 980,
      "au": 981,
      "yl": 982,
      "Ġbel": 983,
      "ient": 984,
      "Ġcalled": 985,
      "ured": 986,
      "Ġbro": 987,
      "Ġmay": 988,
      "ĠBritish": 989,
      "Ġsaid": 990,
      "aking": 991,
      "Ġcar": 992,
      "ah": 993,
      "Ġ197": 994,
      "ĠMay": 995,
      "ĠAmerican": 996,
      "ople": 997,
      "ccess": 998,
      "ĠWh": 999,
      "Ġoper": 1000,
      "Ġthese": 1001,
      "Ġinst": 1002,
      "Ġinf": 1003,
      "Ġwar": 1004,
      "Ġship": 1005,
      "Ġfeat": 1006,
      "Ġmat": 1007,
      "rap": 1008,
      "Ġins": 1009,
      "Ġuntil": 1010,
      "Ġdescrib": 1011,
      "ists": 1012,
      "Ġdisc": 1013,
      "Ġimp": 1014,
      "Ġresp": 1015,
      "ange": 1016,
      "imes": 1017,
      "Ġair": 1018,
      "ull": 1019,
      "Ġland": 1020,
      "Ġprov": 1021,
      "gest": 1022,
      "Ġdist": 1023,
      "Ġprev": 1024,
      "Ġany": 1025,
      "ruct": 1026,
      "ty": 1027,
      "Ġstart": 1028,
      "ĠIs": 1029,
      "ĠCon": 1030,
      "Ġkm": 1031,
      "ided": 1032,
      "Ġhist": 1033,
      "Ġreturn": 1034,
      "amed": 1035,
      "Ġarea": 1036,
      "ially": 1037,
      "ven": 1038,
      "Ġthough": 1039,
      "Ġopen": 1040,
      "xt": 1041,
      "ink": 1042,
      "enn": 1043,
      "Ġconst": 1044,
      "yp": 1045,
      "Ġattack": 1046,
      "Ġdesign": 1047,
      "Ġown": 1048,
      "Ġpass": 1049,
      "Ġstr": 1050,
      "Ġgener": 1051,
      "Ġsame": 1052,
      "Ġmusic": 1053,
      "osed": 1054,
      "Ġbecause": 1055,
      "Ġsupport": 1056,
      "ĠThey": 1057,
      "Ġaround": 1058,
      "ĠFr": 1059,
      "Ġreleased": 1060,
      "Ġoffic": 1061,
      "Ġocc": 1062,
      "Ġnorth": 1063,
      "ĠBl": 1064,
      "ove": 1065,
      "ible": 1066,
      "hy": 1067,
      "my": 1068,
      "Ġeff": 1069,
      "Ġgovern": 1070,
      "Ġsuccess": 1071,
      "ĠAug": 1072,
      "ajor": 1073,
      "ĠAugust": 1074,
      "ouse": 1075,
      "cept": 1076,
      "Ġ13": 1077,
      "Ġsix": 1078,
      "ĠWar": 1079,
      "ĠUS": 1080,
      "Ã©": 1081,
      "Ġsim": 1082,
      "ash": 1083,
      "Ġgu": 1084,
      "oss": 1085,
      "Ġuse": 1086,
      "Ġcount": 1087,
      "Ġsmall": 1088,
      "ĠCar": 1089,
      "Ġpeople": 1090,
      "Ġappear": 1091,
      "Ġlike": 1092,
      "Ġmillion": 1093,
      "ĠSp": 1094,
      "Ġfam": 1095,
      "uth": 1096,
      "ues": 1097,
      "ium": 1098,
      "erson": 1099,
      "ĠSept": 1100,
      "Ġadv": 1101,
      "stem": 1102,
      "ism": 1103,
      "Ġhead": 1104,
      "ĠChr": 1105,
      "Ġgroup": 1106,
      "ĠHowever": 1107,
      "chool": 1108,
      "ĠSeptember": 1109,
      "ets": 1110,
      "und": 1111,
      "Ġ%": 1112,
      "aining": 1113,
      "Ġpoin": 1114,
      "Ġ195": 1115,
      "Ġwin": 1116,
      "oman": 1117,
      "Ġeach": 1118,
      "Ġcharacter": 1119,
      "ĠCl": 1120,
      "Ġfollowing": 1121,
      "ales": 1122,
      "Ġdam": 1123,
      "ĠComm": 1124,
      "erv": 1125,
      "Ġcontro": 1126,
      "Ġconsid": 1127,
      "eb": 1128,
      "Ġfive": 1129,
      "ĠJu": 1130,
      "Ġlarge": 1131,
      "Ġele": 1132,
      "ĠCol": 1133,
      "Ġmod": 1134,
      "Ġann": 1135,
      "ilt": 1136,
      "wards": 1137,
      "aced": 1138,
      "Ġbatt": 1139,
      "ĠAd": 1140,
      "ives": 1141,
      "ole": 1142,
      "Ġed": 1143,
      "Ġever": 1144,
      "Ġreport": 1145,
      "Ġsouth": 1146,
      "ology": 1147,
      "aving": 1148,
      "ony": 1149,
      "Ġvar": 1150,
      "ended": 1151,
      "Ġprom": 1152,
      "ording": 1153,
      "ĠSouth": 1154,
      "ĠFor": 1155,
      "ĠNorth": 1156,
      "cl": 1157,
      "ution": 1158,
      "Ġ191": 1159,
      "ately": 1160,
      "Ġstate": 1161,
      "ĠGer": 1162,
      "Ġ193": 1163,
      "Ġdr": 1164,
      "ĠAll": 1165,
      "ĠJune": 1166,
      "ored": 1167,
      "Ġweek": 1168,
      "ĠWorld": 1169,
      "ians": 1170,
      "med": 1171,
      "ĠStates": 1172,
      "Ġ14": 1173,
      "Ġtook": 1174,
      "tle": 1175,
      "ck": 1176,
      "ĠQ": 1177,
      "ural": 1178,
      "ĠPl": 1179,
      "ats": 1180,
      "Ġfinal": 1181,
      "Ġsince": 1182,
      "ĠGu": 1183,
      "Ġwill": 1184,
      "ĠMe": 1185,
      "ĠJan": 1186,
      "Ġmajor": 1187,
      "ĠHer": 1188,
      "ected": 1189,
      "Ġreceived": 1190,
      "Ġpublic": 1191,
      "ĠTr": 1192,
      "lish": 1193,
      "Ġbook": 1194,
      "empt": 1195,
      "Ġpartic": 1196,
      "Ġrest": 1197,
      "ĠEu": 1198,
      "ox": 1199,
      "iving": 1200,
      "ling": 1201,
      "Ġplayed": 1202,
      "ĠII": 1203,
      "Ġhel": 1204,
      "Ġtit": 1205,
      "ont": 1206,
      "ĠOct": 1207,
      "by": 1208,
      "gin": 1209,
      "ery": 1210,
      "ified": 1211,
      "ĠDe": 1212,
      "..": 1213,
      "Ġlast": 1214,
      "aim": 1215,
      "uary": 1216,
      "ble": 1217,
      "Ġsystem": 1218,
      "rote": 1219,
      "Ġline": 1220,
      "Ġwhat": 1221,
      "hel": 1222,
      "Ġincre": 1223,
      "ĠMc": 1224,
      "Ġprot": 1225,
      "ĠOctober": 1226,
      "Ġ$": 1227,
      "ility": 1228,
      "ivision": 1229,
      "ague": 1230,
      "Ġbuild": 1231,
      "ina": 1232,
      "Ġnow": 1233,
      "Ġname": 1234,
      "dom": 1235,
      "Ġlate": 1236,
      "Ġgun": 1237,
      "ax": 1238,
      "Ġconf": 1239,
      "aged": 1240,
      "Ġ...": 1241,
      "ional": 1242,
      "ĠBe": 1243,
      "ively": 1244,
      "ection": 1245,
      "ĠKing": 1246,
      "Ġdet": 1247,
      "Ġport": 1248,
      "ĠDuring": 1249,
      "ants": 1250,
      "Ġref": 1251,
      "ĠChrist": 1252,
      "Ġjust": 1253,
      "Ġdescribed": 1254,
      "Ġlife": 1255,
      "ĠNov": 1256,
      "ĠJuly": 1257,
      "ined": 1258,
      "ody": 1259,
      "Ġincluded": 1260,
      "ham": 1261,
      "Ġdue": 1262,
      "ĠDec": 1263,
      "Ġarr": 1264,
      "Ġclass": 1265,
      "Ġmuch": 1266,
      "ages": 1267,
      "Ġcamp": 1268,
      "Ġsingle": 1269,
      "get": 1270,
      "omet": 1271,
      "esp": 1272,
      "Ġ25": 1273,
      "Ġwon": 1274,
      "Ġwrote": 1275,
      "Ġshort": 1276,
      "ke": 1277,
      "Ġanother": 1278,
      "Ġattempt": 1279,
      "ae": 1280,
      "Ġgovernment": 1281,
      "ideo": 1282,
      "Ġallow": 1283,
      "Ġleft": 1284,
      "Ġkill": 1285,
      "Ġworld": 1286,
      "Ġalthough": 1287,
      "ple": 1288,
      "Ġtri": 1289,
      "Ġappro": 1290,
      "Ġsl": 1291,
      "ently": 1292,
      "ĠCan": 1293,
      "Ġserv": 1294,
      "ĠYork": 1295,
      "iod": 1296,
      "Ġmar": 1297,
      "Ġfur": 1298,
      "ĠJanuary": 1299,
      "Ġbased": 1300,
      "ĠEurop": 1301,
      "Ġresult": 1302,
      "ai": 1303,
      "ret": 1304,
      "ĠGr": 1305,
      "omin": 1306,
      "Ġevent": 1307,
      "ically": 1308,
      "Ġeven": 1309,
      "Ġmen": 1310,
      "ropical": 1311,
      "Ġnamed": 1312,
      "ission": 1313,
      "Ġposs": 1314,
      "Ġold": 1315,
      "ball": 1316,
      "ards": 1317,
      "Ġturn": 1318,
      "ital": 1319,
      "Ġplace": 1320,
      "Ġ30": 1321,
      "Ġtop": 1322,
      "ulation": 1323,
      "Ġvis": 1324,
      "ĠPar": 1325,
      "Ġdeath": 1326,
      "eng": 1327,
      "Ġdiffer": 1328,
      "ĠBy": 1329,
      "idge": 1330,
      "Ġtrack": 1331,
      "Ġbuilt": 1332,
      "ped": 1333,
      "Ġif": 1334,
      "avy": 1335,
      "ĠGerman": 1336,
      "Ġprog": 1337,
      "Ġstar": 1338,
      "Ġthird": 1339,
      "Ġstorm": 1340,
      "Ġwithin": 1341,
      "Ġorgan": 1342,
      "itions": 1343,
      "ech": 1344,
      "ĠMarch": 1345,
      "Ġvery": 1346,
      "Ġestab": 1347,
      "Ġchild": 1348,
      "Ġbelie": 1349,
      "Ġpar": 1350,
      "Ġpower": 1351,
      "Ġprevious": 1352,
      "Ġvers": 1353,
      "ched": 1354,
      "ness": 1355,
      "Ġgames": 1356,
      "Ġcour": 1357,
      "Ġcommand": 1358,
      "aur": 1359,
      "Ġway": 1360,
      "ances": 1361,
      "ĠAnd": 1362,
      "itary": 1363,
      "ĠEngland": 1364,
      "Ġschool": 1365,
      "ĠApr": 1366,
      "ung": 1367,
      "ĠDecember": 1368,
      "ĠApril": 1369,
      "Ġwater": 1370,
      "Ġbre": 1371,
      "ĠRiver": 1372,
      "Ġcare": 1373,
      "amb": 1374,
      "Ġlit": 1375,
      "Ġreview": 1376,
      "Ġexpl": 1377,
      "raft": 1378,
      "Ġhome": 1379,
      "ĠNovember": 1380,
      "aff": 1381,
      "ilar": 1382,
      "ached": 1383,
      "hest": 1384,
      "Ġhum": 1385,
      "Ġspecies": 1386,
      "Ġbest": 1387,
      "iven": 1388,
      "Ġsent": 1389,
      "Ġcr": 1390,
      "ĠPro": 1391,
      "ene": 1392,
      "Ġthose": 1393,
      "ĠThere": 1394,
      "Ġperiod": 1395,
      "ms": 1396,
      "Ġfamily": 1397,
      "anes": 1398,
      "ops": 1399,
      "Ġhal": 1400,
      "que": 1401,
      "ĠEurope": 1402,
      "Ġhand": 1403,
      "ison": 1404,
      "Ġmake": 1405,
      "Ġ192": 1406,
      "ĠJap": 1407,
      "Ġmonth": 1408,
      "ĠHis": 1409,
      "akes": 1410,
      "Ġgreat": 1411,
      "Ġcapt": 1412,
      "Ġstory": 1413,
      "Ġopp": 1414,
      "Ġrequ": 1415,
      "ĠGe": 1416,
      "eder": 1417,
      "Ġperson": 1418,
      "Ġdem": 1419,
      "ĠPr": 1420,
      "oci": 1421,
      "aster": 1422,
      "ograp": 1423,
      "Ġoriginal": 1424,
      "Ġph": 1425,
      "elt": 1426,
      "Ġlist": 1427,
      "ĠWhen": 1428,
      "ience": 1429,
      "Ġvideo": 1430,
      "Ġ100": 1431,
      "por": 1432,
      "uss": 1433,
      "Ġeng": 1434,
      "oad": 1435,
      "arn": 1436,
      "Ġmed": 1437,
      "Ġled": 1438,
      "Ġauth": 1439,
      "ĠCity": 1440,
      "line": 1441,
      "Ġtyp": 1442,
      "ĠNational": 1443,
      "ature": 1444,
      "ruction": 1445,
      "Ġleg": 1446,
      "ged": 1447,
      "Ġrepl": 1448,
      "ention": 1449,
      "iversity": 1450,
      "gy": 1451,
      "Ġlocal": 1452,
      "self": 1453,
      "Ġterm": 1454,
      "ps": 1455,
      "ner": 1456,
      "ented": 1457,
      "Ġrole": 1458,
      "Ġcontinued": 1459,
      "let": 1460,
      "Ġside": 1461,
      "oard": 1462,
      "ences": 1463,
      "ott": 1464,
      "rench": 1465,
      "Ġdest": 1466,
      "Ġstill": 1467,
      "Ġnext": 1468,
      "aken": 1469,
      "Ġcame": 1470,
      "ĠMan": 1471,
      "ger": 1472,
      "Ġfew": 1473,
      "ĠMus": 1474,
      "Ġsug": 1475,
      "Ġmark": 1476,
      "ady": 1477,
      "ĠChurch": 1478,
      "side": 1479,
      "Ġiss": 1480,
      "Ġcaus": 1481,
      "Ġmoved": 1482,
      "alk": 1483,
      "ides": 1484,
      "sh": 1485,
      "Ġbas": 1486,
      "riend": 1487,
      "Ġforces": 1488,
      "ĠFl": 1489,
      "embers": 1490,
      "lev": 1491,
      "ense": 1492,
      "astern": 1493,
      "Ġmy": 1494,
      "ival": 1495,
      "Ġclaim": 1496,
      "Ġwest": 1497,
      "ĠPh": 1498,
      "Ġview": 1499,
      "Ġ2010": 1500,
      "arr": 1501,
      "urric": 1502,
      "ĠÂ": 1503,
      "Ġmid": 1504,
      "uted": 1505,
      "Ġaddition": 1506,
      "Ġoften": 1507,
      "Ġstand": 1508,
      "ĠBatt": 1509,
      "ĠNo": 1510,
      "Ġsold": 1511,
      "Ġwind": 1512,
      "Ġright": 1513,
      "ĠOr": 1514,
      "Ġexper": 1515,
      "Ġclub": 1516,
      "Ġheld": 1517,
      "Ġant": 1518,
      "Ġ2009": 1519,
      "Ġeffect": 1520,
      "Ġfurther": 1521,
      "ior": 1522,
      "mp": 1523,
      "inc": 1524,
      "atter": 1525,
      "ĠBro": 1526,
      "Ġinit": 1527,
      "Ġpolit": 1528,
      "ne": 1529,
      "Ġtot": 1530,
      "Ġplayer": 1531,
      "ĠFrench": 1532,
      "Ġroad": 1533,
      "rew": 1534,
      "Ġlevel": 1535,
      "Ġconsidered": 1536,
      "ĠWe": 1537,
      "ays": 1538,
      "Ġformer": 1539,
      "Ġdefe": 1540,
      "ler": 1541,
      "Ġrecorded": 1542,
      "Ġcompany": 1543,
      "Ġsuggest": 1544,
      "ories": 1545,
      "Ġdeb": 1546,
      "ĠAustralian": 1547,
      "ister": 1548,
      "Ġsimilar": 1549,
      "ĠAcc": 1550,
      "Ġwithout": 1551,
      "Ġ2008": 1552,
      "Ġcommon": 1553,
      "ĠWill": 1554,
      "ĠOne": 1555,
      "ves": 1556,
      "ĠTe": 1557,
      "Ġcontr": 1558,
      "Ġreal": 1559,
      "estern": 1560,
      "Ġeast": 1561,
      "int": 1562,
      "Ġtrad": 1563,
      "Ġamong": 1564,
      "Ġtake": 1565,
      "Ġtown": 1566,
      "Ġtw": 1567,
      "Ġfr": 1568,
      "Ġhalf": 1569,
      "Ġimport": 1570,
      "Ġcover": 1571,
      "Ġinfl": 1572,
      "Ġdifferent": 1573,
      "eal": 1574,
      "ĠWith": 1575,
      "Ġmilitary": 1576,
      "roy": 1577,
      "ĠAb": 1578,
      "ĠChar": 1579,
      "Ġsongs": 1580,
      "Ġfore": 1581,
      "Ġdel": 1582,
      "ript": 1583,
      "ĠState": 1584,
      "Ġposition": 1585,
      "Ġevery": 1586,
      "Ġconv": 1587,
      "Ġstrong": 1588,
      "Ġtem": 1589,
      "Ġcommun": 1590,
      "ches": 1591,
      "itar": 1592,
      "Ġmembers": 1593,
      "Ġnort": 1594,
      "ront": 1595,
      "Ġfield": 1596,
      "Ġhowever": 1597,
      "ĠCount": 1598,
      "Ġjoin": 1599,
      "ternational": 1600,
      "Ġdays": 1601,
      "Ġband": 1602,
      "Ġyou": 1603,
      "Ġav": 1604,
      "ĠAlthough": 1605,
      "ipp": 1606,
      "ead": 1607,
      "par": 1608,
      "ĠAf": 1609,
      "raw": 1610,
      "ebru": 1611,
      "Ġ21": 1612,
      "bs": 1613,
      "Ġrefer": 1614,
      "Ġinvol": 1615,
      "ensive": 1616,
      "ĠAccording": 1617,
      "Ġprop": 1618,
      "ĠEnglish": 1619,
      "Ġbeh": 1620,
      "Ġarch": 1621,
      "Ġel": 1622,
      "ĠAm": 1623,
      "Ġlow": 1624,
      "Ġvict": 1625,
      "Ġfind": 1626,
      "Ġpublished": 1627,
      "Ġ23": 1628,
      "hern": 1629,
      "ĠFebru": 1630,
      "ĠFebruary": 1631,
      "Ġelect": 1632,
      "ploy": 1633,
      "Ġparticular": 1634,
      "be": 1635,
      "Ġcur": 1636,
      "outher": 1637,
      "ĠPer": 1638,
      "ĠGener": 1639,
      "Ġspe": 1640,
      "Ġmag": 1641,
      "vers": 1642,
      "ĠPort": 1643,
      "Ġorder": 1644,
      "ried": 1645,
      "Ġmatch": 1646,
      "Ġfre": 1647,
      "ots": 1648,
      "ize": 1649,
      "Ġrepres": 1650,
      "Ġhistory": 1651,
      "outhern": 1652,
      "lear": 1653,
      "urricane": 1654,
      "Ġfire": 1655,
      "ising": 1656,
      "Ġ24": 1657,
      "Ġ2007": 1658,
      "ĠComp": 1659,
      "ĠAustralia": 1660,
      "err": 1661,
      "ering": 1662,
      "Ġ22": 1663,
      "Ġbecome": 1664,
      "Ġcontrol": 1665,
      "Ġtotal": 1666,
      "Ġfoot": 1667,
      "ĠDivision": 1668,
      "Ġwritten": 1669,
      "ices": 1670,
      "rodu": 1671,
      "Ġauthor": 1672,
      "Ġcompet": 1673,
      "Ġrelease": 1674,
      "aul": 1675,
      "Ġpost": 1676,
      "app": 1677,
      "sequ": 1678,
      "ailed": 1679,
      "augh": 1680,
      "ĠCanad": 1681,
      "Ġprof": 1682,
      "Ġgave": 1683,
      "enc": 1684,
      "ush": 1685,
      "Ġproject": 1686,
      "aly": 1687,
      "Ġhaving": 1688,
      "aces": 1689,
      "urs": 1690,
      "eter": 1691,
      "ĠEd": 1692,
      "Ġsit": 1693,
      "Ġ2011": 1694,
      "aying": 1695,
      "alion": 1696,
      "Ġlost": 1697,
      "Ġ26": 1698,
      "Ġchang": 1699,
      "reen": 1700,
      "atic": 1701,
      "ĠMich": 1702,
      "ĠWest": 1703,
      "Ġreported": 1704,
      "Ġ2006": 1705,
      "yle": 1706,
      "Ġtitle": 1707,
      "yn": 1708,
      "ĠRich": 1709,
      "reet": 1710,
      "Ġversion": 1711,
      "Ġtimes": 1712,
      "ones": 1713,
      "ape": 1714,
      "ĠPark": 1715,
      "Ġground": 1716,
      "levision": 1717,
      "Ġless": 1718,
      "Ġcomb": 1719,
      "Ġsignific": 1720,
      "ĠMin": 1721,
      "ampions": 1722,
      "Ġsol": 1723,
      "ĠBar": 1724,
      "Ġchurch": 1725,
      "Ġsurv": 1726,
      "isc": 1727,
      "Ġproduced": 1728,
      "Ġwant": 1729,
      "Ġaff": 1730,
      "ĠMiss": 1731,
      "Ġpoint": 1732,
      "ably": 1733,
      "ĠX": 1734,
      "Ġsite": 1735,
      "ille": 1736,
      "Ġgiven": 1737,
      "ression": 1738,
      "ĠAfric": 1739,
      "Ġsk": 1740,
      "Ġeight": 1741,
      "Ġpopulation": 1742,
      "Ġpat": 1743,
      "iment": 1744,
      "Ġ28": 1745,
      "ĠAss": 1746,
      "arm": 1747,
      "Ġstated": 1748,
      "oung": 1749,
      "ĠAir": 1750,
      "Ġhistor": 1751,
      "Ġnever": 1752,
      "ĠEl": 1753,
      "Ġcountry": 1754,
      "ĠGeneral": 1755,
      "ours": 1756,
      "Ġ50": 1757,
      "reek": 1758,
      "iety": 1759,
      "Ġcritic": 1760,
      "Ġreturned": 1761,
      "work": 1762,
      "ald": 1763,
      "af": 1764,
      "ĠSong": 1765,
      "osp": 1766,
      "Ġcareer": 1767,
      "Ġinflu": 1768,
      "Ġtropical": 1769,
      "Ġinclude": 1770,
      "Ġpopular": 1771,
      "ylan": 1772,
      "Ġships": 1773,
      "Ġequ": 1774,
      "Ġobs": 1775,
      "ĠGeor": 1776,
      "oon": 1777,
      "ĠRoman": 1778,
      "ĠDylan": 1779,
      "Ġpress": 1780,
      "used": 1781,
      "Ġtro": 1782,
      "Ġmaking": 1783,
      "Ġisland": 1784,
      "Ġshould": 1785,
      "rent": 1786,
      "ĠScient": 1787,
      "fic": 1788,
      "Ġ!": 1789,
      "ges": 1790,
      "Ġ2012": 1791,
      "Ġproduction": 1792,
      "ĠCent": 1793,
      "Ġmanag": 1794,
      "ĠSu": 1795,
      "Ġ190": 1796,
      "Ġnov": 1797,
      "me": 1798,
      "Ġlight": 1799,
      "echn": 1800,
      "uck": 1801,
      "Ġstruct": 1802,
      "Ġord": 1803,
      "Ġprogram": 1804,
      "ĠThese": 1805,
      "oll": 1806,
      "Ġfact": 1807,
      "Ġacross": 1808,
      "ĠWhile": 1809,
      "Ġseen": 1810,
      "Ġdestroy": 1811,
      "Ã¡": 1812,
      "Ġreached": 1813,
      "anese": 1814,
      "Ġbo": 1815,
      "Ġforce": 1816,
      "ĠSim": 1817,
      "Ġnight": 1818,
      "Ġsignificant": 1819,
      "ination": 1820,
      "ator": 1821,
      "Ġcult": 1822,
      "omen": 1823,
      "Ġnoted": 1824,
      "Ġbody": 1825,
      "Ġtour": 1826,
      "aun": 1827,
      "ither": 1828,
      "Ġft": 1829,
      "ask": 1830,
      "ĠOld": 1831,
      "rick": 1832,
      "Ġfeet": 1833,
      "ford": 1834,
      "Ġhow": 1835,
      "Ġlim": 1836,
      "Ġstat": 1837,
      "ream": 1838,
      "Ġfriend": 1839,
      "ĠSte": 1840,
      "Ġdeveloped": 1841,
      "Ġcy": 1842,
      "Ġcat": 1843,
      "ades": 1844,
      "Ġblack": 1845,
      "Ġestabl": 1846,
      "ĠWilliam": 1847,
      "esc": 1848,
      "Ġmiles": 1849,
      "Ġchildren": 1850,
      "ration": 1851,
      "iness": 1852,
      "ĠUniversity": 1853,
      "Ġannoun": 1854,
      "iec": 1855,
      "Ġsound": 1856,
      "Ġcast": 1857,
      "irc": 1858,
      "Ġearl": 1859,
      "ĠLeague": 1860,
      "Ġthroughout": 1861,
      "ying": 1862,
      "Ġaway": 1863,
      "igade": 1864,
      "ĠDav": 1865,
      "Ġhimself": 1866,
      "Ġcor": 1867,
      "Ġdiv": 1868,
      "ĠAng": 1869,
      "ĠAmerica": 1870,
      "Ġthought": 1871,
      "Ġsoc": 1872,
      "cess": 1873,
      "Ġfem": 1874,
      "Ġpra": 1875,
      "omb": 1876,
      "Ġ27": 1877,
      "Ġ2013": 1878,
      "Ġwat": 1879,
      "sp": 1880,
      "Ġgen": 1881,
      "ope": 1882,
      "Ġpresent": 1883,
      "Ġgood": 1884,
      "imately": 1885,
      "Ġ29": 1886,
      "ization": 1887,
      "ĠLond": 1888,
      "Ġplan": 1889,
      "Ġestablished": 1890,
      "aign": 1891,
      "na": 1892,
      "Ġareas": 1893,
      "reg": 1894,
      "ĠCor": 1895,
      "utes": 1896,
      "Ġrad": 1897,
      "eared": 1898,
      "Ġsomet": 1899,
      "aint": 1900,
      "Ġsuff": 1901,
      "aren": 1902,
      "Ġperformed": 1903,
      "Ġintrodu": 1904,
      "Ġusing": 1905,
      "ĠLondon": 1906,
      "Ġ&": 1907,
      "ivil": 1908,
      "Ġseven": 1909,
      "Ġsuccessful": 1910,
      "Ġcross": 1911,
      "Ġfelt": 1912,
      "Ġhig": 1913,
      "ĠPol": 1914,
      "Ġwhite": 1915,
      "ords": 1916,
      "Ġfull": 1917,
      "Ġlaw": 1918,
      "Ġadm": 1919,
      "Ġdecl": 1920,
      "ĠCounty": 1921,
      "Ġwent": 1922,
      "ĠJapanese": 1923,
      "ĠEv": 1924,
      "Ġchart": 1925,
      "ĠJack": 1926,
      "Ġperformance": 1927,
      "Ġgod": 1928,
      "Ġvarious": 1929,
      "Ġkilled": 1930,
      "Ġide": 1931,
      "Ġtrav": 1932,
      "Ġprim": 1933,
      "gr": 1934,
      "isted": 1935,
      "field": 1936,
      "Ġhouse": 1937,
      "ĠNe": 1938,
      "ĠEar": 1939,
      "Ġgl": 1940,
      "Ġfather": 1941,
      "Ġred": 1942,
      "ster": 1943,
      "Ġtelevision": 1944,
      "ring": 1945,
      "reland": 1946,
      "Ġtoo": 1947,
      "ries": 1948,
      "Ġplayers": 1949,
      "Ġinterest": 1950,
      "ĠReg": 1951,
      "ĠIreland": 1952,
      "Ġdevelopment": 1953,
      "Ġbuilding": 1954,
      "view": 1955,
      "Ġsqu": 1956,
      "Ġlook": 1957,
      "idence": 1958,
      "Ġstarted": 1959,
      "Ġbattle": 1960,
      "ael": 1961,
      "itted": 1962,
      "Ġput": 1963,
      "Ġmm": 1964,
      "Ġpolitical": 1965,
      "Ġactiv": 1966,
      "craft": 1967,
      "tain": 1968,
      "Ġfun": 1969,
      "ampionship": 1970,
      "com": 1971,
      "most": 1972,
      "Ġten": 1973,
      "Ġsw": 1974,
      "ĠCal": 1975,
      "ĠRoad": 1976,
      "Ġimportant": 1977,
      "iers": 1978,
      "Ġrange": 1979,
      "Ġofficial": 1980,
      "ĠHa": 1981,
      "ĠRober": 1982,
      "itive": 1983,
      "Ġfight": 1984,
      "Ġdied": 1985,
      "Ġneed": 1986,
      "ological": 1987,
      "Ġwriting": 1988,
      "Ġhighway": 1989,
      "Ġhuman": 1990,
      "Ġwid": 1991,
      "Ġformed": 1992,
      "Ġcas": 1993,
      "ĠHigh": 1994,
      "ief": 1995,
      "Ġconstruction": 1996,
      "antic": 1997,
      "Ġrelig": 1998,
      "Ġmodern": 1999,
      "ĠBlack": 2000,
      "Ġcou": 2001,
      "ĠRoy": 2002,
      "Ġsee": 2003,
      "br": 2004,
      "iting": 2005,
      "alth": 2006,
      "Ġremained": 2007,
      "Ġcaused": 2008,
      "hem": 2009,
      "rie": 2010,
      "Ġcreated": 2011,
      "Ġdiscover": 2012,
      "Ġpromot": 2013,
      "Ġfront": 2014,
      "Ġget": 2015,
      "ĠArmy": 2016,
      "Ġlocated": 2017,
      "ĠAtl": 2018,
      "Ġdoes": 2019,
      "ney": 2020,
      "ĠMag": 2021,
      "ĠEx": 2022,
      "antry": 2023,
      "Ġevents": 2024,
      "con": 2025,
      "Ġmix": 2026,
      "Ġable": 2027,
      "Ġage": 2028,
      "Ġcoun": 2029,
      "Ġbegin": 2030,
      "ĠJames": 2031,
      "Ġvill": 2032,
      "Ġtechn": 2033,
      "Ġball": 2034,
      "ogn": 2035,
      "Ġcampaign": 2036,
      "Ġsum": 2037,
      "ĠGl": 2038,
      "ressed": 2039,
      "day": 2040,
      "Ġtre": 2041,
      "ĠTo": 2042,
      "ĠCare": 2043,
      "Ġke": 2044,
      "elling": 2045,
      "Ġfollowed": 2046,
      "Ġread": 2047,
      "odes": 2048,
      "Ġcoast": 2049,
      "Ġoccur": 2050,
      "asing": 2051,
      "ico": 2052,
      "Ġlik": 2053,
      "ĠFeder": 2054,
      "Ġguns": 2055,
      "Ġste": 2056,
      "abor": 2057,
      "ĠKe": 2058,
      "Ġ189": 2059,
      "Ġserved": 2060,
      "Ġregion": 2061,
      "Ġpri": 2062,
      "eth": 2063,
      "Ġcompleted": 2064,
      "Ġrock": 2065,
      "Äģ": 2066,
      "ficult": 2067,
      "enth": 2068,
      "ĠOl": 2069,
      "Ġbecom": 2070,
      "ĠIsland": 2071,
      "ument": 2072,
      "iff": 2073,
      "ĠâĢĻ": 2074,
      "Ġrelations": 2075,
      "Ġbar": 2076,
      "ÃŃ": 2077,
      "Ġson": 2078,
      "ĠCro": 2079,
      "Ġonce": 2080,
      "Ġdifficult": 2081,
      "less": 2082,
      "ino": 2083,
      "Ġfav": 2084,
      "Ġpit": 2085,
      "leet": 2086,
      "ĠSw": 2087,
      "Ġstyle": 2088,
      "epend": 2089,
      "ĠScientology": 2090,
      "fall": 2091,
      "aves": 2092,
      "Ġcharacters": 2093,
      "Ġer": 2094,
      "rest": 2095,
      "duct": 2096,
      "Ġsouthern": 2097,
      "ĠRec": 2098,
      "Ġheavy": 2099,
      "rought": 2100,
      "Ġentire": 2101,
      "Ġfac": 2102,
      "ĠTown": 2103,
      "Ġroute": 2104,
      "Ġmeet": 2105,
      "Ġtroops": 2106,
      "Ġnational": 2107,
      "Ġothers": 2108,
      "Ġadded": 2109,
      "Ġloss": 2110,
      "Ġeastern": 2111,
      "ivid": 2112,
      "Ġrank": 2113,
      "Ġoriginally": 2114,
      "enced": 2115,
      "idd": 2116,
      "Ġcomment": 2117,
      "Ġmonths": 2118,
      "Ġ2005": 2119,
      "Ġagre": 2120,
      "lected": 2121,
      "Ġlittle": 2122,
      "ique": 2123,
      "orse": 2124,
      "Ġcirc": 2125,
      "ality": 2126,
      "ĠSom": 2127,
      "Ġscored": 2128,
      "Ġannounced": 2129,
      "Ġpred": 2130,
      "osaur": 2131,
      "ample": 2132,
      "here": 2133,
      "Ġ31": 2134,
      "ublic": 2135,
      "Ġpeak": 2136,
      "Ġinstead": 2137,
      "off": 2138,
      "Ġident": 2139,
      "Ġleast": 2140,
      "Ġappeared": 2141,
      "Ġassoci": 2142,
      "Ġhold": 2143,
      "ĠPal": 2144,
      "Ġval": 2145,
      "Ġ40": 2146,
      "ĠHam": 2147,
      "ems": 2148,
      "Ġnovel": 2149,
      "Ġcert": 2150,
      "Ġbus": 2151,
      "Ġgrow": 2152,
      "Ġarm": 2153,
      "ought": 2154,
      "Ġhelp": 2155,
      "mar": 2156,
      "Ġaud": 2157,
      "Ġknow": 2158,
      "Ġcritics": 2159,
      "Ġfig": 2160,
      "ana": 2161,
      "Ġworks": 2162,
      "Ġcolle": 2163,
      "errit": 2164,
      "ara": 2165,
      "ĠHar": 2166,
      "Ġaccom": 2167,
      "Ġtradition": 2168,
      "ĠCompany": 2169,
      "cil": 2170,
      "Ġbird": 2171,
      "Ġsuper": 2172,
      "Ġprocess": 2173,
      "ountain": 2174,
      "Ġproduc": 2175,
      "ĠKingdom": 2176,
      "ĠSec": 2177,
      "ĠCr": 2178,
      "Ġexc": 2179,
      "Ġenc": 2180,
      "ĠCarey": 2181,
      "ki": 2182,
      "Ġ2004": 2183,
      "ĠMcC": 2184,
      "Ġconn": 2185,
      "umb": 2186,
      "ects": 2187,
      "ĠSy": 2188,
      "unk": 2189,
      "play": 2190,
      "Ġgoal": 2191,
      "Ġredu": 2192,
      "ĠYou": 2193,
      "Ġstri": 2194,
      "Ġdecided": 2195,
      "Ġlive": 2196,
      "Ġbroad": 2197,
      "oid": 2198,
      "Ġfort": 2199,
      "Ġanim": 2200,
      "Ġbehind": 2201,
      "oice": 2202,
      "Ġtowards": 2203,
      "Ġvol": 2204,
      "Ġbase": 2205,
      "Ġmi": 2206,
      "Ġmass": 2207,
      "ĠBill": 2208,
      "Ġcond": 2209,
      "ĠGrand": 2210,
      "Ġlack": 2211,
      "Ġstars": 2212,
      "ements": 2213,
      "Ġking": 2214,
      "Ġappoin": 2215,
      "ways": 2216,
      "Ġsubsequ": 2217,
      "Ġestim": 2218,
      "Ġeventually": 2219,
      "Ġaver": 2220,
      "arch": 2221,
      "ĠMon": 2222,
      "Ġ188": 2223,
      "Ġtest": 2224,
      "Ġfif": 2225,
      "ĠAct": 2226,
      "ament": 2227,
      "ĠMad": 2228,
      "Ġcommer": 2229,
      "Ġaward": 2230,
      "Ġfall": 2231,
      "Ġnon": 2232,
      "rict": 2233,
      "Ġimpro": 2234,
      "Ġnorthern": 2235,
      "ĠMor": 2236,
      "ett": 2237,
      "Ġstage": 2238,
      "ĠWales": 2239,
      "Ġ185": 2240,
      "Ġspecial": 2241,
      "Ġfeatured": 2242,
      "Ġtaken": 2243,
      "Ġsaw": 2244,
      "urb": 2245,
      "Ġborn": 2246,
      "Ġmother": 2247,
      "acy": 2248,
      "Ġsepar": 2249,
      "Ġfeatures": 2250,
      "ĠTwo": 2251,
      "ĠRout": 2252,
      "emy": 2253,
      "Ġtoget": 2254,
      "Ġindivid": 2255,
      "ĠDavid": 2256,
      "Ġtogether": 2257,
      "ĠSome": 2258,
      "Ġnuc": 2259,
      "Ġcoll": 2260,
      "Ġwomen": 2261,
      "Ġfar": 2262,
      "Ġhurricane": 2263,
      "ĠBo": 2264,
      "ĠIm": 2265,
      "Ġra": 2266,
      "Ġyoung": 2267,
      "ius": 2268,
      "ĠMer": 2269,
      "ĠFollow": 2270,
      "istic": 2271,
      "Ġyards": 2272,
      "Ġplaying": 2273,
      "Ġfourth": 2274,
      "ators": 2275,
      "ency": 2276,
      "ĠRobert": 2277,
      "Ġwife": 2278,
      "Ġdou": 2279,
      "ĠSl": 2280,
      "Ġask": 2281,
      "aper": 2282,
      "Ġclos": 2283,
      "Ġinsp": 2284,
      "Ġaircraft": 2285,
      "hys": 2286,
      "Ġcut": 2287,
      "Ġmiss": 2288,
      "Ġrecogn": 2289,
      "azine": 2290,
      "Ġopened": 2291,
      "Ġrelationship": 2292,
      "ata": 2293,
      "ĠIr": 2294,
      "ĠEast": 2295,
      "Ġsex": 2296,
      "Ġcrew": 2297,
      "Ġprofess": 2298,
      "Ġbrought": 2299,
      "ceed": 2300,
      "chie": 2301,
      "ores": 2302,
      "Ġclose": 2303,
      "Ġfinished": 2304,
      "ĠIndian": 2305,
      "Ġoperations": 2306,
      "read": 2307,
      "Ġbelieved": 2308,
      "ĠBattalion": 2309,
      "Ġaction": 2310,
      "ecut": 2311,
      "ĠBer": 2312,
      "Ġdev": 2313,
      "Ġexample": 2314,
      "Ġlet": 2315,
      "Ġmove": 2316,
      "Ġemploy": 2317,
      "Ġdamage": 2318,
      "ĠRoute": 2319,
      "ĠFollowing": 2320,
      "gg": 2321,
      "hic": 2322,
      "Ġz": 2323,
      "oring": 2324,
      "Ġmot": 2325,
      "ĠSer": 2326,
      "Ġeither": 2327,
      "iron": 2328,
      "ĠGod": 2329,
      "Ġweeks": 2330,
      "cher": 2331,
      "ota": 2332,
      "Ġalmost": 2333,
      "ending": 2334,
      "Ġround": 2335,
      "ama": 2336,
      "ĠCup": 2337,
      "ully": 2338,
      "Ġarg": 2339,
      "iber": 2340,
      "ston": 2341,
      "ĠStreet": 2342,
      "ights": 2343,
      "ĠFrance": 2344,
      "Ġrepresent": 2345,
      "ĠPres": 2346,
      "Ġproble": 2347,
      "Ġleading": 2348,
      "ned": 2349,
      "Ġcreat": 2350,
      "Ġbi": 2351,
      "Ġren": 2352,
      "Ġreach": 2353,
      "ĠThom": 2354,
      "Ġaccept": 2355,
      "Ġopening": 2356,
      "Ġwall": 2357,
      "Ġburn": 2358,
      "ĠRoyal": 2359,
      "iol": 2360,
      "Ġcell": 2361,
      "olution": 2362,
      "artment": 2363,
      "Ġcentral": 2364,
      "Ġlargest": 2365,
      "Ġdirected": 2366,
      "Ġgeneral": 2367,
      "ĠMex": 2368,
      "Ġcourt": 2369,
      "Ġmater": 2370,
      "Ġlaun": 2371,
      "ĠHill": 2372,
      "ĠRock": 2373,
      "Ġrul": 2374,
      "Ġquar": 2375,
      "medi": 2376,
      "iation": 2377,
      "ened": 2378,
      "Ġdraw": 2379,
      "aps": 2380,
      "Ġ35": 2381,
      "Ġunits": 2382,
      "wood": 2383,
      "igned": 2384,
      "Ġregular": 2385,
      "Ġprovided": 2386,
      "ih": 2387,
      "Ġce": 2388,
      "anch": 2389,
      "stit": 2390,
      "ĠPart": 2391,
      "ĠGerm": 2392,
      "ĠOther": 2393,
      "Ġvoc": 2394,
      "illa": 2395,
      "Ġ500": 2396,
      "Ġpoints": 2397,
      "Ġservice": 2398,
      "ĠRep": 2399,
      "orts": 2400,
      "Ġflood": 2401,
      "cial": 2402,
      "alt": 2403,
      "Ġhit": 2404,
      "Ġreb": 2405,
      "liam": 2406,
      "itt": 2407,
      "Ġ2003": 2408,
      "Ġrespect": 2409,
      "Ġcost": 2410,
      "ĠPaul": 2411,
      "Ġsequ": 2412,
      "Ġupon": 2413,
      "ĠBrigade": 2414,
      "ĠWhite": 2415,
      "Ġelements": 2416,
      "Ġvictory": 2417,
      "ica": 2418,
      "ential": 2419,
      "ĠHen": 2420,
      "angu": 2421,
      "oo": 2422,
      "sel": 2423,
      "Ġinform": 2424,
      "Ġriver": 2425,
      "ishing": 2426,
      "Ġgenerally": 2427,
      "cast": 2428,
      "Ġmember": 2429,
      "Ġindust": 2430,
      "Ġdirector": 2431,
      "ength": 2432,
      "ground": 2433,
      "hing": 2434,
      "ville": 2435,
      "Ġsaying": 2436,
      "Ġcase": 2437,
      "Ġhon": 2438,
      "Ġhost": 2439,
      "ĠCap": 2440,
      "ump": 2441,
      "anned": 2442,
      "board": 2443,
      "icated": 2444,
      "ida": 2445,
      "Ġconduct": 2446,
      "Ġrather": 2447,
      "ellow": 2448,
      "Ġwanted": 2449,
      "ĠViet": 2450,
      "Ġearlier": 2451,
      "uter": 2452,
      "val": 2453,
      "ĠBut": 2454,
      "ĠDu": 2455,
      "ĠFin": 2456,
      "ĠFrom": 2457,
      "Ġmeas": 2458,
      "Ġinvest": 2459,
      "liament": 2460,
      "heast": 2461,
      "Ġmer": 2462,
      "ĠMy": 2463,
      "AF": 2464,
      "Ġhours": 2465,
      "ĠRed": 2466,
      "ude": 2467,
      "ĠKh": 2468,
      "Ġ2015": 2469,
      "Ġparticularly": 2470,
      "mb": 2471,
      "Ġreve": 2472,
      "etwork": 2473,
      "Ġstru": 2474,
      "Ġstren": 2475,
      "ounted": 2476,
      "Ġrespons": 2477,
      "Ġfoc": 2478,
      "Ġlength": 2479,
      "Ġinvolved": 2480,
      "ĠGeorge": 2481,
      "west": 2482,
      "Ġsour": 2483,
      "ĠDr": 2484,
      "Ġprob": 2485,
      "Ġprote": 2486,
      "Ġfund": 2487,
      "ĠHouse": 2488,
      "Ġve": 2489,
      "ĠCommand": 2490,
      "ĠEuropean": 2491,
      "Ġappearance": 2492,
      "ington": 2493,
      "ĠBra": 2494,
      "Ġbeg": 2495,
      "Ġcondom": 2496,
      "iction": 2497,
      "Ġpract": 2498,
      "ĠZeal": 2499,
      "ĠChristian": 2500,
      "ĠZealand": 2501,
      "Ġtrib": 2502,
      "asion": 2503,
      "ĠMark": 2504,
      "ĠGame": 2505,
      "Ġyard": 2506,
      "Ġresear": 2507,
      "action": 2508,
      "Ġstudy": 2509,
      "Ġill": 2510,
      "ĠCreek": 2511,
      "Ġoutside": 2512,
      "Ġallowed": 2513,
      "Ġstreng": 2514,
      "ze": 2515,
      "Ġachie": 2516,
      "ĠSqu": 2517,
      "eler": 2518,
      "ĠCo": 2519,
      "urg": 2520,
      "ĠDesp": 2521,
      "ption": 2522,
      "Ġdesp": 2523,
      "Ġmean": 2524,
      "cent": 2525,
      "Ġforced": 2526,
      "ĠPe": 2527,
      "ĠWal": 2528,
      "ĠInternational": 2529,
      "Ġexist": 2530,
      "Ġ186": 2531,
      "Ġworking": 2532,
      "Ġneg": 2533,
      "Ġcurrent": 2534,
      "Ġmanager": 2535,
      "Ġbusiness": 2536,
      "head": 2537,
      "eck": 2538,
      "ĠLove": 2539,
      "eum": 2540,
      "ule": 2541,
      "ania": 2542,
      "Ġly": 2543,
      "ĠBay": 2544,
      "ĠDep": 2545,
      "ordan": 2546,
      "Ġpoem": 2547,
      "Ġpossible": 2548,
      "ĠÂ£": 2549,
      "ĠDespite": 2550,
      "Ġesc": 2551,
      "ĠMost": 2552,
      "ĠAtlantic": 2553,
      "ĠOliv": 2554,
      "Ġpast": 2555,
      "Ġregard": 2556,
      "Ġengine": 2557,
      "ĠFlor": 2558,
      "for": 2559,
      "to": 2560,
      "uk": 2561,
      "erous": 2562,
      "Ġcop": 2563,
      "ita": 2564,
      "Ġhy": 2565,
      "Ġevidence": 2566,
      "Ġpraised": 2567,
      "ault": 2568,
      "ving": 2569,
      "Ġmult": 2570,
      "Ġlangu": 2571,
      "ĠWil": 2572,
      "ĠMichael": 2573,
      "ray": 2574,
      "Ġcivil": 2575,
      "ĠMed": 2576,
      "Ġwhom": 2577,
      "ĠJordan": 2578,
      "Ġrace": 2579,
      "ĠÂ°": 2580,
      "Ġfemale": 2581,
      "ming": 2582,
      "ĠMac": 2583,
      "Ġconstruct": 2584,
      "Ġincreased": 2585,
      "ee": 2586,
      "ls": 2587,
      "men": 2588,
      "Ġreason": 2589,
      "Ġthink": 2590,
      "ributed": 2591,
      "Ġworked": 2592,
      "Ġpreviously": 2593,
      "ouri": 2594,
      "Ġthreat": 2595,
      "Ġobject": 2596,
      "Ġdesigned": 2597,
      "Ġjoined": 2598,
      "Ġcycl": 2599,
      "conom": 2600,
      "uation": 2601,
      "onst": 2602,
      "atural": 2603,
      "Ġquick": 2604,
      "wh": 2605,
      "anding": 2606,
      "Ġplaced": 2607,
      "Ġabove": 2608,
      "Ġreplaced": 2609,
      "Ġavail": 2610,
      "ĠMo": 2611,
      "imin": 2612,
      "Ġstation": 2613,
      "ĠPhil": 2614,
      "uel": 2615,
      "Ġterrit": 2616,
      "atin": 2617,
      "ĠDay": 2618,
      "aval": 2619,
      "co": 2620,
      "Ġwestern": 2621,
      "Ġfree": 2622,
      "Ġbur": 2623,
      "ĠMary": 2624,
      "Ġitself": 2625,
      "ula": 2626,
      "ĠJew": 2627,
      "Ġmach": 2628,
      "irth": 2629,
      "Ġrail": 2630,
      "Ġremains": 2631,
      "Ġsoon": 2632,
      "Ġmaterial": 2633,
      "go": 2634,
      "rated": 2635,
      "ĠÃ": 2636,
      "Ġgre": 2637,
      "ĠHero": 2638,
      "Ġhighest": 2639,
      "ĠFederer": 2640,
      "Ġcommercial": 2641,
      "bor": 2642,
      "Ġclear": 2643,
      "ĠSm": 2644,
      "acing": 2645,
      "ecess": 2646,
      "Ġwithd": 2647,
      "ago": 2648,
      "quar": 2649,
      "Ġ187": 2650,
      "Ġremov": 2651,
      "Ġpoor": 2652,
      "ĠMusic": 2653,
      "ĠFlorida": 2654,
      "Ġnomin": 2655,
      "ĠVal": 2656,
      "Ġclaimed": 2657,
      "Ġtaking": 2658,
      "Ġslow": 2659,
      "Ġpain": 2660,
      "ĠEm": 2661,
      "ites": 2662,
      "leg": 2663,
      "ĠTor": 2664,
      "Ġstop": 2665,
      "vert": 2666,
      "ession": 2667,
      "ĠMissouri": 2668,
      "BC": 2669,
      "now": 2670,
      "Ġnine": 2671,
      "Ġviol": 2672,
      "Ġshot": 2673,
      "Ġ45": 2674,
      "Ġdiss": 2675,
      "hens": 2676,
      "ĠBritain": 2677,
      "Ġcontract": 2678,
      "Ġfootball": 2679,
      "Ġtreat": 2680,
      "Ġinj": 2681,
      "Ġpers": 2682,
      "Ġmph": 2683,
      "ĠSan": 2684,
      "Ġgold": 2685,
      "iding": 2686,
      "usion": 2687,
      "osing": 2688,
      "ĠChampionship": 2689,
      "Ġpen": 2690,
      "Ġ60": 2691,
      "Ġwinds": 2692,
      "rem": 2693,
      "Ġpur": 2694,
      "Ġpiec": 2695,
      "Ġdon": 2696,
      "Ġlove": 2697,
      "oms": 2698,
      "ĠBus": 2699,
      "elled": 2700,
      "Ġarrived": 2701,
      "ĠSuper": 2702,
      "ĠThomas": 2703,
      "lic": 2704,
      "ĠAc": 2705,
      "adron": 2706,
      "ĠVir": 2707,
      "Ġparts": 2708,
      "ĠQue": 2709,
      "gypt": 2710,
      "Ġestimated": 2711,
      "Ġaverage": 2712,
      "down": 2713,
      "enes": 2714,
      "Ġfly": 2715,
      "Ġmust": 2716,
      "Ġhom": 2717,
      "ĠPac": 2718,
      "Ġ1990": 2719,
      "Ġinterview": 2720,
      "Ġtransport": 2721,
      "ready": 2722,
      "Ġrap": 2723,
      "ĠEgypt": 2724,
      "Ġintens": 2725,
      "Ġtravel": 2726,
      "ids": 2727,
      "Ġheav": 2728,
      "ĠOd": 2729,
      "Ġaccount": 2730,
      "Ġgoals": 2731,
      "Ġturned": 2732,
      "Ġbreak": 2733,
      "ĠRichard": 2734,
      "ties": 2735,
      "ĠOff": 2736,
      "Ġsurround": 2737,
      "Ġsigned": 2738,
      "Ġbrother": 2739,
      "ĠPlay": 2740,
      "oor": 2741,
      "Ġap": 2742,
      "erved": 2743,
      "Ġinternational": 2744,
      "ĠTech": 2745,
      "urt": 2746,
      "Ġarmy": 2747,
      "Ġpriv": 2748,
      "Ġsubject": 2749,
      "Ġtold": 2750,
      "Ġwhose": 2751,
      "ĠFirst": 2752,
      "pper": 2753,
      "Ġ36": 2754,
      "inese": 2755,
      "Ġtransfer": 2756,
      "ĠQu": 2757,
      "Ġdefeated": 2758,
      "ky": 2759,
      "nes": 2760,
      "Ġop": 2761,
      "Ġbill": 2762,
      "ulated": 2763,
      "osition": 2764,
      "Ġ2001": 2765,
      "ibility": 2766,
      "Ġimmedi": 2767,
      "ĠUnion": 2768,
      "Ġreligious": 2769,
      "Ġdespite": 2770,
      "Ġavailable": 2771,
      "Ġhous": 2772,
      "ĠChinese": 2773,
      "Ġ2014": 2774,
      "Ġgrad": 2775,
      "Ġquarter": 2776,
      "nal": 2777,
      "ximately": 2778,
      "ari": 2779,
      "arily": 2780,
      "ĠFort": 2781,
      "Ġ183": 2782,
      "Ġscene": 2783,
      "Ġsurf": 2784,
      "Ġblock": 2785,
      "Ġcommunity": 2786,
      "ecutive": 2787,
      "Ġwood": 2788,
      "itz": 2789,
      "Ġchange": 2790,
      "Ġwriter": 2791,
      "ĠScott": 2792,
      "Ġcomplet": 2793,
      "Ġdiscuss": 2794,
      "Ġinitially": 2795,
      "Ġsuggested": 2796,
      "tt": 2797,
      "Ġtouch": 2798,
      "ĠBest": 2799,
      "ching": 2800,
      "ĠGovern": 2801,
      "ĠLa": 2802,
      "ests": 2803,
      "Ġrain": 2804,
      "Ġchap": 2805,
      "Ġspecific": 2806,
      "Ġrunning": 2807,
      "Ġpassed": 2808,
      "Ġincreasing": 2809,
      "porary": 2810,
      "Ġvillage": 2811,
      "aries": 2812,
      "Ġey": 2813,
      "Ġeconom": 2814,
      "Ġstates": 2815,
      "ĠWhe": 2816,
      "ĠGreat": 2817,
      "Ġparticip": 2818,
      "Ġestablish": 2819,
      "ĠAngel": 2820,
      "ĠMexico": 2821,
      "tr": 2822,
      "atory": 2823,
      "ĠAg": 2824,
      "Ġlines": 2825,
      "urity": 2826,
      "ume": 2827,
      "Ġtraining": 2828,
      "Ġoccup": 2829,
      "ĠBrown": 2830,
      "Ġordered": 2831,
      "Ġhard": 2832,
      "ĠCong": 2833,
      "ĠMa": 2834,
      "ĠBel": 2835,
      "Ġabs": 2836,
      "Ġdisp": 2837,
      "ails": 2838,
      "Ġnearly": 2839,
      "Ġ1970": 2840,
      "ĠCarol": 2841,
      "Ġappointed": 2842,
      "ĠPresident": 2843,
      "ĠHenry": 2844,
      "ĠVietn": 2845,
      "ĠGal": 2846,
      "Ġexcept": 2847,
      "Ġ2000": 2848,
      "Ġcenter": 2849,
      "Ġdamaged": 2850,
      "Ġanti": 2851,
      "Ġstructure": 2852,
      "ĠPacific": 2853,
      "Ġfailed": 2854,
      "Ġtow": 2855,
      "Ġmem": 2856,
      "Ġdro": 2857,
      "bert": 2858,
      "Ġstudio": 2859,
      "Ġ1960": 2860,
      "hib": 2861,
      "Ġesp": 2862,
      "Ġphys": 2863,
      "ĠApp": 2864,
      "Ġalready": 2865,
      "aph": 2866,
      "Ġassist": 2867,
      "Ġmight": 2868,
      "ĠSun": 2869,
      "Ġforward": 2870,
      "ĠHel": 2871,
      "ulf": 2872,
      "Ġcome": 2873,
      "ronic": 2874,
      "Ġcolon": 2875,
      "Ġindepend": 2876,
      "Ġgoing": 2877,
      "Ġshows": 2878,
      "ĠIndia": 2879,
      "ĠIrish": 2880,
      "ĠRepublic": 2881,
      "ĠOlivier": 2882,
      "ĠLater": 2883,
      "Ġproper": 2884,
      "ateg": 2885,
      "Ġkey": 2886,
      "ference": 2887,
      "Ġminor": 2888,
      "ography": 2889,
      "ĠCanadian": 2890,
      "inist": 2891,
      "oul": 2892,
      "aker": 2893,
      "Ġenough": 2894,
      "anna": 2895,
      "Ġrecording": 2896,
      "band": 2897,
      "ases": 2898,
      "ĠSchool": 2899,
      "Ġgive": 2900,
      "ĠHall": 2901,
      "thlet": 2902,
      "Ġleague": 2903,
      "Ġaccording": 2904,
      "Ġwinning": 2905,
      "Ġprobably": 2906,
      "Ġsize": 2907,
      "Ġcru": 2908,
      "Ġpot": 2909,
      "Ġden": 2910,
      "ĠTimes": 2911,
      "ilities": 2912,
      "ĠOs": 2913,
      "Ġdebut": 2914,
      "Ġintroduced": 2915,
      "Ġbeginning": 2916,
      "gl": 2917,
      "ship": 2918,
      "Ã³": 2919,
      "Ġdoc": 2920,
      "Ġnetwork": 2921,
      "ĠMos": 2922,
      "olic": 2923,
      "ĠDon": 2924,
      "ĠFe": 2925,
      "ĠThat": 2926,
      "Ġdeterm": 2927,
      "Ġrequired": 2928,
      "Ġissue": 2929,
      "rd": 2930,
      "vest": 2931,
      "Ġcal": 2932,
      "Ġbetter": 2933,
      "Ġfeel": 2934,
      "Ġremain": 2935,
      "anning": 2936,
      "cript": 2937,
      "Ġmale": 2938,
      "Ġlatter": 2939,
      "ĠMont": 2940,
      "ĠNavy": 2941,
      "Ġdecision": 2942,
      "Ġcapital": 2943,
      "ĠCanada": 2944,
      "Ġaut": 2945,
      "Ġvot": 2946,
      "Ġremaining": 2947,
      "Ġcomplete": 2948,
      "Ġsupported": 2949,
      "Ġvisit": 2950,
      "ĠAfrica": 2951,
      "Ġmixed": 2952,
      "lor": 2953,
      "edy": 2954,
      "ĠPeter": 2955,
      "ĠGold": 2956,
      "Ġended": 2957,
      "Ġarchae": 2958,
      "Ġsocial": 2959,
      "ks": 2960,
      "abit": 2961,
      "Ġ38": 2962,
      "Ġforest": 2963,
      "gu": 2964,
      "of": 2965,
      "Ġwide": 2966,
      "Ġdate": 2967,
      "change": 2968,
      "Ġspent": 2969,
      "Ġscore": 2970,
      "Ġemb": 2971,
      "Ġapproximately": 2972,
      "Ġcaptured": 2973,
      "Ġsection": 2974,
      "ecially": 2975,
      "ĠPat": 2976,
      "ĠWestern": 2977,
      "Ġ184": 2978,
      "Ġsyn": 2979,
      "Ġpolice": 2980,
      "Ġeduc": 2981,
      "Ġreviews": 2982,
      "Ġchanges": 2983,
      "ĠGermany": 2984,
      "Ġreveal": 2985,
      "Ġlower": 2986,
      "ĠRuss": 2987,
      "Ġ75": 2988,
      "Ġ80": 2989,
      "ĠOldham": 2990,
      "Ġprior": 2991,
      "Ġcertain": 2992,
      "den": 2993,
      "mond": 2994,
      "atives": 2995,
      "Ġfut": 2996,
      "ĠHot": 2997,
      "ĠNY": 2998,
      "Ġ1980": 2999,
      "ĠJapan": 3000,
      "ma": 3001,
      "onse": 3002,
      "Ġface": 3003,
      "ĠSch": 3004,
      "Ġnames": 3005,
      "achel": 3006,
      "Ġstaff": 3007,
      "Ġdeal": 3008,
      "hedral": 3009,
      "rics": 3010,
      "Ġimm": 3011,
      "Ġsometimes": 3012,
      "Ġespecially": 3013,
      "Ġsil": 3014,
      "Ġfood": 3015,
      "ĠMany": 3016,
      "agon": 3017,
      "Ġlimited": 3018,
      "aut": 3019,
      "ha": 3020,
      "anish": 3021,
      "Ġdomin": 3022,
      "Ġ2002": 3023,
      "ĠFrank": 3024,
      "fect": 3025,
      "ires": 3026,
      "lin": 3027,
      "aring": 3028,
      "ĠCoun": 3029,
      "odies": 3030,
      "order": 3031,
      "Ġlarger": 3032,
      "Ġprovide": 3033,
      "ĠTom": 3034,
      "ĠTur": 3035,
      "Ġanc": 3036,
      "illery": 3037,
      "ĠVar": 3038,
      "Ġjour": 3039,
      "Ġincludes": 3040,
      "ĠGuitar": 3041,
      "ĠAssoci": 3042,
      "Ġsubsequently": 3043,
      "nel": 3044,
      "inct": 3045,
      "ises": 3046,
      "Ġmur": 3047,
      "ĠJin": 3048,
      "uments": 3049,
      "Ġdead": 3050,
      "ability": 3051,
      "ĠVict": 3052,
      "ification": 3053,
      "Ġruns": 3054,
      "Ġresponse": 3055,
      "Ġadditional": 3056,
      "anies": 3057,
      "ĠMount": 3058,
      "Ġshown": 3059,
      "ĠArt": 3060,
      "ĠArab": 3061,
      "Ġpositive": 3062,
      "ĠCharles": 3063,
      "Ġmagazine": 3064,
      "Ġfighting": 3065,
      "ĠWheeler": 3066,
      "AS": 3067,
      "uing": 3068,
      "ĠCour": 3069,
      "acted": 3070,
      "ĠRh": 3071,
      "ĠJe": 3072,
      "Ġshoot": 3073,
      "Ġoffice": 3074,
      "Ġpresident": 3075,
      "Ġstudents": 3076,
      "ĠIII": 3077,
      "Ġ?": 3078,
      "Ġfleet": 3079,
      "ĠTV": 3080,
      "ĠOper": 3081,
      "aby": 3082,
      "ĠUK": 3083,
      "Ġconcert": 3084,
      "Ġdepression": 3085,
      "Ġminutes": 3086,
      "Ġfeature": 3087,
      "Ġliter": 3088,
      "Ġsoldiers": 3089,
      "rief": 3090,
      "inent": 3091,
      "Ġsch": 3092,
      "Ġsect": 3093,
      "ĠSing": 3094,
      "omm": 3095,
      "Ġstay": 3096,
      "ands": 3097,
      "rian": 3098,
      "apt": 3099,
      "ĠInf": 3100,
      "Ġmostly": 3101,
      "iest": 3102,
      "Ġsat": 3103,
      "Ġche": 3104,
      "enty": 3105,
      "ste": 3106,
      "idents": 3107,
      "ĠLaw": 3108,
      "Ġunc": 3109,
      "Ġconclud": 3110,
      "Ġdefeat": 3111,
      "NA": 3112,
      "back": 3113,
      "uals": 3114,
      "reak": 3115,
      "atively": 3116,
      "Ġmention": 3117,
      "ĠEver": 3118,
      "Ġintended": 3119,
      "Ġusually": 3120,
      "Ġthemsel": 3121,
      "Ġquest": 3122,
      "Ġbecoming": 3123,
      "Ġthemselves": 3124,
      "under": 3125,
      "Ġwoman": 3126,
      "itte": 3127,
      "Ġfir": 3128,
      "stant": 3129,
      "ĠCath": 3130,
      "ĠBur": 3131,
      "Ġpercent": 3132,
      "Ġmetres": 3133,
      "Ġguitar": 3134,
      "Ġsmaller": 3135,
      "Ġsem": 3136,
      "orial": 3137,
      "ĠMal": 3138,
      "ĠPenn": 3139,
      "ĠNort": 3140,
      "Ġexam": 3141,
      "Ġens": 3142,
      "oys": 3143,
      "Ġindic": 3144,
      "Ġagreed": 3145,
      "bers": 3146,
      "gely": 3147,
      "Ġwound": 3148,
      "Ġbirth": 3149,
      "Ġdaugh": 3150,
      "irt": 3151,
      "ĠRad": 3152,
      "orning": 3153,
      "Ġpoet": 3154,
      "zy": 3155,
      "Ġpair": 3156,
      "andon": 3157,
      "Ġscreen": 3158,
      "Ġgroups": 3159,
      "ĠBattle": 3160,
      "Ġlikely": 3161,
      "Ġfifth": 3162,
      "ĠVirgin": 3163,
      "Ġcm": 3164,
      "Ġkil": 3165,
      "ĠStar": 3166,
      "Ġtraff": 3167,
      "anks": 3168,
      "Ġtype": 3169,
      "Ġreferred": 3170,
      "Ġdiscovered": 3171,
      "Ġlanguage": 3172,
      "quarters": 3173,
      "isions": 3174,
      "Ġlearn": 3175,
      "Ġrelated": 3176,
      "Ġfrequ": 3177,
      "ĠBillboard": 3178,
      "Ġdi": 3179,
      "ĠHist": 3180,
      "ĠPo": 3181,
      "ĠJer": 3182,
      "Ġuns": 3183,
      "lands": 3184,
      "Ġsett": 3185,
      "Ġteams": 3186,
      "Ġcounter": 3187,
      "Ġfavor": 3188,
      "hou": 3189,
      "Ġfans": 3190,
      "asy": 3191,
      "ĠTour": 3192,
      "ĠMil": 3193,
      "lymp": 3194,
      "ĠOlymp": 3195,
      "Ġlargely": 3196,
      "Ġofficers": 3197,
      "Ġconstructed": 3198,
      "Ġtraffic": 3199,
      "Ġsus": 3200,
      "ĠCamp": 3201,
      "cean": 3202,
      "oph": 3203,
      "pped": 3204,
      "Ġcompl": 3205,
      "Ġentered": 3206,
      "Ġpressure": 3207,
      "Ġidea": 3208,
      "Ġoccurred": 3209,
      "Ġfuture": 3210,
      "Ġmakes": 3211,
      "ĠSince": 3212,
      "ĠMart": 3213,
      "ĠHol": 3214,
      "ĠRachel": 3215,
      "unt": 3216,
      "Ġund": 3217,
      "Ġ70": 3218,
      "well": 3219,
      "Ġword": 3220,
      "Ġflow": 3221,
      "Ġdoll": 3222,
      "Ġlink": 3223,
      "aven": 3224,
      "ĠStud": 3225,
      "Ġcontem": 3226,
      "Ġ400": 3227,
      "Ġconcern": 3228,
      "ĠColle": 3229,
      "Ġtemper": 3230,
      "ĠRegiment": 3231,
      "Ġranked": 3232,
      "osaurus": 3233,
      "uz": 3234,
      "Ġbow": 3235,
      "Ġbomb": 3236,
      "ĠMr": 3237,
      "ĠUnder": 3238,
      "teen": 3239,
      "Ġconsist": 3240,
      "Ġarrang": 3241,
      "Ġlisted": 3242,
      "uf": 3243,
      "ĠAward": 3244,
      "ĠWood": 3245,
      "Ġdeep": 3246,
      "ocr": 3247,
      "Ġmoving": 3248,
      "Ġcarried": 3249,
      "Ġmajority": 3250,
      "Ġself": 3251,
      "iter": 3252,
      "Ġfail": 3253,
      "ĠPet": 3254,
      "Ġsea": 3255,
      "ĠStr": 3256,
      "Ġamount": 3257,
      "Ġmusical": 3258,
      "Ġlocation": 3259,
      "ospital": 3260,
      "Ġradio": 3261,
      "Ġprimary": 3262,
      "Ġsummer": 3263,
      "Ġbirds": 3264,
      "Ġbrief": 3265,
      "Ġder": 3266,
      "ĠAle": 3267,
      "ĠKr": 3268,
      "Ġadop": 3269,
      "Ġenv": 3270,
      "Ġattr": 3271,
      "Ġcreate": 3272,
      "Ġbroadcast": 3273,
      "Ġsurface": 3274,
      "ĠCouncil": 3275,
      "ĠVictor": 3276,
      "cing": 3277,
      "ios": 3278,
      "Ġrein": 3279,
      "ĠHaw": 3280,
      "Ġvoice": 3281,
      "ills": 3282,
      "eway": 3283,
      "Ġleaving": 3284,
      "oke": 3285,
      "ĠAnother": 3286,
      "Ġmoney": 3287,
      "hester": 3288,
      "Ġkeep": 3289,
      "Ġprofessional": 3290,
      "Ġproblems": 3291,
      "ĠAssociation": 3292,
      "era": 3293,
      "Ġinn": 3294,
      "ĠSoc": 3295,
      "Ġlab": 3296,
      "ĠLake": 3297,
      "Ġ32": 3298,
      "Ġ33": 3299,
      "Ġdism": 3300,
      "Ġgrant": 3301,
      "Ġcontroll": 3302,
      "Ġapproach": 3303,
      "Ġproposed": 3304,
      "Ġcele": 3305,
      "Ġlyrics": 3306,
      "Ġpurch": 3307,
      "ĠRose": 3308,
      "Ġran": 3309,
      "ĠOver": 3310,
      "Ġsettle": 3311,
      "Ġsuffered": 3312,
      "Ġlaunched": 3313,
      "dle": 3314,
      "ners": 3315,
      "tar": 3316,
      "imate": 3317,
      "ĠHow": 3318,
      "ĠFore": 3319,
      "ples": 3320,
      "ĠYear": 3321,
      "ĠSpanish": 3322,
      "Ġdestroyed": 3323,
      "Ġcommented": 3324,
      "Ġult": 3325,
      "rey": 3326,
      "anced": 3327,
      "oud": 3328,
      "ĠSam": 3329,
      "Ġlived": 3330,
      "Ġnature": 3331,
      "Ġemer": 3332,
      "Ġalways": 3333,
      "Ġcontains": 3334,
      "Ġoverall": 3335,
      "Ġpositions": 3336,
      "Ġcritical": 3337,
      "Ġschol": 3338,
      "Ġcle": 3339,
      "iser": 3340,
      "ĠTem": 3341,
      "Ġthus": 3342,
      "ĠInter": 3343,
      "Ġ1950": 3344,
      "Ġconsider": 3345,
      "Ġexperience": 3346,
      "ĠAfrican": 3347,
      "ĠCroat": 3348,
      "Ġinvestig": 3349,
      "Ġparen": 3350,
      "icted": 3351,
      "aches": 3352,
      "igan": 3353,
      "ĠUp": 3354,
      "Ġscript": 3355,
      "Ġfilms": 3356,
      "Ġaccess": 3357,
      "Ġacqu": 3358,
      "Ġartillery": 3359,
      "undred": 3360,
      "Ġelection": 3361,
      "Ġconducted": 3362,
      "Ġquickly": 3363,
      "Ġrapid": 3364,
      "ex": 3365,
      "ergy": 3366,
      "Ġcred": 3367,
      "Ġmom": 3368,
      "Ġdram": 3369,
      "ĠNot": 3370,
      "Ġrare": 3371,
      "Ġplans": 3372,
      "Ġnotes": 3373,
      "Ġprem": 3374,
      "Ġ1995": 3375,
      "Ġamb": 3376,
      "Ġepisodes": 3377,
      "Ġincrease": 3378,
      "Ġeffects": 3379,
      "Ġcasual": 3380,
      "Ġtar": 3381,
      "het": 3382,
      "Ġcer": 3383,
      "anz": 3384,
      "Ġthick": 3385,
      "Ġlo": 3386,
      "imb": 3387,
      "ĠRes": 3388,
      "Ġ300": 3389,
      "ĠVer": 3390,
      "Ġserious": 3391,
      "Ġnewsp": 3392,
      "Ġattacked": 3393,
      "Ġspeed": 3394,
      "Ġobserv": 3395,
      "ĠCalif": 3396,
      "Ġasked": 3397,
      "gar": 3398,
      "Ġtakes": 3399,
      "Ġhop": 3400,
      "ĠMet": 3401,
      "thing": 3402,
      "Ġplot": 3403,
      "Ġtrade": 3404,
      "Ġjud": 3405,
      "Ġminute": 3406,
      "Ġappears": 3407,
      "Ġchanged": 3408,
      "Ġresearch": 3409,
      "itation": 3410,
      "ĠBow": 3411,
      "Ġconcept": 3412,
      "ĠFilm": 3413,
      "umed": 3414,
      "alled": 3415,
      "ruit": 3416,
      "Ġabandon": 3417,
      "Ġcommission": 3418,
      "Ġnumbers": 3419,
      "ging": 3420,
      "eding": 3421,
      "Ġcoin": 3422,
      "ĠSur": 3423,
      "Ġparty": 3424,
      "Ġcoach": 3425,
      "ĠForce": 3426,
      "ĠPortug": 3427,
      "ĠInfantry": 3428,
      "ĠCaliforn": 3429,
      "ken": 3430,
      "uff": 3431,
      "Ġcann": 3432,
      "rown": 3433,
      "ado": 3434,
      "ĠDel": 3435,
      "ĠNic": 3436,
      "Ġwhether": 3437,
      "Ġfinally": 3438,
      "Ġearth": 3439,
      "Ġflight": 3440,
      "ĠParliament": 3441,
      "Ġaccomp": 3442,
      "Ġprivate": 3443,
      "stein": 3444,
      "bury": 3445,
      "gen": 3446,
      "ĠSov": 3447,
      "Ġlog": 3448,
      "imum": 3449,
      "ĠLight": 3450,
      "umn": 3451,
      "raf": 3452,
      "Ġmeant": 3453,
      "Ġmeth": 3454,
      "ylv": 3455,
      "Ġadvance": 3456,
      "Ġmedia": 3457,
      "ĠEarth": 3458,
      "Ġtons": 3459,
      "Ġnatural": 3460,
      "Ġupper": 3461,
      "aily": 3462,
      "ĠBrad": 3463,
      "Ġinfluence": 3464,
      "Ġgods": 3465,
      "ĠBen": 3466,
      "ĠIf": 3467,
      "iva": 3468,
      "ĠPri": 3469,
      "ulted": 3470,
      "aging": 3471,
      "Ġunit": 3472,
      "ously": 3473,
      "Ġcompared": 3474,
      "ologist": 3475,
      "Ġlonger": 3476,
      "Ġbring": 3477,
      "onym": 3478,
      "Ġfocus": 3479,
      "ittee": 3480,
      "lo": 3481,
      "oir": 3482,
      "pect": 3483,
      "onc": 3484,
      "Ġded": 3485,
      "Ġdark": 3486,
      "ĠSal": 3487,
      "ĠJose": 3488,
      "ortun": 3489,
      "ify": 3490,
      "Ġdeg": 3491,
      "Ġplanned": 3492,
      "Ġunderst": 3493,
      "Ġ1999": 3494,
      "Ġpolic": 3495,
      "Ġ1940": 3496,
      "Ġdouble": 3497,
      "Ġmeaning": 3498,
      "Ġkilomet": 3499,
      "iant": 3500,
      "tained": 3501,
      "Ġtell": 3502,
      "ani": 3503,
      "Ġdig": 3504,
      "ĠTay": 3505,
      "ĠHurricane": 3506,
      "iano": 3507,
      "ĠItal": 3508,
      "Ġ1998": 3509,
      "Ġending": 3510,
      "Ġassigned": 3511,
      "Ġprinc": 3512,
      "Ġproduct": 3513,
      "Ġslight": 3514,
      "ĠCentral": 3515,
      "Ġawarded": 3516,
      "ĠJewish": 3517,
      "ĠCourt": 3518,
      "itor": 3519,
      "ĠSever": 3520,
      "Ġgiving": 3521,
      "ĠBC": 3522,
      "Ġstories": 3523,
      "ift": 3524,
      "Ġplat": 3525,
      "Ġkind": 3526,
      "Ġleave": 3527,
      "Ġcompanies": 3528,
      "Ġtheme": 3529,
      "ĠEnter": 3530,
      "Ġrecords": 3531,
      "ĠScot": 3532,
      "Ġdirectly": 3533,
      "Ġterms": 3534,
      "Ġexperi": 3535,
      "Ġcompetition": 3536,
      "ny": 3537,
      "Ġbound": 3538,
      "Ġdone": 3539,
      "ĠAwards": 3540,
      "ows": 3541,
      "ĠRoss": 3542,
      "riage": 3543,
      "ĠChic": 3544,
      "ĠIts": 3545,
      "Ġearned": 3546,
      "Ġforms": 3547,
      "Ġattacks": 3548,
      "Ġassociated": 3549,
      "Ġraised": 3550,
      "Ġindustry": 3551,
      "ĠCalifornia": 3552,
      "Ġtor": 3553,
      "Ġfell": 3554,
      "Ġbig": 3555,
      "Ġpil": 3556,
      "Ġreject": 3557,
      "aded": 3558,
      "olk": 3559,
      "irl": 3560,
      "ĠFI": 3561,
      "Ġwhole": 3562,
      "Ġjob": 3563,
      "Ġ90": 3564,
      "Ġcomplex": 3565,
      "Ġpersonal": 3566,
      "Ġmarket": 3567,
      "Ġtouchdown": 3568,
      "can": 3569,
      "Ġgot": 3570,
      "ĠBey": 3571,
      "ĠDem": 3572,
      "oint": 3573,
      "Ġbuildings": 3574,
      "ĠDepartment": 3575,
      "awn": 3576,
      "sen": 3577,
      "erve": 3578,
      "Ġour": 3579,
      "Ġcause": 3580,
      "Ġlay": 3581,
      "ĠCamb": 3582,
      "ĠBob": 3583,
      "etic": 3584,
      "ĠRob": 3585,
      "ĠLou": 3586,
      "Ġchall": 3587,
      "bery": 3588,
      "Ġsched": 3589,
      "Ġscenes": 3590,
      "Ġnearby": 3591,
      "Ġhelped": 3592,
      "ĠNorthern": 3593,
      "vement": 3594,
      "Ġtalk": 3595,
      "ĠServ": 3596,
      "ada": 3597,
      "ander": 3598,
      "Ġyet": 3599,
      "Ġunable": 3600,
      "Ġmovement": 3601,
      "Ġcommander": 3602,
      "aught": 3603,
      "Ġstatus": 3604,
      "ĠCatholic": 3605,
      "ĠTaylor": 3606,
      "Ġdom": 3607,
      "Ġdivision": 3608,
      "Ġanaly": 3609,
      "Ġvia": 3610,
      "Ġcentre": 3611,
      "Ġmatches": 3612,
      "Ġannual": 3613,
      "Ġindividual": 3614,
      "Ġimmediately": 3615,
      "iated": 3616,
      "mas": 3617,
      "Ġpark": 3618,
      "anded": 3619,
      "agan": 3620,
      "ĠThrough": 3621,
      "Ġpresence": 3622,
      "Ġstarting": 3623,
      "Ġ1930": 3624,
      "Ġcovered": 3625,
      "Ġwaters": 3626,
      "Ġinspired": 3627,
      "Ġgreater": 3628,
      "Ġremoved": 3629,
      "Ġmethod": 3630,
      "ĠChicago": 3631,
      "pool": 3632,
      "ses": 3633,
      "itude": 3634,
      "Ġpay": 3635,
      "Ġmorning": 3636,
      "Ġhot": 3637,
      "Ġliving": 3638,
      "ĠHo": 3639,
      "ĠNix": 3640,
      "Ġclosed": 3641,
      "ĠThree": 3642,
      "ibly": 3643,
      "Ġweap": 3644,
      "Ġcollect": 3645,
      "Ġperformances": 3646,
      "rowd": 3647,
      "embly": 3648,
      "Ġoperation": 3649,
      "Ġrequest": 3650,
      "Ġissued": 3651,
      "Ġbegins": 3652,
      "ees": 3653,
      "ining": 3654,
      "Ġbad": 3655,
      "Ġinters": 3656,
      "Ġhundred": 3657,
      "ĠSol": 3658,
      "usband": 3659,
      "Ġstone": 3660,
      "ĠRA": 3661,
      "ĠNor": 3662,
      "ĠLatin": 3663,
      "Ġhero": 3664,
      "ĠJust": 3665,
      "Ġ47": 3666,
      "Ġleaders": 3667,
      "Ġschools": 3668,
      "Ġstrength": 3669,
      "kan": 3670,
      "sis": 3671,
      "Ġtourn": 3672,
      "ĠSaint": 3673,
      "Ġnorm": 3674,
      "Ġhealth": 3675,
      "ĠOtt": 3676,
      "Ġ37": 3677,
      "Ġoffered": 3678,
      "Ġinfantry": 3679,
      "Ġprevent": 3680,
      "Ġbattalion": 3681,
      "Ġbooks": 3682,
      "Ġattempted": 3683,
      "Ġnucle": 3684,
      "ĠSquadron": 3685,
      "Ã³n": 3686,
      "Ġmurder": 3687,
      "TV": 3688,
      "iqu": 3689,
      "Ġfeder": 3690,
      "isk": 3691,
      "road": 3692,
      "ĠCard": 3693,
      "ĠCross": 3694,
      "ĠDj": 3695,
      "ĠJane": 3696,
      "abb": 3697,
      "pted": 3698,
      "Ġcontinue": 3699,
      "Ã¡n": 3700,
      "Ġhar": 3701,
      "olf": 3702,
      "tered": 3703,
      "ĠHu": 3704,
      "Ġ42": 3705,
      "Ġfinanc": 3706,
      "ĠAustralians": 3707,
      "ĠCharl": 3708,
      "Ġdaughter": 3709,
      "Ġpath": 3710,
      "ĠTurn": 3711,
      "ils": 3712,
      "omer": 3713,
      "ĠLong": 3714,
      "ĠJam": 3715,
      "ĠKn": 3716,
      "Ġroom": 3717,
      "izing": 3718,
      "Ġdefend": 3719,
      "Ġextended": 3720,
      "Ġartist": 3721,
      "Ġbelow": 3722,
      "Ġgreatest": 3723,
      "Ġfigure": 3724,
      "Ġtraditional": 3725,
      "force": 3726,
      "Ġcasualties": 3727,
      "cer": 3728,
      "ien": 3729,
      "lers": 3730,
      "like": 3731,
      "enon": 3732,
      "Ġbox": 3733,
      "Ġbatter": 3734,
      "Ġpurs": 3735,
      "Ġnative": 3736,
      "ifa": 3737,
      "Ġsev": 3738,
      "ishop": 3739,
      "ĠVilla": 3740,
      "peror": 3741,
      "Ġcourse": 3742,
      "ĠPolish": 3743,
      "stitute": 3744,
      "ĠMosley": 3745,
      "ĠSeveral": 3746,
      "ĠNixon": 3747,
      "car": 3748,
      "Ġess": 3749,
      "ĠAI": 3750,
      "Ġthrow": 3751,
      "ĠGo": 3752,
      "ĠLady": 3753,
      "ipal": 3754,
      "iple": 3755,
      "rael": 3756,
      "Ġcontrovers": 3757,
      "Ġconfir": 3758,
      "Ġtracks": 3759,
      "Ġinitial": 3760,
      "ĠMichigan": 3761,
      "Ġculture": 3762,
      "ĠParty": 3763,
      "onna": 3764,
      "lement": 3765,
      "ĠSix": 3766,
      "ellig": 3767,
      "Ġinches": 3768,
      "Ġuses": 3769,
      "Ġenj": 3770,
      "Ġimage": 3771,
      "Ġprep": 3772,
      "Ġshell": 3773,
      "Ġcarry": 3774,
      "Ġconfl": 3775,
      "Ġphot": 3776,
      "Ġmarked": 3777,
      "Ġstandard": 3778,
      "Ġsituation": 3779,
      "Ġaudience": 3780,
      "Ġmachine": 3781,
      "ĠBusch": 3782,
      "Ġheavily": 3783,
      "Ġsal": 3784,
      "itch": 3785,
      "Ġmor": 3786,
      "Ġreally": 3787,
      "Ġthings": 3788,
      "ushed": 3789,
      "Ġselected": 3790,
      "ĠAlice": 3791,
      "Ġ1993": 3792,
      "Ġwriters": 3793,
      "Ġmetal": 3794,
      "ĠFranc": 3795,
      "Ġrefused": 3796,
      "Ġattempts": 3797,
      "Ġmarried": 3798,
      "Ġsomething": 3799,
      "ĠSomers": 3800,
      "Ġcollection": 3801,
      "Ġinformation": 3802,
      "Ġpurp": 3803,
      "ares": 3804,
      "hold": 3805,
      "house": 3806,
      "ĠTw": 3807,
      "ĠTenn": 3808,
      "uries": 3809,
      "ĠLiver": 3810,
      "Ġang": 3811,
      "ĠEmp": 3812,
      "arts": 3813,
      "Ġlands": 3814,
      "ĠChristmas": 3815,
      "ĠTex": 3816,
      "Ġarchit": 3817,
      "Ġcathedral": 3818,
      "ĠHaifa": 3819,
      "rical": 3820,
      "tation": 3821,
      "Ġcrowd": 3822,
      "adium": 3823,
      "ĠMey": 3824,
      "ĠBoth": 3825,
      "ims": 3826,
      "Ġstating": 3827,
      "Ġ39": 3828,
      "Ġcomposed": 3829,
      "Ġrecover": 3830,
      "Ġsecurity": 3831,
      "Ġblood": 3832,
      "ĠAdm": 3833,
      "Ġprotect": 3834,
      "Ġpowerful": 3835,
      "ĠSeries": 3836,
      "ĠSomerset": 3837,
      "kin": 3838,
      "uit": 3839,
      "onic": 3840,
      "Ġsaf": 3841,
      "atre": 3842,
      "Ġpick": 3843,
      "Ġhusband": 3844,
      "Ġnecess": 3845,
      "ĠMill": 3846,
      "ether": 3847,
      "cend": 3848,
      "ĠNations": 3849,
      "ria": 3850,
      "ĠChina": 3851,
      "Ġincor": 3852,
      "Ġinside": 3853,
      "ĠIsrael": 3854,
      "ĠCenter": 3855,
      "Ġfriends": 3856,
      "ĠCarolina": 3857,
      "ĠCollege": 3858,
      "ĠSoviet": 3859,
      "een": 3860,
      "isl": 3861,
      "ĠAre": 3862,
      "ĠTheir": 3863,
      "aped": 3864,
      "Ġresulted": 3865,
      "Ġ1996": 3866,
      "Ġ1997": 3867,
      "Ġhighly": 3868,
      "Ġpresented": 3869,
      "ĠClub": 3870,
      "ĠSecond": 3871,
      "Ġsource": 3872,
      "Ġterritory": 3873,
      "ĠGalvest": 3874,
      "Ġconcluded": 3875,
      "ĠLiverpool": 3876,
      "ĠGalveston": 3877,
      "Ġborder": 3878,
      "Ġdyn": 3879,
      "Ġscul": 3880,
      "Ġtext": 3881,
      "ĠSea": 3882,
      "Ġconstit": 3883,
      "Ġservices": 3884,
      "ĠHighway": 3885,
      "Ġresponsible": 3886,
      "Ġir": 3887,
      "Ġtax": 3888,
      "ese": 3889,
      "ĠIll": 3890,
      "ĠRam": 3891,
      "ĠForm": 3892,
      "ĠFoot": 3893,
      "ĠLos": 3894,
      "ĠJim": 3895,
      "ĠOut": 3896,
      "illed": 3897,
      "Ġdeploy": 3898,
      "anta": 3899,
      "Ġspir": 3900,
      "Ġ2016": 3901,
      "ĠAnt": 3902,
      "athan": 3903,
      "annel": 3904,
      "iami": 3905,
      "Ġcounty": 3906,
      "Ġheadquarters": 3907,
      "Ġmiddle": 3908,
      "Ġadminist": 3909,
      "Ġrespectively": 3910,
      "ĠVirginia": 3911,
      "ylvania": 3912,
      "oration": 3913,
      "andid": 3914,
      "Ġprec": 3915,
      "Ġtransl": 3916,
      "Ġcontinues": 3917,
      "Ġsixth": 3918,
      "Ġallowing": 3919,
      "Ġhands": 3920,
      "ipped": 3921,
      "ĠCorps": 3922,
      "Ġneeded": 3923,
      "Ġreduced": 3924,
      "ĠQueen": 3925,
      "ĠPenns": 3926,
      "Ġcelebr": 3927,
      "light": 3928,
      "reme": 3929,
      "enge": 3930,
      "ĠBon": 3931,
      "ĠGames": 3932,
      "ĠEr": 3933,
      "rawn": 3934,
      "Ġnumerous": 3935,
      "Ġmainly": 3936,
      "Ġcyclone": 3937,
      "ĠSmith": 3938,
      "CA": 3939,
      "II": 3940,
      "Ġbodies": 3941,
      "arrow": 3942,
      "anas": 3943,
      "Ġintern": 3944,
      "Ġmountain": 3945,
      "ĠTre": 3946,
      "ĠMiami": 3947,
      "ĠHum": 3948,
      "ulations": 3949,
      "Ġsearch": 3950,
      "essa": 3951,
      "Ġspace": 3952,
      "Ġ44": 3953,
      "Ġ51": 3954,
      "Ġscoring": 3955,
      "ĠAlkan": 3956,
      "Ġweaken": 3957,
      "Ġadvant": 3958,
      "ĠChris": 3959,
      "ĠParis": 3960,
      "Ġlevels": 3961,
      "Ġdeclared": 3962,
      "Ġpeaked": 3963,
      "Ġfigures": 3964,
      "Ġproducer": 3965,
      "Ġwounded": 3966,
      "Ġsusp": 3967,
      "ĠAlex": 3968,
      "ĠTexas": 3969,
      "mon": 3970,
      "ware": 3971,
      "Ġtask": 3972,
      "Ġsout": 3973,
      "isher": 3974,
      "roll": 3975,
      "ĠDan": 3976,
      "estival": 3977,
      "anger": 3978,
      "Ġsecret": 3979,
      "ĠArch": 3980,
      "Ġgrand": 3981,
      "Ġsymb": 3982,
      "Ġsinger": 3983,
      "Ġcountries": 3984,
      "ĠMuseum": 3985,
      "ĠJackson": 3986,
      "Ġseparate": 3987,
      "Ġcompletely": 3988,
      "ĠRosebery": 3989,
      "pole": 3990,
      "rate": 3991,
      "hew": 3992,
      "iny": 3993,
      "ening": 3994,
      "alty": 3995,
      "ĠCer": 3996,
      "ĠBec": 3997,
      "ĠBet": 3998,
      "ĠFur": 3999,
      "Ġseem": 4000,
      "Ġkick": 4001,
      "Ġmanaged": 4002,
      "Ġentr": 4003,
      "Ġ150": 4004,
      "Ġstudies": 4005,
      "Ġmarriage": 4006,
      "track": 4007,
      "Ġeducation": 4008,
      "Ġrevealed": 4009,
      "ding": 4010,
      "eds": 4011,
      "Ġcorn": 4012,
      "Ġtoday": 4013,
      "Ġhour": 4014,
      "ĠBol": 4015,
      "Ġrate": 4016,
      "Ġroy": 4017,
      "Ġattention": 4018,
      "ports": 4019,
      "Ġactive": 4020,
      "Ġblue": 4021,
      "Ġbridge": 4022,
      "Ġdistance": 4023,
      "Ġofficer": 4024,
      "Ġefforts": 4025,
      "ĠTrans": 4026,
      "Ġissues": 4027,
      "Ġsquare": 4028,
      "Ġbecomes": 4029,
      "Ġmeeting": 4030,
      "Ġcopies": 4031,
      "ĠAcad": 4032,
      "oncÃ©": 4033,
      "ĠBeyoncÃ©": 4034,
      "ka": 4035,
      "Ġiron": 4036,
      "Ġsides": 4037,
      "icient": 4038,
      "Ġbeat": 4039,
      "Ġ182": 4040,
      "Ġdispl": 4041,
      "Ġdisapp": 4042,
      "Ġactions": 4043,
      "Ġactually": 4044,
      "Ġbrown": 4045,
      "Ġvariety": 4046,
      "Ġcontrast": 4047,
      "Ġactivity": 4048,
      "Ġwidely": 4049,
      "Ġvocal": 4050,
      "while": 4051,
      "Ġcontemporary": 4052,
      "ĠScotland": 4053,
      "Ġenjoy": 4054,
      "ga": 4055,
      "gian": 4056,
      "ĠOpen": 4057,
      "Ġ1991": 4058,
      "Ġexpected": 4059,
      "Ġrespond": 4060,
      "Ġelev": 4061,
      "Ġdrum": 4062,
      "Ġrights": 4063,
      "Ġera": 4064,
      "ĠEmpire": 4065,
      "ĠPennsylvania": 4066,
      "ev": 4067,
      "uated": 4068,
      "Ġboard": 4069,
      "Ġnation": 4070,
      "ĠHM": 4071,
      "utch": 4072,
      "unic": 4073,
      "ĠFow": 4074,
      "osh": 4075,
      "oses": 4076,
      "ĠGroup": 4077,
      "ĠLi": 4078,
      "Ġuniversity": 4079,
      "ĠHead": 4080,
      "ension": 4081,
      "Ġ76": 4082,
      "Ġpeace": 4083,
      "Ġextr": 4084,
      "Ġdescribes": 4085,
      "Ġcombat": 4086,
      "Ġactivities": 4087,
      "room": 4088,
      "Ġhol": 4089,
      "ĠSir": 4090,
      "ĠWater": 4091,
      "umber": 4092,
      "Ġrule": 4093,
      "appen": 4094,
      "Ġadult": 4095,
      "Ġrecomm": 4096,
      "Ġ49": 4097,
      "Ġdise": 4098,
      "Ġdisplay": 4099,
      "Ġdemonst": 4100,
      "ĠRichmond": 4101,
      "Ġcombined": 4102,
      "ricket": 4103,
      "Ġtrees": 4104,
      "ĠSomal": 4105,
      "ĠJoseph": 4106,
      "ĠItalian": 4107,
      "och": 4108,
      "vin": 4109,
      "yc": 4110,
      "Ġwalk": 4111,
      "isation": 4112,
      "Ġthr": 4113,
      "Ġnin": 4114,
      "ĠPen": 4115,
      "ĠDam": 4116,
      "aine": 4117,
      "ĠNaz": 4118,
      "ĠLive": 4119,
      "ĠInn": 4120,
      "Ġcompos": 4121,
      "Ġability": 4122,
      "ĠAnderson": 4123,
      "Ġopportun": 4124,
      "ograph": 4125,
      "shire": 4126,
      "Ġhigher": 4127,
      "Ġslightly": 4128,
      "Ġx": 4129,
      "itness": 4130,
      "Ġple": 4131,
      "Ġpow": 4132,
      "Ġpun": 4133,
      "Ġmax": 4134,
      "ican": 4135,
      "ĠTropical": 4136,
      "ĠLit": 4137,
      "odon": 4138,
      "ĠEs": 4139,
      "essions": 4140,
      "ugby": 4141,
      "Ġmeans": 4142,
      "Ġ1992": 4143,
      "Ġcalling": 4144,
      "Ġsets": 4145,
      "Ġeffort": 4146,
      "Ġnortheast": 4147,
      "Ġgenus": 4148,
      "Ġnuclear": 4149,
      "Ġstrugg": 4150,
      "Ġproteins": 4151,
      "Ġvehic": 4152,
      "ĠBraat": 4153,
      "Ġcondoms": 4154,
      "Ġwithdraw": 4155,
      "Ġhouses": 4156,
      "Ġfederal": 4157,
      "right": 4158,
      "Ġwords": 4159,
      "Ġbene": 4160,
      "Ġpiano": 4161,
      "acher": 4162,
      "ĠBig": 4163,
      "ĠGar": 4164,
      "ĠJul": 4165,
      "Ġresidents": 4166,
      "Ġ48": 4167,
      "Ġoffensive": 4168,
      "Ġteach": 4169,
      "Ġassault": 4170,
      "Ġshowed": 4171,
      "Ġresulting": 4172,
      "arent": 4173,
      "Ġprimarily": 4174,
      "Ġquestion": 4175,
      "onents": 4176,
      "Ġmel": 4177,
      "ĠSouthern": 4178,
      "stone": 4179,
      "Ġlot": 4180,
      "Ġonto": 4181,
      "emic": 4182,
      "asty": 4183,
      "Ġtrue": 4184,
      "Ġ34": 4185,
      "Ġcontrib": 4186,
      "Ġdefence": 4187,
      "Ġinstit": 4188,
      "Ġfeaturing": 4189,
      "ĠMean": 4190,
      "Ġtypically": 4191,
      "Ġlegal": 4192,
      "Ġtermin": 4193,
      "Ġhistorical": 4194,
      "Ġofficials": 4195,
      "ĠCaptain": 4196,
      "ĠHawai": 4197,
      "ĠLouis": 4198,
      "Ġarchitect": 4199,
      "ĠMeyer": 4200,
      "ĠFowler": 4201,
      "lies": 4202,
      "town": 4203,
      "Ġwing": 4204,
      "ingu": 4205,
      "Ġhabit": 4206,
      "ĠLand": 4207,
      "rial": 4208,
      "Ġplays": 4209,
      "Ġoffer": 4210,
      "Ġquality": 4211,
      "Ġgraph": 4212,
      "Ġconcent": 4213,
      "ledge": 4214,
      "Ġowned": 4215,
      "Ġappearances": 4216,
      "Ġobserved": 4217,
      "ĠService": 4218,
      "ĠBecause": 4219,
      "BA": 4220,
      "Ġrough": 4221,
      "Ġnarr": 4222,
      "ĠBre": 4223,
      "ĠNes": 4224,
      "estic": 4225,
      "Ġrhy": 4226,
      "apo": 4227,
      "Ġsust": 4228,
      "berg": 4229,
      "Ġresc": 4230,
      "ologists": 4231,
      "Ġemot": 4232,
      "Ġinstr": 4233,
      "Ġprogress": 4234,
      "Ġtwenty": 4235,
      "Ġavoid": 4236,
      "Ġconditions": 4237,
      "Ġsexual": 4238,
      "Ġpractice": 4239,
      "Ġparents": 4240,
      "ãĥ": 4241,
      "Ġcam": 4242,
      "ĠTod": 4243,
      "Ġthous": 4244,
      "ĠMidd": 4245,
      "ols": 4246,
      "ĠWash": 4247,
      "ĠKent": 4248,
      "Ġroles": 4249,
      "Ġ52": 4250,
      "Ġrelief": 4251,
      "ocks": 4252,
      "Ġwrite": 4253,
      "Ġqual": 4254,
      "Ġalongside": 4255,
      "Ġdistinct": 4256,
      "ĠConf": 4257,
      "Ġaccepted": 4258,
      "mitted": 4259,
      "Ġinh": 4260,
      "asc": 4261,
      "Ġhair": 4262,
      "ĠChe": 4263,
      "ĠManc": 4264,
      "ĠHal": 4265,
      "ĠGreen": 4266,
      "ogue": 4267,
      "Ġscale": 4268,
      "Ġrelatively": 4269,
      "ĠRev": 4270,
      "Ġdesignated": 4271,
      "echan": 4272,
      "Ġsequence": 4273,
      "Ġstruck": 4274,
      "Ġachieved": 4275,
      "Ġsurrounding": 4276,
      "ĠRhodes": 4277,
      "ĠNicole": 4278,
      "RA": 4279,
      "bour": 4280,
      "hood": 4281,
      "ply": 4282,
      "Ġsense": 4283,
      "Ġwear": 4284,
      "arian": 4285,
      "Ġdu": 4286,
      "ĠTessa": 4287,
      "iled": 4288,
      "ĠCons": 4289,
      "ĠBu": 4290,
      "ĠWels": 4291,
      "Ġplant": 4292,
      "ĠKa": 4293,
      "send": 4294,
      "ĠStorm": 4295,
      "Ġspread": 4296,
      "Ġrecent": 4297,
      "Ġwebs": 4298,
      "Ġ65": 4299,
      "Ġseasons": 4300,
      "Ġ1994": 4301,
      "ĠAtt": 4302,
      "Ġ1986": 4303,
      "Ġorganization": 4304,
      "ĠWalpole": 4305,
      "ĠGovernment": 4306,
      "Ġancient": 4307,
      "ufact": 4308,
      "Ġsculpt": 4309,
      "Ġathlet": 4310,
      "Ġchem": 4311,
      "Ġpound": 4312,
      "Ġrear": 4313,
      "Ġlif": 4314,
      "ĠLike": 4315,
      "Ġsuc": 4316,
      "Ġ46": 4317,
      "Ġexpressed": 4318,
      "Ġartists": 4319,
      "Ġimpact": 4320,
      "Ġfamil": 4321,
      "ĠDef": 4322,
      "Ġbasis": 4323,
      "Ġelected": 4324,
      "ĠMinnes": 4325,
      "Ġtower": 4326,
      "Ġnewspaper": 4327,
      "ĠLittle": 4328,
      "ĠWashington": 4329,
      "ĠWelsh": 4330,
      "ĠMinnesota": 4331,
      "bed": 4332,
      "atch": 4333,
      "ala": 4334,
      "rol": 4335,
      "Ġmile": 4336,
      "Ġmole": 4337,
      "ĠAv": 4338,
      "ĠDist": 4339,
      "ĠThough": 4340,
      "ĠYoung": 4341,
      "Ġdefense": 4342,
      "Ġnorthwest": 4343,
      "ĠColumb": 4344,
      "Ġportion": 4345,
      "Ġsoundtrack": 4346,
      "ceeded": 4347,
      "ironment": 4348,
      "ĠAngeles": 4349,
      "ĠVietnam": 4350,
      "Ġincorpor": 4351,
      "ĠFootball": 4352,
      "Ġfaced": 4353,
      "iles": 4354,
      "ĠSar": 4355,
      "ĠCivil": 4356,
      "use": 4357,
      "ĠDou": 4358,
      "Ġchampionship": 4359,
      "ends": 4360,
      "Ġperman": 4361,
      "ĠThunder": 4362,
      "ĠYue": 4363,
      "orship": 4364,
      "Ġfounded": 4365,
      "ĠColon": 4366,
      "Ġtitled": 4367,
      "Ġorganized": 4368,
      "ĠWeek": 4369,
      "Ġmagn": 4370,
      "Ġrepresented": 4371,
      "Ġtransferred": 4372,
      "ĠIllino": 4373,
      "ĠBraathens": 4374,
      "gal": 4375,
      "rid": 4376,
      "Ġterr": 4377,
      "rect": 4378,
      "Ġsn": 4379,
      "orus": 4380,
      "itual": 4381,
      "Ġfarm": 4382,
      "ams": 4383,
      "ĠCast": 4384,
      "Ġnarrow": 4385,
      "ĠMajor": 4386,
      "utions": 4387,
      "akapo": 4388,
      "Ġprepar": 4389,
      "Ġneigh": 4390,
      "Ġspecim": 4391,
      "ĠShiva": 4392,
      "ĠSpain": 4393,
      "ĠCommon": 4394,
      "Ġmodel": 4395,
      "Ġbattles": 4396,
      "Ġauthorities": 4397,
      "ĠEarly": 4398,
      "Ġflooding": 4399,
      "Ġultimately": 4400,
      "Ġadvantage": 4401,
      "ĠManchester": 4402,
      "mark": 4403,
      "ys": 4404,
      "enant": 4405,
      "Ġinch": 4406,
      "Ġpaper": 4407,
      "Ġmis": 4408,
      "Ġmess": 4409,
      "ura": 4410,
      "Ġcoming": 4411,
      "Ġ180": 4412,
      "Ġagg": 4413,
      "Ġfloor": 4414,
      "Ġbackground": 4415,
      "Ġemph": 4416,
      "ĠCont": 4417,
      "ĠAdd": 4418,
      "Ġshortly": 4419,
      "Ġtried": 4420,
      "ĠTownsend": 4421,
      "Ġencoun": 4422,
      "iro": 4423,
      "uous": 4424,
      "Ġwild": 4425,
      "ĠHorn": 4426,
      "Ġaltern": 4427,
      "Ġalone": 4428,
      "Ġrang": 4429,
      "ĠOcean": 4430,
      "Ġintellig": 4431,
      "Ġ181": 4432,
      "Ġmovie": 4433,
      "ervation": 4434,
      "Ġreports": 4435,
      "Ġportray": 4436,
      "pedo": 4437,
      "Ġlegisl": 4438,
      "Ġaffected": 4439,
      "Ġexcav": 4440,
      "Ġpiece": 4441,
      "Ġconflict": 4442,
      "aen": 4443,
      "ping": 4444,
      "Ġwa": 4445,
      "Ġcore": 4446,
      "Ġtoward": 4447,
      "Ġmind": 4448,
      "Ġhorse": 4449,
      "ĠSen": 4450,
      "ĠSil": 4451,
      "ĠBurn": 4452,
      "ĠFleet": 4453,
      "osen": 4454,
      "Ġexhib": 4455,
      "Ġarmed": 4456,
      "irection": 4457,
      "Ġapparent": 4458,
      "Ġremark": 4459,
      "Ġrepe": 4460,
      "Ġviewers": 4461,
      "Ġdivided": 4462,
      "ĠApple": 4463,
      "Ġcannot": 4464,
      "Ġfinancial": 4465,
      "ĠAcademy": 4466,
      "Ġsales": 4467,
      "Ġcandid": 4468,
      "Ġfruit": 4469,
      "Ġmission": 4470,
      "ĠTint": 4471,
      "Ġthir": 4472,
      "Ġrat": 4473,
      "Ġcomedy": 4474,
      "oper": 4475,
      "Ġsport": 4476,
      "ĠAnn": 4477,
      "hips": 4478,
      "Ġactor": 4479,
      "ĠNews": 4480,
      "Ġoccasion": 4481,
      "ĠSpec": 4482,
      "Ġ1920": 4483,
      "Ġinfluenced": 4484,
      "Ġvocals": 4485,
      "ĠTurk": 4486,
      "Ġadopted": 4487,
      "ĠSociety": 4488,
      "ĠOttoman": 4489,
      "bon": 4490,
      "bird": 4491,
      "bitt": 4492,
      "met": 4493,
      "Ġsays": 4494,
      "Ġsister": 4495,
      "Ġfired": 4496,
      "Ġmechan": 4497,
      "ĠTik": 4498,
      "Ġreign": 4499,
      "ĠSor": 4500,
      "Ġlosing": 4501,
      "ĠCat": 4502,
      "Ġnaval": 4503,
      "adm": 4504,
      "ĠBalt": 4505,
      "idian": 4506,
      "ĠWild": 4507,
      "ĠLock": 4508,
      "Ġproved": 4509,
      "ipl": 4510,
      "eller": 4511,
      "ibr": 4512,
      "Ġ64": 4513,
      "Ġacting": 4514,
      "Ġprison": 4515,
      "ancy": 4516,
      "Ġbroken": 4517,
      "ĠBlue": 4518,
      "Ġcapture": 4519,
      "ĠSecret": 4520,
      "ĠMeyerbe": 4521,
      "ij": 4522,
      "wen": 4523,
      "Ġsac": 4524,
      "Ġfiction": 4525,
      "Ġhors": 4526,
      "ĠHorse": 4527,
      "Ġheart": 4528,
      "acks": 4529,
      "astic": 4530,
      "perial": 4531,
      "Ġmanufact": 4532,
      "Ġdoing": 4533,
      "ĠZhou": 4534,
      "Ġ1988": 4535,
      "ĠJohnson": 4536,
      "ype": 4537,
      "Ġofficially": 4538,
      "ĠClark": 4539,
      "Ġedge": 4540,
      "ĠProt": 4541,
      "ĠBarb": 4542,
      "Ġsociety": 4543,
      "ĠPortugues": 4544,
      "onymous": 4545,
      "Ġtorpedo": 4546,
      "Ġroyal": 4547,
      "Ġemphas": 4548,
      "ĠTintin": 4549,
      "ĠMeyerbeer": 4550,
      "cy": 4551,
      "kn": 4552,
      "Ġlb": 4553,
      "ela": 4554,
      "ĠLar": 4555,
      "Ġraid": 4556,
      "abama": 4557,
      "Ġ55": 4558,
      "Ġscient": 4559,
      "ĠAlabama": 4560,
      "Ġworkers": 4561,
      "Ġproduce": 4562,
      "Ġgrass": 4563,
      "Ġinvasion": 4564,
      "Ġdepart": 4565,
      "Ġtitles": 4566,
      "ĠPrince": 4567,
      "Ġbehav": 4568,
      "Ġstructures": 4569,
      "Ġearliest": 4570,
      "ĠHistor": 4571,
      "ĠTurner": 4572,
      "ĠPortuguese": 4573,
      "Åį": 4574,
      "Ġfully": 4575,
      "Ġgirl": 4576,
      "igg": 4577,
      "Ġvess": 4578,
      "Ġyellow": 4579,
      "Ġadj": 4580,
      "ĠYank": 4581,
      "ĠArg": 4582,
      "ĠMarine": 4583,
      "Ġfreeway": 4584,
      "Ġcouple": 4585,
      "Ġdoub": 4586,
      "Ġmentioned": 4587,
      "Ġdedicated": 4588,
      "gn": 4589,
      "Ġfle": 4590,
      "Ġbott": 4591,
      "acement": 4592,
      "lyt": 4593,
      "ĠBoy": 4594,
      "ĠFred": 4595,
      "ĠFour": 4596,
      "ĠOf": 4597,
      "ĠKore": 4598,
      "ovic": 4599,
      "Ġyour": 4600,
      "Ġappeal": 4601,
      "Ġattended": 4602,
      "Ġconsisted": 4603,
      "Ġdefensive": 4604,
      "airs": 4605,
      "prise": 4606,
      "Ġtypes": 4607,
      "Ġdissip": 4608,
      "Ġfast": 4609,
      "Ġpaid": 4610,
      "Ġmount": 4611,
      "Ġdut": 4612,
      "Ġnest": 4613,
      "ĠHome": 4614,
      "ĠDirect": 4615,
      "izes": 4616,
      "Ġthemes": 4617,
      "Ġprominent": 4618,
      "Ġcausing": 4619,
      "ushing": 4620,
      "ĠAssembly": 4621,
      "ĠHait": 4622,
      "ĠRecords": 4623,
      "Ġindividuals": 4624,
      "Ġillust": 4625,
      "Ġintensity": 4626,
      "Ġphysical": 4627,
      "Ġpotential": 4628,
      "Ġdismiss": 4629,
      "Ġabandoned": 4630,
      "Ġentrance": 4631,
      "eg": 4632,
      "iate": 4633,
      "lam": 4634,
      "lings": 4635,
      "Ġaid": 4636,
      "rete": 4637,
      "Ġfix": 4638,
      "ĠBook": 4639,
      "ette": 4640,
      "Ġasp": 4641,
      "ĠPit": 4642,
      "ĠPost": 4643,
      "ĠFox": 4644,
      "Ġacad": 4645,
      "ĠEngine": 4646,
      "Ġbrigade": 4647,
      "azz": 4648,
      "venue": 4649,
      "Ġsimply": 4650,
      "Ġpossibly": 4651,
      "ĠAndrew": 4652,
      "Ġpattern": 4653,
      "Ġcultural": 4654,
      "Ġkept": 4655,
      "ĠMeridian": 4656,
      "Ġmeasure": 4657,
      "Ġprotein": 4658,
      "Ġrainfall": 4659,
      "Ġdetermined": 4660,
      "ĠMeanwhile": 4661,
      "ĠNesbitt": 4662,
      "ĠIllinois": 4663,
      "ĠTikal": 4664,
      "Ã¼": 4665,
      "Ġsay": 4666,
      "Ġsand": 4667,
      "alle": 4668,
      "Ġlives": 4669,
      "Ġgained": 4670,
      "etts": 4671,
      "ĠPop": 4672,
      "Ġconver": 4673,
      "ĠOx": 4674,
      "Ġseems": 4675,
      "Ġplaces": 4676,
      "ecting": 4677,
      "Ġroll": 4678,
      "issipp": 4679,
      "athus": 4680,
      "Ġseconds": 4681,
      "Ġ120": 4682,
      "ĠBridge": 4683,
      "Ġ179": 4684,
      "ĠCommission": 4685,
      "arrison": 4686,
      "ĠMississipp": 4687,
      "Ġcriticized": 4688,
      "Ġequip": 4689,
      "Ġmanagement": 4690,
      "ĠEva": 4691,
      "Ġhomes": 4692,
      "ĠOlympic": 4693,
      "Ġdomestic": 4694,
      "che": 4695,
      "Ġast": 4696,
      "ĠSarn": 4697,
      "ĠMog": 4698,
      "ĠBh": 4699,
      "imony": 4700,
      "Ġstep": 4701,
      "Ġshape": 4702,
      "Ġunivers": 4703,
      "Ġenemy": 4704,
      "Ġenergy": 4705,
      "Ġcolor": 4706,
      "Ġenter": 4707,
      "Ġwinter": 4708,
      "Ġolder": 4709,
      "Ġauthority": 4710,
      "Ġsites": 4711,
      "Ġplanet": 4712,
      "Ġopin": 4713,
      "ĠForest": 4714,
      "Ġtournament": 4715,
      "admium": 4716,
      "lied": 4717,
      "wide": 4718,
      "Ġsen": 4719,
      "Ġpaint": 4720,
      "ication": 4721,
      "Ġdirection": 4722,
      "Ġhospital": 4723,
      "ĠSR": 4724,
      "ĠRaj": 4725,
      "ĠFey": 4726,
      "Ġchief": 4727,
      "udd": 4728,
      "ocated": 4729,
      "Ġtry": 4730,
      "ĠVan": 4731,
      "Ġ56": 4732,
      "ricult": 4733,
      "Ġformation": 4734,
      "Ġleader": 4735,
      "Ġextra": 4736,
      "Ġpassing": 4737,
      "helm": 4738,
      "Ġrequire": 4739,
      "ĠChurchill": 4740,
      "Ġforeign": 4741,
      "Ġencour": 4742,
      "ĠValley": 4743,
      "Ġdocument": 4744,
      "Ġtarget": 4745,
      "Ġcerem": 4746,
      "Ġschedul": 4747,
      "ĠMississippi": 4748,
      "da": 4749,
      "lim": 4750,
      "ux": 4751,
      "ãģ": 4752,
      "inn": 4753,
      "ĠMat": 4754,
      "Ġgrew": 4755,
      "Ġstra": 4756,
      "ĠLord": 4757,
      "Ġseek": 4758,
      "iana": 4759,
      "Ġyoun": 4760,
      "Ġcontain": 4761,
      "Ġadvert": 4762,
      "Ġattend": 4763,
      "Ġexped": 4764,
      "Ġdepth": 4765,
      "Ġbroke": 4766,
      "aha": 4767,
      "Ġpasses": 4768,
      "Ġboats": 4769,
      "Ġargued": 4770,
      "Ġkilometres": 4771,
      "Ġdisease": 4772,
      "ero": 4773,
      "orter": 4774,
      "Ġcities": 4775,
      "alions": 4776,
      "Ġhun": 4777,
      "oured": 4778,
      "enture": 4779,
      "iring": 4780,
      "Ġspl": 4781,
      "Ġspot": 4782,
      "Ġarrest": 4783,
      "Ġcharge": 4784,
      "ĠAmericans": 4785,
      "Ġartic": 4786,
      "Ġ1941": 4787,
      "Ġoperated": 4788,
      "Ġstanding": 4789,
      "Ġsuggests": 4790,
      "Ġgrowing": 4791,
      "Ġeye": 4792,
      "Ġjournal": 4793,
      "Ġenvironment": 4794,
      "ĠDemocr": 4795,
      "ĠFurther": 4796,
      "known": 4797,
      "Mont": 4798,
      "Station": 4799,
      "Ġut": 4800,
      "inem": 4801,
      "Ġsens": 4802,
      "edar": 4803,
      "Ġfung": 4804,
      "Ġfought": 4805,
      "Ġfolk": 4806,
      "ĠTri": 4807,
      "ĠTime": 4808,
      "ĠMass": 4809,
      "ulate": 4810,
      "Ġchosen": 4811,
      "orney": 4812,
      "Ġalbums": 4813,
      "Ġ1964": 4814,
      "Ġfrag": 4815,
      "ĠPerÃ³n": 4816,
      "ĠEdward": 4817,
      "Ġpromoted": 4818,
      "Ġwalls": 4819,
      "ĠDuMont": 4820,
      "ĠPlayStation": 4821,
      "ĠOperation": 4822,
      "Ġmoment": 4823,
      "Ġrejected": 4824,
      "Ġmaximum": 4825,
      "ua": 4826,
      "uge": 4827,
      "Ã¨": 4828,
      "ãĤ": 4829,
      "Ġrom": 4830,
      "Ġtur": 4831,
      "Ġwave": 4832,
      "Ġpan": 4833,
      "Ġmouth": 4834,
      "ental": 4835,
      "ĠSo": 4836,
      "ĠGall": 4837,
      "ĠGood": 4838,
      "ĠLl": 4839,
      "istry": 4840,
      "istics": 4841,
      "Ġkakapo": 4842,
      "ĠUl": 4843,
      "ĠStep": 4844,
      "Ġcontent": 4845,
      "Ġimages": 4846,
      "Ġnewly": 4847,
      "Ġinterp": 4848,
      "ĠShort": 4849,
      "Ġlanding": 4850,
      "ĠCommun": 4851,
      "Ġedition": 4852,
      "Ġkilling": 4853,
      "Ġclaims": 4854,
      "Ġreligion": 4855,
      "ĠVaranas": 4856,
      "Ġsettlement": 4857,
      "ĠTemple": 4858,
      "Ġconfirmed": 4859,
      "Ġxenon": 4860,
      "ĠSarnia": 4861,
      "ĠVaranasi": 4862,
      "pass": 4863,
      "Ġtun": 4864,
      "Ġwor": 4865,
      "isters": 4866,
      "Ġdiam": 4867,
      "ĠMatt": 4868,
      "ĠDue": 4869,
      "Ġconvers": 4870,
      "ĠField": 4871,
      "ĠLis": 4872,
      "ĠOm": 4873,
      "Ġven": 4874,
      "Ġsend": 4875,
      "Ġkg": 4876,
      "Ġcompr": 4877,
      "ĠOnce": 4878,
      "Ġweather": 4879,
      "Ġneut": 4880,
      "Ġ1985": 4881,
      "Ġbelong": 4882,
      "ĠClass": 4883,
      "ographer": 4884,
      "Ġdebuted": 4885,
      "Ġtwice": 4886,
      "Ġidentified": 4887,
      "ĠSlam": 4888,
      "Ġletter": 4889,
      "Ġreaching": 4890,
      "Ġhonor": 4891,
      "Ġindependent": 4892,
      "Ġgranted": 4893,
      "ĠBowl": 4894,
      "Ġweapons": 4895,
      "ĠMiddle": 4896,
      "Ġequipment": 4897,
      "VD": 4898,
      "upp": 4899,
      "Ġtim": 4900,
      "inated": 4901,
      "Ġfres": 4902,
      "Ġfear": 4903,
      "Ġhappen": 4904,
      "ĠCra": 4905,
      "ĠRo": 4906,
      "ĠRih": 4907,
      "unte": 4908,
      "ĠLo": 4909,
      "Ġseg": 4910,
      "alls": 4911,
      "Ġshare": 4912,
      "Ġunknown": 4913,
      "Ġweak": 4914,
      "Ġconsecutive": 4915,
      "Ġresults": 4916,
      "Ġtemple": 4917,
      "Ġlooking": 4918,
      "Ġcases": 4919,
      "Ġpieces": 4920,
      "Ġflying": 4921,
      "ĠHelms": 4922,
      "ĠRihanna": 4923,
      "atops": 4924,
      "Ġmob": 4925,
      "Ġmounted": 4926,
      "ĠSat": 4927,
      "ĠMax": 4928,
      "ayer": 4929,
      "ĠDest": 4930,
      "ĠWay": 4931,
      "aved": 4932,
      "umes": 4933,
      "ighth": 4934,
      "Ġspect": 4935,
      "ĠVen": 4936,
      "Ġrow": 4937,
      "Ġ41": 4938,
      "Ġ53": 4939,
      "Ġ57": 4940,
      "Ġremix": 4941,
      "Ġflank": 4942,
      "Ġcolony": 4943,
      "Ġtherefore": 4944,
      "Ġdoct": 4945,
      "fully": 4946,
      "Ġ1987": 4947,
      "insula": 4948,
      "Ġsupporting": 4949,
      "Ġadvanced": 4950,
      "Ġfunction": 4951,
      "Ġcouncil": 4952,
      "ĠMcCall": 4953,
      "Ġsources": 4954,
      "ĠWilhelm": 4955,
      "ĠScottish": 4956,
      "Ġeconomic": 4957,
      "Ġrapidly": 4958,
      "Ġwebsite": 4959,
      "ĠMogad": 4960,
      "ef": 4961,
      "mit": 4962,
      "more": 4963,
      "writ": 4964,
      "ishes": 4965,
      "Ġbit": 4966,
      "lection": 4967,
      "ĠAvenue": 4968,
      "ĠBBC": 4969,
      "iments": 4970,
      "unction": 4971,
      "ĠGre": 4972,
      "ĠLew": 4973,
      "ĠUs": 4974,
      "Ġcontaining": 4975,
      "Ġcontributed": 4976,
      "Ġserve": 4977,
      "ĠAnth": 4978,
      "Ġregions": 4979,
      "Ġfollows": 4980,
      "Ġsinging": 4981,
      "Ġmatter": 4982,
      "Ġreturning": 4983,
      "Ġbelieve": 4984,
      "ĠOrigin": 4985,
      "ĠMinister": 4986,
      "Ġsolo": 4987,
      "Ġincreasingly": 4988,
      "Ġscholars": 4989,
      "ĠArgent": 4990,
      "aith": 4991,
      "kare": 4992,
      "sw": 4993,
      "then": 4994,
      "Ġaired": 4995,
      "Ġahead": 4996,
      "Ġmaster": 4997,
      "Ġreact": 4998,
      "ety": 4999,
      "imore": 5000,
      "ĠJour": 5001,
      "ĠJup": 5002,
      "ĠEastern": 5003,
      "gend": 5004,
      "Ġunp": 5005,
      "Ġperfect": 5006,
      "Ġjump": 5007,
      "Ġprin": 5008,
      "ĠReview": 5009,
      "Ġsingles": 5010,
      "Ġstudent": 5011,
      "Ġguest": 5012,
      "Ġexplained": 5013,
      "Ġprojects": 5014,
      "Ġknowledge": 5015,
      "ĠMorr": 5016,
      "Ġmultiple": 5017,
      "ĠOdaen": 5018,
      "ĠRussian": 5019,
      "Ġcontrolled": 5020,
      "ĠThunderbird": 5021,
      "mun": 5022,
      "uan": 5023,
      "yr": 5024,
      "Ġsought": 5025,
      "Ġdress": 5026,
      "Ġreaction": 5027,
      "ĠDen": 5028,
      "ĠDVD": 5029,
      "ĠFA": 5030,
      "Ġrisk": 5031,
      "ĠEven": 5032,
      "ĠKir": 5033,
      "ella": 5034,
      "Ġunique": 5035,
      "Ġ43": 5036,
      "icks": 5037,
      "Ġmuseum": 5038,
      "Ġ1947": 5039,
      "Ġprotest": 5040,
      "Ġreference": 5041,
      "ĠAirport": 5042,
      "Ġanimal": 5043,
      "Ġemployed": 5044,
      "Ġlabel": 5045,
      "Ġaccompan": 5046,
      "ĠEntertain": 5047,
      "ĠOxford": 5048,
      "ĠOdaenathus": 5049,
      "la": 5050,
      "Ġtact": 5051,
      "adel": 5052,
      "ĠBir": 5053,
      "oted": 5054,
      "ĠDo": 5055,
      "Ġhere": 5056,
      "Ġorb": 5057,
      "antly": 5058,
      "ĠKar": 5059,
      "ishu": 5060,
      "ieut": 5061,
      "Ġcolumn": 5062,
      "Ġ1989": 5063,
      "ĠIndepend": 5064,
      "Ġ1942": 5065,
      "Ġdeliver": 5066,
      "Ġboat": 5067,
      "urban": 5068,
      "Ġtemperature": 5069,
      "Ġpolicy": 5070,
      "ĠInnis": 5071,
      "Ġstraight": 5072,
      "aver": 5073,
      "han": 5074,
      "erry": 5075,
      "Ġcust": 5076,
      "ĠSum": 5077,
      "stream": 5078,
      "ĠMore": 5079,
      "iance": 5080,
      "Ġherself": 5081,
      "Ġimag": 5082,
      "Ġdefin": 5083,
      "ertain": 5084,
      "Ġ1972": 5085,
      "ĠConstant": 5086,
      "Ġopposed": 5087,
      "ĠWilliams": 5088,
      "Ġcollabor": 5089,
      "Ġburied": 5090,
      "Ġdropped": 5091,
      "uzz": 5092,
      "Ġfailure": 5093,
      "Ġplatform": 5094,
      "ĠMogadishu": 5095,
      "eed": 5096,
      "Ġox": 5097,
      "Ġbud": 5098,
      "Ġpict": 5099,
      "asure": 5100,
      "Ġmic": 5101,
      "ĠSAF": 5102,
      "ĠDutch": 5103,
      "ersey": 5104,
      "ĠGreek": 5105,
      "ĠLine": 5106,
      "Ġheight": 5107,
      "Ġvo": 5108,
      "Ġspring": 5109,
      "Ġincident": 5110,
      "Ġcontact": 5111,
      "Ġcontained": 5112,
      "ĠVill": 5113,
      "Ġweight": 5114,
      "Ġ700": 5115,
      "Ġflag": 5116,
      "Ġassass": 5117,
      "Ġsupply": 5118,
      "Ġmaintained": 5119,
      "Ġ1984": 5120,
      "ancing": 5121,
      "inkel": 5122,
      "Ġguard": 5123,
      "Ġdrive": 5124,
      "ĠBefore": 5125,
      "Ġvisited": 5126,
      "Ġspeak": 5127,
      "Ġhistorian": 5128,
      "Ġorders": 5129,
      "ĠSwed": 5130,
      "ĠMcCart": 5131,
      "ĠCongress": 5132,
      "ĠDjed": 5133,
      "ĠCeres": 5134,
      "Ġhorses": 5135,
      "ĠJupiter": 5136,
      "ĠSAFE": 5137,
      "eer": 5138,
      "haps": 5139,
      "iot": 5140,
      "Ġselling": 5141,
      "Ġwitness": 5142,
      "Ġcricket": 5143,
      "Ġmales": 5144,
      "ĠSky": 5145,
      "ĠBart": 5146,
      "thur": 5147,
      "agement": 5148,
      "ĠJon": 5149,
      "Ġrating": 5150,
      "Ġrival": 5151,
      "ĠEach": 5152,
      "Ġchose": 5153,
      "Ġtrain": 5154,
      "Ġscience": 5155,
      "Ġ95": 5156,
      "ocked": 5157,
      "Ġwrites": 5158,
      "ĠConference": 5159,
      "Ġphil": 5160,
      "Ġsignificantly": 5161,
      "Ġstrike": 5162,
      "Ġcondition": 5163,
      "Ġproblem": 5164,
      "white": 5165,
      "ĠJeff": 5166,
      "Ġsustained": 5167,
      "ĠDjedkare": 5168,
      "cle": 5169,
      "cel": 5170,
      "rin": 5171,
      "ena": 5172,
      "Ġbid": 5173,
      "Ġbass": 5174,
      "ĠTim": 5175,
      "ĠTra": 5176,
      "Ġge": 5177,
      "uting": 5178,
      "ĠPre": 5179,
      "ĠDes": 5180,
      "ĠDar": 5181,
      "ĠNight": 5182,
      "ĠJur": 5183,
      "antasy": 5184,
      "Ġexcl": 5185,
      "Ġoverl": 5186,
      "ressive": 5187,
      "Ġteacher": 5188,
      "ĠArm": 5189,
      "Ġretired": 5190,
      "Ġpoly": 5191,
      "Ġ130": 5192,
      "ĠAmong": 5193,
      "Ġideas": 5194,
      "Ġgrowth": 5195,
      "Ġconnected": 5196,
      "ĠTorres": 5197,
      "Ġinjury": 5198,
      "Ġbattery": 5199,
      "ĠHMS": 5200,
      "ĠApplewhite": 5201,
      "iable": 5202,
      "ket": 5203,
      "sy": 5204,
      "Ã¶": 5205,
      "inity": 5206,
      "Ġod": 5207,
      "Ġfan": 5208,
      "Ġbank": 5209,
      "asters": 5210,
      "Ġhor": 5211,
      "Ġlaid": 5212,
      "add": 5213,
      "ĠMounted": 5214,
      "ĠHart": 5215,
      "ĠFinkel": 5216,
      "ĠGulf": 5217,
      "Ġrac": 5218,
      "ortal": 5219,
      "illo": 5220,
      "Ġdeities": 5221,
      "ĠStan": 5222,
      "ansas": 5223,
      "Ġ600": 5224,
      "Ġfamous": 5225,
      "ĠAllied": 5226,
      "Ġbelief": 5227,
      "Ġfemales": 5228,
      "Ġdeclined": 5229,
      "Ġstrik": 5230,
      "Ġsubsequent": 5231,
      "Ġburns": 5232,
      "ĠEgyptian": 5233,
      "Ġsilver": 5234,
      "ĠCroatia": 5235,
      "Ġseventh": 5236,
      "ĠDistrict": 5237,
      "ĠAddition": 5238,
      "ĠBaltimore": 5239,
      "Ġscheduled": 5240,
      "ĠFinkelstein": 5241,
      "uct": 5242,
      "Ġ+": 5243,
      "Ġoil": 5244,
      "ato": 5245,
      "ano": 5246,
      "olved": 5247,
      "ĠId": 5248,
      "ĠRail": 5249,
      "ĠGard": 5250,
      "ava": 5251,
      "Ġarms": 5252,
      "Ġresemb": 5253,
      "izations": 5254,
      "Ġnews": 5255,
      "Ġminer": 5256,
      "heless": 5257,
      "Ġreflect": 5258,
      "Ġbreeding": 5259,
      "Ġpopularity": 5260,
      "ĠSystem": 5261,
      "Ġvolume": 5262,
      "Ġnominated": 5263,
      "Ġproperty": 5264,
      "Ġprepared": 5265,
      "Ġnecessary": 5266,
      "Ġbottom": 5267,
      "fort": 5268,
      "hat": 5269,
      "ias": 5270,
      "lusion": 5271,
      "mission": 5272,
      "ridge": 5273,
      "Ġtail": 5274,
      "Ġsail": 5275,
      "Ġfict": 5276,
      "Ġboy": 5277,
      "Ġmist": 5278,
      "iced": 5279,
      "Ġdance": 5280,
      "Ġreform": 5281,
      "ĠSpr": 5282,
      "ĠMike": 5283,
      "ĠDun": 5284,
      "ĠNever": 5285,
      "ĠGord": 5286,
      "Ġcompar": 5287,
      "Ġ800": 5288,
      "Ġactors": 5289,
      "Ġ1944": 5290,
      "Ġlandfall": 5291,
      "Ġserving": 5292,
      "Ġcommonly": 5293,
      "ĠHamels": 5294,
      "Ġcreating": 5295,
      "Ġstrengthen": 5296,
      "Ġpurchased": 5297,
      "ĠCardiff": 5298,
      "ĠAdmir": 5299,
      "Le": 5300,
      "ao": 5301,
      "win": 5302,
      "heastern": 5303,
      "render": 5304,
      "Ġswe": 5305,
      "Ġwr": 5306,
      "Ġmo": 5307,
      "Ġham": 5308,
      "ĠAM": 5309,
      "Ġgain": 5310,
      "ĠBan": 5311,
      "ĠBas": 5312,
      "ider": 5313,
      "ĠHib": 5314,
      "ĠPrem": 5315,
      "ĠRy": 5316,
      "ĠRos": 5317,
      "ĠNative": 5318,
      "ĠLes": 5319,
      "Ġridge": 5320,
      "ĠEnd": 5321,
      "ĠEll": 5322,
      "ĠInstitute": 5323,
      "ĠUN": 5324,
      "ĠChild": 5325,
      "Ġunus": 5326,
      "ampion": 5327,
      "awa": 5328,
      "Ġends": 5329,
      "Ġcoal": 5330,
      "Ġconcrete": 5331,
      "Ġcreation": 5332,
      "ĠIndust": 5333,
      "Ġ1965": 5334,
      "Ġstarts": 5335,
      "Ġpasseng": 5336,
      "ashion": 5337,
      "ĠGuard": 5338,
      "Ġparliament": 5339,
      "Ġversions": 5340,
      "Ġpersonnel": 5341,
      "Ġmedical": 5342,
      "Ġfacilities": 5343,
      "Ġlosses": 5344,
      "Ġanimals": 5345,
      "Ġsemi": 5346,
      "Ġsenior": 5347,
      "ĠOmaha": 5348,
      "ieutenant": 5349,
      "bl": 5350,
      "iy": 5351,
      "rine": 5352,
      "Ġtall": 5353,
      "onent": 5354,
      "Ġouter": 5355,
      "Ġbul": 5356,
      "Ġdaily": 5357,
      "Ġhapp": 5358,
      "ĠAD": 5359,
      "ĠMov": 5360,
      "ĠBand": 5361,
      "Ġstreet": 5362,
      "Ġbeaut": 5363,
      "ĠRog": 5364,
      "ules": 5365,
      "ĠFam": 5366,
      "ĠWat": 5367,
      "ĠLiber": 5368,
      "Ġrise": 5369,
      "Ġvirt": 5370,
      "Ġchair": 5371,
      "Ġexec": 5372,
      "Ġshaped": 5373,
      "ĠUr": 5374,
      "ĠStone": 5375,
      "Ġ73": 5376,
      "Ġ1981": 5377,
      "Ġdescript": 5378,
      "Ġextensive": 5379,
      "ĠAdv": 5380,
      "Ġsystems": 5381,
      "Ġcampus": 5382,
      "Ġtrial": 5383,
      "ĠAndy": 5384,
      "Ġeffective": 5385,
      "Ġcriticism": 5386,
      "ĠKeats": 5387,
      "Ġpitched": 5388,
      "Ġregarded": 5389,
      "Ġhyd": 5390,
      "Ġslowly": 5391,
      "Ġchalleng": 5392,
      "ĠBetween": 5393,
      "ĠEntertainment": 5394,
      "OT": 5395,
      "inary": 5396,
      "Ġtheory": 5397,
      "Ġsave": 5398,
      "itable": 5399,
      "Ġpul": 5400,
      "Ġdated": 5401,
      "ĠCold": 5402,
      "Ġstations": 5403,
      "anda": 5404,
      "Ġcomes": 5405,
      "ĠKey": 5406,
      "ector": 5407,
      "Ġrecently": 5408,
      "Ġ54": 5409,
      "ansion": 5410,
      "Ġagricult": 5411,
      "ĠItaly": 5412,
      "Ġ62": 5413,
      "Ġremn": 5414,
      "Ġfilmed": 5415,
      "amese": 5416,
      "phia": 5417,
      "Ġexpanded": 5418,
      "Ġconcer": 5419,
      "Ġoccas": 5420,
      "Ġtrip": 5421,
      "Ġturns": 5422,
      "ĠSteve": 5423,
      "Ġimproved": 5424,
      "Ġnegative": 5425,
      "Ġgradually": 5426,
      "Ġoccupied": 5427,
      "Ġfrequently": 5428,
      "Ġclean": 5429,
      "Ġexperienced": 5430,
      "adelphia": 5431,
      "TC": 5432,
      "mosp": 5433,
      "rell": 5434,
      "Ġwed": 5435,
      "Ġcited": 5436,
      "Ġcadmium": 5437,
      "ĠSund": 5438,
      "Ġla": 5439,
      "ĠMem": 5440,
      "Ġgives": 5441,
      "ivity": 5442,
      "ĠLy": 5443,
      "ifying": 5444,
      "Ġunf": 5445,
      "ieval": 5446,
      "Ġroof": 5447,
      "Ġcollected": 5448,
      "Ġactress": 5449,
      "Ġsubmar": 5450,
      "Ġdistrib": 5451,
      "Ġsimple": 5452,
      "Ġsouthwest": 5453,
      "Ġcaptain": 5454,
      "Ġfinding": 5455,
      "Ġsuccessfully": 5456,
      "chers": 5457,
      "ĠVietnamese": 5458,
      "Ġdominated": 5459,
      "Ġpremi": 5460,
      "oen": 5461,
      "rum": 5462,
      "rons": 5463,
      "Ġtree": 5464,
      "ati": 5465,
      "esh": 5466,
      "Ġbats": 5467,
      "Ġdial": 5468,
      "Ġdrop": 5469,
      "ĠMD": 5470,
      "ĠMountain": 5471,
      "urches": 5472,
      "ĠBost": 5473,
      "Ġbey": 5474,
      "ĠRod": 5475,
      "ĠNorm": 5476,
      "ĠGreg": 5477,
      "ĠOh": 5478,
      "ĠInst": 5479,
      "Ġsports": 5480,
      "Ġprefer": 5481,
      "ĠMario": 5482,
      "ĠCarl": 5483,
      "Ġallows": 5484,
      "Ġparalle": 5485,
      "Ġdelay": 5486,
      "Ġsurvey": 5487,
      "Ġpromotion": 5488,
      "Ġvalue": 5489,
      "Ġletters": 5490,
      "Ġcells": 5491,
      "ĠPeople": 5492,
      "ĠMartin": 5493,
      "Ġattract": 5494,
      "ĠVictoria": 5495,
      "Ġanalysis": 5496,
      "ĠDaniel": 5497,
      "ĠToday": 5498,
      "Ġaspects": 5499,
      "Ġbudget": 5500,
      "FA": 5501,
      "oe": 5502,
      "Äĩ": 5503,
      "áĥ": 5504,
      "isy": 5505,
      "Ġdates": 5506,
      "ĠAst": 5507,
      "Ġeas": 5508,
      "ĠMur": 5509,
      "ĠBru": 5510,
      "idges": 5511,
      "ĠHy": 5512,
      "Ġstages": 5513,
      "ĠFive": 5514,
      "Ġatmosp": 5515,
      "ager": 5516,
      "Ġheard": 5517,
      "Ġring": 5518,
      "illing": 5519,
      "Ġchorus": 5520,
      "sea": 5521,
      "outs": 5522,
      "ĠAlso": 5523,
      "Ġ72": 5524,
      "Ġunderground": 5525,
      "Ġsevere": 5526,
      "Ġemperor": 5527,
      "Ġ1966": 5528,
      "Ġopera": 5529,
      "Ġpublication": 5530,
      "Ġhumans": 5531,
      "Ġengaged": 5532,
      "Ġentirely": 5533,
      "Ġproducers": 5534,
      "Ġrecognized": 5535,
      "Ġparticipated": 5536,
      "Ġliterature": 5537,
      "ĠThroughout": 5538,
      "ĠRevolution": 5539,
      "Ġbeyond": 5540,
      "bo": 5541,
      "lines": 5542,
      "ĠÎ": 5543,
      "Ġaim": 5544,
      "Ġfat": 5545,
      "Ġmig": 5546,
      "Ġdraft": 5547,
      "ĠMen": 5548,
      "lys": 5549,
      "ĠDer": 5550,
      "ĠFre": 5551,
      "ĠFriend": 5552,
      "ĠNBA": 5553,
      "Ġexecutive": 5554,
      "ips": 5555,
      "anga": 5556,
      "Ġ61": 5557,
      "anny": 5558,
      "Ġmush": 5559,
      "Ġ160": 5560,
      "Ġ164": 5561,
      "Ġexpress": 5562,
      "Ġ1939": 5563,
      "Ġarrival": 5564,
      "ĠBarrow": 5565,
      "Ġcastle": 5566,
      "Ġstopped": 5567,
      "Ġunsu": 5568,
      "Ġsettlers": 5569,
      "ĠDougl": 5570,
      "lythe": 5571,
      "ĠGordon": 5572,
      "aire": 5573,
      "hm": 5574,
      "load": 5575,
      "Ã¤": 5576,
      "Ġpal": 5577,
      "ĠAp": 5578,
      "standing": 5579,
      "Ġeth": 5580,
      "Ġegg": 5581,
      "ading": 5582,
      "ĠMot": 5583,
      "ote": 5584,
      "ĠRow": 5585,
      "ĠFestival": 5586,
      "ĠNH": 5587,
      "Ġadapt": 5588,
      "ĠOnly": 5589,
      "Ġ96": 5590,
      "Ġsubs": 5591,
      "Ġ110": 5592,
      "iversary": 5593,
      "Ġ177": 5594,
      "ĠColor": 5595,
      "Ġbattalions": 5596,
      "Ġ1918": 5597,
      "Ġphase": 5598,
      "Ġsquad": 5599,
      "Ġfavour": 5600,
      "Ġnegot": 5601,
      "ĠPhiladelphia": 5602,
      "Ġbriefly": 5603,
      "ĠUpon": 5604,
      "Ġcommissioned": 5605,
      "ĠRAAF": 5606,
      "ĠArea": 5607,
      "Ġsoutheast": 5608,
      "Ġfamilies": 5609,
      "Ġmolec": 5610,
      "Ġaccompanied": 5611,
      "Ġfictional": 5612,
      "Å¡": 5613,
      "Ġbought": 5614,
      "rog": 5615,
      "Ġlabor": 5616,
      "ĠMong": 5617,
      "lying": 5618,
      "ĠDomin": 5619,
      "ĠWork": 5620,
      "ĠNathan": 5621,
      "Ġtrying": 5622,
      "Ġcompound": 5623,
      "rug": 5624,
      "Ġoverse": 5625,
      "ĠAsia": 5626,
      "Ġdidn": 5627,
      "Ġdeaths": 5628,
      "ĠTeam": 5629,
      "Ġtreatment": 5630,
      "Ġdegree": 5631,
      "ĠBono": 5632,
      "Ġresponded": 5633,
      "burg": 5634,
      "cop": 5635,
      "ez": 5636,
      "uate": 5637,
      "ĠSus": 5638,
      "ĠCre": 5639,
      "ĠHan": 5640,
      "ĠHaven": 5641,
      "ĠWrit": 5642,
      "Ġru": 5643,
      "resp": 5644,
      "Ġseat": 5645,
      "aka": 5646,
      "usted": 5647,
      "Ġcomputer": 5648,
      "ĠAlf": 5649,
      "angers": 5650,
      "Ġfinish": 5651,
      "Ġdecline": 5652,
      "Ġdecades": 5653,
      "Ġ82": 5654,
      "Ġundert": 5655,
      "anner": 5656,
      "Ġacres": 5657,
      "Ġsecondary": 5658,
      "Ġdoor": 5659,
      "Ġcool": 5660,
      "Ġpopulations": 5661,
      "Ġadding": 5662,
      "Ġ1971": 5663,
      "Ġheaded": 5664,
      "Ġelement": 5665,
      "ĠDev": 5666,
      "Ġlasted": 5667,
      "Ġcombination": 5668,
      "Ġagreement": 5669,
      "Ġindependence": 5670,
      "Ġlearned": 5671,
      "Ġnormal": 5672,
      "Ġweakened": 5673,
      "ĠCrazy": 5674,
      "ĠLewis": 5675,
      "Ġunsuccess": 5676,
      "AC": 5677,
      "ca": 5678,
      "chen": 5679,
      "yles": 5680,
      "Ġawards": 5681,
      "Ġtheat": 5682,
      "isers": 5683,
      "arp": 5684,
      "Ġdrawn": 5685,
      "aming": 5686,
      "ĠCook": 5687,
      "ĠBull": 5688,
      "ĠBoard": 5689,
      "ĠIron": 5690,
      "Ġstret": 5691,
      "andy": 5692,
      "Ġitems": 5693,
      "iston": 5694,
      "istan": 5695,
      "ĠOp": 5696,
      "apes": 5697,
      "Ġnotable": 5698,
      "rait": 5699,
      "Ġ59": 5700,
      "Ġfinals": 5701,
      "Ġevac": 5702,
      "Ġ66": 5703,
      "Ġcenturies": 5704,
      "Ġdecre": 5705,
      "Ġ85": 5706,
      "Ġ94": 5707,
      "Ġinterchange": 5708,
      "Ġperforming": 5709,
      "Ġlongest": 5710,
      "Ġ1968": 5711,
      "Ġowners": 5712,
      "Ġvisual": 5713,
      "Ġglob": 5714,
      "Ġholding": 5715,
      "ĠPalest": 5716,
      "Ġbegun": 5717,
      "ĠCoast": 5718,
      "Ġexisting": 5719,
      "Ġpilot": 5720,
      "Ġnucleus": 5721,
      "Ġroughly": 5722,
      "chest": 5723,
      "iations": 5724,
      "Ġi": 5725,
      "Ġaer": 5726,
      "Ġopt": 5727,
      "Ġfit": 5728,
      "Ġfellow": 5729,
      "Ġpet": 5730,
      "Ġdata": 5731,
      "Ġhired": 5732,
      "ĠAri": 5733,
      "ĠAthlet": 5734,
      "ĠMel": 5735,
      "Ġbeach": 5736,
      "Ġisol": 5737,
      "ĠDis": 5738,
      "Ġnothing": 5739,
      "Ġperhaps": 5740,
      "ropri": 5741,
      "Ġaccident": 5742,
      "Ġsetting": 5743,
      "Ġreceiving": 5744,
      "Ġ1975": 5745,
      "Ġinscript": 5746,
      "Ġrestaur": 5747,
      "Ġworldwide": 5748,
      "Ġpossibility": 5749,
      "Ġstoryline": 5750,
      "ographic": 5751,
      "Ġimportance": 5752,
      "ĠAbu": 5753,
      "Ġinvolvement": 5754,
      "Ġelimin": 5755,
      "Ġfinds": 5756,
      "Ġcougar": 5757,
      "ĠMagazine": 5758,
      "ĠCrown": 5759,
      "Ġfocused": 5760,
      "Ġreinforce": 5761,
      "Ġpermanent": 5762,
      "Ġfresh": 5763,
      "ĠThunderbirds": 5764,
      "Ġphilos": 5765,
      "ĠDouglas": 5766,
      "Ġfox": 5767,
      "Ġtomb": 5768,
      "rot": 5769,
      "ĠSub": 5770,
      "Ġlane": 5771,
      "ĠCle": 5772,
      "ĠCrit": 5773,
      "ĠCub": 5774,
      "ĠCole": 5775,
      "ads": 5776,
      "lywood": 5777,
      "ĠBeck": 5778,
      "ĠRol": 5779,
      "ĠDown": 5780,
      "ĠGi": 5781,
      "ĠLu": 5782,
      "Ġchoice": 5783,
      "rupt": 5784,
      "Ġapplic": 5785,
      "Ġcommittee": 5786,
      "Ġconsists": 5787,
      "Ġdecade": 5788,
      "Ġ81": 5789,
      "Ġfilming": 5790,
      "Ġprotagon": 5791,
      "espread": 5792,
      "ĠProv": 5793,
      "Ġpropos": 5794,
      "Ġlaws": 5795,
      "Ġassociation": 5796,
      "Ġcurrently": 5797,
      "Ġregarding": 5798,
      "Ġreasons": 5799,
      "borough": 5800,
      "ĠGovernor": 5801,
      "Ã¡nh": 5802,
      "Ġexclus": 5803,
      "bar": 5804,
      "iences": 5805,
      "rig": 5806,
      "Ġtrou": 5807,
      "inal": 5808,
      "reets": 5809,
      "eda": 5810,
      "atus": 5811,
      "itan": 5812,
      "ingly": 5813,
      "Ġload": 5814,
      "ĠCa": 5815,
      "Ġnor": 5816,
      "ĠMu": 5817,
      "Ġgreen": 5818,
      "ĠRon": 5819,
      "ĠRox": 5820,
      "ĠWall": 5821,
      "ĠJac": 5822,
      "Ġrif": 5823,
      "ĠKang": 5824,
      "ĠKenn": 5825,
      "Ġarc": 5826,
      "aret": 5827,
      "wealth": 5828,
      "Ġcommit": 5829,
      "ublin": 5830,
      "Ġemp": 5831,
      "Ġdeveloping": 5832,
      "Ġdistrict": 5833,
      "ĠIsab": 5834,
      "ĠJuan": 5835,
      "Ġcourts": 5836,
      "Ġsentence": 5837,
      "ĠProject": 5838,
      "Ġmyth": 5839,
      "Ġroads": 5840,
      "Ġsurviv": 5841,
      "Ġprograms": 5842,
      "Ġhousehold": 5843,
      "Ġcollege": 5844,
      "Ġvolunte": 5845,
      "Ġrebu": 5846,
      "ĠFinal": 5847,
      "Ġexistence": 5848,
      "Ġescape": 5849,
      "ĠMacLe": 5850,
      "Ġfirm": 5851,
      "Ġpurpose": 5852,
      "Ġadministration": 5853,
      "Ġenjoyed": 5854,
      "Ġintelligence": 5855,
      "ĠTurkish": 5856,
      "lik": 5857,
      "mes": 5858,
      "Ġsom": 5859,
      "ĠChel": 5860,
      "ĠBor": 5861,
      "imet": 5862,
      "Ġstream": 5863,
      "ĠRay": 5864,
      "ĠLuc": 5865,
      "ĠJones": 5866,
      "Ġnote": 5867,
      "ĠChap": 5868,
      "Ġcomposition": 5869,
      "Ġcontest": 5870,
      "iege": 5871,
      "Ġroutes": 5872,
      "Ġ71": 5873,
      "ilding": 5874,
      "ĠMarines": 5875,
      "Ġsole": 5876,
      "hess": 5877,
      "Ġsupplies": 5878,
      "Ġcalls": 5879,
      "Ġinvited": 5880,
      "Ġextrem": 5881,
      "Ġprovides": 5882,
      "Ġdistingu": 5883,
      "Ġanything": 5884,
      "Ġ1914": 5885,
      "Ġserves": 5886,
      "Ġturning": 5887,
      "Ġgreatly": 5888,
      "Ġcrossing": 5889,
      "Ġruled": 5890,
      "ĠKhÃ¡nh": 5891,
      "ĠCommander": 5892,
      "Ġpainting": 5893,
      "Ġchapel": 5894,
      "Ġcolonial": 5895,
      "Ġtells": 5896,
      "Ġathletes": 5897,
      "Ġrepeated": 5898,
      "ĠColorado": 5899,
      "GN": 5900,
      "born": 5901,
      "set": 5902,
      "yson": 5903,
      "erted": 5904,
      "Ġsle": 5905,
      "Ġfilled": 5906,
      "isf": 5907,
      "Ġdry": 5908,
      "ĠTru": 5909,
      "ĠAer": 5910,
      "omp": 5911,
      "Ġneck": 5912,
      "ĠBaby": 5913,
      "irls": 5914,
      "utation": 5915,
      "ĠPers": 5916,
      "ĠDublin": 5917,
      "ĠObs": 5918,
      "Ġcomic": 5919,
      "opher": 5920,
      "ewhere": 5921,
      "Ġchurches": 5922,
      "Ġplanning": 5923,
      "essed": 5924,
      "sey": 5925,
      "Ġspons": 5926,
      "Ġ77": 5927,
      "Ġconsp": 5928,
      "ooking": 5929,
      "Ġneither": 5930,
      "Ġcapable": 5931,
      "Ġbranch": 5932,
      "Ġ1973": 5933,
      "Ġ250": 5934,
      "Ġoldest": 5935,
      "Ġopposition": 5936,
      "Ġbasket": 5937,
      "Ġviewed": 5938,
      "ĠSongs": 5939,
      "Ġcorrect": 5940,
      "ĠEvita": 5941,
      "Ġaccompl": 5942,
      "Ġmassive": 5943,
      "Ġsynt": 5944,
      "Ġpoetry": 5945,
      "Ġconsisting": 5946,
      "Ġsymbol": 5947,
      "Ġconverted": 5948,
      "Ġpaintings": 5949,
      "come": 5950,
      "rang": 5951,
      "Ġign": 5952,
      "Ġtend": 5953,
      "aton": 5954,
      "Ġfaith": 5955,
      "Ġthing": 5956,
      "ĠSound": 5957,
      "amy": 5958,
      "ĠHomer": 5959,
      "ĠRome": 5960,
      "ĠRidge": 5961,
      "ĠWind": 5962,
      "ĠLieutenant": 5963,
      "ĠIng": 5964,
      "ighter": 5965,
      "Ġapplied": 5966,
      "Ġenl": 5967,
      "Ġfinishing": 5968,
      "Ġcharges": 5969,
      "Ġassemb": 5970,
      "Ġsubstant": 5971,
      "Ġmoves": 5972,
      "ĠScience": 5973,
      "ĠJoe": 5974,
      "Ġreceive": 5975,
      "Ġ1943": 5976,
      "Ġ1969": 5977,
      "Ġheads": 5978,
      "Ġ1936": 5979,
      "Ġprotection": 5980,
      "Ġauthors": 5981,
      "Ġclubs": 5982,
      "Ġislands": 5983,
      "Ġwidespread": 5984,
      "Ġtechnique": 5985,
      "ĠBoise": 5986,
      "ĠWalter": 5987,
      "Ġviolence": 5988,
      "ĠOffice": 5989,
      "Ġbillion": 5990,
      "Ġchapter": 5991,
      "Ġcalc": 5992,
      "ĠStudios": 5993,
      "hetic": 5994,
      "ĠLiu": 5995,
      "Ġvehicles": 5996,
      "Ġopinion": 5997,
      "ĠBoston": 5998,
      "ĠInstead": 5999,
      "30": 6000,
      "BS": 6001,
      "laim": 6002,
      "rel": 6003,
      "aser": 6004,
      "ilton": 6005,
      "ĠCop": 6006,
      "ĠMod": 6007,
      "iday": 6008,
      "ivered": 6009,
      "ĠNick": 6010,
      "osa": 6011,
      "ĠGA": 6012,
      "ĠJud": 6013,
      "abil": 6014,
      "Ġchannel": 6015,
      "Ġresist": 6016,
      "Ġreserv": 6017,
      "Ġreconst": 6018,
      "ĠAlbum": 6019,
      "ibbe": 6020,
      "attle": 6021,
      "ĠArthur": 6022,
      "Ġsupposed": 6023,
      "ĠSha": 6024,
      "Ġfoundation": 6025,
      "Ġ1945": 6026,
      "Ġ1946": 6027,
      "Ġgovernor": 6028,
      "ĠBroad": 6029,
      "Ġintroduction": 6030,
      "ÃŃa": 6031,
      "Ġclosely": 6032,
      "Ġmissing": 6033,
      "Ġeconomy": 6034,
      "Ġdrama": 6035,
      "Ġsculpture": 6036,
      "ibrary": 6037,
      "Ġdissipated": 6038,
      "ĠMacLeod": 6039,
      "à¸": 6040,
      "Ġerr": 6041,
      "Ġcaught": 6042,
      "Ġfashion": 6043,
      "Ġdrew": 6044,
      "entially": 6045,
      "ĠTheatre": 6046,
      "iration": 6047,
      "ĠHard": 6048,
      "Ġstore": 6049,
      "ĠPublic": 6050,
      "eman": 6051,
      "Ġaltar": 6052,
      "ĠFar": 6053,
      "ĠLenn": 6054,
      "agre": 6055,
      "Ġrural": 6056,
      "apers": 6057,
      "ĠVideo": 6058,
      "okes": 6059,
      "Ġresident": 6060,
      "ĠAli": 6061,
      "Ġimpr": 6062,
      "rence": 6063,
      "aware": 6064,
      "Ġflights": 6065,
      "Ġvert": 6066,
      "Ġsoft": 6067,
      "Ġdowntown": 6068,
      "Ġ1974": 6069,
      "Ġ1978": 6070,
      "Ġairport": 6071,
      "Ġeditor": 6072,
      "Ġtowns": 6073,
      "Ġskin": 6074,
      "Ġhistoric": 6075,
      "idden": 6076,
      "ĠBraz": 6077,
      "Ġdollar": 6078,
      "Ġacquired": 6079,
      "Ġdigital": 6080,
      "ĠCambod": 6081,
      "ĠTennyson": 6082,
      "Ġterminus": 6083,
      "ĠCommonwealth": 6084,
      "ĠShortly": 6085,
      "pson": 6086,
      "Ġton": 6087,
      "inj": 6088,
      "erc": 6089,
      "Ġsan": 6090,
      "Ġcit": 6091,
      "Ġcateg": 6092,
      "Ġfuel": 6093,
      "Ġdin": 6094,
      "Ġdog": 6095,
      "stances": 6096,
      "acity": 6097,
      "ĠMic": 6098,
      "ĠBrian": 6099,
      "ĠBlythe": 6100,
      "ĠIGN": 6101,
      "ĠHin": 6102,
      "usal": 6103,
      "ĠDream": 6104,
      "agle": 6105,
      "ĠJes": 6106,
      "ĠJain": 6107,
      "ichol": 6108,
      "Ġjack": 6109,
      "ropol": 6110,
      "Ġ98": 6111,
      "Ġmonument": 6112,
      "Ġ1967": 6113,
      "Ġproviding": 6114,
      "Ġstrateg": 6115,
      "Ġ1952": 6116,
      "Ġviews": 6117,
      "Ġiniti": 6118,
      "Ġdelivered": 6119,
      "ipping": 6120,
      "ĠPerry": 6121,
      "Ġspeaking": 6122,
      "Ġcompetitions": 6123,
      "Ġsurvived": 6124,
      "Ġsufficient": 6125,
      "Ġmotion": 6126,
      "Ġestablishment": 6127,
      "Ġarchaeological": 6128,
      "Ġopportunity": 6129,
      "Ġbenef": 6130,
      "ĠColonel": 6131,
      "Ġsplit": 6132,
      "ĠAnthony": 6133,
      "ĠPremier": 6134,
      "respond": 6135,
      "ii": 6136,
      "Ġhyp": 6137,
      "amm": 6138,
      "ador": 6139,
      "uration": 6140,
      "Ġgas": 6141,
      "estone": 6142,
      "Ġrich": 6143,
      "Ġpros": 6144,
      "Ġplum": 6145,
      "ĠUlys": 6146,
      "iously": 6147,
      "ĠAnonymous": 6148,
      "Ġ87": 6149,
      "Ġgameplay": 6150,
      "ĠMarl": 6151,
      "Ġgoes": 6152,
      "ĠCaribbe": 6153,
      "Ġ1919": 6154,
      "Ġdetails": 6155,
      "Ġtries": 6156,
      "Ġcrimin": 6157,
      "Ġtypical": 6158,
      "Ġreplace": 6159,
      "ĠAbout": 6160,
      "Ġdestroyers": 6161,
      "Äģda": 6162,
      "Ġvalley": 6163,
      "Ġmissions": 6164,
      "Ġassistance": 6165,
      "Ġconcerns": 6166,
      "Ġderived": 6167,
      "ĠJamal": 6168,
      "Ġinstrument": 6169,
      "ĠHornung": 6170,
      "Ġastron": 6171,
      "sych": 6172,
      "ĠUlysses": 6173,
      "tty": 6174,
      "war": 6175,
      "ini": 6176,
      "Ġsort": 6177,
      "Ġcrop": 6178,
      "itors": 6179,
      "Ġmort": 6180,
      "Ġdrug": 6181,
      "ĠCD": 6182,
      "uma": 6183,
      "rier": 6184,
      "ĠStadium": 6185,
      "Ġtruth": 6186,
      "ogen": 6187,
      "Ġrob": 6188,
      "Ġrose": 6189,
      "Ġdescend": 6190,
      "Ġsecure": 6191,
      "formation": 6192,
      "ĠLeon": 6193,
      "Ġlocations": 6194,
      "Ġtransit": 6195,
      "Ġ1976": 6196,
      "Ġinstruct": 6197,
      "Ġlanded": 6198,
      "ĠCommittee": 6199,
      "cliff": 6200,
      "Ġcommanded": 6201,
      "iece": 6202,
      "Ġrenamed": 6203,
      "Ġfunding": 6204,
      "Ġdenied": 6205,
      "Ġremainder": 6206,
      "Ġinnings": 6207,
      "Ġintersection": 6208,
      "ĠFrancisc": 6209,
      "Ġoccasionally": 6210,
      "ĠAdditionally": 6211,
      "Ġwedding": 6212,
      "ĠCaribbean": 6213,
      "gie": 6214,
      "hi": 6215,
      "iar": 6216,
      "ym": 6217,
      "Ġwars": 6218,
      "Ġmut": 6219,
      "Ġdating": 6220,
      "amin": 6221,
      "ĠMTV": 6222,
      "Ġones": 6223,
      "ĠBern": 6224,
      "ĠIgu": 6225,
      "ĠPagan": 6226,
      "Ġwhy": 6227,
      "Ġconsequ": 6228,
      "ĠJay": 6229,
      "Ġrub": 6230,
      "ĠOreg": 6231,
      "iful": 6232,
      "quake": 6233,
      "Ġshared": 6234,
      "ĠStarr": 6235,
      "ĠChains": 6236,
      "Ġattached": 6237,
      "mann": 6238,
      "Ġknew": 6239,
      "Ġinteract": 6240,
      "Ġgrav": 6241,
      "ĠLee": 6242,
      "Ġstudied": 6243,
      "ĠPhill": 6244,
      "Ġwatched": 6245,
      "ĠExp": 6246,
      "ĠTownship": 6247,
      "Ġcertified": 6248,
      "Ġproducing": 6249,
      "Ġseparated": 6250,
      "ĠImperial": 6251,
      "Ġshooting": 6252,
      "Ġsections": 6253,
      "Ġsafety": 6254,
      "Ġsucceeded": 6255,
      "ĠOregon": 6256,
      "know": 6257,
      "var": 6258,
      "Ġurban": 6259,
      "Ġtied": 6260,
      "Ġaware": 6261,
      "Ġsun": 6262,
      "ĠAge": 6263,
      "elve": 6264,
      "Ġgal": 6265,
      "ĠBul": 6266,
      "ĠBond": 6267,
      "ĠDota": 6268,
      "ĠERA": 6269,
      "Ġselect": 6270,
      "allow": 6271,
      "ears": 6272,
      "ells": 6273,
      "Ġshel": 6274,
      "Ġentering": 6275,
      "Ġsurrender": 6276,
      "Ġdisturb": 6277,
      "Ġ1953": 6278,
      "Ġ1916": 6279,
      "Ġ1917": 6280,
      "Ġprotected": 6281,
      "Ġcamps": 6282,
      "psons": 6283,
      "ĠPhoen": 6284,
      "Ġconvoy": 6285,
      "ĠSimpsons": 6286,
      "Ġcorrespond": 6287,
      "Ġsquadron": 6288,
      "Ġtechnology": 6289,
      "Ġpitch": 6290,
      "Ġmotor": 6291,
      "ĠMoz": 6292,
      "Ġjourney": 6293,
      "Ġcredited": 6294,
      "Ġthousands": 6295,
      "ĠHibari": 6296,
      "VN": 6297,
      "break": 6298,
      "de": 6299,
      "tav": 6300,
      "ona": 6301,
      "oral": 6302,
      "Ġfair": 6303,
      "Ġha": 6304,
      "ĠAston": 6305,
      "Ġlob": 6306,
      "ĠIra": 6307,
      "ĠRio": 6308,
      "ĠInc": 6309,
      "aked": 6310,
      "pping": 6311,
      "Ġexact": 6312,
      "ribed": 6313,
      "Ġdefined": 6314,
      "Ġaddress": 6315,
      "Ġrevolution": 6316,
      "Ġ1963": 6317,
      "ĠWhat": 6318,
      "ĠPrinc": 6319,
      "Ġreplacement": 6320,
      "Ġbasic": 6321,
      "Ġfields": 6322,
      "ĠRomani": 6323,
      "Ġglass": 6324,
      "Ġbaseball": 6325,
      "Ġpenalty": 6326,
      "ĠOde": 6327,
      "Ġapart": 6328,
      "ĠOslo": 6329,
      "ĠGolden": 6330,
      "Ġimmig": 6331,
      "ĠMountains": 6332,
      "ĠDirector": 6333,
      "Ġdismissed": 6334,
      "Ġacademic": 6335,
      "ĠSummer": 6336,
      "ĠSunday": 6337,
      "ĠBrazil": 6338,
      "rations": 6339,
      "ÅĤ": 6340,
      "Ġtal": 6341,
      "Ġwick": 6342,
      "Ġwins": 6343,
      "amber": 6344,
      "ĠMah": 6345,
      "ĠBishop": 6346,
      "ĠHell": 6347,
      "Ġstem": 6348,
      "ĠRÃ©": 6349,
      "ĠFel": 6350,
      "ĠLess": 6351,
      "ĠJersey": 6352,
      "Ġsud": 6353,
      "Ġcho": 6354,
      "acked": 6355,
      "ĠStew": 6356,
      "Ġnoting": 6357,
      "Ġlegend": 6358,
      "ĠAlan": 6359,
      "Ġ69": 6360,
      "Ġsecured": 6361,
      "Ġdecor": 6362,
      "Ġ97": 6363,
      "Ġcolour": 6364,
      "Ġdepict": 6365,
      "Ġ112": 6366,
      "Ġleads": 6367,
      "Ġ1979": 6368,
      "Ġmoder": 6369,
      "Ġ1915": 6370,
      "ĠQedar": 6371,
      "Ġclassified": 6372,
      "Ġexplos": 6373,
      "Ġcrime": 6374,
      "ivalent": 6375,
      "Ġwindow": 6376,
      "ĠSimone": 6377,
      "Ġgetting": 6378,
      "Ġtechnical": 6379,
      "Ġcircum": 6380,
      "Ġcreator": 6381,
      "Ġtribes": 6382,
      "Ġarranged": 6383,
      "ĠHoward": 6384,
      "Ġconsiderable": 6385,
      "ĠCharlie": 6386,
      "ĠAttorney": 6387,
      "Ġportrayed": 6388,
      "ĠConstantine": 6389,
      "ĠFriends": 6390,
      "AA": 6391,
      "min": 6392,
      "ture": 6393,
      "icial": 6394,
      "entions": 6395,
      "ĠAround": 6396,
      "ĠSav": 6397,
      "ĠSnow": 6398,
      "Ġlov": 6399,
      "adow": 6400,
      "ĠMaster": 6401,
      "ĠHon": 6402,
      "ĠRun": 6403,
      "ceived": 6404,
      "ĠFantasy": 6405,
      "ĠGil": 6406,
      "aga": 6407,
      "agn": 6408,
      "rif": 6409,
      "opes": 6410,
      "Ġchance": 6411,
      "ĠUTC": 6412,
      "Ġspacing": 6413,
      "pton": 6414,
      "ĠChronic": 6415,
      "ĠVol": 6416,
      "ĠYe": 6417,
      "Ġpregn": 6418,
      "Ġcommitted": 6419,
      "issance": 6420,
      "Ġmeets": 6421,
      "Ġinterior": 6422,
      "Ġsomeone": 6423,
      "Ġquite": 6424,
      "Ġdepartment": 6425,
      "Ġdepicted": 6426,
      "Ġreception": 6427,
      "ĠConn": 6428,
      "Ġ1910": 6429,
      "Ġevening": 6430,
      "Ġways": 6431,
      "ĠWithin": 6432,
      "Ġcrosses": 6433,
      "graded": 6434,
      "ĠIslands": 6435,
      "stitution": 6436,
      "Ġwooden": 6437,
      "Ġeyes": 6438,
      "Ġconstitution": 6439,
      "Ġpowers": 6440,
      "Ġteaching": 6441,
      "ĠSecretary": 6442,
      "ĠAdmiral": 6443,
      "ĠChelsea": 6444,
      "cliffe": 6445,
      "ĠIguan": 6446,
      "LI": 6447,
      "RE": 6448,
      "eenth": 6449,
      "gÃ©": 6450,
      "vens": 6451,
      "Ġtable": 6452,
      "real": 6453,
      "Ġcrown": 6454,
      "Ġbaby": 6455,
      "Ġinland": 6456,
      "Ġdub": 6457,
      "Ġharm": 6458,
      "ĠTen": 6459,
      "ĠTop": 6460,
      "eless": 6461,
      "ĠMid": 6462,
      "ola": 6463,
      "uls": 6464,
      "Ġconference": 6465,
      "ĠWy": 6466,
      "ĠWin": 6467,
      "ĠNBC": 6468,
      "ĠGh": 6469,
      "apped": 6470,
      "ables": 6471,
      "Ġshore": 6472,
      "ources": 6473,
      "ĠChief": 6474,
      "Ġadap": 6475,
      "Ġoffers": 6476,
      "aws": 6477,
      "ĠMarsh": 6478,
      "Ġ91": 6479,
      "Ġunderw": 6480,
      "Ġregime": 6481,
      "Ġpublisher": 6482,
      "Ġhighlight": 6483,
      "Ġreputation": 6484,
      "Ġ1982": 6485,
      "Ġdescribing": 6486,
      "Ġoccurs": 6487,
      "Ġsuccessor": 6488,
      "Ġ1951": 6489,
      "Ġopponents": 6490,
      "Ġsolid": 6491,
      "Ġcrossed": 6492,
      "Äģn": 6493,
      "Ġbrothers": 6494,
      "Ġdiscussed": 6495,
      "ĠMaeda": 6496,
      "ĠHoly": 6497,
      "Ġcontroversy": 6498,
      "Ġdynasty": 6499,
      "Ġdeployed": 6500,
      "ĠColumbia": 6501,
      "ĠFreder": 6502,
      "Ġceremony": 6503,
      "Ġexpedition": 6504,
      "Ġarticle": 6505,
      "ĠStephen": 6506,
      "ĠVenus": 6507,
      "ĠMorrison": 6508,
      "ĠSpring": 6509,
      "ĠHindu": 6510,
      "mod": 6511,
      "Ã¸": 6512,
      "Ġice": 6513,
      "ora": 6514,
      "anth": 6515,
      "Ġinner": 6516,
      "Ġpuzz": 6517,
      "adal": 6518,
      "ĠMul": 6519,
      "ĠHor": 6520,
      "ĠHug": 6521,
      "Ġstones": 6522,
      "ĠDom": 6523,
      "Ġalleg": 6524,
      "ĠNC": 6525,
      "ĠLow": 6526,
      "Ġvic": 6527,
      "ardo": 6528,
      "ĠKat": 6529,
      "Ġattributed": 6530,
      "ĠArts": 6531,
      "ĠMarc": 6532,
      "Ġflu": 6533,
      "anean": 6534,
      "Ġcapacity": 6535,
      "Ġdownload": 6536,
      "ructure": 6537,
      "Ġ1956": 6538,
      "Ġ1913": 6539,
      "Ġclasses": 6540,
      "Ġpolitics": 6541,
      "Ġfranch": 6542,
      "Ġjoint": 6543,
      "ĠGeorg": 6544,
      "Ġinterested": 6545,
      "Ġcoastal": 6546,
      "Ġfacing": 6547,
      "Ġmissed": 6548,
      "glades": 6549,
      "Ġsector": 6550,
      "Ġfavorite": 6551,
      "Ġdollars": 6552,
      "ĠAlexander": 6553,
      "ĠArchae": 6554,
      "Ġthirty": 6555,
      "Ġmushroom": 6556,
      "ĠRolling": 6557,
      "Ġextremely": 6558,
      "ĠIraq": 6559,
      "OC": 6560,
      "iÄĩ": 6561,
      "nell": 6562,
      "edom": 6563,
      "Ġcard": 6564,
      "Ġbal": 6565,
      "Ġthin": 6566,
      "ĠSap": 6567,
      "amar": 6568,
      "ĠCorn": 6569,
      "ĠCape": 6570,
      "Ġeighth": 6571,
      "ĠDet": 6572,
      "ĠDaily": 6573,
      "ĠFer": 6574,
      "ĠFish": 6575,
      "ĠGram": 6576,
      "Ġ1900": 6577,
      "Ġraces": 6578,
      "istol": 6579,
      "abin": 6580,
      "ective": 6581,
      "Ġleaves": 6582,
      "Ġwealth": 6583,
      "oba": 6584,
      "Ġretreat": 6585,
      "Ġacid": 6586,
      "Ġcontinuing": 6587,
      "Ġattacking": 6588,
      "Ġgeneration": 6589,
      "Ġappearing": 6590,
      "Ġ1937": 6591,
      "Ġorganizations": 6592,
      "Ġlegs": 6593,
      "ĠBrook": 6594,
      "Ġreality": 6595,
      "ĠAbb": 6596,
      "ĠSimon": 6597,
      "Ġ1890": 6598,
      "Ġdifficulty": 6599,
      "Ġpredecess": 6600,
      "ĠMadonna": 6601,
      "Ġzone": 6602,
      "Ġrules": 6603,
      "ĠMaryland": 6604,
      "Ġforests": 6605,
      "ĠPatrick": 6606,
      "ĠRadio": 6607,
      "ĠHollywood": 6608,
      "ĠCroatian": 6609,
      "ĠSurv": 6610,
      "Ġmethods": 6611,
      "unicipal": 6612,
      "Ġrecommended": 6613,
      "ĠPeninsula": 6614,
      "Ġrhyth": 6615,
      "Ġyounger": 6616,
      "Ġworst": 6617,
      "ĠAML": 6618,
      "Ġpassengers": 6619,
      "ĠTruj": 6620,
      "aug": 6621,
      "dal": 6622,
      "nest": 6623,
      "ois": 6624,
      "theless": 6625,
      "wise": 6626,
      "ycl": 6627,
      "Ġsession": 6628,
      "ori": 6629,
      "orters": 6630,
      "itled": 6631,
      "Ġpy": 6632,
      "Ġpup": 6633,
      "Ġhill": 6634,
      "state": 6635,
      "Ġlic": 6636,
      "Ġec": 6637,
      "ĠBack": 6638,
      "igades": 6639,
      "ĠHung": 6640,
      "aya": 6641,
      "ĠPatt": 6642,
      "ĠWalk": 6643,
      "ĠNether": 6644,
      "ĠGully": 6645,
      "agues": 6646,
      "Ġplants": 6647,
      "ĠKil": 6648,
      "onder": 6649,
      "Ġagent": 6650,
      "Ġparties": 6651,
      "Ġaccur": 6652,
      "Ġacknow": 6653,
      "Ġnoisy": 6654,
      "Ġmaintain": 6655,
      "ĠConst": 6656,
      "Ġmedieval": 6657,
      "Ġexperiment": 6658,
      "Ġeverything": 6659,
      "encies": 6660,
      "Ġwatch": 6661,
      "Ġadmitted": 6662,
      "ĠHamilton": 6663,
      "Ġdrawing": 6664,
      "Ġresponsibility": 6665,
      "Ġveget": 6666,
      "Ġthreatened": 6667,
      "Ġnomination": 6668,
      "Ġcompletion": 6669,
      "Ġemerged": 6670,
      "ĠCambridge": 6671,
      "evo": 6672,
      "Ġninth": 6673,
      "ĠHaiti": 6674,
      "Ġdiameter": 6675,
      "ĠTrujillo": 6676,
      "oh": 6677,
      "ror": 6678,
      "onom": 6679,
      "rets": 6680,
      "Ġbes": 6681,
      "Ġbay": 6682,
      "Ġpushed": 6683,
      "Ġpsych": 6684,
      "ician": 6685,
      "ĠTs": 6686,
      "ĠTel": 6687,
      "Ġlap": 6688,
      "ĠChen": 6689,
      "Ġeu": 6690,
      "Ġgross": 6691,
      "ĠDanny": 6692,
      "ĠWars": 6693,
      "umps": 6694,
      "Ġrugby": 6695,
      "Ġvary": 6696,
      "Ġshif": 6697,
      "ipe": 6698,
      "ĠâĢĲ": 6699,
      "pty": 6700,
      "Ġarts": 6701,
      "Ġju": 6702,
      "Ġjazz": 6703,
      "Ġprey": 6704,
      "ĠAniston": 6705,
      "Ġknots": 6706,
      "Ġ88": 6707,
      "Ġdefended": 6708,
      "Ġassumed": 6709,
      "Ġwhereas": 6710,
      "Ġaccused": 6711,
      "Ġ123": 6712,
      "Ġmonarch": 6713,
      "Ġshowing": 6714,
      "Ġ1948": 6715,
      "ĠPlunk": 6716,
      "Ġapproached": 6717,
      "ĠPrime": 6718,
      "Ġconvection": 6719,
      "ĠEliz": 6720,
      "Ġnovels": 6721,
      "Ġcharts": 6722,
      "Ġsteel": 6723,
      "Ġsequel": 6724,
      "Ġaccounts": 6725,
      "Ġspecifically": 6726,
      "ĠEverglades": 6727,
      "Ġattracted": 6728,
      "ĠSamuel": 6729,
      "Ġearthquake": 6730,
      "pective": 6731,
      "Ġhotel": 6732,
      "Ġrecovered": 6733,
      "Ġemotional": 6734,
      "Ġfungus": 6735,
      "Ġunusual": 6736,
      "Ġparallel": 6737,
      "ĠRoxas": 6738,
      "Ġsudden": 6739,
      "bur": 6740,
      "Ġur": 6741,
      "Ġworth": 6742,
      "itage": 6743,
      "Ġmine": 6744,
      "Ġdie": 6745,
      "Ġhope": 6746,
      "ĠSa": 6747,
      "ĠSanta": 6748,
      "str": 6749,
      "using": 6750,
      "Ġconqu": 6751,
      "ĠFame": 6752,
      "ĠFire": 6753,
      "ĠJosh": 6754,
      "Ġvan": 6755,
      "ĠInit": 6756,
      "Ġkings": 6757,
      "ĠAsh": 6758,
      "Ġcharter": 6759,
      "Ġfollowers": 6760,
      "Ġoperating": 6761,
      "Ã©t": 6762,
      "Ġpointed": 6763,
      "Ġattempting": 6764,
      "Ġreviewer": 6765,
      "Ġdemol": 6766,
      "Ġelectric": 6767,
      "ĠStef": 6768,
      "Ġholds": 6769,
      "Ġappoint": 6770,
      "Ġimprove": 6771,
      "ĠSquare": 6772,
      "Ġexception": 6773,
      "ĠHotel": 6774,
      "Ġancest": 6775,
      "Ġfiring": 6776,
      "Ġarrangement": 6777,
      "Ġprincipal": 6778,
      "Ġleadership": 6779,
      "Ġpicked": 6780,
      "ĠRhodesian": 6781,
      "Ġduties": 6782,
      "Ġwrong": 6783,
      "iary": 6784,
      "ns": 6785,
      "pe": 6786,
      "orer": 6787,
      "Ġcens": 6788,
      "Ġbrick": 6789,
      "ĠTrib": 6790,
      "acent": 6791,
      "ĠML": 6792,
      "Ġgall": 6793,
      "igation": 6794,
      "othes": 6795,
      "ĠHere": 6796,
      "ĠRangers": 6797,
      "ĠLate": 6798,
      "ĠJos": 6799,
      "rien": 6800,
      "ĠElect": 6801,
      "Ġvision": 6802,
      "ateur": 6803,
      "Ġshut": 6804,
      "Ġtrail": 6805,
      "ĠChart": 6806,
      "Ġincome": 6807,
      "oked": 6808,
      "Ġscrap": 6809,
      "angerous": 6810,
      "Ġoutf": 6811,
      "Ġupd": 6812,
      "Ġsoil": 6813,
      "Ġentry": 6814,
      "Ġprovince": 6815,
      "Ġdesignation": 6816,
      "ossible": 6817,
      "Ġanniversary": 6818,
      "Ġapproved": 6819,
      "Ġbasin": 6820,
      "attered": 6821,
      "ĠTelevision": 6822,
      "Ġfrig": 6823,
      "ucky": 6824,
      "Ġstatement": 6825,
      "ĠStevens": 6826,
      "Ġcatch": 6827,
      "Ġseeing": 6828,
      "Ġlaunch": 6829,
      "Ġregularly": 6830,
      "Ġtreaty": 6831,
      "Ġindicate": 6832,
      "Ġlinked": 6833,
      "Ġcontroversial": 6834,
      "Ġcarrying": 6835,
      "Ġhabitat": 6836,
      "ĠYankovic": 6837,
      "ĠLisa": 6838,
      "Ġatmosphere": 6839,
      "ĠLennon": 6840,
      "ĠMozamb": 6841,
      "nic": 6842,
      "rain": 6843,
      "ta": 6844,
      "rec": 6845,
      "orous": 6846,
      "Ġfal": 6847,
      "Ġfish": 6848,
      "Ġble": 6849,
      "inger": 6850,
      "ĠTerrit": 6851,
      "ĠAk": 6852,
      "oming": 6853,
      "aments": 6854,
      "Ġnob": 6855,
      "urd": 6856,
      "Ġgather": 6857,
      "ĠHun": 6858,
      "ĠHospital": 6859,
      "ĠPress": 6860,
      "ĠRif": 6861,
      "ĠDi": 6862,
      "Ġcong": 6863,
      "osure": 6864,
      "Ġhear": 6865,
      "ĠJif": 6866,
      "apa": 6867,
      "Ġproceed": 6868,
      "abeth": 6869,
      "Ġorchest": 6870,
      "Ġexerc": 6871,
      "Ġshots": 6872,
      "Ġunn": 6873,
      "ender": 6874,
      "Ġpartners": 6875,
      "Ġoverw": 6876,
      "anges": 6877,
      "ultane": 6878,
      "Ġdesire": 6879,
      "Ġoffense": 6880,
      "Ġimpl": 6881,
      "amps": 6882,
      "Ġ63": 6883,
      "Ġregional": 6884,
      "Ġreleg": 6885,
      "Ġ121": 6886,
      "uchi": 6887,
      "Ġdepend": 6888,
      "Ġdistributed": 6889,
      "Ġ1958": 6890,
      "Ġdriving": 6891,
      "Ġvisible": 6892,
      "Ġbelieves": 6893,
      "Ġbreaking": 6894,
      "iveness": 6895,
      "Ġtwelve": 6896,
      "Ġsurviving": 6897,
      "Ġlimit": 6898,
      "ĠCalvert": 6899,
      "ĠRoberts": 6900,
      "Ġtreated": 6901,
      "Ġidentity": 6902,
      "Ġindustrial": 6903,
      "Ġcivilian": 6904,
      "Ġrailroad": 6905,
      "Ġtraveled": 6906,
      "Ġabsor": 6907,
      "ĠMilitary": 6908,
      "ĠCampb": 6909,
      "ĠBradford": 6910,
      "hews": 6911,
      "Ġrescue": 6912,
      "ĠCastle": 6913,
      "ĠEngineer": 6914,
      "ĠIsabella": 6915,
      "Ġsurvivors": 6916,
      "ĠIguanodon": 6917,
      "body": 6918,
      "ients": 6919,
      "key": 6920,
      "lan": 6921,
      "ni": 6922,
      "ooth": 6923,
      "zi": 6924,
      "á»": 6925,
      "Ġtaught": 6926,
      "Ġpage": 6927,
      "Ġpool": 6928,
      "Ġmanner": 6929,
      "Ġhall": 6930,
      "Ġhits": 6931,
      "ĠTam": 6932,
      "ĠAR": 6933,
      "iling": 6934,
      "ĠSonic": 6935,
      "Ġnone": 6936,
      "Ġnick": 6937,
      "ĠIV": 6938,
      "ivals": 6939,
      "otes": 6940,
      "Ġstadium": 6941,
      "ĠPot": 6942,
      "ĠPope": 6943,
      "osite": 6944,
      "ĠLanc": 6945,
      "Ġproport": 6946,
      "ĠStock": 6947,
      "Ġyouth": 6948,
      "Ġtra": 6949,
      "Ġ58": 6950,
      "ĠMaria": 6951,
      "Ġflo": 6952,
      "Ġfled": 6953,
      "ockey": 6954,
      "Ġdefences": 6955,
      "Ġindig": 6956,
      "Ġsym": 6957,
      "Ġminister": 6958,
      "Ġsigning": 6959,
      "Ġ1961": 6960,
      "ĠCarter": 6961,
      "Ġ1955": 6962,
      "Ġ1927": 6963,
      "intend": 6964,
      "Ġvictims": 6965,
      "Ġequal": 6966,
      "Ġdivisions": 6967,
      "Ġfalling": 6968,
      "Ġrecognition": 6969,
      "ĠDuke": 6970,
      "going": 6971,
      "ĠQueens": 6972,
      "Ġsurrounded": 6973,
      "Ġimmediate": 6974,
      "Ġblocks": 6975,
      "Ġcolonies": 6976,
      "Ġexamples": 6977,
      "ĠHistory": 6978,
      "Ġscholar": 6979,
      "Ġrarely": 6980,
      "Ġchallenge": 6981,
      "ĠWeekly": 6982,
      "Ġmessage": 6983,
      "Ġcandidate": 6984,
      "ĠSpecial": 6985,
      "Ġdocumentary": 6986,
      "Ġsynthes": 6987,
      "Ġcitiz": 6988,
      "eper": 6989,
      "rant": 6990,
      "yard": 6991,
      "zen": 6992,
      "organ": 6993,
      "Ġcinem": 6994,
      "itals": 6995,
      "Ġfaces": 6996,
      "icts": 6997,
      "Ġdock": 6998,
      "Ġdivers": 6999,
      "ĠSi": 7000,
      "otton": 7001,
      "ĠRugby": 7002,
      "ĠDNA": 7003,
      "Ġvon": 7004,
      "ewhat": 7005,
      "Ġexisted": 7006,
      "ĠKel": 7007,
      "ĠKurt": 7008,
      "Ġintention": 7009,
      "Ġcloud": 7010,
      "ube": 7011,
      "Ġaged": 7012,
      "Ġteeth": 7013,
      "ĠAnton": 7014,
      "Ġindicated": 7015,
      "Ġ122": 7016,
      "ĠLev": 7017,
      "Ġ05": 7018,
      "ajevo": 7019,
      "Ġpassage": 7020,
      "Ġ1954": 7021,
      "Ġprotests": 7022,
      "Ġdetail": 7023,
      "Ġconvin": 7024,
      "Ġcommunic": 7025,
      "Ġhistorians": 7026,
      "ĠSimilar": 7027,
      "Ġconnection": 7028,
      "ĠDepression": 7029,
      "Ġmulti": 7030,
      "Ġrailway": 7031,
      "ĠStrand": 7032,
      "ĠResear": 7033,
      "Ġhoped": 7034,
      "Ġinhabit": 7035,
      "ĠSarajevo": 7036,
      "Ġspecimens": 7037,
      "Ġratings": 7038,
      "ĠWilde": 7039,
      "Ġromantic": 7040,
      "ĠDestiny": 7041,
      "Ġconcerts": 7042,
      "Ġeggs": 7043,
      "Ġisolated": 7044,
      "ĠBeckham": 7045,
      "Ġsomewhat": 7046,
      "ĠJifna": 7047,
      "ba": 7048,
      "bles": 7049,
      "kins": 7050,
      "Ġtie": 7051,
      "Ġsed": 7052,
      "Ġske": 7053,
      "Ġwants": 7054,
      "orist": 7055,
      "Ġcry": 7056,
      "Ġcold": 7057,
      "arning": 7058,
      "ĠCory": 7059,
      "ĠBank": 7060,
      "uts": 7061,
      "ĠPower": 7062,
      "ĠPoint": 7063,
      "ĠNar": 7064,
      "osis": 7065,
      "ĠLords": 7066,
      "avia": 7067,
      "ĠInt": 7068,
      "abled": 7069,
      "Ġkits": 7070,
      "ureau": 7071,
      "Ġreserve": 7072,
      "Ġrecre": 7073,
      "Ġ79": 7074,
      "formed": 7075,
      "Ġintercept": 7076,
      "Ġmaint": 7077,
      "Ġobtained": 7078,
      "Ġwarm": 7079,
      "raph": 7080,
      "inking": 7081,
      "ennis": 7082,
      "Ġclassical": 7083,
      "ĠMuslim": 7084,
      "Ġmarks": 7085,
      "ĠOrder": 7086,
      "Ġantimony": 7087,
      "Ġframe": 7088,
      "Ġstrongly": 7089,
      "Ġcommunities": 7090,
      "Ġposted": 7091,
      "Ġdivine": 7092,
      "Ġdiscovery": 7093,
      "ĠHarry": 7094,
      "Ġsuperv": 7095,
      "Ġ1880": 7096,
      "ĠActivision": 7097,
      "Ġpractices": 7098,
      "Ġescort": 7099,
      "Ġpainted": 7100,
      "Ġfeeling": 7101,
      "Ġstayed": 7102,
      "ĠRadcliffe": 7103,
      "ĠJerusal": 7104,
      "Ġpurchase": 7105,
      "Ġbringing": 7106,
      "ĠHistoric": 7107,
      "ĠIndustry": 7108,
      "Ġdescription": 7109,
      "Ġremnants": 7110,
      "Ġeasily": 7111,
      "Ġbasketball": 7112,
      "ĠFrancisco": 7113,
      "Ġfranchise": 7114,
      "ĠJerusalem": 7115,
      "iÅ": 7116,
      "rative": 7117,
      "ya": 7118,
      "Ġtick": 7119,
      "Ġsell": 7120,
      "Ġworship": 7121,
      "Ġcul": 7122,
      "ingale": 7123,
      "Ġmart": 7124,
      "Ġdim": 7125,
      "amer": 7126,
      "Ġnav": 7127,
      "ĠBat": 7128,
      "ĠBos": 7129,
      "uses": 7130,
      "ĠPul": 7131,
      "ĠLab": 7132,
      "ĠLife": 7133,
      "ĠJun": 7134,
      "Ġvide": 7135,
      "Ġchronic": 7136,
      "Ġchampion": 7137,
      "ĠKaw": 7138,
      "Ġlearning": 7139,
      "Ġ99": 7140,
      "Ġrelie": 7141,
      "Ġflat": 7142,
      "rows": 7143,
      "Ġexpansion": 7144,
      "Ġdepos": 7145,
      "Ġ1983": 7146,
      "Ġbright": 7147,
      "Ġextension": 7148,
      "Ġ1949": 7149,
      "Ġimplement": 7150,
      "ĠClin": 7151,
      "Ġdriven": 7152,
      "Ġstands": 7153,
      "Ġstandards": 7154,
      "Ġsuffering": 7155,
      "ĠEarl": 7156,
      "Ġcirculation": 7157,
      "offman": 7158,
      "ĠGermans": 7159,
      "Ġtribute": 7160,
      "Ġterritories": 7161,
      "ĠJean": 7162,
      "Ġconcerned": 7163,
      "senal": 7164,
      "Ġwatershed": 7165,
      "Ġspirit": 7166,
      "Ġseemed": 7167,
      "ĠTransport": 7168,
      "ĠClarkson": 7169,
      "Ġlbw": 7170,
      "Ġarrested": 7171,
      "Ġhydro": 7172,
      "Ġsubmarine": 7173,
      "Ġconspir": 7174,
      "ĠFrederick": 7175,
      "cient": 7176,
      "cape": 7177,
      "wick": 7178,
      "Ã§": 7179,
      "Ġau": 7180,
      "Ġster": 7181,
      "Ġsessions": 7182,
      "Ġsiege": 7183,
      "iterr": 7184,
      "isis": 7185,
      "icop": 7186,
      "Ġhang": 7187,
      "ĠCE": 7188,
      "ĠCru": 7189,
      "ĠBang": 7190,
      "imal": 7191,
      "otic": 7192,
      "usad": 7193,
      "Ġstreak": 7194,
      "union": 7195,
      "ĠDA": 7196,
      "Ġansw": 7197,
      "agu": 7198,
      "Ġrated": 7199,
      "Ġprohib": 7200,
      "Ġvac": 7201,
      "Ġshark": 7202,
      "Ġspin": 7203,
      "ogether": 7204,
      "Ġagree": 7205,
      "teenth": 7206,
      "arked": 7207,
      "Ġ68": 7208,
      "ĠUnlike": 7209,
      "Ġ74": 7210,
      "Ġdeck": 7211,
      "Ġacts": 7212,
      "Ġretire": 7213,
      "Ġmuscar": 7214,
      "ĠShak": 7215,
      "Ġcoord": 7216,
      "Ġpoems": 7217,
      "ĠMaya": 7218,
      "ĠUSA": 7219,
      "Ġ1935": 7220,
      "ĠHergÃ©": 7221,
      "ĠDevelop": 7222,
      "Ġeffectively": 7223,
      "Ġfootage": 7224,
      "Ġchanging": 7225,
      "ombat": 7226,
      "Ġpromote": 7227,
      "ÃŃvar": 7228,
      "Ġcollaps": 7229,
      "Ġassistant": 7230,
      "Ġvoted": 7231,
      "ĠSingles": 7232,
      "Ġsettled": 7233,
      "ĠBolÃŃvar": 7234,
      "ĠSomali": 7235,
      "ĠSomalia": 7236,
      "Ġbehavi": 7237,
      "ĠKorean": 7238,
      "ĠBanai": 7239,
      "Ġagricultural": 7240,
      "Ġoverseas": 7241,
      "Ġunsuccessful": 7242,
      "Ġprotagonist": 7243,
      "Brien": 7244,
      "fare": 7245,
      "hol": 7246,
      "onica": 7247,
      "atures": 7248,
      "ashed": 7249,
      "Ġhat": 7250,
      "ĠTower": 7251,
      "Ġrect": 7252,
      "ĠSher": 7253,
      "sta": 7254,
      "amic": 7255,
      "Ġgro": 7256,
      "ĠBert": 7257,
      "oli": 7258,
      "ĠHud": 7259,
      "ĠRain": 7260,
      "emed": 7261,
      "ĠDark": 7262,
      "Ġritual": 7263,
      "uda": 7264,
      "Ġexchange": 7265,
      "ections": 7266,
      "aste": 7267,
      "Ġpartly": 7268,
      "Ġpartial": 7269,
      "Ġserial": 7270,
      "Ġ78": 7271,
      "Ġconsum": 7272,
      "Ġ89": 7273,
      "Ġretained": 7274,
      "Ġmovements": 7275,
      "Ġ175": 7276,
      "Ġcarries": 7277,
      "Ġ1977": 7278,
      "Ġairline": 7279,
      "Ġowner": 7280,
      "Ġwinner": 7281,
      "ĠForces": 7282,
      "Ġpossession": 7283,
      "Ġinvolving": 7284,
      "aska": 7285,
      "Ġgenre": 7286,
      "Ġlooked": 7287,
      "Ġreading": 7288,
      "Ġdifficulties": 7289,
      "Ġmeetings": 7290,
      "Ġsuperior": 7291,
      "Ġcloser": 7292,
      "Ġrelationships": 7293,
      "ĠMediterr": 7294,
      "Ġliterary": 7295,
      "ĠOlympics": 7296,
      "Ġbombard": 7297,
      "ĠPrior": 7298,
      "ĠJaneiro": 7299,
      "onnaissance": 7300,
      "Ġadults": 7301,
      "Ġwearing": 7302,
      "Ġincorporated": 7303,
      "Ġvessels": 7304,
      "Ġfixed": 7305,
      "Ġutil": 7306,
      "ĠArgentina": 7307,
      "ĠRyan": 7308,
      "Ġoccasions": 7309,
      "Ġadapted": 7310,
      "ĠMediterranean": 7311,
      "hl": 7312,
      "worth": 7313,
      "Ġib": 7314,
      "Ġtank": 7315,
      "heim": 7316,
      "Ġocean": 7317,
      "Ġcart": 7318,
      "itated": 7319,
      "Ġblow": 7320,
      "Ġbond": 7321,
      "Ġpric": 7322,
      "Ġmap": 7323,
      "lets": 7324,
      "entional": 7325,
      "ĠAz": 7326,
      "ĠAld": 7327,
      "illy": 7328,
      "uri": 7329,
      "urrent": 7330,
      "ĠPine": 7331,
      "ĠDC": 7332,
      "Ġalle": 7333,
      "Ġalien": 7334,
      "ctions": 7335,
      "ophy": 7336,
      "Ġexit": 7337,
      "Ġplain": 7338,
      "ĠStation": 7339,
      "ĠHearts": 7340,
      "Ġrecalled": 7341,
      "ĠAlbert": 7342,
      "Ġpreced": 7343,
      "Ġverse": 7344,
      "Ġ06": 7345,
      "Ġ07": 7346,
      "Ġpreserved": 7347,
      "Ġ162": 7348,
      "ĠSpace": 7349,
      "Ġ1911": 7350,
      "ĠGerard": 7351,
      "ĠBeat": 7352,
      "Ġreviewers": 7353,
      "Ġopposite": 7354,
      "Ġmedium": 7355,
      "ĠFlight": 7356,
      "Ġelabor": 7357,
      "Ġspeech": 7358,
      "Ġpraise": 7359,
      "Ġaccommod": 7360,
      "Ġreduce": 7361,
      "Ġinspiration": 7362,
      "Ġstationed": 7363,
      "ĠEmperor": 7364,
      "Ġabsol": 7365,
      "Ġvisitors": 7366,
      "Ġaccompany": 7367,
      "Ġinstitutions": 7368,
      "Ġcamera": 7369,
      "Ġalternative": 7370,
      "iplom": 7371,
      "uppet": 7372,
      "Ġhappened": 7373,
      "ĠIndependent": 7374,
      "ĠStanley": 7375,
      "Ġrestaurant": 7376,
      "Ġeurop": 7377,
      "ext": 7378,
      "uv": 7379,
      "Ġå": 7380,
      "Ġels": 7381,
      "Ġter": 7382,
      "Ġtack": 7383,
      "Ġtanks": 7384,
      "rep": 7385,
      "Ġsight": 7386,
      "inge": 7387,
      "ĠSup": 7388,
      "ĠCas": 7389,
      "ĠMortal": 7390,
      "Ġgone": 7391,
      "ĠBal": 7392,
      "ĠBass": 7393,
      "ĠPA": 7394,
      "ĠRel": 7395,
      "ĠRet": 7396,
      "ĠFront": 7397,
      "Ġanth": 7398,
      "ĠOt": 7399,
      "ĠKombat": 7400,
      "Ġspaces": 7401,
      "Ġafterwards": 7402,
      "weet": 7403,
      "Ġactual": 7404,
      "Ġenth": 7405,
      "Ġcrest": 7406,
      "Ġestate": 7407,
      "Ġ1962": 7408,
      "Ġcarbon": 7409,
      "Ġinstalled": 7410,
      "Ġmusicians": 7411,
      "ĠBlood": 7412,
      "Ġcharacteristics": 7413,
      "ĠAdam": 7414,
      "ĠGuy": 7415,
      "Ġhelicop": 7416,
      "Ġdetailed": 7417,
      "ĠGeoff": 7418,
      "Ġreferences": 7419,
      "Ġvictories": 7420,
      "Ġpatron": 7421,
      "Ġequipped": 7422,
      "ĠFederal": 7423,
      "Ġerected": 7424,
      "Ġimprov": 7425,
      "Ġraise": 7426,
      "Ġmeasures": 7427,
      "Ġfunds": 7428,
      "Ġgrey": 7429,
      "Ġemerg": 7430,
      "ĠBCE": 7431,
      "ĠFormula": 7432,
      "ĠGarc": 7433,
      "Ġchemical": 7434,
      "Ġspecimen": 7435,
      "ĠBurns": 7436,
      "ĠDemocratic": 7437,
      "Ġcustom": 7438,
      "ĠSkye": 7439,
      "Ġhappy": 7440,
      "ĠRoger": 7441,
      "Ġpyram": 7442,
      "Ġelsewhere": 7443,
      "ait": 7444,
      "bie": 7445,
      "hu": 7446,
      "oes": 7447,
      "Ê»": 7448,
      "Ġic": 7449,
      "Ġille": 7450,
      "inals": 7451,
      "Ġcreek": 7452,
      "Ġbed": 7453,
      "ĠTig": 7454,
      "Ġready": 7455,
      "entures": 7456,
      "Ġonline": 7457,
      "Ġgra": 7458,
      "ĠBed": 7459,
      "ĠBall": 7460,
      "ĠBureau": 7461,
      "ĠImp": 7462,
      "iders": 7463,
      "ĠPass": 7464,
      "ĠDyn": 7465,
      "agas": 7466,
      "ĠJenn": 7467,
      "ifer": 7468,
      "Ġorn": 7469,
      "anti": 7470,
      "Ġexha": 7471,
      "ocal": 7472,
      "ĠKit": 7473,
      "oven": 7474,
      "ĠChannel": 7475,
      "Ġresources": 7476,
      "Ġappropri": 7477,
      "Ġpartially": 7478,
      "Ġaftern": 7479,
      "anyon": 7480,
      "Ġextreme": 7481,
      "ĠFraser": 7482,
      "Ġ1959": 7483,
      "Ġmodified": 7484,
      "Ġannually": 7485,
      "ĠAdams": 7486,
      "Ġwilling": 7487,
      "ĠMega": 7488,
      "Ġclassic": 7489,
      "Ġstarling": 7490,
      "Ġ1921": 7491,
      "Ġclaiming": 7492,
      "ĠOrgan": 7493,
      "Ġdefeating": 7494,
      "istered": 7495,
      "ĠGeorgian": 7496,
      "Ġcoup": 7497,
      "ĠKeamy": 7498,
      "Ġarmor": 7499,
      "Ġkingdom": 7500,
      "Ġrebels": 7501,
      "Ġhosted": 7502,
      "Ġintensified": 7503,
      "ĠMontana": 7504,
      "Ġcheck": 7505,
      "ĠVictorian": 7506,
      "iques": 7507,
      "Ġdisplays": 7508,
      "Ġlegislation": 7509,
      "ĠProtest": 7510,
      "Ġadjacent": 7511,
      "Ġencouraged": 7512,
      "Ġpreferred": 7513,
      "Ġresistance": 7514,
      "Ġinitiative": 7515,
      "ĠGeorgia": 7516,
      "Ġrhythm": 7517,
      "ĠElizabeth": 7518,
      "ĠClinton": 7519,
      "Ġalleged": 7520,
      "ugh": 7521,
      "à¤": 7522,
      "Ġtone": 7523,
      "Ġwrest": 7524,
      "Ġow": 7525,
      "aten": 7526,
      "arth": 7527,
      "Ġinaug": 7528,
      "Ġpure": 7529,
      "Ġdens": 7530,
      "Ġhip": 7531,
      "lete": 7532,
      "ĠAP": 7533,
      "ilation": 7534,
      "ĠSand": 7535,
      "Ġloy": 7536,
      "ĠMir": 7537,
      "eton": 7538,
      "ĠHind": 7539,
      "Ġalter": 7540,
      "ĠFree": 7541,
      "ĠWolf": 7542,
      "Ġrum": 7543,
      "Ġprol": 7544,
      "iform": 7545,
      "Ġsees": 7546,
      "ĠKansas": 7547,
      "ĠStory": 7548,
      "ĠVice": 7549,
      "Ġago": 7550,
      "Ġ67": 7551,
      "Ġconsol": 7552,
      "Ġ86": 7553,
      "ĠMarg": 7554,
      "Ġverte": 7555,
      "Ġacclaim": 7556,
      "Ġforming": 7557,
      "ĠLeg": 7558,
      "Ġ165": 7559,
      "athers": 7560,
      "Ġimpossible": 7561,
      "Ġreturns": 7562,
      "Ġ1912": 7563,
      "Ġ1932": 7564,
      "Ġ1929": 7565,
      "Ġdestruction": 7566,
      "Ġdebate": 7567,
      "Ġlowest": 7568,
      "Ġequivalent": 7569,
      "Ġ1909": 7570,
      "Ġinterests": 7571,
      "ĠRecording": 7572,
      "Ġrenew": 7573,
      "Ġmerch": 7574,
      "ĠÃĹ": 7575,
      "Ġwithdrew": 7576,
      "ĠRichardson": 7577,
      "Ġabsence": 7578,
      "Ġtowers": 7579,
      "Ġcruiser": 7580,
      "Ġensure": 7581,
      "Ġhundreds": 7582,
      "ĠNorway": 7583,
      "Ġessential": 7584,
      "Ġnarrative": 7585,
      "Ġapparently": 7586,
      "Ġsegment": 7587,
      "ĠFamily": 7588,
      "Ġdistribution": 7589,
      "Ġdialogue": 7590,
      "ĠNetherlands": 7591,
      "ĠKilmer": 7592,
      "ĠPlunketts": 7593,
      "ĠResearch": 7594,
      "Ġvideos": 7595,
      "MO": 7596,
      "mel": 7597,
      "ris": 7598,
      "rating": 7599,
      "sch": 7600,
      "wich": 7601,
      "yer": 7602,
      "heme": 7603,
      "Ġtheatre": 7604,
      "Ġfold": 7605,
      "aled": 7606,
      "aling": 7607,
      "icide": 7608,
      "ĠTest": 7609,
      "ĠTreat": 7610,
      "ĠType": 7611,
      "ĠSk": 7612,
      "ĠSn": 7613,
      "ĠSuch": 7614,
      "Ġet": 7615,
      "ĠBad": 7616,
      "olay": 7617,
      "terbury": 7618,
      "ĠHou": 7619,
      "thosaurus": 7620,
      "emet": 7621,
      "emia": 7622,
      "ĠFern": 7623,
      "ĠLabor": 7624,
      "Ġcomments": 7625,
      "Ġexcess": 7626,
      "Ġcloth": 7627,
      "Ġresumed": 7628,
      "Ġreconnaissance": 7629,
      "achus": 7630,
      "Ġevil": 7631,
      "Ġformally": 7632,
      "ifications": 7633,
      "Ġ127": 7634,
      "Ġsurpr": 7635,
      "Ġexpensive": 7636,
      "Ġtransition": 7637,
      "Ġ176": 7638,
      "Ġ1931": 7639,
      "Ġ1938": 7640,
      "Ġrefers": 7641,
      "ĠCanterbury": 7642,
      "Ġstarred": 7643,
      "poration": 7644,
      "Ġwindows": 7645,
      "Ġcovers": 7646,
      "itarian": 7647,
      "apping": 7648,
      "Ġcriticised": 7649,
      "Ġneeds": 7650,
      "Ġsteam": 7651,
      "ĠKevin": 7652,
      "Ġburned": 7653,
      "Ġobjects": 7654,
      "Ġinjuries": 7655,
      "Ġsatisf": 7656,
      "ĠLawton": 7657,
      "Ġmoments": 7658,
      "Ġjudge": 7659,
      "ĠDelaware": 7660,
      "oirs": 7661,
      "ĠFIA": 7662,
      "Ġdefenders": 7663,
      "Ġshells": 7664,
      "Ġpurposes": 7665,
      "Ġinternal": 7666,
      "ĠHuman": 7667,
      "Ġdoubt": 7668,
      "ĠJournal": 7669,
      "Ġassassination": 7670,
      "Ġglobal": 7671,
      "ĠJesus": 7672,
      "ĠSaprang": 7673,
      "ĠCorythosaurus": 7674,
      "Ġeuropium": 7675,
      "Ġafternoon": 7676,
      "ban": 7677,
      "dess": 7678,
      "Ġtight": 7679,
      "hered": 7680,
      "erog": 7681,
      "rees": 7682,
      "Ġcraft": 7683,
      "Ġfine": 7684,
      "Ġfram": 7685,
      "Ġbat": 7686,
      "Ġbone": 7687,
      "anj": 7688,
      "rose": 7689,
      "Ġdiplom": 7690,
      "elin": 7691,
      "elle": 7692,
      "acle": 7693,
      "Ġgarrison": 7694,
      "ĠBron": 7695,
      "ithic": 7696,
      "ĠDur": 7697,
      "ĠDiv": 7698,
      "ĠFlow": 7699,
      "ĠWhere": 7700,
      "ĠNeb": 7701,
      "ĠNintend": 7702,
      "ĠGun": 7703,
      "ĠLang": 7704,
      "ĠJoy": 7705,
      "ĠEdu": 7706,
      "Ġleuk": 7707,
      "ignment": 7708,
      "Ġrecru": 7709,
      "ĠAlong": 7710,
      "enses": 7711,
      "Ġ93": 7712,
      "Ġrelative": 7713,
      "annah": 7714,
      "Ġammun": 7715,
      "Ġenters": 7716,
      "Ġ161": 7717,
      "atherine": 7718,
      "ĠIndones": 7719,
      "Ġbelt": 7720,
      "Ġcarved": 7721,
      "Ġoperate": 7722,
      "ĠMcG": 7723,
      "ĠBeach": 7724,
      "espe": 7725,
      "aurus": 7726,
      "Ġperiods": 7727,
      "ĠAtlanta": 7728,
      "Ġbiographer": 7729,
      "Ġ1860": 7730,
      "Ġengineers": 7731,
      "Ġengineering": 7732,
      "Ġestablishing": 7733,
      "ĠFei": 7734,
      "Ġvote": 7735,
      "Ġinvestigation": 7736,
      "Ġobservations": 7737,
      "Ġunderstand": 7738,
      "Ġscientific": 7739,
      "Ġvessel": 7740,
      "Ġpanel": 7741,
      "Ġproposal": 7742,
      "ĠMarlborough": 7743,
      "Ġcriminal": 7744,
      "ĠExpress": 7745,
      "Ġacknowled": 7746,
      "Ġoverwhel": 7747,
      "Ġbehaviour": 7748,
      "ĠNintendo": 7749,
      "Ġammunition": 7750,
      "bound": 7751,
      "night": 7752,
      "ras": 7753,
      "rabb": 7754,
      "ĠÅ": 7755,
      "Ġtailed": 7756,
      "onia": 7757,
      "Ġsoul": 7758,
      "Ġmask": 7759,
      "Ġrever": 7760,
      "ĠSem": 7761,
      "Ġliber": 7762,
      "ĠCab": 7763,
      "ĠMand": 7764,
      "ĠBark": 7765,
      "ĠBase": 7766,
      "ĠHob": 7767,
      "Ġstock": 7768,
      "Ġconj": 7769,
      "ĠNatives": 7770,
      "osl": 7771,
      "ĠGoffman": 7772,
      "Ġhem": 7773,
      "Ġray": 7774,
      "apse": 7775,
      "Ġdeleg": 7776,
      "ĠKim": 7777,
      "Ġshop": 7778,
      "iang": 7779,
      "Ġtrained": 7780,
      "Ġintense": 7781,
      "uez": 7782,
      "Ġoutbreak": 7783,
      "Ġfeed": 7784,
      "Ġentitled": 7785,
      "ĠReal": 7786,
      "Ġpoll": 7787,
      "Ġinfr": 7788,
      "Ġsimultane": 7789,
      "Ġadvis": 7790,
      "Ġrestric": 7791,
      "Ġrestored": 7792,
      "quez": 7793,
      "Ġdemand": 7794,
      "alky": 7795,
      "Ġtrading": 7796,
      "Ġgrounds": 7797,
      "Ġinfluential": 7798,
      "Ġprogramme": 7799,
      "ĠPoland": 7800,
      "Ġtravelled": 7801,
      "coming": 7802,
      "Ġvillages": 7803,
      "Ġpitcher": 7804,
      "ĠPalace": 7805,
      "ĠPalmy": 7806,
      "Ġdevot": 7807,
      "Ġbiography": 7808,
      "Ġreveals": 7809,
      "forced": 7810,
      "Ġinjured": 7811,
      "ĠEvery": 7812,
      "Ġdramatic": 7813,
      "Ġnormally": 7814,
      "Ġinterpret": 7815,
      "ĠGuardian": 7816,
      "Ġbatsman": 7817,
      "ĠMongol": 7818,
      "Ġastronom": 7819,
      "ĠStefani": 7820,
      "ĠShakespe": 7821,
      "ĠGarcÃŃa": 7822,
      "ĠShakespeare": 7823,
      "AT": 7824,
      "OK": 7825,
      "ds": 7826,
      "vention": 7827,
      "wald": 7828,
      "ĪĴ": 7829,
      "eral": 7830,
      "Ġsons": 7831,
      "Ġpin": 7832,
      "Ġpack": 7833,
      "Ġpine": 7834,
      "Ġmunicipal": 7835,
      "icit": 7836,
      "Ġdiet": 7837,
      "ĠTer": 7838,
      "ĠTok": 7839,
      "ilst": 7840,
      "ĠSweet": 7841,
      "Ġlin": 7842,
      "eline": 7843,
      "Ġwasn": 7844,
      "ĠMain": 7845,
      "ĠBi": 7846,
      "Ġforcing": 7847,
      "imeter": 7848,
      "Ġash": 7849,
      "Ġbearing": 7850,
      "ĠRaff": 7851,
      "ĠFound": 7852,
      "ĠFurt": 7853,
      "ĠWW": 7854,
      "ĠWright": 7855,
      "ĠNow": 7856,
      "ĠNAS": 7857,
      "ĠOwen": 7858,
      "ategy": 7859,
      "ĠKann": 7860,
      "ĠâĪĴ": 7861,
      "iped": 7862,
      "ishment": 7863,
      "Ġdesert": 7864,
      "Ġattrib": 7865,
      "ĠYour": 7866,
      "Ġtele": 7867,
      "Ġconsult": 7868,
      "Ġinteraction": 7869,
      "Ġformal": 7870,
      "Ġmonuments": 7871,
      "ekÄģn": 7872,
      "ĠJohnston": 7873,
      "Ġinstance": 7874,
      "Ġdesigns": 7875,
      "Ġgenerated": 7876,
      "Ġuseful": 7877,
      "Ġengage": 7878,
      "Ġcovering": 7879,
      "Ġelse": 7880,
      "Ġskull": 7881,
      "Ġcycle": 7882,
      "Ġwatching": 7883,
      "Ġdoesn": 7884,
      "Ġpredomin": 7885,
      "Ġtests": 7886,
      "Ġrepresenting": 7887,
      "ĠMexican": 7888,
      "Ġtribut": 7889,
      "ĠWilson": 7890,
      "Ġobjective": 7891,
      "Ġpersu": 7892,
      "itzer": 7893,
      "Ġmemorial": 7894,
      "Ġdocuments": 7895,
      "Ġfeelings": 7896,
      "ĠLawrence": 7897,
      "Ġdegrees": 7898,
      "Ġexperiences": 7899,
      "Ġtouchdowns": 7900,
      "Ġcorner": 7901,
      "Ġdrums": 7902,
      "Ġcomposer": 7903,
      "Ġbehavior": 7904,
      "ĠPitman": 7905,
      "Ġjournalist": 7906,
      "ĠOriginally": 7907,
      "ĠNorman": 7908,
      "ĠAerith": 7909,
      "Ġreconstruction": 7910,
      "inje": 7911,
      "Ġcircumstances": 7912,
      "Ġnickn": 7913,
      "emetery": 7914,
      "EC": 7915,
      "after": 7916,
      "cribed": 7917,
      "dale": 7918,
      "dney": 7919,
      "graf": 7920,
      "how": 7921,
      "lie": 7922,
      "inson": 7923,
      "Ġsale": 7924,
      "Ġsailed": 7925,
      "Ġfitted": 7926,
      "Ġbarr": 7927,
      "rous": 7928,
      "ĠTon": 7929,
      "ĠSoon": 7930,
      "ĠMÃ¡": 7931,
      "ĠBath": 7932,
      "otype": 7933,
      "ĠHok": 7934,
      "ĠHaving": 7935,
      "ĠHarrison": 7936,
      "Ġstable": 7937,
      "Ġstreets": 7938,
      "emies": 7939,
      "ĠNS": 7940,
      "osm": 7941,
      "ĠGab": 7942,
      "ĠGib": 7943,
      "Ġrates": 7944,
      "Ġselection": 7945,
      "Ġplane": 7946,
      "ĠUsta": 7947,
      "Ġcontext": 7948,
      "Ġabund": 7949,
      "overs": 7950,
      "Ġremember": 7951,
      "Ġdefending": 7952,
      "Ġwritings": 7953,
      "Ġamino": 7954,
      "ĠShik": 7955,
      "Ġminimum": 7956,
      "Ġoriginated": 7957,
      "Ġ155": 7958,
      "Ġbridges": 7959,
      "Ġextent": 7960,
      "Ġobst": 7961,
      "Ġinstall": 7962,
      "Ġanyone": 7963,
      "Ġcounties": 7964,
      "Ġ1957": 7965,
      "Ġconsiders": 7966,
      "Ġ140": 7967,
      "ĠPlat": 7968,
      "Ġrestrict": 7969,
      "ĠMcL": 7970,
      "Ġarrive": 7971,
      "ĠCanal": 7972,
      "Ġphr": 7973,
      "Ġengines": 7974,
      "Ġcauses": 7975,
      "Ġcompete": 7976,
      "Ġsurvive": 7977,
      "Ġtechniques": 7978,
      "Ġ1850": 7979,
      "ĠBerlin": 7980,
      "Ġinformed": 7981,
      "ĠMarkgraf": 7982,
      "Ġlanguages": 7983,
      "Ġburial": 7984,
      "Ġmemory": 7985,
      "ĠKrak": 7986,
      "Ġbadly": 7987,
      "Ġmoral": 7988,
      "Ġsuspended": 7989,
      "Ġthousand": 7990,
      "Ġpicture": 7991,
      "Ġvoiced": 7992,
      "Ġchairman": 7993,
      "Ġdelayed": 7994,
      "ĠDominican": 7995,
      "Ġimprison": 7996,
      "Ġconvinced": 7997,
      "ĠRaffles": 7998,
      "ĠFurtado": 7999,
      "ĠUstaÅ¡": 8000,
      "DH": 8001,
      "SA": 8002,
      "life": 8003,
      "nce": 8004,
      "pent": 8005,
      "rich": 8006,
      "rants": 8007,
      "uable": 8008,
      "Ġsunk": 8009,
      "Ġciting": 8010,
      "Ġbor": 8011,
      "Ġdream": 8012,
      "ĠTechn": 8013,
      "Ġrender": 8014,
      "Ġlake": 8015,
      "ĠCBS": 8016,
      "utz": 8017,
      "ĠPan": 8018,
      "ĠWic": 8019,
      "ĠNaval": 8020,
      "ĠNichol": 8021,
      "ĠGa": 8022,
      "ĠLamb": 8023,
      "Ġheat": 8024,
      "ateau": 8025,
      "ĠKen": 8026,
      "Ġshipping": 8027,
      "Ġspoke": 8028,
      "ishn": 8029,
      "Ġunion": 8030,
      "Ġunlike": 8031,
      "ĠValky": 8032,
      "Ġenh": 8033,
      "Ġotherwise": 8034,
      "rene": 8035,
      "away": 8036,
      "Ġ84": 8037,
      "ĠArk": 8038,
      "Ġ900": 8039,
      "Ġprerog": 8040,
      "roscop": 8041,
      "ĠSholay": 8042,
      "Ġcooper": 8043,
      "Ġseverely": 8044,
      "Ġ166": 8045,
      "ĠBranch": 8046,
      "ledon": 8047,
      "embr": 8048,
      "Ġ178": 8049,
      "ullen": 8050,
      "Ġgenerals": 8051,
      "Ġmusician": 8052,
      "Ġmodels": 8053,
      "Ġsuggesting": 8054,
      "Ġrepresents": 8055,
      "Ġsky": 8056,
      "Ġinfluences": 8057,
      "ĠPolice": 8058,
      "Ġgoddess": 8059,
      "Ġreaders": 8060,
      "Ġthinking": 8061,
      "Ġpoorly": 8062,
      "Ġautom": 8063,
      "ĠEnterprise": 8064,
      "ĠJustice": 8065,
      "Ġthrowing": 8066,
      "Ġsafe": 8067,
      "ĠNazi": 8068,
      "Ġpreparation": 8069,
      "Ġranges": 8070,
      "Ġtunnel": 8071,
      "Ġbulk": 8072,
      "ĠWriting": 8073,
      "Ġreinforcements": 8074,
      "ĠModern": 8075,
      "ĠGrammy": 8076,
      "Ġpupils": 8077,
      "ĠQueensland": 8078,
      "Ġkitsune": 8079,
      "CC": 8080,
      "NL": 8081,
      "aired": 8082,
      "boy": 8083,
      "don": 8084,
      "ean": 8085,
      "vati": 8086,
      "water": 8087,
      "yo": 8088,
      "zac": 8089,
      "Ġsaved": 8090,
      "Ġcars": 8091,
      "Ġbord": 8092,
      "alog": 8093,
      "Ġtoll": 8094,
      "Ġmode": 8095,
      "ila": 8096,
      "ilty": 8097,
      "oma": 8098,
      "Ġeasy": 8099,
      "ĠThen": 8100,
      "ĠBell": 8101,
      "uscript": 8102,
      "ĠProm": 8103,
      "ĠPict": 8104,
      "ĠRa": 8105,
      "ĠWing": 8106,
      "ĠWimb": 8107,
      "ĠGary": 8108,
      "ĠLith": 8109,
      "Ġrivers": 8110,
      "Ġdeemed": 8111,
      "oca": 8112,
      "Ġspores": 8113,
      "ĠChan": 8114,
      "raham": 8115,
      "Ġrooms": 8116,
      "Ġagents": 8117,
      "ĠYug": 8118,
      "Ġshear": 8119,
      "ĠComb": 8120,
      "Ġamateur": 8121,
      "ificial": 8122,
      "Ġsupporters": 8123,
      "Ġfounder": 8124,
      "Ġsymp": 8125,
      "Ġexposed": 8126,
      "Ġexposure": 8127,
      "aza": 8128,
      "Ġobl": 8129,
      "Ġcargo": 8130,
      "ĠWho": 8131,
      "ĠIslam": 8132,
      "Ġstrategy": 8133,
      "Ġeleven": 8134,
      "Ġprompt": 8135,
      "Ġprompted": 8136,
      "Ġrestoration": 8137,
      "Ġportrait": 8138,
      "Ġ1928": 8139,
      "Ġlisten": 8140,
      "Ġbases": 8141,
      "Ġwestward": 8142,
      "Ġtemples": 8143,
      "ĠMaggie": 8144,
      "Ġstrip": 8145,
      "Ġrecognised": 8146,
      "Ġrepresentative": 8147,
      "Ġburning": 8148,
      "Ġresearchers": 8149,
      "Ġachieve": 8150,
      "Ġclearly": 8151,
      "ĠChampionships": 8152,
      "Ġtransportation": 8153,
      "ĠRepublican": 8154,
      "Ġproducts": 8155,
      "Ġlayer": 8156,
      "Ġdemonstrated": 8157,
      "Ġstruggle": 8158,
      "Ġinstruments": 8159,
      "Ġneighbor": 8160,
      "Ġmountains": 8161,
      "Ġhunting": 8162,
      "ĠSwedish": 8163,
      "ĠMcCarty": 8164,
      "Ġbeautiful": 8165,
      "Ġethnic": 8166,
      "ĠNHL": 8167,
      "ĠAthletic": 8168,
      "Ġdinosaur": 8169,
      "ĠPhillies": 8170,
      "ĠTerritory": 8171,
      "Ġcongreg": 8172,
      "Ġmuscaria": 8173,
      "ĠWimbledon": 8174,
      "kh": 8175,
      "mate": 8176,
      "Ġaw": 8177,
      "inery": 8178,
      "Ġsam": 8179,
      "Ġsad": 8180,
      "Ġsaves": 8181,
      "Ġsnow": 8182,
      "Ġsulf": 8183,
      "Ġoption": 8184,
      "Ġfestival": 8185,
      "Ġindu": 8186,
      "Ġmanga": 8187,
      "icul": 8188,
      "Ġdangerous": 8189,
      "ĠTro": 8190,
      "ĠSid": 8191,
      "Ġlose": 8192,
      "Ġlists": 8193,
      "Ġlanes": 8194,
      "ĠCelt": 8195,
      "ĠMach": 8196,
      "urst": 8197,
      "Ġgard": 8198,
      "ĠBa": 8199,
      "idae": 8200,
      "otal": 8201,
      "ĠHom": 8202,
      "ĠHay": 8203,
      "ĠRem": 8204,
      "ĠDak": 8205,
      "Ġalt": 8206,
      "ĠNiel": 8207,
      "ĠGwen": 8208,
      "ĠJr": 8209,
      "Ġrib": 8210,
      "rik": 8211,
      "ĠOur": 8212,
      "Ġprove": 8213,
      "Ġvul": 8214,
      "ĠKong": 8215,
      "ĠâĤ": 8216,
      "rupted": 8217,
      "oko": 8218,
      "ternal": 8219,
      "ĠUntil": 8220,
      "Ġsongwrit": 8221,
      "inder": 8222,
      "Ġ92": 8223,
      "Ġcharged": 8224,
      "Ġregiment": 8225,
      "Ġmanuscript": 8226,
      "Ġartwork": 8227,
      "ĠUSD": 8228,
      "Ġ1933": 8229,
      "Ġconflic": 8230,
      "ĠParvati": 8231,
      "Ġparish": 8232,
      "Ġopponent": 8233,
      "Ġmyst": 8234,
      "Ġdeliber": 8235,
      "Ġtemporary": 8236,
      "sequently": 8237,
      "Ġinteresting": 8238,
      "Ġfallen": 8239,
      "Ġcrews": 8240,
      "Ġruling": 8241,
      "Ġsequences": 8242,
      "Ġmeasured": 8243,
      "Ġcopy": 8244,
      "ĠMedia": 8245,
      "ĠMoore": 8246,
      "Ġmaterials": 8247,
      "ĠPlayer": 8248,
      "ĠRussia": 8249,
      "ĠTurks": 8250,
      "ĠPortugal": 8251,
      "Ġunderstanding": 8252,
      "Ġbiggest": 8253,
      "Ġpursue": 8254,
      "Ġspiritual": 8255,
      "Ġopportunities": 8256,
      "Ġinstitution": 8257,
      "Ġarchitecture": 8258,
      "ĠConfeder": 8259,
      "Ġbattleships": 8260,
      "ĠSilver": 8261,
      "Ġdeparture": 8262,
      "ĠRajne": 8263,
      "ĠCommunist": 8264,
      "Ġtactics": 8265,
      "ĠJacob": 8266,
      "Ġrifle": 8267,
      "ĠCambodia": 8268,
      "Ġjackrabb": 8269,
      "ĠPhoenix": 8270,
      "ĠMozambique": 8271,
      "ĠDAG": 8272,
      "ĠSupreme": 8273,
      "ĠFernand": 8274,
      "ĠUstaÅ¡e": 8275,
      "cru": 8276,
      "gets": 8277,
      "ji": 8278,
      "ng": 8279,
      "piece": 8280,
      "va": 8281,
      "zing": 8282,
      "Ġturb": 8283,
      "heera": 8284,
      "Ġax": 8285,
      "inus": 8286,
      "eratops": 8287,
      "Ġori": 8288,
      "Ġmamm": 8289,
      "ĠSin": 8290,
      "ĠCec": 8291,
      "ĠMuch": 8292,
      "urday": 8293,
      "ĠBush": 8294,
      "oto": 8295,
      "owiec": 8296,
      "ĠHong": 8297,
      "ĠDave": 8298,
      "ĠDisc": 8299,
      "ĠFair": 8300,
      "ĠFalls": 8301,
      "ĠWiÅ": 8302,
      "ĠNetwork": 8303,
      "ĠEagle": 8304,
      "apore": 8305,
      "opp": 8306,
      "aku": 8307,
      "ocy": 8308,
      "Ġnotably": 8309,
      "Ġspur": 8310,
      "Ġspend": 8311,
      "ĠVII": 8312,
      "Ġclock": 8313,
      "Ġclimate": 8314,
      "Ġclimb": 8315,
      "Ġresign": 8316,
      "Ġresidence": 8317,
      "Ġresigned": 8318,
      "Ġrecur": 8319,
      "ĠThird": 8320,
      "Ġscheme": 8321,
      "Ġpartner": 8322,
      "Ġoutl": 8323,
      "inds": 8324,
      "ĠSee": 8325,
      "Ġformat": 8326,
      "ĠLead": 8327,
      "Ġdepending": 8328,
      "Ġdescribe": 8329,
      "Ġimpressed": 8330,
      "Ġlandings": 8331,
      "Ġoffices": 8332,
      "Ġcharacterized": 8333,
      "Ġpromised": 8334,
      "Ġhelmet": 8335,
      "Ġorganised": 8336,
      "echism": 8337,
      "ĠProg": 8338,
      "shore": 8339,
      "urricanes": 8340,
      "Ġtwin": 8341,
      "Ġfrust": 8342,
      "Ġeveryone": 8343,
      "Ġelections": 8344,
      "Ġsituated": 8345,
      "ĠMinistry": 8346,
      "ĠBarry": 8347,
      "ĠEvent": 8348,
      "Ġlooks": 8349,
      "Ġliked": 8350,
      "Ġranking": 8351,
      "ĠSydney": 8352,
      "Ġcondem": 8353,
      "Ġclosest": 8354,
      "Ġemployees": 8355,
      "ĠKhand": 8356,
      "avalry": 8357,
      "Ġ1870": 8358,
      "ĠBelg": 8359,
      "ĠSingapore": 8360,
      "ĠHowe": 8361,
      "Ġcleared": 8362,
      "Ġholiday": 8363,
      "Ġdisplayed": 8364,
      "Ġvehicle": 8365,
      "Ġwithdrawal": 8366,
      "Ġgraphics": 8367,
      "Ġranging": 8368,
      "ĠMassachus": 8369,
      "ĠSaturday": 8370,
      "ĠTrail": 8371,
      "Ã¶n": 8372,
      "Ġsubstantial": 8373,
      "Ġresidential": 8374,
      "ĠRÃ©union": 8375,
      "ĠInitially": 8376,
      "niowiec": 8377,
      "ĠKannada": 8378,
      "ĠYugosl": 8379,
      "ĠWiÅĽ": 8380,
      "ĠMassachusetts": 8381,
      "rquez": 8382,
      "Ã±": 8383,
      "Ġtip": 8384,
      "Ġtiss": 8385,
      "Ġwine": 8386,
      "Ġwings": 8387,
      "isler": 8388,
      "Ġbell": 8389,
      "Ġbones": 8390,
      "Ġpale": 8391,
      "roit": 8392,
      "Ġdraf": 8393,
      "Ġhorn": 8394,
      "Ġhuge": 8395,
      "Ġlibrary": 8396,
      "ellect": 8397,
      "acles": 8398,
      "ĠMasters": 8399,
      "urse": 8400,
      "ĠBah": 8401,
      "ĠBudd": 8402,
      "ivated": 8403,
      "ĠHamp": 8404,
      "ĠPow": 8405,
      "ĠRoth": 8406,
      "ĠDal": 8407,
      "uli": 8408,
      "ulating": 8409,
      "ĠNob": 8410,
      "ĠNash": 8411,
      "Ġanch": 8412,
      "odore": 8413,
      "ĠEaton": 8414,
      "opl": 8415,
      "ifies": 8416,
      "Ġvast": 8417,
      "ĠKy": 8418,
      "ĠVul": 8419,
      "Ġscattered": 8420,
      "Ġdisaster": 8421,
      "Ġjun": 8422,
      "Ġtex": 8423,
      "oyage": 8424,
      "obile": 8425,
      "Ġquant": 8426,
      "Ġ163": 8427,
      "Ġreprodu": 8428,
      "Ġsmooth": 8429,
      "Ġguerr": 8430,
      "Ġguilty": 8431,
      "uthor": 8432,
      "Ġadventure": 8433,
      "Ġdriver": 8434,
      "onto": 8435,
      "ĠMcD": 8436,
      "ĠChristopher": 8437,
      "Ġslide": 8438,
      "Ġmargin": 8439,
      "Ġdifferences": 8440,
      "Ġstarlings": 8441,
      "Ġcrash": 8442,
      "Ġbands": 8443,
      "ĠPerfect": 8444,
      "ĠSimpson": 8445,
      "ĠCorb": 8446,
      "ĠCorporation": 8447,
      "Ġaudiences": 8448,
      "Ġhousing": 8449,
      "Ġdetermine": 8450,
      "Ġdominant": 8451,
      "Ġloan": 8452,
      "Ġweapon": 8453,
      "Ġremarked": 8454,
      "ĠCathedral": 8455,
      "Ġseeking": 8456,
      "Ġneutral": 8457,
      "Ġorbit": 8458,
      "ĠJurchen": 8459,
      "ĠNevertheless": 8460,
      "Ġpremiered": 8461,
      "Ġrebuilt": 8462,
      "Ġcrops": 8463,
      "ĠMulder": 8464,
      "ĠDetroit": 8465,
      "Ġpredecessor": 8466,
      "ĠConstruction": 8467,
      "Ġfalse": 8468,
      "Ġinhabitants": 8469,
      "ĠDevelopment": 8470,
      "Ġcollapsed": 8471,
      "ĠHudson": 8472,
      "ĠProtestant": 8473,
      "ĠTreaty": 8474,
      "Ġinfrast": 8475,
      "Ġrestricted": 8476,
      "ĠMÃ¡rquez": 8477,
      "Ġprerogative": 8478,
      "ĠKhandoba": 8479,
      "ĠWiÅĽniowiec": 8480,
      "DS": 8481,
      "box": 8482,
      "egr": 8483,
      "gov": 8484,
      "nings": 8485,
      "ti": 8486,
      "Ġtenth": 8487,
      "Ġsung": 8488,
      "atically": 8489,
      "Ġchess": 8490,
      "Ġfountain": 8491,
      "Ġmoon": 8492,
      "Ġdwar": 8493,
      "leton": 8494,
      "ĠTree": 8495,
      "ĠSans": 8496,
      "ĠSAS": 8497,
      "ĠMother": 8498,
      "Ġgrown": 8499,
      "Ġgiant": 8500,
      "ĠBou": 8501,
      "ĠBab": 8502,
      "ĠBenn": 8503,
      "ima": 8504,
      "ige": 8505,
      "ĠPle": 8506,
      "ĠRen": 8507,
      "aints": 8508,
      "ĠLower": 8509,
      "Ġsure": 8510,
      "Ġchamber": 8511,
      "iao": 8512,
      "Ġintellect": 8513,
      "Ġwheel": 8514,
      "assador": 8515,
      "Ġjunction": 8516,
      "ĠAlb": 8517,
      "ensis": 8518,
      "Ġcommem": 8519,
      "Ġteen": 8520,
      "Ġprime": 8521,
      "Ġsubmitted": 8522,
      "ĠScully": 8523,
      "Ġgray": 8524,
      "Ġ125": 8525,
      "ĠShow": 8526,
      "Ġsurg": 8527,
      "Ġ105": 8528,
      "Ġ08": 8529,
      "Ġ09": 8530,
      "ĠReb": 8531,
      "Ġpoison": 8532,
      "Ġreven": 8533,
      "Ġmilit": 8534,
      "Ġwarning": 8535,
      "Ġdiscip": 8536,
      "Ġprevented": 8537,
      "Ġnorthward": 8538,
      "ervative": 8539,
      "Ġconsidering": 8540,
      "Ġ1934": 8541,
      "Ġdrain": 8542,
      "ĠGuide": 8543,
      "ĠDeath": 8544,
      "Ġrefuge": 8545,
      "Ġpossess": 8546,
      "Ġstorms": 8547,
      "Ġexplo": 8548,
      "Ġantic": 8549,
      "Ġamongst": 8550,
      "Ġelectronic": 8551,
      "encing": 8552,
      "Ġskills": 8553,
      "ucks": 8554,
      "Ġradiation": 8555,
      "Ġhighways": 8556,
      "Ġmixture": 8557,
      "Ġsteep": 8558,
      "Ġrenov": 8559,
      "ĠRocky": 8560,
      "Ġrespective": 8561,
      "ĠToronto": 8562,
      "Ġperspective": 8563,
      "ĠMrs": 8564,
      "ĠVeronica": 8565,
      "Ġcoins": 8566,
      "Ġschedule": 8567,
      "Ġrequested": 8568,
      "Ġthrone": 8569,
      "Ġsucceed": 8570,
      "Ġaggressive": 8571,
      "Ġencountered": 8572,
      "Ġenvironmental": 8573,
      "ĠKirk": 8574,
      "ĠMcCartney": 8575,
      "Ġexecuted": 8576,
      "ĠBulls": 8577,
      "Ġcitizens": 8578,
      "Ġmartial": 8579,
      "Ġdwarf": 8580,
      "Hg": 8581,
      "SP": 8582,
      "book": 8583,
      "gam": 8584,
      "gers": 8585,
      "hist": 8586,
      "oom": 8587,
      "pan": 8588,
      "put": 8589,
      "western": 8590,
      "Ġty": 8591,
      "inate": 8592,
      "Ġsq": 8593,
      "Ġcabin": 8594,
      "asm": 8595,
      "Ġtoured": 8596,
      "icate": 8597,
      "ĠMack": 8598,
      "Ġstood": 8599,
      "Ġstyles": 8600,
      "ĠRap": 8601,
      "unes": 8602,
      "ĠDig": 8603,
      "ĠFRE": 8604,
      "ĠNap": 8605,
      "ĠNear": 8606,
      "ĠGro": 8607,
      "ĠLinc": 8608,
      "Ġrushing": 8609,
      "ĠEle": 8610,
      "Ġprosp": 8611,
      "illas": 8612,
      "Ġsuit": 8613,
      "arte": 8614,
      "Ġchoir": 8615,
      "Ġtrust": 8616,
      "Ġtrick": 8617,
      "ellite": 8618,
      "ruz": 8619,
      "ryce": 8620,
      "ĠThus": 8621,
      "Ġplayoff": 8622,
      "Ġattained": 8623,
      "roph": 8624,
      "Ġfeathers": 8625,
      "Ġdecides": 8626,
      "inding": 8627,
      "ologies": 8628,
      "Ġcanc": 8629,
      "Ġcancer": 8630,
      "arsh": 8631,
      "Ġ101": 8632,
      "Ġrepair": 8633,
      "Ġconclusion": 8634,
      "Ġdepicts": 8635,
      "ĠShel": 8636,
      "Ġrevol": 8637,
      "Ġobv": 8638,
      "Ġdesigner": 8639,
      "ĠDean": 8640,
      "Ġrefere": 8641,
      "Ġmarry": 8642,
      "ĠGrade": 8643,
      "Ġexplains": 8644,
      "Ġcrisis": 8645,
      "Ġ1926": 8646,
      "Ġformerly": 8647,
      "Ġelder": 8648,
      "ĠMinor": 8649,
      "Ġ1908": 8650,
      "amental": 8651,
      "Ġcollapse": 8652,
      "ĠSlayer": 8653,
      "Ġcosts": 8654,
      "Ġoccupation": 8655,
      "ĠArabic": 8656,
      "Ġamounts": 8657,
      "Ġinnov": 8658,
      "ĠInterstate": 8659,
      "Ġproductions": 8660,
      "ĠMiller": 8661,
      "ĠRhodesia": 8662,
      "Ġencounter": 8663,
      "Ġexcavation": 8664,
      "ĠJourney": 8665,
      "Ġdelivery": 8666,
      "Ġstriking": 8667,
      "ĠLeslie": 8668,
      "ĠMemorial": 8669,
      "Ġtrouble": 8670,
      "ĠStewart": 8671,
      "Ġmoderate": 8672,
      "ĠGilbert": 8673,
      "LIMO": 8674,
      "Ġunderwent": 8675,
      "ĠRifles": 8676,
      "Ġemergency": 8677,
      "Ġpyramid": 8678,
      "ĠHouston": 8679,
      "ĠBarker": 8680,
      "ĠFRELIMO": 8681,
      "PA": 8682,
      "fire": 8683,
      "tic": 8684,
      "zo": 8685,
      "Ã£": 8686,
      "onies": 8687,
      "reted": 8688,
      "Ġwel": 8689,
      "atur": 8690,
      "orious": 8691,
      "Ġcotton": 8692,
      "itting": 8693,
      "itively": 8694,
      "enic": 8695,
      "Ġfishing": 8696,
      "Ġbod": 8697,
      "Ġbanned": 8698,
      "ĠinHg": 8699,
      "Ġmac": 8700,
      "Ġrend": 8701,
      "ĠAT": 8702,
      "ĠSle": 8703,
      "ĠSab": 8704,
      "ĠCO": 8705,
      "ĠMun": 8706,
      "Ġgets": 8707,
      "ĠBorn": 8708,
      "ĠBarn": 8709,
      "ĠBaker": 8710,
      "terf": 8711,
      "ĠPC": 8712,
      "ĠRom": 8713,
      "ĠRest": 8714,
      "ĠDh": 8715,
      "ĠWisc": 8716,
      "ĠGate": 8717,
      "Ġanime": 8718,
      "Ġsup": 8719,
      "abs": 8720,
      "ĠKam": 8721,
      "ĠUpper": 8722,
      "Ġunlik": 8723,
      "Ġrecon": 8724,
      "Ġpref": 8725,
      "weight": 8726,
      "Ġcenters": 8727,
      "ĠAnzac": 8728,
      "onsin": 8729,
      "Ġsubt": 8730,
      "Ġnumbered": 8731,
      "azines": 8732,
      "Ġ113": 8733,
      "Ġcompleting": 8734,
      "yline": 8735,
      "rapped": 8736,
      "Ġimpression": 8737,
      "Ġadvancing": 8738,
      "Ġarriving": 8739,
      "Ġchildhood": 8740,
      "Ġparas": 8741,
      "ĠManagement": 8742,
      "Ġexpert": 8743,
      "Ġinitiated": 8744,
      "Ġtempor": 8745,
      "Ġ1905": 8746,
      "ĠMagdal": 8747,
      "ĠSwiss": 8748,
      "Ġargues": 8749,
      "ĠHills": 8750,
      "oof": 8751,
      "ĠPhilipp": 8752,
      "Ġwithdrawn": 8753,
      "Ġviolent": 8754,
      "ĠBusiness": 8755,
      "Ġdrove": 8756,
      "Ġnetworks": 8757,
      "ĠPeters": 8758,
      "Ġsettlements": 8759,
      "Ġcoinc": 8760,
      "Ġboundary": 8761,
      "ĠAdminist": 8762,
      "Ġadvertising": 8763,
      "ĠVillage": 8764,
      "ĠRailway": 8765,
      "Ġstrengthened": 8766,
      "ĠOhio": 8767,
      "Ġeliminated": 8768,
      "Ġdistinguished": 8769,
      "ĠPersian": 8770,
      "ekÄģntav": 8771,
      "ĠHokies": 8772,
      "ĠCeltic": 8773,
      "Ġconflicts": 8774,
      "ĠEventually": 8775,
      "ĠLincol": 8776,
      "ĠWisconsin": 8777,
      "aft": 8778,
      "cation": 8779,
      "friend": 8780,
      "oly": 8781,
      "rates": 8782,
      "Ġid": 8783,
      "inian": 8784,
      "Ġtheater": 8785,
      "erg": 8786,
      "Ġwet": 8787,
      "orable": 8788,
      "Ġfill": 8789,
      "Ġbon": 8790,
      "Ġban": 8791,
      "Ġdiver": 8792,
      "ĠAce": 8793,
      "omura": 8794,
      "ĠCob": 8795,
      "ĠCateg": 8796,
      "ĠCanyon": 8797,
      "Ġgap": 8798,
      "ĠBoss": 8799,
      "olen": 8800,
      "otten": 8801,
      "uty": 8802,
      "ĠPf": 8803,
      "ĠWeb": 8804,
      "ctor": 8805,
      "ĠLink": 8806,
      "rift": 8807,
      "ĠEy": 8808,
      "udes": 8809,
      "Ġkit": 8810,
      "ĠStal": 8811,
      "ĠâĢľ": 8812,
      "Ġtru": 8813,
      "ellar": 8814,
      "Ġuniform": 8815,
      "Ġclust": 8816,
      "Ġrot": 8817,
      "ĠThose": 8818,
      "Ġdisagre": 8819,
      "Ġupset": 8820,
      "rible": 8821,
      "Ġfeels": 8822,
      "Ġremove": 8823,
      "Ġearning": 8824,
      "ĠAsian": 8825,
      "Ġflash": 8826,
      "obe": 8827,
      "ĠComple": 8828,
      "Ġassisted": 8829,
      "Ġsurprise": 8830,
      "Ġ02": 8831,
      "Ġexpect": 8832,
      "Ġ117": 8833,
      "Ġ170": 8834,
      "ĠWarren": 8835,
      "ĠAllen": 8836,
      "Ġlatex": 8837,
      "Ġapproval": 8838,
      "Ġvisiting": 8839,
      "ĠParaly": 8840,
      "Ġdifference": 8841,
      "Ġbreed": 8842,
      "Ġcrake": 8843,
      "Ġ1924": 8844,
      "Ġ1925": 8845,
      "Ġdemands": 8846,
      "neath": 8847,
      "Ġmagazines": 8848,
      "Ġannounce": 8849,
      "ĠAnglo": 8850,
      "ĠNev": 8851,
      "ĠMagad": 8852,
      "Ġpriest": 8853,
      "Ġpredators": 8854,
      "Ġtesting": 8855,
      "Ġasks": 8856,
      "Ġrebell": 8857,
      "Ġhonour": 8858,
      "Ġremoval": 8859,
      "Ġsubjects": 8860,
      "Ġproperties": 8861,
      "ĠOscar": 8862,
      "Ġvotes": 8863,
      "Ġindicating": 8864,
      "Ġnewspapers": 8865,
      "Ġcelebrated": 8866,
      "Ġcontribution": 8867,
      "Ġpounds": 8868,
      "Ġsacred": 8869,
      "iggs": 8870,
      "Ġduty": 8871,
      "chell": 8872,
      "ĠMathews": 8873,
      "Ġturrets": 8874,
      "ĠJonathan": 8875,
      "ĠColeman": 8876,
      "Ġapplication": 8877,
      "borne": 8878,
      "amaru": 8879,
      "ĠLabour": 8880,
      "Ġelaborate": 8881,
      "Ġenthus": 8882,
      "ĠShikamaru": 8883,
      "ĠValkyria": 8884,
      "ĠWiÅĽniowiecki": 8885,
      "ekÄģntavÄģda": 8886,
      "ĠCategory": 8887,
      "ĠParalymp": 8888,
      "cour": 8889,
      "gars": 8890,
      "lock": 8891,
      "mn": 8892,
      "mouth": 8893,
      "po": 8894,
      "power": 8895,
      "eries": 8896,
      "Ġsang": 8897,
      "Ġsisters": 8898,
      "Ġfert": 8899,
      "Ġfasc": 8900,
      "ester": 8901,
      "Ġbanks": 8902,
      "arant": 8903,
      "Ġpull": 8904,
      "Ġtoler": 8905,
      "ĠTal": 8906,
      "ĠTerr": 8907,
      "ĠSports": 8908,
      "Ġlies": 8909,
      "ĠCirc": 8910,
      "Ġnet": 8911,
      "Ġnations": 8912,
      "Ġnurse": 8913,
      "acre": 8914,
      "ĠMit": 8915,
      "Ġgates": 8916,
      "olithic": 8917,
      "ivan": 8918,
      "imented": 8919,
      "iri": 8920,
      "Ġaspect": 8921,
      "ĠHend": 8922,
      "ĠHans": 8923,
      "ĠHope": 8924,
      "usic": 8925,
      "Ġbear": 8926,
      "ĠDick": 8927,
      "char": 8928,
      "ĠFall": 8929,
      "ĠNav": 8930,
      "ĠLost": 8931,
      "Ġrid": 8932,
      "Ġrig": 8933,
      "Ġride": 8934,
      "Ġrising": 8935,
      "Ġdeity": 8936,
      "Ġsuitable": 8937,
      "aki": 8938,
      "aks": 8939,
      "Ġexists": 8940,
      "ĠStories": 8941,
      "Ġintr": 8942,
      "ĠVand": 8943,
      "Ġclim": 8944,
      "Ġenemies": 8945,
      "acts": 8946,
      "ĠOntar": 8947,
      "ĠUnivers": 8948,
      "eping": 8949,
      "ĠArsenal": 8950,
      "ugu": 8951,
      "Ġthereafter": 8952,
      "Ġmainland": 8953,
      "Ġpole": 8954,
      "Ġextens": 8955,
      "Ġinsurg": 8956,
      "ĠConc": 8957,
      "ennium": 8958,
      "ashi": 8959,
      "Ġtriple": 8960,
      "ĠGray": 8961,
      "Ġhandled": 8962,
      "Ġrealized": 8963,
      "Ġcommunication": 8964,
      "Ġpropag": 8965,
      "Ġcyt": 8966,
      "Ġsounds": 8967,
      "ĠDavis": 8968,
      "Ġdivor": 8969,
      "Ġputting": 8970,
      "Ġswim": 8971,
      "Ġsupern": 8972,
      "Ġreducing": 8973,
      "ĠImag": 8974,
      "ĠEmmy": 8975,
      "Ġ360": 8976,
      "Ġ1830": 8977,
      "ĠAgain": 8978,
      "Ġpotentially": 8979,
      "Ġfrequent": 8980,
      "Ġadopt": 8981,
      "Ġprincip": 8982,
      "ĠOutstanding": 8983,
      "Ġsoutheastern": 8984,
      "Ġelevation": 8985,
      "Ġdistinctive": 8986,
      "Ġterrain": 8987,
      "Ġpulled": 8988,
      "Ġaimed": 8989,
      "Ġfatal": 8990,
      "Ġcompounds": 8991,
      "ĠAlfred": 8992,
      "ĠPalestine": 8993,
      "Ġexclusively": 8994,
      "Ġassembled": 8995,
      "Ġbenefit": 8996,
      "ĠKelly": 8997,
      "Ġcommunications": 8998,
      "ĠBertin": 8999,
      "Ġillegal": 9000,
      "ĠNielsen": 9001,
      "Ġunlikely": 9002,
      "Ġtemporarily": 9003,
      "ĠMagadheera": 9004,
      "ĠOntario": 9005,
      "IA": 9006,
      "NC": 9007,
      "Pa": 9008,
      "burn": 9009,
      "ci": 9010,
      "eor": 9011,
      "father": 9012,
      "ja": 9013,
      "nie": 9014,
      "zer": 9015,
      "zhou": 9016,
      "Ġtale": 9017,
      "Ġtherap": 9018,
      "nda": 9019,
      "Ġcaves": 9020,
      "Ġfil": 9021,
      "isp": 9022,
      "alley": 9023,
      "asa": 9024,
      "oux": 9025,
      "lee": 9026,
      "ĠTu": 9027,
      "Ġrevers": 9028,
      "Ġlat": 9029,
      "amount": 9030,
      "acec": 9031,
      "ecution": 9032,
      "Ġgh": 9033,
      "Ġgar": 9034,
      "ĠBible": 9035,
      "Ġforty": 9036,
      "ira": 9037,
      "Ġstores": 9038,
      "ĠRivers": 9039,
      "ĠDie": 9040,
      "ĠWag": 9041,
      "ĠNL": 9042,
      "ersed": 9043,
      "ĠGirls": 9044,
      "rior": 9045,
      "ĠEsh": 9046,
      "Ġcomed": 9047,
      "Ġchrom": 9048,
      "ipes": 9049,
      "usts": 9050,
      "ĠChagas": 9051,
      "enden": 9052,
      "Ġenforce": 9053,
      "Ġupgraded": 9054,
      "rophy": 9055,
      "Ġfee": 9056,
      "Ġconservation": 9057,
      "Ġrelation": 9058,
      "Ġprint": 9059,
      "Ġsubstitute": 9060,
      "Ġ01": 9061,
      "Ġ03": 9062,
      "ieth": 9063,
      "ĠSheff": 9064,
      "Ġmetre": 9065,
      "Ġcarri": 9066,
      "ullivan": 9067,
      "Ġedges": 9068,
      "Ġweekend": 9069,
      "ĠHerze": 9070,
      "Ġpublications": 9071,
      "Ġtrials": 9072,
      "ĠProf": 9073,
      "ĠAbby": 9074,
      "Ġreferring": 9075,
      "Ġfreedom": 9076,
      "Ġprofile": 9077,
      "Ġaffil": 9078,
      "ĠScientologists": 9079,
      "ĠSupp": 9080,
      "Ġstructural": 9081,
      "Ġfactors": 9082,
      "spec": 9083,
      "ĠEvans": 9084,
      "ĠNext": 9085,
      "Ġcircle": 9086,
      "Ġcolleagues": 9087,
      "Ġfalls": 9088,
      "Ġcreative": 9089,
      "Ġmerely": 9090,
      "ĠKhan": 9091,
      "Ġobjectives": 9092,
      "ĠPhilip": 9093,
      "atinum": 9094,
      "enesis": 9095,
      "Ġquarterback": 9096,
      "Ġdispute": 9097,
      "Ġarchaeologist": 9098,
      "ĠOverall": 9099,
      "Ġtalking": 9100,
      "ĠTrek": 9101,
      "ĠWaterfall": 9102,
      "Ġstruggled": 9103,
      "ĠHawaii": 9104,
      "ĠCheval": 9105,
      "Ġexcavations": 9106,
      "Ġemphasis": 9107,
      "Ġscientists": 9108,
      "ĠYankees": 9109,
      "Ġcolumns": 9110,
      "Ġdefinition": 9111,
      "Ġpremiere": 9112,
      "ĠÎ¼": 9113,
      "Ġadaptation": 9114,
      "imetres": 9115,
      "ĠJoshua": 9116,
      "ĠBelgium": 9117,
      "Ġtexts": 9118,
      "Ġinfrastructure": 9119,
      "govina": 9120,
      "Ch": 9121,
      "Malley": 9122,
      "iac": 9123,
      "no": 9124,
      "ss": 9125,
      "time": 9126,
      "xual": 9127,
      "Ġaster": 9128,
      "reck": 9129,
      "edge": 9130,
      "orph": 9131,
      "Ġfoss": 9132,
      "alf": 9133,
      "Ġmines": 9134,
      "Ġmbar": 9135,
      "icia": 9136,
      "Ġdies": 9137,
      "Ġdict": 9138,
      "ĠABC": 9139,
      "Ġthrew": 9140,
      "ĠCP": 9141,
      "adi": 9142,
      "ĠMidge": 9143,
      "ĠMaur": 9144,
      "urer": 9145,
      "otte": 9146,
      "Ġbeats": 9147,
      "ĠRaid": 9148,
      "unch": 9149,
      "ĠDog": 9150,
      "ĠDah": 9151,
      "ĠFarm": 9152,
      "ĠWomen": 9153,
      "ĠNDH": 9154,
      "ĠLet": 9155,
      "ĠLud": 9156,
      "ĠLast": 9157,
      "aguchi": 9158,
      "oples": 9159,
      "Ġvice": 9160,
      "illiant": 9161,
      "ewise": 9162,
      "Ġplus": 9163,
[...]
