{"<pad>":0,"<s>":1,"</s>":2,"<unk>":3,"!":4,"\"":5,"#":6,"$":7,"%":8,"&":9,"'":10,"(":11,")":12,"*":13,"+":14,",":15,"-":16,".":17,"/":18,"0":19,"1":20,"2":21,"3":22,"4":23,"5":24,"6":25,"7":26,"8":27,"9":28,":":29,";":30,"<":31,"=":32,">":33,"?":34,"@":35,"A":36,"B":37,"C":38,"D":39,"E":40,"F":41,"G":42,"H":43,"I":44,"J":45,"K":46,"L":47,"M":48,"N":49,"O":50,"P":51,"Q":52,"R":53,"S":54,"T":55,"U":56,"V":57,"W":58,"X":59,"Y":60,"Z":61,"[":62,"\\":63,"]":64,"^":65,"_":66,"`":67,"a":68,"b":69,"c":70,"d":71,"e":72,"f":73,"g":74,"h":75,"i":76,"j":77,"k":78,"l":79,"m":80,"n":81,"o":82,"p":83,"q":84,"r":85,"s":86,"t":87,"u":88,"v":89,"w":90,"x":91,"y":92,"z":93,"{":94,"|":95,"}":96,"~":97,"¡":98,"¢":99,"£":100,"¤":101,"¥":102,"¦":103,"§":104,"¨":105,"©":106,"ª":107,"«":108,"¬":109,"®":110,"¯":111,"°":112,"±":113,"²":114,"³":115,"´":116,"µ":117,"¶":118,"·":119,"¸":120,"¹":121,"º":122,"»":123,"¼":124,"½":125,"¾":126,"¿":127,"À":128,"Á":129,"Â":130,"Ã":131,"Ä":132,"Å":133,"Æ":134,"Ç":135,"È":136,"É":137,"Ê":138,"Ë":139,"Ì":140,"Í":141,"Î":142,"Ï":143,"Ð":144,"Ñ":145,"Ò":146,"Ó":147,"Ô":148,"Õ":149,"Ö":150,"×":151,"Ø":152,"Ù":153,"Ú":154,"Û":155,"Ü":156,"Ý":157,"Þ":158,"ß":159,"à":160,"á":161,"â":162,"ã":163,"ä":164,"å":165,"æ":166,"ç":167,"è":168,"é":169,"ê":170,"ë":171,"ì":172,"í":173,"î":174,"ï":175,"ð":176,"ñ":177,"ò":178,"ó":179,"ô":180,"õ":181,"ö":182,"÷":183,"ø":184,"ù":185,"ú":186,"û":187,"ü":188,"ý":189,"þ":190,"ÿ":191,"Ā":192,"ā":193,"Ă":194,"ă":195,"Ą":196,"ą":197,"Ć":198,"ć":199,"Ĉ":200,"ĉ":201,"Ċ":202,"ċ":203,"Č":204,"č":205,"Ď":206,"ď":207,"Đ":208,"đ":209,"Ē":210,"ē":211,"Ĕ":212,"ĕ":213,"Ė":214,"ė":215,"Ę":216,"ę":217,"Ě":218,"ě":219,"Ĝ":220,"ĝ":221,"Ğ":222,"ğ":223,"Ġ":224,"ġ":225,"Ģ":226,"ģ":227,"Ĥ":228,"ĥ":229,"Ħ":230,"ħ":231,"Ĩ":232,"ĩ":233,"Ī":234,"ī":235,"Ĭ":236,"ĭ":237,"Į":238,"į":239,"İ":240,"ı":241,"Ĳ":242,"ĳ":243,"Ĵ":244,"ĵ":245,"Ķ":246,"ķ":247,"ĸ":248,"Ĺ":249,"ĺ":250,"Ļ":251,"ļ":252,"Ľ":253,"ľ":254,"Ŀ":255,"ŀ":256,"Ł":257,"ł":258,"Ń":259,"Ġt":260,"he":261,"Ġa":262,"in":263,"Ġthe":264,"er":265,"on":266,"Ġ,":267,"re":268,"Ġs":269,"ed":270,"Ġw":271,"Ġo":272,"nd":273,"Ġ.":274,"at":275,"or":276,"Ġc":277,"it":278,"en":279,"Ġf":280,"is":281,"es":282,"Ġb":283,"ar":284,"Ġof":285,"an":286,"Ġin":287,"al":288,"ing":289,"Ġp":290,"as":291,"Ġand":292,"Ġto":293,"ro":294,"Ġm":295,"ic":296,"Ġd":297,"Ġh":298,"ion":299,"ou":300,"le":301,"ĠT":302,"Ġre":303,"Ġ\"":304,"ent":305,"Ġth":306,"il":307,"ĠS":308,"ĠA":309,"Ġ1":310,"st":311,"Ġl":312,"el":313,"om":314,"am":315,"Ġn":316,"Ġe":317,"ĠC":318,"ad":319,"ac":320,"Ġwas":321,"ur":322,"Ġon":323,"ĠM":324,"ly":325,"ec":326,"Ġg":327,"Ġ'":328,"ol":329,"et":330,"ĠB":331,"id":332,"iv":333,"Ġfor":334,"im":335,"ir":336,"ig":337,"ĠThe":338,"Ġ-":339,"ot":340,"ĠI":341,"ter":342,"Ġas":343,"ow":344,"us":345,"ut":346,"Ġst":347,"ĠH":348,"ith":349,"ay":350,"Ġ2":351,"ver":352,"Ġbe":353,"Ġthat":354,"čĊ":355,"ation":356,"Ġwith":357,"her":358,"ĠP":359,"th":360,"un":361,"ce":362,"ĠR":363,"em":364,"Ġwh":365,"Ġis":366,"Ġby":367,"ul":368,"Ġal":369,"Ġcon":370,"ch":371,"ĠD":372,"and":373,"Ġat":374,"ĠF":375,"Ġ)":376,"Ġ(":377,"ain":378,"os":379,"ers":380,"ĠW":381,"Ġit":382,"ĠN":383,"ct":384,"rom":385,"ĠG":386,"Ġan":387,"ag":388,"Ġ19":389,"av":390,"ĠL":391,"Ġhe":392,"est":393,"um":394,"ĠJ":395,"00":396,"Ġr":397,"ist":398,"od":399,"Ġfrom":400,"ri":401,"Ġcom":402,"ĠE":403,"Ġhis":404,"ap":405,"ĠO":406,"Ġpro":407,"ere":408,"ort":409,"ore":410,"op":411,"if":412,"Ġv":413,"ill":414,"ies":415,"Ġde":416,"ld":417,"Ġsu":418,"Ġwere":419,"res":420,"ong":421,"Ġse":422,"ew":423,"ak":424,"igh":425,"ich":426,"ate":427,"art":428,"ab":429,"all":430,"ard":431,"pp":432,"Ġor":433,"Ġch":434,"ber":435,"ud":436,"ant":437,"ated":438,"gh":439,"Ġex":440,"ity":441,"oc":442,"Ġpl":443,"ess":444,"qu":445,"ear":446,"ame":447,"ĠK":448,"rou":449,"ive":450,"Ġsh":451,"Ġk":452,"Ġhad":453,"Ġare":454,"ack":455,"ect":456,"ĠIn":457,"se":458,"ian":459,"Ġwhich":460,"ĠU":461,"red":462,"our":463,"ast":464,"Ġâ":465,"ment":466,"ov":467,"ge":468,"Ġy":469,"Ġnot":470,"Ġle":471,"ĠSt":472,"Ġsp":473,"ĠâĢ":474,"ip":475,"Ġtr":476,"ally":477,"ine":478,"ord":479,"ell":480,"pt":481,"rit":482,"ost":483,"ust":484,"ight":485,"oun":486,"Ġu":487,"ther":488,"ave":489,"ish":490,"ia":491,"Ġ3":492,"ary":493,"ĠCh":494,"Ġun":495,"Ġinc":496,"og":497,"ra":498,"cc":499,"irst":500,"ous":501,"Ġtheir":502,"Ġcomp":503,"Ġbut":504,"Ġint":505,"Ġcont":506,"fter":507,"so":508,"Ġ200":509,"Ġar":510,"ide":511,"ions":512,"ould":513,"ĠV":514,"out":515,"Ġits":516,"Ġwhe":517,"ial":518,"Ġfirst":519,"ure":520,"wo":521,"Ġ;":522,"ue":523,"hed":524,"ru":525,"own":526,"ff":527,"per":528,"ical":529,"Ġalso":530,"ok":531,"Ġcl":532,"Ġher":533,"ub":534,"ign":535,"ater":536,"ass":537,"Ġab":538,"ome":539,"Ġres":540,"ie":541,"orm":542,"Ġ20":543,"end":544,"ire":545,"Ġad":546,"ork":547,"age":548,"Ġus":549,"Ġro":550,"Ġone":551,"Ġhave":552,"Ġrec":553,"ĠHe":554,"mer":555,"low":556,"ry":557,"ond":558,"Ġ4":559,"Ġper":560,"Ġtwo":561,"Ġbeen":562,"Ġhas":563,"uring":564,"Ġ5":565,"ree":566,"The":567,"ans":568,"ime":569,"land":570,"ĠâĢĵ":571,"ted":572,"ile":573,"ough":574,"ence":575,"Ġwho":576,"Ġ18":577,"Ġthis":578,"pl":579,"ĠTh":580,"Ġag":581,"Ġsc":582,"du":583,"ance":584,"are":585,"Ġbec":586,"iz":587,"Ġdis":588,"Ġapp":589,"lud":590,"Ġj":591,"ition":592,"Ġpart":593,"Ġthey":594,"ts":595,"ade":596,"Ġ:":597,"Ġover":598,"ations":599,"ely":600,"Ġplay":601,"ric":602,"ach":603,"ang":604,"Ġyear":605,"Ġafter":606,"Ġdes":607,"ound":608,"any":609,"Ġen":610,"over":611,"Ġser":612,"Ġoff":613,"Ġother":614,"ik":615,"ory":616,"ib":617,"ĠIt":618,"Ġatt":619,"ĠAl":620,"ite":621,"Ġim":622,"Ġinclud":623,"te":624,"ult":625,"urn":626,"Ġout":627,"Ġ201":628,"ace":629,"ress":630,"ark":631,"ction":632,"ey":633,"ember":634,"ĠY":635,"wn":636,"Ġup":637,"Ġinto":638,"ount":639,"ice":640,"act":641,"Ġpre":642,"rough":643,"Ġfin":644,"Ġtime":645,"ail":646,"we":647,"ens":648,"Ġev":649,"nder":650,"ced":651,"Ġcomm":652,"round":653,"port":654,"Ġte":655,"Ġwould":656,"les":657,"ied":658,"Ġmore":659,"ose":660,"ren":661,"Ġall":662,"oin":663,"ces":664,"Ġshe":665,"Ġhim":666,"Ġwe":667,"amp":668,"tern":669,"ever":670,"Ġ6":671,"ward":672,"ased":673,"ited":674,"ents":675,"able":676,"ason":677,"oy":678,"Ġcent":679,"rib":680,"ĠUn":681,"ings":682,"ors":683,"ates":684,"man":685,"ood":686,"Ġ7":687,"ious":688,"Ġwork":689,"rop":690,"ix":691,"iss":692,"ral":693,"one":694,"ild":695,"aw":696,"Ġsec":697,"Ġsong":698,"Ġbet":699,"Ġfe":700,"Ġrem":701,"ake":702,"old":703,"Ġthem":704,"ase":705,"form":706,"Ġwhen":707,"Ġduring":708,"gan":709,"ep":710,"als":711,"ĠAn":712,"ath":713,"Ġear":714,"ered":715,"orth":716,"Ġcons":717,"ick":718,"vel":719,"Ġdec":720,"att":721,"aus":722,"ved":723,"way":724,"Ġkn":725,"Ġnew":726,"fer":727,"Ġmost":728,"outh":729,"Ġonly":730,"ubl":731,"ss":732,"Ġagain":733,"Ġ8":734,"ollow":735,"ween":736,"ons":737,"Ġgame":738,"ilm":739,"ug":740,"ind":741,"oth":742,"reat":743,"ĠAr":744,"ĠMar":745,"ĠOn":746,"Ġ9":747,"ook":748,"Ġabout":749,"Ġthree":750,"Ġrel":751,"Ġunder":752,"Ġbetween":753,"ft":754,"Ġfl":755,"ock":756,"fore":757,"Ġthan":758,"ters":759,"ann":760,"ict":761,"ron":762,"ational":763,"Ġcol":764,"Ġ00":765,"Ġne":766,"Ġseason":767,"Ġme":768,"Ġthrough":769,"hip":770,"ular":771,"Ġ199":772,"Ġend":773,"Ġchar":774,"Ġlater":775,"olog":776,"Ġwhile":777,"Ġnum":778,"Ġpos":779,"Ġdef":780,"Ġrecord":781,"ob":782,"ĠEn":783,"ve":784,"Ġass":785,"Ġact":786,"orn":787,"hn":788,"iew":789,"ision":790,"Ġpr":791,"Ġfilm":792,"ĠCom":793,"Ġret":794,"Ġsub":795,"Ġreg":796,"Ġwhere":797,"ĠNew":798,"Ġver":799,"Ġmade":800,"ury":801,"Ġpe":802,"ames":803,"meric":804,"Ġrele":805,"Ġbu":806,"ating":807,"Ġlar":808,"Ġwrit":809,"Ġacc":810,"ished":811,"Ġso":812,"ĠAmeric":813,"Ġprodu":814,"ank":815,"ĠSe":816,"Ġinter":817,"Ġform":818,"Ġmov":819,"aid":820,"Ġsome":821,"Ġcan":822,"ener":823,"Ġqu":824,"Ġfollow":825,"ived":826,"Ġfour":827,"Ġac":828,"Ġday":829,"Ġsecond":830,"orld":831,"ual":832,"Ġam":833,"Ġman":834,"Ġmus":835,"Ġspec":836,"Ġbefore":837,"Ġ000":838,"hes":839,"ll":840,"Ġsuch":841,"Ġind":842,"hen":843,"ific":844,"ph":845,"bum":846,"Ġused":847,"Ġgr":848,"ike":849,"iel":850,"Ġsupp":851,"In":852,"Ġcall":853,"Ġbeing":854,"lect":855,"ĠSc":856,"Ġpubl":857,"Ġthere":858,"Ġhigh":859,"Ġep":860,"Ġ12":861,"ĠThis":862,"ily":863,"iver":864,"owever":865,"Ġdo":866,"Ġmon":867,"uc":868,"erm":869,"ton":870,"ained":871,"ĠLe":872,"Ġset":873,"Ġalbum":874,"ane":875,"Ġyears":876,"Ġent":877,"ines":878,"ĠSh":879,"Ġfound":880,"Ġsur":881,"Ġ10":882,"Ġ0":883,"ics":884,"ars":885,"ised":886,"Ġbl":887,"Ġco":888,"aj":889,"Ġsy":890,"ĠAt":891,"Ġloc":892,"Ġnumber":893,"Ġno":894,"pen":895,"ĠAust":896,"other":897,"Ġagainst":898,"ĠBrit":899,"Ġsever":900,"ĠJo":901,"Ġinv":902,"ject":903,"ode":904,"Ġthen":905,"ird":906,"igin":907,"ek":908,"Ġseries":909,"ĠEng":910,"io":911,"Ġcap":912,"Ġincluding":913,"Ġwell":914,"ten":915,"ale":916,"ities":917,"ause":918,"Ġepis":919,"son":920,"Ġboth":921,"ince":922,"ier":923,"urch":924,"ĠRe":925,"Ġbecame":926,"Ġpres":927,"ĠAs":928,"Ġ16":929,"velop":930,"Ġback":931,"irect":932,"ise":933,"Ġperform":934,"Ġem":935,"ĠâĢĶ":936,"ĠZ":937,"row":938,"Ġpop":939,"Ġadd":940,"ident":941,"Ġsing":942,"Ġ/":943,"though":944,"its":945,"Ġknown":946,"Ġmain":947,"Ġteam":948,"Ġcharac":949,"Ġexp":950,"Ġrep":951,"ield":952,"ĠBr":953,"ning":954,"uch":955,"Ġconc":956,"ather":957,"Ġgo":958,"ful":959,"ool":960,"Ġdep":961,"ĠAustral":962,"ife":963,"Ġtrans":964,"Ġ198":965,"ement":966,"Ġlong":967,"iet":968,"ert":969,"Ġmin":970,"ĠUnited":971,"Ġmany":972,"ower":973,"led":974,"air":975,"ures":976,"Ġcontin":977,"Ġrece":978,"Ġorigin":979,"overn":980,"ram":981,"Ġbr":982,"Ġ15":983,"Ġstud":984,"Ġshow":985,"Ġseveral":986,"ross":987,"Ġdesc":988,"az":989,"ute":990,"Ġcentury":991,"ative":992,"Ġcre":993,"elf":994,"ober":995,"Ġsm":996,"Ġest":997,"Ġbegan":998,"Ġ11":999,"Ġmill":1000,"up":1001,"Ġmet":1002,"Ġdevelop":1003,"ins":1004,"ared":1005,"der":1006,"ivers":1007,"pr":1008,"Ġpol":1009,"emb":1010,"ĠShe":1011,"ired":1012,"Ġalong":1013,"Ġ17":1014,"ĠInd":1015,"ern":1016,"ley":1017,"Ġlead":1018,"Ġdid":1019,"Ġpo":1020,"Ġcomple":1021,"ains":1022,"iam":1023,"Ġsign":1024,"ually":1025,"ued":1026,"til":1027,"ĠJohn":1028,"Ġext":1029,"Ġrev":1030,"anc":1031,"Ġdirect":1032,"Ġart":1033,"Ġcity":1034,"Ġcould":1035,"Ġdown":1036,"ized":1037,"Ġepisode":1038,"Ġdif":1039,"ments":1040,"oot":1041,"els":1042,"Ġob":1043,"Ġ194":1044,"ting":1045,"Ġmil":1046,"Ġnear":1047,"Ġrun":1048,"Ġ196":1049,"Ġcrit":1050,"une":1051,"roup":1052,"Ġearly":1053,"au":1054,"Ġbel":1055,"yl":1056,"ient":1057,"Ġcalled":1058,"ured":1059,"Ġbro":1060,"Ġmay":1061,"Ġsaid":1062,"aking":1063,"Ġcar":1064,"ah":1065,"Ġ197":1066,"ĠMay":1067,"ĠBritish":1068,"ople":1069,"ccess":1070,"Ġoper":1071,"ĠAmerican":1072,"Ġthese":1073,"Ġinst":1074,"Ġinf":1075,"Ġwar":1076,"Ġship":1077,"Ġfeat":1078,"Ġmat":1079,"rap":1080,"Ġins":1081,"Ġuntil":1082,"Ġdescrib":1083,"ists":1084,"Ġdisc":1085,"Ġimp":1086,"Ġresp":1087,"ange":1088,"imes":1089,"Ġair":1090,"ull":1091,"Ġland":1092,"Ġprov":1093,"gest":1094,"Ġdist":1095,"Ġprev":1096,"Ġany":1097,"ruct":1098,"ty":1099,"Ġstart":1100,"Ġkm":1101,"ided":1102,"Ġhist":1103,"Ġreturn":1104,"amed":1105,"Ġarea":1106,"ially":1107,"ven":1108,"Ġthough":1109,"ĠIs":1110,"Ġopen":1111,"xt":1112,"ink":1113,"enn":1114,"Ġconst":1115,"yp":1116,"Ġattack":1117,"Ġdesign":1118,"Ġown":1119,"Ġpass":1120,"ĠCon":1121,"Ġstr":1122,"hy":1123,"Ġgener":1124,"Ġsame":1125,"Ġmusic":1126,"osed":1127,"Ġbecause":1128,"Ġsupport":1129,"Ġaround":1130,"Ġreleased":1131,"Ġoffic":1132,"Ġocc":1133,"Ġnorth":1134,"ove":1135,"ible":1136,"my":1137,"ĠThey":1138,"Ġeff":1139,"Ġgovern":1140,"Ġsuccess":1141,"ĠAug":1142,"ĠBl":1143,"ĠFr":1144,"ajor":1145,"ĠAugust":1146,"ouse":1147,"cept":1148,"ĠWh":1149,"Ġ13":1150,"Ġsix":1151,"Ã©":1152,"Ġsim":1153,"ash":1154,"Ġgu":1155,"oss":1156,"ĠWar":1157,"Ġuse":1158,"Ġsmall":1159,"Ġpeople":1160,"Ġappear":1161,"Ġlike":1162,"Ġmillion":1163,"Ġfam":1164,"uth":1165,"ues":1166,"ĠCar":1167,"ĠUS":1168,"ium":1169,"erson":1170,"ĠSept":1171,"Ġadv":1172,"Ġcount":1173,"stem":1174,"ĠSp":1175,"ism":1176,"Ġhead":1177,"Ġgroup":1178,"chool":1179,"ĠSeptember":1180,"ets":1181,"ĠAfter":1182,"ĠChr":1183,"und":1184,"Ġ%":1185,"aining":1186,"Ġpoin":1187,"Ġ195":1188,"Ġwin":1189,"oman":1190,"Ġeach":1191,"Ġcharacter":1192,"Ġfollowing":1193,"ales":1194,"Ġdam":1195,"erv":1196,"eb":1197,"Ġcontro":1198,"Ġconsid":1199,"Ġfive":1200,"ĠCl":1201,"ĠHowever":1202,"Ġlarge":1203,"Ġele":1204,"ĠJu":1205,"Ġmod":1206,"Ġann":1207,"ilt":1208,"ĠCol":1209,"ĠComm":1210,"wards":1211,"aced":1212,"Ġbatt":1213,"ives":1214,"ole":1215,"Ġed":1216,"Ġever":1217,"Ġreport":1218,"Ġsouth":1219,"ology":1220,"aving":1221,"ony":1222,"Ġvar":1223,"ended":1224,"Ġprom":1225,"ording":1226,"cl":1227,"ution":1228,"ĠAd":1229,"ĠNorth":1230,"Ġ191":1231,"ately":1232,"Ġstate":1233,"ĠSouth":1234,"Ġ193":1235,"Ġdr":1236,"ĠJune":1237,"ored":1238,"Ġweek":1239,"ians":1240,"med":1241,"ĠStates":1242,"Ġtook":1243,"Ġ14":1244,"ĠWorld":1245,"tle":1246,"ck":1247,"ural":1248,"ats":1249,"Ġfinal":1250,"Ġsince":1251,"ĠGer":1252,"Ġwill":1253,"ĠQ":1254,"Ġmajor":1255,"ected":1256,"Ġreceived":1257,"ĠJan":1258,"Ġpublic":1259,"lish":1260,"ĠAll":1261,"Ġbook":1262,"empt":1263,"Ġpartic":1264,"Ġrest":1265,"ĠGu":1266,"ont":1267,"ox":1268,"iving":1269,"ling":1270,"ĠPl":1271,"Ġplayed":1272,"ĠII":1273,"Ġhel":1274,"urop":1275,"Ġtit":1276,"ĠHer":1277,"ĠOct":1278,"by":1279,"gin":1280,"ery":1281,"ified":1282,"Ġlast":1283,"aim":1284,"uary":1285,"ble":1286,"Ġsystem":1287,"hel":1288,"rote":1289,"Ġline":1290,"Ġwhat":1291,"ĠTr":1292,"Ġincre":1293,"ĠMe":1294,"Ġprot":1295,"ĠOctober":1296,"Ġ$":1297,"ility":1298,"ivision":1299,"ague":1300,"Ġbuild":1301,"ina":1302,"Ġnow":1303,"Ġname":1304,"dom":1305,"Ġlate":1306,"Ġgun":1307,"ax":1308,"Ġconf":1309,"aged":1310,"ĠFor":1311,"ional":1312,"ively":1313,"ection":1314,"Ġdet":1315,"Ġport":1316,"ants":1317,"..":1318,"Ġref":1319,"ĠDe":1320,"Ġjust":1321,"Ġdescribed":1322,"ĠChrist":1323,"Ġlife":1324,"ĠNov":1325,"ĠJuly":1326,"ined":1327,"ĠKing":1328,"ham":1329,"ody":1330,"Ġincluded":1331,"Ġdue":1332,"Ġarr":1333,"Ġclass":1334,"Ġmuch":1335,"ĠDec":1336,"ages":1337,"Ġcamp":1338,"Ġsingle":1339,"get":1340,"omet":1341,"esp":1342,"ĠMc":1343,"Ġ25":1344,"Ġwon":1345,"Ġwrote":1346,"Ġshort":1347,"ke":1348,"Ġanother":1349,"Ġattempt":1350,"Ġ...":1351,"ae":1352,"Ġgovernment":1353,"ideo":1354,"Ġallow":1355,"Ġleft":1356,"Ġkill":1357,"Ġworld":1358,"Ġalthough":1359,"ple":1360,"Ġtri":1361,"Ġappro":1362,"Ġsl":1363,"ently":1364,"Ġserv":1365,"iod":1366,"Ġmar":1367,"Ġfur":1368,"ĠCan":1369,"ĠJanuary":1370,"Ġbased":1371,"ai":1372,"ret":1373,"ĠYork":1374,"omin":1375,"Ġevent":1376,"ically":1377,"Ġeven":1378,"Ġmen":1379,"ĠGr":1380,"ropical":1381,"Ġnamed":1382,"ĠEurop":1383,"ission":1384,"Ġposs":1385,"Ġold":1386,"ball":1387,"ards":1388,"Ġturn":1389,"ital":1390,"Ġplace":1391,"Ġ30":1392,"arl":1393,"Ġtop":1394,"ĠBe":1395,"ulation":1396,"Ġvis":1397,"Ġdeath":1398,"eng":1399,"Ġdiffer":1400,"idge":1401,"Ġtrack":1402,"Ġbuilt":1403,"ped":1404,"Ġif":1405,"avy":1406,"Ġprog":1407,"Ġthird":1408,"Ġstorm":1409,"Ġwithin":1410,"Ġorgan":1411,"itions":1412,"ech":1413,"sion":1414,"Ġvery":1415,"Ġestab":1416,"ĠGerman":1417,"Ġchild":1418,"ĠMarch":1419,"Ġbelie":1420,"Ġpower":1421,"Ġprevious":1422,"ched":1423,"ness":1424,"Ġgames":1425,"Ġcour":1426,"Ġcommand":1427,"aur":1428,"Ġway":1429,"ances":1430,"itary":1431,"Ġschool":1432,"ĠApr":1433,"ung":1434,"ĠDecember":1435,"ĠApril":1436,"Ġwater":1437,"Ġbre":1438,"ĠRiver":1439,"Ġcare":1440,"Ġlit":1441,"amb":1442,"Ġreview":1443,"Ġexpl":1444,"raft":1445,"Ġhome":1446,"ĠEngland":1447,"ĠNovember":1448,"aff":1449,"ilar":1450,"ached":1451,"hest":1452,"Ġhum":1453,"Ġspecies":1454,"Ġbest":1455,"iven":1456,"Ġsent":1457,"Ġcr":1458,"ene":1459,"Ġthose":1460,"Ġperiod":1461,"ms":1462,"Ġfamily":1463,"anes":1464,"ops":1465,"Ġhal":1466,"que":1467,"Ġhand":1468,"ĠEurope":1469,"ĠÂ":1470,"ison":1471,"Ġmake":1472,"Ġ192":1473,"Ġmonth":1474,"akes":1475,"ĠPro":1476,"ĠJap":1477,"Ġgreat":1478,"Ġcapt":1479,"Ġstory":1480,"ĠAnd":1481,"Ġopp":1482,"Ġrequ":1483,"eder":1484,"Ġperson":1485,"Ġdem":1486,"oci":1487,"arr":1488,"aster":1489,"ograp":1490,"Ġoriginal":1491,"Ġph":1492,"elt":1493,"Ġlist":1494,"ience":1495,"arn":1496,"Ġvideo":1497,"Ġ100":1498,"por":1499,"Ġeng":1500,"oad":1501,"Ġmed":1502,"Ġled":1503,"Ġauth":1504,"ĠPr":1505,"line":1506,"Ġtyp":1507,"ĠHis":1508,"ĠGe":1509,"ĠNational":1510,"ature":1511,"ĠCity":1512,"ruction":1513,"Ġleg":1514,"ged":1515,"Ġrepl":1516,"ention":1517,"iversity":1518,"gy":1519,"Ġlocal":1520,"Ġterm":1521,"ps":1522,"self":1523,"ented":1524,"Ġrole":1525,"Ġcontinued":1526,"ne":1527,"ner":1528,"let":1529,"Ġside":1530,"oard":1531,"ences":1532,"ott":1533,"rench":1534,"Ġdest":1535,"Ġstill":1536,"Ġnext":1537,"side":1538,"aken":1539,"Ġcame":1540,"ger":1541,"sh":1542,"Ġfew":1543,"Ġsug":1544,"Ġmark":1545,"ady":1546,"ĠMan":1547,"ĠMus":1548,"Ġiss":1549,"Ġcaus":1550,"Ġmoved":1551,"alk":1552,"ides":1553,"Ġbas":1554,"riend":1555,"Ġforces":1556,"Ġstar":1557,"embers":1558,"lev":1559,"ense":1560,"astern":1561,"Ġmy":1562,"ival":1563,"Ġclaim":1564,"Ġresult":1565,"Ġwest":1566,"Ġview":1567,"Ġ2010":1568,"urric":1569,"Ġmid":1570,"uted":1571,"Ġaddition":1572,"Ġoften":1573,"ĠBro":1574,"Ġstand":1575,"ĠChurch":1576,"ĠBatt":1577,"Ġsold":1578,"Ġwind":1579,"ĠPh":1580,"Ġright":1581,"Ġexper":1582,"Ġclub":1583,"ĠBy":1584,"Ġheld":1585,"Ġant":1586,"Ġ2009":1587,"Ġeffect":1588,"Ġfurther":1589,"ior":1590,"mp":1591,"inc":1592,"atter":1593,"Ġinit":1594,"Ġpolit":1595,"Ġtot":1596,"Ġplayer":1597,"ĠFl":1598,"Ġroad":1599,"rew":1600,"ĠFrench":1601,"Ġlevel":1602,"Ġconsidered":1603,"ays":1604,"Ġpar":1605,"Ġformer":1606,"Ġdefe":1607,"Ġrecorded":1608,"ler":1609,"ĠNo":1610,"Ġcompany":1611,"Ġsuggest":1612,"ories":1613,"Ġdeb":1614,"ister":1615,"Ġsimilar":1616,"Ġwithout":1617,"ĠDuring":1618,"Ġ2008":1619,"Ġcommon":1620,"ĠAustralian":1621,"ĠOr":1622,"eal":1623,"ves":1624,"Ġcontr":1625,"Ġreal":1626,"estern":1627,"Ġeast":1628,"int":1629,"ĠTe":1630,"ĠThere":1631,"uss":1632,"ĠWill":1633,"Ġtrad":1634,"Ġamong":1635,"Ġtake":1636,"Ġtown":1637,"Ġtw":1638,"Ġfr":1639,"Ġhalf":1640,"Ġimport":1641,"Ġcover":1642,"ĠWe":1643,"Ġinfl":1644,"Ġdifferent":1645,"Ġmilitary":1646,"roy":1647,"Ġsongs":1648,"Ġfore":1649,"Ġdel":1650,"ript":1651,"Ġposition":1652,"Ġevery":1653,"ead":1654,"Ġconv":1655,"Ġstrong":1656,"Ġtem":1657,"Ġcommun":1658,"ches":1659,"itar":1660,"Ġmembers":1661,"Ġnort":1662,"ront":1663,"Ġfield":1664,"Ġhowever":1665,"Ġjoin":1666,"ternational":1667,"Ġdays":1668,"Ġband":1669,"Ġyou":1670,"Ġav":1671,"ĠCount":1672,"bs":1673,"ipp":1674,"ĠState":1675,"par":1676,"aul":1677,"raw":1678,"ebru":1679,"ĠAf":1680,"Ġ21":1681,"Ġrefer":1682,"Ġinvol":1683,"ensive":1684,"ccording":1685,"ĠWhen":1686,"Ġprop":1687,"Ġbeh":1688,"Ġarch":1689,"be":1690,"Ġel":1691,"Ġlow":1692,"Ġvict":1693,"Ġfind":1694,"Ġpublished":1695,"ĠEnglish":1696,"Ġ23":1697,"hern":1698,"ĠFebru":1699,"ĠFebruary":1700,"Ġelect":1701,"ploy":1702,"Ġparticular":1703,"Ġcur":1704,"outher":1705,"Ġspe":1706,"err":1707,"Ġmag":1708,"Ġorder":1709,"ĠOne":1710,"ried":1711,"Ġmatch":1712,"Ġfre":1713,"ĠAb":1714,"ots":1715,"ize":1716,"Ġrepres":1717,"Ġhistory":1718,"outhern":1719,"rodu":1720,"lear":1721,"ĠPort":1722,"urricane":1723,"Ġfire":1724,"ising":1725,"Ġ24":1726,"Ġ2007":1727,"ering":1728,"Ġ22":1729,"ĠGener":1730,"Ġbecome":1731,"Ġcontrol":1732,"Ġtotal":1733,"Ġfoot":1734,"ĠDivision":1735,"Ġwritten":1736,"ices":1737,"arm":1738,"ĠComp":1739,"Ġauthor":1740,"Ġcompet":1741,"Ġrelease":1742,"ĠAustralia":1743,"Ġpost":1744,"app":1745,"sequ":1746,"ailed":1747,"augh":1748,"ĠAm":1749,"Ġprof":1750,"ĠCanad":1751,"Ġgave":1752,"ush":1753,"enc":1754,"Ġproject":1755,"aly":1756,"Ġhaving":1757,"aces":1758,"eter":1759,"Ġsit":1760,"Ġ2011":1761,"aying":1762,"alion":1763,"Ġlost":1764,"Ġ26":1765,"Ġchang":1766,"reen":1767,"atic":1768,"Ġreported":1769,"Ġ2006":1770,"yle":1771,"ĠPer":1772,"ĠEd":1773,"Ġtitle":1774,"yn":1775,"ĠWest":1776,"reet":1777,"Ġversion":1778,"Ġtimes":1779,"ones":1780,"ape":1781,"ĠMich":1782,"Ġground":1783,"levision":1784,"Ġless":1785,"Ġcomb":1786,"Ġsignific":1787,"ĠPar":1788,"ĠPark":1789,"ampions":1790,"Ġsol":1791,"Ġchurch":1792,"Ġsurv":1793,"isc":1794,"Ġtour":1795,"Ġproduced":1796,"Ġwant":1797,"Ġaff":1798,"Ġpoint":1799,"ĠRich":1800,"ably":1801,"Ġsite":1802,"ille":1803,"ĠMin":1804,"Ġgiven":1805,"ression":1806,"ĠMiss":1807,"ĠAfric":1808,"Ġsk":1809,"Ġeight":1810,"Ġpopulation":1811,"Ġpat":1812,"iment":1813,"Ġ28":1814,"ĠAss":1815,"Ġstated":1816,"oung":1817,"Ġhistor":1818,"Ġnever":1819,"Ġcountry":1820,"ours":1821,"Ġ50":1822,"reek":1823,"iety":1824,"Ġcritic":1825,"Ġreturned":1826,"work":1827,"af":1828,"ald":1829,"ĠAir":1830,"osp":1831,"Ġcareer":1832,"Ġinflu":1833,"Ġtropical":1834,"ĠSong":1835,"Ġinclude":1836,"Ġpopular":1837,"ylan":1838,"Ġships":1839,"Ġequ":1840,"Ġobs":1841,"oon":1842,"Ġpress":1843,"Ġoccur":1844,"ĠGeneral":1845,"used":1846,"Ġtro":1847,"Ġmaking":1848,"Ġisland":1849,"ĠEl":1850,"Ġshould":1851,"ĠBar":1852,"ĠRoman":1853,"rent":1854,"fic":1855,"Ġ!":1856,"ĠX":1857,"On":1858,"ges":1859,"sp":1860,"Ġ2012":1861,"Ġproduction":1862,"vers":1863,"Ġmanag":1864,"Ġ190":1865,"ĠGeor":1866,"Ġnov":1867,"ĠCent":1868,"me":1869,"Ġlight":1870,"echn":1871,"ĠScient":1872,"uck":1873,"Ġstruct":1874,"Ġord":1875,"Ġprogram":1876,"oll":1877,"Ġacross":1878,"Ġseen":1879,"Ġdestroy":1880,"Ã¡":1881,"Ġreached":1882,"anese":1883,"Ġbo":1884,"Ġforce":1885,"ĠSu":1886,"Ġnight":1887,"Ġsignificant":1888,"ination":1889,"ator":1890,"omen":1891,"Ġnoted":1892,"Ġbody":1893,"ĠThese":1894,"aun":1895,"ither":1896,"Ġft":1897,"ask":1898,"rick":1899,"Ġfeet":1900,"ford":1901,"Ġhow":1902,"Ġlim":1903,"Ġstat":1904,"ream":1905,"Ġfriend":1906,"Ġdeveloped":1907,"Ġcy":1908,"Ġcat":1909,"ades":1910,"Ġblack":1911,"Ġestabl":1912,"esc":1913,"ĠWith":1914,"Ġmiles":1915,"Ġchildren":1916,"ration":1917,"iness":1918,"omb":1919,"ĠDylan":1920,"Ġannoun":1921,"iec":1922,"Ġsound":1923,"Ġcast":1924,"irc":1925,"Ġearl":1926,"ev":1927,"ĠUniversity":1928,"Ġthroughout":1929,"ĠLeague":1930,"ĠWilliam":1931,"ying":1932,"Ġaway":1933,"ĠAccording":1934,"igade":1935,"Ġhimself":1936,"Ġcor":1937,"Ġdiv":1938,"ĠAmerica":1939,"Ġthought":1940,"Ġsoc":1941,"Ġpur":1942,"cess":1943,"Ġcult":1944,"Ġfem":1945,"Ġpra":1946,"Ġ27":1947,"Ġ2013":1948,"ef":1949,"Ġwat":1950,"Ġgen":1951,"ope":1952,"ĠAlthough":1953,"Ġpresent":1954,"Ġgood":1955,"imately":1956,"Ġ29":1957,"ization":1958,"ĠLond":1959,"Ġplan":1960,"ĠAng":1961,"Ġestablished":1962,"aign":1963,"na":1964,"Ġareas":1965,"reg":1966,"Ġfact":1967,"utes":1968,"ĠDav":1969,"Ġrad":1970,"eared":1971,"Ġsomet":1972,"aint":1973,"Ġsuff":1974,"aren":1975,"Ġperformed":1976,"Ġintrodu":1977,"Ġusing":1978,"ĠLondon":1979,"Ġ&":1980,"ĠSim":1981,"ivil":1982,"Ġseven":1983,"Ġsuccessful":1984,"Ġcross":1985,"Ġfelt":1986,"Ġhig":1987,"ĠCor":1988,"Ġwhite":1989,"ords":1990,"Ġfull":1991,"Ġlaw":1992,"Ġadm":1993,"Ġdecl":1994,"Ġwent":1995,"ĠCounty":1996,"Ġchart":1997,"Ġperformance":1998,"ĠJapanese":1999,"Ġche":2000,"Ġgod":2001,"Ġvarious":2002,"Ġkilled":2003,"Ġide":2004,"ĠOld":2005,"Ġtrav":2006,"Ġprim":2007,"gr":2008,"isted":2009,"Ġhouse":2010,"ĠJack":2011,"field":2012,"Ġgl":2013,"Ġfather":2014,"Ġred":2015,"ster":2016,"Ġtelevision":2017,"reland":2018,"Ġtoo":2019,"ries":2020,"Ġplayers":2021,"Ġinterest":2022,"Ġdevelopment":2023,"Ġbuilding":2024,"Ġsqu":2025,"Ġlook":2026,"idence":2027,"Ġstarted":2028,"Ġbattle":2029,"ael":2030,"itted":2031,"Ġput":2032,"Ġmm":2033,"Ġpolitical":2034,"ĠPol":2035,"Ġactiv":2036,"craft":2037,"tain":2038,"Ġfun":2039,"ampionship":2040,"com":2041,"most":2042,"Ġten":2043,"Ġsw":2044,"ĠEv":2045,"Ġimportant":2046,"iers":2047,"Ġrange":2048,"Ġofficial":2049,"Ġcoun":2050,"ĠRoad":2051,"ĠReg":2052,"itive":2053,"Ġfight":2054,"Ġdied":2055,"ĠIreland":2056,"Ġneed":2057,"ological":2058,"Ġwriting":2059,"br":2060,"Ġhighway":2061,"Ġhuman":2062,"Ġwid":2063,"ĠCal":2064,"Ġformed":2065,"Ġcas":2066,"ief":2067,"Ġconstruction":2068,"antic":2069,"Ġrelig":2070,"Ġmodern":2071,"Ġcou":2072,"ĠHigh":2073,"ĠRoy":2074,"Ġsee":2075,"iting":2076,"alth":2077,"Ġremained":2078,"Ġcaused":2079,"Ġfac":2080,"Ġcreated":2081,"Ġdiscover":2082,"Ġpromot":2083,"Ġfront":2084,"Ġget":2085,"ĠRober":2086,"ĠArmy":2087,"Ġlocated":2088,"Ġdoes":2089,"ĠBlack":2090,"ney":2091,"view":2092,"antry":2093,"Ġevents":2094,"con":2095,"Ġmix":2096,"Ġable":2097,"Ġage":2098,"Ġbegin":2099,"Ġvill":2100,"ĠAtl":2101,"Ġtechn":2102,"Ġball":2103,"ogn":2104,"Ġcampaign":2105,"Ġsum":2106,"ressed":2107,"day":2108,"Ġtre":2109,"elling":2110,"Ġfollowed":2111,"Ġread":2112,"odes":2113,"Ġcoast":2114,"asing":2115,"ico":2116,"Ġlik":2117,"ĠGl":2118,"Ġke":2119,"Ġguns":2120,"Ġste":2121,"abor":2122,"Ġ189":2123,"Ġserved":2124,"Ġregion":2125,"Ġpri":2126,"eth":2127,"Ġcompleted":2128,"ĠHa":2129,"Ġrock":2130,"Äģ":2131,"ĠMag":2132,"ĠJames":2133,"ficult":2134,"enth":2135,"ĠCare":2136,"Ġbecom":2137,"ĠIsland":2138,"ument":2139,"iff":2140,"ĠâĢĻ":2141,"Ġrelations":2142,"Ġbar":2143,"less":2144,"ÃŃ":2145,"Ġson":2146,"Ġonce":2147,"Ġdifficult":2148,"ino":2149,"Ġfav":2150,"Ġpit":2151,"leet":2152,"ĠSw":2153,"ĠCro":2154,"Ġstyle":2155,"epend":2156,"fall":2157,"aves":2158,"Ġcharacters":2159,"Ġer":2160,"rest":2161,"duct":2162,"Ġsouthern":2163,"Ġheavy":2164,"rought":2165,"Ġentire":2166,"ĠScientology":2167,"ĠEx":2168,"Ġroute":2169,"Ġmeet":2170,"Ġtroops":2171,"Ġnational":2172,"Ġothers":2173,"Ġadded":2174,"Ġloss":2175,"Ġeastern":2176,"ivid":2177,"Ġrank":2178,"Ġoriginally":2179,"enced":2180,"idd":2181,"Ġcomment":2182,"Ġmonths":2183,"Ġagre":2184,"lected":2185,"ĠWhile":2186,"Ġlittle":2187,"ique":2188,"ring":2189,"orse":2190,"Ġcirc":2191,"ality":2192,"Ġ2005":2193,"Ġscored":2194,"Ġannounced":2195,"here":2196,"Ġpred":2197,"osaur":2198,"ample":2199,"Ġ31":2200,"ublic":2201,"Ġpeak":2202,"Ġinstead":2203,"off":2204,"Ġident":2205,"Ġleast":2206,"Ġappeared":2207,"Ġassoci":2208,"Ġhold":2209,"ĠOl":2210,"Ġval":2211,"Ġ40":2212,"ĠTown":2213,"ems":2214,"Ġnovel":2215,"Ġcert":2216,"Ġbus":2217,"Ġgrow":2218,"Ġarm":2219,"ought":2220,"Ġhelp":2221,"mar":2222,"Ġaud":2223,"Ġknow":2224,"Ġcritics":2225,"Ġfig":2226,"ana":2227,"Ġworks":2228,"Ġcolle":2229,"errit":2230,"ara":2231,"ĠPal":2232,"Ġaccom":2233,"Ġtradition":2234,"ĠCompany":2235,"cil":2236,"Ġbird":2237,"Ġsuper":2238,"ĠNe":2239,"Ġprocess":2240,"ountain":2241,"Ġproduc":2242,"ĠSom":2243,"Ġexc":2244,"Ġenc":2245,"ki":2246,"ĠSec":2247,"Ġ2004":2248,"Ġconn":2249,"umb":2250,"ects":2251,"ĠKingdom":2252,"sc":2253,"unk":2254,"ĠRec":2255,"play":2256,"Ġgoal":2257,"Ġredu":2258,"ĠFeder":2259,"Ġstri":2260,"Ġdecided":2261,"ĠSy":2262,"Ġlive":2263,"Ġbroad":2264,"oid":2265,"Ġaver":2266,"Ġfort":2267,"Ġanim":2268,"Ġbehind":2269,"oice":2270,"Ġtowards":2271,"Ġvol":2272,"ĠCarey":2273,"Ġbase":2274,"Ġmi":2275,"Ġmass":2276,"ĠHam":2277,"Ġcond":2278,"ĠYou":2279,"arch":2280,"Ġlack":2281,"Ġstars":2282,"ements":2283,"Ġking":2284,"Ġappoin":2285,"ways":2286,"Ġsubsequ":2287,"Ġestim":2288,"Ġeventually":2289,"ĠGrand":2290,"ĠTo":2291,"Ġ188":2292,"Ġtest":2293,"Ġfif":2294,"ament":2295,"Ġcommer":2296,"Ġaward":2297,"Ġfall":2298,"Ġnon":2299,"ĠCr":2300,"ĠBill":2301,"rict":2302,"Ġimpro":2303,"Ġnorthern":2304,"ĠHar":2305,"ĠChar":2306,"ĠMon":2307,"ĠMor":2308,"ett":2309,"Ġstage":2310,"Ġ185":2311,"Ġspecial":2312,"Ġfeatured":2313,"Ġtaken":2314,"Ġsaw":2315,"urb":2316,"Ġborn":2317,"Ġmother":2318,"acy":2319,"Ġsepar":2320,"Ġfeatures":2321,"ĠMad":2322,"emy":2323,"mb":2324,"Ġtoget":2325,"Ġindivid":2326,"Ġtogether":2327,"ĠAct":2328,"Ġnuc":2329,"Ġcoll":2330,"Ġwomen":2331,"Ġfar":2332,"Ġhurricane":2333,"Ġra":2334,"Ġyoung":2335,"ius":2336,"istic":2337,"Ġyards":2338,"Ġplaying":2339,"Ġfourth":2340,"ators":2341,"ency":2342,"Ġwife":2343,"Ġdou":2344,"Ġask":2345,"aper":2346,"Ġclos":2347,"Ġinsp":2348,"Ġaircraft":2349,"hys":2350,"Ġcut":2351,"Ġmiss":2352,"Ġrecogn":2353,"azine":2354,"Ġopened":2355,"Ġrelationship":2356,"ata":2357,"Ġsex":2358,"Ġcrew":2359,"ĠMcC":2360,"Ġprofess":2361,"Ġbrought":2362,"ceed":2363,"chie":2364,"oute":2365,"Ġclose":2366,"Ġfinished":2367,"ĠIndian":2368,"Ġoperations":2369,"hic":2370,"read":2371,"Ġbelieved":2372,"ĠBattalion":2373,"ĠDavid":2374,"Ġaction":2375,"ecut":2376,"Ġdev":2377,"Ġexample":2378,"Ġlet":2379,"ollowing":2380,"Ġmove":2381,"Ġemploy":2382,"Ġdamage":2383,"gg":2384,"oo":2385,"Ġz":2386,"oring":2387,"Ġmot":2388,"ĠSl":2389,"Ġeither":2390,"iron":2391,"ĠWales":2392,"Ġweeks":2393,"ĠRobert":2394,"ota":2395,"ĠIr":2396,"Ġalmost":2397,"ending":2398,"Ġround":2399,"ĠSer":2400,"ĠCup":2401,"ully":2402,"Ġarg":2403,"iber":2404,"ston":2405,"ama":2406,"ĠStreet":2407,"ights":2408,"ĠFrance":2409,"Ġrepresent":2410,"ĠEar":2411,"ĠEast":2412,"Ġproble":2413,"Ġleading":2414,"cher":2415,"ned":2416,"Ġcreat":2417,"Ġbi":2418,"Ġren":2419,"Ġreach":2420,"Ġaccept":2421,"Ġopening":2422,"Ġwall":2423,"Ġburn":2424,"ĠRoyal":2425,"iol":2426,"Ġcell":2427,"olution":2428,"artment":2429,"Ġcentral":2430,"Ġlargest":2431,"Ġdirected":2432,"Ġgeneral":2433,"ĠMex":2434,"Ġcourt":2435,"Ġmater":2436,"Ġlaun":2437,"ĠHill":2438,"Ġrul":2439,"Ġquar":2440,"medi":2441,"ee":2442,"iation":2443,"ened":2444,"Ġdraw":2445,"ĠPres":2446,"aps":2447,"Ġunits":2448,"wood":2449,"igned":2450,"Ġregular":2451,"Ġprovided":2452,"ih":2453,"Ġce":2454,"anch":2455,"stit":2456,"ĠRock":2457,"Ġvoc":2458,"illa":2459,"Ġ35":2460,"Ġ500":2461,"Ġpoints":2462,"Ġservice":2463,"ĠMer":2464,"ĠBer":2465,"Ġflood":2466,"cial":2467,"alt":2468,"Ġhit":2469,"Ġreb":2470,"ĠRep":2471,"ĠGod":2472,"ĠGerm":2473,"orts":2474,"itt":2475,"Ġ2003":2476,"Ġrespect":2477,"arliam":2478,"Ġcost":2479,"Ġsequ":2480,"ĠThom":2481,"Ġupon":2482,"ĠBrigade":2483,"Ġelements":2484,"Ġvictory":2485,"ica":2486,"ential":2487,"ĠRoute":2488,"angu":2489,"sel":2490,"Ġinform":2491,"Ġriver":2492,"ishing":2493,"Ġgenerally":2494,"Ġmember":2495,"Ġindust":2496,"Ġdirector":2497,"ength":2498,"cast":2499,"ground":2500,"hing":2501,"Ġsaying":2502,"Ġcase":2503,"Ġhon":2504,"Ġhost":2505,"ĠHen":2506,"ump":2507,"anned":2508,"ĠWhite":2509,"board":2510,"icated":2511,"ida":2512,"Ġconduct":2513,"Ġrather":2514,"ellow":2515,"Ġwanted":2516,"su":2517,"ĠTwo":2518,"ĠPart":2519,"ĠPaul":2520,"ĠViet":2521,"Ġearlier":2522,"uter":2523,"Ġmeas":2524,"Ġinvest":2525,"arliament":2526,"heast":2527,"Ġmer":2528,"AF":2529,"Ġhours":2530,"Ġ2015":2531,"Ġparticularly":2532,"Ġreve":2533,"etwork":2534,"ĠBo":2535,"Ġstru":2536,"Ġstren":2537,"ĠRed":2538,"ounted":2539,"Ġrespons":2540,"Ġfoc":2541,"Ġlength":2542,"Ġinvolved":2543,"west":2544,"Ġsour":2545,"ĠCap":2546,"ĠBut":2547,"Ġprob":2548,"Ġprote":2549,"Ġfund":2550,"ĠHouse":2551,"Ġve":2552,"Ġappearance":2553,"ĠEuropean":2554,"val":2555,"ington":2556,"Ġbeg":2557,"Ġcondom":2558,"ĠDr":2559,"iction":2560,"Ġpract":2561,"ĠZeal":2562,"ĠZealand":2563,"Ġtrib":2564,"asion":2565,"ĠSome":2566,"Ġyard":2567,"Ġresear":2568,"action":2569,"Ġstudy":2570,"ĠCommand":2571,"ĠChristian":2572,"Ġill":2573,"onst":2574,"Ġbur":2575,"ĠCreek":2576,"Ġoutside":2577,"Ġallowed":2578,"ĠGeorge":2579,"Ġstreng":2580,"Ġachie":2581,"eler":2582,"ĠMy":2583,"ĠFin":2584,"ĠGame":2585,"ĠKe":2586,"ĠKh":2587,"ption":2588,"Ġdesp":2589,"Ġmean":2590,"ĠSqu":2591,"Ġforced":2592,"Ġexist":2593,"Ġ186":2594,"Ġworking":2595,"Ġneg":2596,"Ġcurrent":2597,"Ġmanager":2598,"Ġbusiness":2599,"head":2600,"eck":2601,"ĠIm":2602,"ĠLove":2603,"ores":2604,"ĠInternational":2605,"eum":2606,"ania":2607,"Ġly":2608,"ĠBay":2609,"ordan":2610,"Ġresul":2611,"Ġpoem":2612,"espite":2613,"Ġpossible":2614,"ĠÂ£":2615,"Ġesc":2616,"ĠCo":2617,"ĠAtlantic":2618,"Ġpast":2619,"ĠBra":2620,"ĠDu":2621,"ĠDep":2622,"Ġregard":2623,"Ġengine":2624,"for":2625,"ray":2626,"to":2627,"ville":2628,"erous":2629,"Ġcop":2630,"ita":2631,"Ġhy":2632,"Ġevidence":2633,"Ġpraised":2634,"Ġmult":2635,"Ġlangu":2636,"ming":2637,"Ġcivil":2638,"Ġwhom":2639,"Ġrace":2640,"ĠÂ°":2641,"Ġfemale":2642,"ĠPe":2643,"Ġconstruct":2644,"Ġincreased":2645,"men":2646,"uk":2647,"ule":2648,"Ġreason":2649,"Ġthink":2650,"ributed":2651,"Ġworked":2652,"Ġpreviously":2653,"After":2654,"cent":2655,"ouri":2656,"Ġthreat":2657,"ĠMed":2658,"ĠMac":2659,"irl":2660,"Ġobject":2661,"Ġdesigned":2662,"Ġjoined":2663,"ĠMichael":2664,"Ġcycl":2665,"conom":2666,"uation":2667,"ving":2668,"atural":2669,"Ġquick":2670,"wh":2671,"ze":2672,"ĠMark":2673,"anding":2674,"ude":2675,"Ġplaced":2676,"Ġabove":2677,"Ġreplaced":2678,"Ġavail":2679,"uel":2680,"urg":2681,"imin":2682,"Ġstation":2683,"Ġterrit":2684,"atin":2685,"aval":2686,"Ġwestern":2687,"Ġfree":2688,"Ġitself":2689,"co":2690,"ula":2691,"ĠWal":2692,"ĠJew":2693,"ĠPhil":2694,"Ġmach":2695,"irth":2696,"Ġrail":2697,"Ġremains":2698,"Ġsoon":2699,"Ġmaterial":2700,"go":2701,"rated":2702,"ĠMo":2703,"Ġgre":2704,"ĠDay":2705,"ĠWil":2706,"Ġhighest":2707,"Ġcommercial":2708,"bor":2709,"orida":2710,"Ġclear":2711,"acing":2712,"ĠMary":2713,"ecess":2714,"Ġwithd":2715,"ago":2716,"quar":2717,"Ġ187":2718,"Ġremov":2719,"Ġpoor":2720,"ĠHero":2721,"Ġnomin":2722,"Ġclaimed":2723,"ĠOliv":2724,"Ġtaking":2725,"Ġslow":2726,"Ġpain":2727,"ites":2728,"leg":2729,"Ġstop":2730,"vert":2731,"ession":2732,"ĠMissouri":2733,"BC":2734,"now":2735,"ĠSm":2736,"Ġnine":2737,"ĠEm":2738,"Ġviol":2739,"Ġshot":2740,"ĠVal":2741,"Ġ45":2742,"Ġfootball":2743,"Ġtreat":2744,"Ġinj":2745,"Ġpers":2746,"Ġmph":2747,"Ġgold":2748,"iding":2749,"usion":2750,"osing":2751,"ĠChampionship":2752,"ĠBritain":2753,"Ġpen":2754,"ĠSan":2755,"ĠSte":2756,"Ġ60":2757,"ĠMusic":2758,"Ġwinds":2759,"rem":2760,"Ġpiec":2761,"Ġlove":2762,"oms":2763,"elled":2764,"Ġarrived":2765,"Ġdon":2766,"adron":2767,"Ġparts":2768,"gypt":2769,"Ġaverage":2770,"Ġestimated":2771,"down":2772,"lic":2773,"enes":2774,"Ġfly":2775,"Ġmust":2776,"Ġhom":2777,"ĠOther":2778,"Ġdiss":2779,"Ġ1990":2780,"Ġinterview":2781,"Ġtransport":2782,"ĠQue":2783,"ĠÃ":2784,"ready":2785,"ĠPac":2786,"ĠJordan":2787,"Ġrap":2788,"Ġintens":2789,"hens":2790,"Ġtravel":2791,"ids":2792,"Ġheav":2793,"Ġgoals":2794,"Ġturned":2795,"Ġbreak":2796,"ties":2797,"Ġsurround":2798,"Ġsigned":2799,"Ġbrother":2800,"oor":2801,"Ġap":2802,"erved":2803,"Ġinternational":2804,"urt":2805,"Ġarmy":2806,"Ġpriv":2807,"Ġsubject":2808,"ĠPlay":2809,"Ġtold":2810,"Ġwhose":2811,"pper":2812,"Ġ36":2813,"inese":2814,"Ġtransfer":2815,"Ġdefeated":2816,"ĠRichard":2817,"ĠSuper":2818,"ky":2819,"nes":2820,"Ġop":2821,"Ġbill":2822,"oul":2823,"ĠAc":2824,"ulated":2825,"osition":2826,"Ġ2001":2827,"ibility":2828,"Ġimmedi":2829,"ĠUnion":2830,"Ġreligious":2831,"Ġdespite":2832,"Ġavailable":2833,"tr":2834,"Ġhous":2835,"ĠMost":2836,"ĠEgypt":2837,"ĠChinese":2838,"Ġ2014":2839,"Ġgrad":2840,"Ġquarter":2841,"ĠThomas":2842,"nal":2843,"tt":2844,"ximately":2845,"ari":2846,"arily":2847,"ĠOff":2848,"Ġ183":2849,"Ġscene":2850,"Ġsurf":2851,"Ġblock":2852,"ĠQu":2853,"Ġcommunity":2854,"ecutive":2855,"Ġwood":2856,"itz":2857,"Ġchange":2858,"Ġwriter":2859,"Ġcomplet":2860,"Ġinitially":2861,"ĠFlorida":2862,"Ġsuggested":2863,"Ġtouch":2864,"ĠBest":2865,"ching":2866,"ests":2867,"Ġrain":2868,"Ġchap":2869,"Ġspecific":2870,"Ġrunning":2871,"Ġpassed":2872,"Ġincreasing":2873,"porary":2874,"Ġvillage":2875,"ault":2876,"aries":2877,"Ġey":2878,"Ġeconom":2879,"Ġstates":2880,"ĠGreat":2881,"ĠScott":2882,"Ġparticip":2883,"Ġestablish":2884,"ĠMexico":2885,"atory":2886,"Ġlines":2887,"urity":2888,"ĠGovern":2889,"ĠLa":2890,"ume":2891,"Ġtraining":2892,"Ġoccup":2893,"Ġordered":2894,"Ġhard":2895,"ĠAg":2896,"Ġdisp":2897,"ails":2898,"Ġnearly":2899,"Ġ1970":2900,"Ġappointed":2901,"ĠVietn":2902,"hib":2903,"ĠOd":2904,"Ġexcept":2905,"Ġ2000":2906,"ĠVir":2907,"Ġabs":2908,"Ġcenter":2909,"ĠCarol":2910,"Ġdamaged":2911,"Ġanti":2912,"Ġstructure":2913,"ĠPacific":2914,"Ġfailed":2915,"Ġtow":2916,"Ġmem":2917,"Ġdro":2918,"ĠTech":2919,"ĠCong":2920,"ĠBel":2921,"ĠBus":2922,"bert":2923,"Ġstudio":2924,"Ġ1960":2925,"ĠBrown":2926,"Ġesp":2927,"Ġphys":2928,"ĠTor":2929,"Ġalready":2930,"ĠFort":2931,"aph":2932,"Ġassist":2933,"ĠAngel":2934,"ĠHenry":2935,"alv":2936,"Ġmight":2937,"Ġforward":2938,"ulf":2939,"Ġcome":2940,"ronic":2941,"Ġcolon":2942,"Ġindepend":2943,"Ġgoing":2944,"Ġshows":2945,"ĠPresident":2946,"ĠRepublic":2947,"gl":2948,"hem":2949,"ĠSun":2950,"Ġproper":2951,"ateg":2952,"Ġkey":2953,"ference":2954,"Ġminor":2955,"ĠIndia":2956,"ography":2957,"ĠCanadian":2958,"inist":2959,"ĠFirst":2960,"aker":2961,"Ġenough":2962,"anna":2963,"Ġrecording":2964,"band":2965,"ases":2966,"Ġgive":2967,"ĠHall":2968,"thlet":2969,"Ġleague":2970,"Ġaccording":2971,"Ġwinning":2972,"Ġprobably":2973,"ship":2974,"Ġsize":2975,"Ġcru":2976,"Ġpot":2977,"Ġden":2978,"ĠTimes":2979,"ilities":2980,"ĠSchool":2981,"Ġdebut":2982,"Ġintroduced":2983,"Ġbeginning":2984,"Ã³":2985,"Ġdoc":2986,"Ġnetwork":2987,"ĠMa":2988,"olic":2989,"Ġdeterm":2990,"Ġrequired":2991,"Ġissue":2992,"ĠIrish":2993,"rd":2994,"Ġcal":2995,"omm":2996,"Ġbetter":2997,"Ġfeel":2998,"Ġremain":2999,"anning":3000,"Ġmale":3001,"Ġlatter":3002,"ĠNavy":3003,"Ġdecision":3004,"Ġcapital":3005,"Ġaut":3006,"Ġvot":3007,"Ġremaining":3008,"Ġcomplete":3009,"Ġsupported":3010,"Ġvisit":3011,"ĠCanada":3012,"ĠAfrica":3013,"Ġmixed":3014,"ĠFederer":3015,"lor":3016,"edy":3017,"ĠMont":3018,"Ġended":3019,"Ġcontract":3020,"Ġarchae":3021,"Ġsocial":3022,"ĠFe":3023,"abit":3024,"Ġ38":3025,"Ġforest":3026,"gu":3027,"ks":3028,"Ġwide":3029,"Ġdate":3030,"ĠHel":3031,"change":3032,"ĠDon":3033,"Ġspent":3034,"Ġscore":3035,"Ġemb":3036,"Ġapproximately":3037,"Ġcaptured":3038,"St":3039,"of":3040,"Ġsection":3041,"ecially":3042,"ĠPeter":3043,"Ġ184":3044,"ĠThat":3045,"Ġsyn":3046,"Ġpolice":3047,"Ġeduc":3048,"Ġreviews":3049,"Ġchanges":3050,"Ġreveal":3051,"den":3052,"ha":3053,"Ġlower":3054,"Ġ75":3055,"Ġ80":3056,"Ġprior":3057,"Ġcertain":3058,"mond":3059,"atives":3060,"Ġfut":3061,"ĠHot":3062,"ĠGold":3063,"Ġ1980":3064,"ĠJapan":3065,"ĠGermany":3066,"onse":3067,"Ġface":3068,"ĠApp":3069,"Ġnames":3070,"achel":3071,"ĠMos":3072,"Ġstaff":3073,"ĠPat":3074,"ĠWestern":3075,"Ġdeal":3076,"hedral":3077,"Ġimm":3078,"Ġsometimes":3079,"ĠOlivier":3080,"Ġespecially":3081,"cript":3082,"lin":3083,"Ġsil":3084,"Ġfood":3085,"ĠRuss":3086,"agon":3087,"Ġlimited":3088,"aut":3089,"aring":3090,"anish":3091,"Ġdomin":3092,"Ġ2002":3093,"fect":3094,"ires":3095,"ma":3096,"ĠSch":3097,"ĠCoun":3098,"odies":3099,"order":3100,"Ġlarger":3101,"Ġprovide":3102,"heeler":3103,"ĠDespite":3104,"Ġanc":3105,"illery":3106,"Ġjour":3107,"Ġincludes":3108,"ĠAssoci":3109,"Ġsubsequently":3110,"As":3111,"nel":3112,"inct":3113,"ises":3114,"Ġmur":3115,"ĠTur":3116,"uments":3117,"ĠJin":3118,"Ġdead":3119,"ability":3120,"ĠVict":3121,"ification":3122,"Ġruns":3123,"Ġresponse":3124,"Ġadditional":3125,"selves":3126,"Ġlyric":3127,"anies":3128,"Ġshown":3129,"Ġpositive":3130,"Ġmagazine":3131,"Ġfighting":3132,"AS":3133,"ĠCour":3134,"acted":3135,"Ġshoot":3136,"Ġoffice":3137,"ĠArab":3138,"Ġpresident":3139,"Ġstudents":3140,"ĠFrank":3141,"ĠIII":3142,"Ġ?":3143,"Ġfleet":3144,"ĠTom":3145,"ĠFrom":3146,"rief":3147,"aby":3148,"ĠUK":3149,"Ġconcert":3150,"Ġdepression":3151,"Ġminutes":3152,"Ġfeature":3153,"Ġliter":3154,"Ġsoldiers":3155,"inent":3156,"Ġsch":3157,"Ġsect":3158,"Ġstay":3159,"ĠRh":3160,"rian":3161,"apt":3162,"Ġmostly":3163,"iest":3164,"Ġsat":3165,"ĠTV":3166,"enty":3167,"ste":3168,"idents":3169,"ands":3170,"Ġunc":3171,"Ġconclud":3172,"Ġdefeat":3173,"back":3174,"uals":3175,"reak":3176,"atively":3177,"Ġmention":3178,"ĠSing":3179,"ĠLater":3180,"ĠInf":3181,"Ġintended":3182,"Ġusually":3183,"Ġthemselves":3184,"Ġquest":3185,"Ġbecoming":3186,"under":3187,"Ġwoman":3188,"itte":3189,"Ġfir":3190,"ĠCath":3191,"ĠNY":3192,"ĠOper":3193,"Ġpercent":3194,"Ġmetres":3195,"Ġguitar":3196,"Ġsmaller":3197,"ĠCharles":3198,"Ġsem":3199,"orial":3200,"stant":3201,"irt":3202,"owl":3203,"ĠJe":3204,"Ġexam":3205,"oys":3206,"Ġindic":3207,"Ġagreed":3208,"bers":3209,"gely":3210,"Ġwound":3211,"Ġbirth":3212,"Ġdaugh":3213,"orning":3214,"Ġpoet":3215,"zy":3216,"Ġpair":3217,"ĠMount":3218,"ĠPenn":3219,"andon":3220,"Ġscreen":3221,"Ġgroups":3222,"ĠBattle":3223,"ĠOldham":3224,"Ġlikely":3225,"Ġfifth":3226,"Ġcm":3227,"ĠNort":3228,"ĠLaw":3229,"Ġkil":3230,"Ġtraff":3231,"ĠArt":3232,"anks":3233,"Ġreferred":3234,"Ġdiscovered":3235,"Ġlanguage":3236,"quarters":3237,"NA":3238,"isions":3239,"ĠBur":3240,"Ġlearn":3241,"Ġrelated":3242,"ĠGuitar":3243,"Ġtype":3244,"Ġfrequ":3245,"Ġdi":3246,"lands":3247,"Ġsett":3248,"Ġteams":3249,"Ġcounter":3250,"Ġfavor":3251,"ĠBillboard":3252,"Ġfans":3253,"asy":3254,"ĠMal":3255,"lymp":3256,"ĠOlymp":3257,"ĠStar":3258,"Ġlargely":3259,"Ġofficers":3260,"Ġconstructed":3261,"Ġtraffic":3262,"hou":3263,"Ġsus":3264,"ĠCamp":3265,"ĠMil":3266,"cean":3267,"oph":3268,"pped":3269,"Ġcompl":3270,"Ġentered":3271,"Ġpressure":3272,"Ġoccurred":3273,"Ġidea":3274,"Ġfuture":3275,"Ġmakes":3276,"ĠTour":3277,"ĠMart":3278,"ĠPo":3279,"unt":3280,"ĠEver":3281,"Ġund":3282,"Ġ70":3283,"uf":3284,"well":3285,"Ġword":3286,"Ġflow":3287,"Ġdoll":3288,"Ġlink":3289,"ĠFollowing":3290,"aven":3291,"ĠJer":3292,"Ġcontem":3293,"Ġ400":3294,"Ġconcern":3295,"Ġdiscuss":3296,"Ġtemper":3297,"ĠRegiment":3298,"Ġranked":3299,"osaurus":3300,"Ġbomb":3301,"ĠHol":3302,"teen":3303,"Ġconsist":3304,"ĠColle":3305,"Ġarrang":3306,"Ġlisted":3307,"uz":3308,"ĠAward":3309,"Ġdeep":3310,"ocr":3311,"Ġmoving":3312,"Ġcarried":3313,"Ġmajority":3314,"Ġself":3315,"iter":3316,"Ġfail":3317,"Ġsea":3318,"Ġmusical":3319,"Ġlocation":3320,"ospital":3321,"Ġradio":3322,"Ġprimary":3323,"Ġsummer":3324,"Ġbirds":3325,"Ġbrief":3326,"Ġder":3327,"ĠMr":3328,"ĠPet":3329,"Ġadop":3330,"Ġenv":3331,"Ġattr":3332,"Ġcreate":3333,"Ġbroadcast":3334,"Ġsurface":3335,"ĠCouncil":3336,"ĠVictor":3337,"cing":3338,"ios":3339,"Ġrein":3340,"ĠAle":3341,"ĠHist":3342,"ĠHaw":3343,"Ġvoice":3344,"ills":3345,"eway":3346,"Ġleaving":3347,"ĠStud":3348,"oke":3349,"Ġmoney":3350,"hester":3351,"Ġkeep":3352,"Ġprofessional":3353,"Ġproblems":3354,"ĠAssociation":3355,"era":3356,"Ġinn":3357,"Ġlab":3358,"Ġ32":3359,"Ġ33":3360,"Ġdism":3361,"Ġgrant":3362,"Ġcontroll":3363,"Ġapproach":3364,"Ġproposed":3365,"Ġcele":3366,"Ġlyrics":3367,"Ġpurch":3368,"ĠRad":3369,"ĠLake":3370,"Ġran":3371,"Ġsettle":3372,"Ġsuffered":3373,"Ġlaunched":3374,"ĠVirgin":3375,"dle":3376,"ners":3377,"ĠSoc":3378,"imate":3379,"ĠRachel":3380,"ĠWheeler":3381,"eston":3382,"ples":3383,"Ġdestroyed":3384,"Ġcommented":3385,"Ġult":3386,"rey":3387,"anced":3388,"oud":3389,"Ġlived":3390,"Ġnature":3391,"Ġemer":3392,"ĠRose":3393,"Ġalways":3394,"ĠFore":3395,"ĠWood":3396,"ĠKr":3397,"ĠStr":3398,"Ġcontains":3399,"ĠVar":3400,"Ġoverall":3401,"Ġpositions":3402,"Ġcritical":3403,"Ġschol":3404,"Ġcle":3405,"iser":3406,"rown":3407,"Ġthus":3408,"ĠYear":3409,"ĠSpanish":3410,"Ġ1950":3411,"Ġconsider":3412,"Ġexperience":3413,"ĠAfrican":3414,"Ġinvestig":3415,"tar":3416,"anz":3417,"Ġparen":3418,"icted":3419,"aches":3420,"igan":3421,"Ġscript":3422,"Ġfilms":3423,"Ġaccess":3424,"Ġacqu":3425,"Ġartillery":3426,"undred":3427,"Ġelection":3428,"Ġconducted":3429,"Ġquickly":3430,"Ġrapid":3431,"During":3432,"ex":3433,"ergy":3434,"Ġcred":3435,"Ġmom":3436,"Ġdram":3437,"ĠSam":3438,"Ġrare":3439,"Ġplans":3440,"Ġnotes":3441,"Ġprem":3442,"Ġamb":3443,"Ġepisodes":3444,"Ġincrease":3445,"Ġeffects":3446,"Ġcasual":3447,"Ġtar":3448,"het":3449,"Ġcer":3450,"Ġthick":3451,"Ġlo":3452,"imb":3453,"ĠInter":3454,"Ġ300":3455,"Ġserious":3456,"Ġnewsp":3457,"Ġ1995":3458,"Ġattacked":3459,"Ġspeed":3460,"Ġobserv":3461,"ĠCalif":3462,"Ġasked":3463,"gar":3464,"Ġtakes":3465,"Ġhop":3466,"ĠMet":3467,"ĠHow":3468,"thing":3469,"Ġplot":3470,"Ġtrade":3471,"Ġjud":3472,"Ġvers":3473,"Ġminute":3474,"Ġappears":3475,"Ġchanged":3476,"Ġresearch":3477,"itation":3478,"ows":3479,"Ġconcept":3480,"umed":3481,"alled":3482,"ruit":3483,"Ġabandon":3484,"Ġcommission":3485,"Ġnumbers":3486,"ging":3487,"eding":3488,"Ġcoin":3489,"Ġparty":3490,"Ġcoach":3491,"ĠForce":3492,"ĠCaliforn":3493,"Al":3494,"ken":3495,"uff":3496,"Ġcann":3497,"ado":3498,"ĠVer":3499,"Ġwhether":3500,"Ġfinally":3501,"Ġearth":3502,"Ġflight":3503,"ĠCroat":3504,"Ġaccomp":3505,"Ġprivate":3506,"stein":3507,"bury":3508,"gen":3509,"rol":3510,"Ġlog":3511,"imum":3512,"umn":3513,"raf":3514,"Ġmeant":3515,"Ġmeth":3516,"ylv":3517,"Ġadvance":3518,"Ġmedia":3519,"ĠEarth":3520,"ĠInfantry":3521,"Ġtons":3522,"ĠTem":3523,"Ġnatural":3524,"ĠLight":3525,"Ġupper":3526,"aily":3527,"ĠPortug":3528,"Ġinfluence":3529,"Ġgods":3530,"Ġour":3531,"iva":3532,"ĠParliament":3533,"aging":3534,"Ġunit":3535,"ously":3536,"Ġcompared":3537,"ologist":3538,"Ġlonger":3539,"Ġbring":3540,"onym":3541,"Ġfocus":3542,"ittee":3543,"ny":3544,"onc":3545,"Ġded":3546,"Ġdark":3547,"ortun":3548,"ify":3549,"Ġdeg":3550,"Ġplanned":3551,"Ġens":3552,"Ġunderst":3553,"Ġ1999":3554,"Ġpolic":3555,"Ġ1940":3556,"Ġdouble":3557,"Ġmeaning":3558,"Ġkilomet":3559,"iant":3560,"oir":3561,"tained":3562,"Ġtell":3563,"ani":3564,"Ġdig":3565,"olk":3566,"ĠRes":3567,"iano":3568,"ĠUnder":3569,"ĠItal":3570,"Ġ1998":3571,"Ġending":3572,"Ġassigned":3573,"Ġprinc":3574,"Ġproduct":3575,"Ġslight":3576,"Ġawarded":3577,"ĠJewish":3578,"ĠCourt":3579,"Ġsusp":3580,"itor":3581,"ĠSov":3582,"Ġgiving":3583,"ĠBC":3584,"Ġstories":3585,"ift":3586,"Ġplat":3587,"Ġkind":3588,"Ġleave":3589,"Ġcompanies":3590,"Ġtheme":3591,"Ġrecords":3592,"Ġdirectly":3593,"Ġterms":3594,"Ġexperi":3595,"Ġcompetition":3596,"Ġbound":3597,"Ġdone":3598,"ĠAwards":3599,"aylor":3600,"ĠFilm":3601,"riage":3602,"ounts":3603,"Ġearned":3604,"Ġforms":3605,"ĠScot":3606,"Ġattacks":3607,"ĠCentral":3608,"Ġassociated":3609,"Ġraised":3610,"Ġindustry":3611,"ĠCalifornia":3612,"Ġtor":3613,"Ġfell":3614,"Ġbig":3615,"Ġpil":3616,"Ġreject":3617,"ĠSur":3618,"ĠBen":3619,"Ġwhole":3620,"Ġjob":3621,"Ġ90":3622,"Ġcomplex":3623,"Ġpersonal":3624,"Ġmarket":3625,"Ġtouchdown":3626,"aded":3627,"ĠMany":3628,"Ġgot":3629,"ĠIts":3630,"ĠDel":3631,"ander":3632,"ĠFI":3633,"ĠChic":3634,"oint":3635,"Ġbuildings":3636,"ĠDepartment":3637,"lo":3638,"erve":3639,"Ġcause":3640,"Ġlay":3641,"ada":3642,"etic":3643,"Ġchall":3644,"bery":3645,"ective":3646,"Ġsched":3647,"Ġscenes":3648,"Ġnearby":3649,"Ġhelped":3650,"awn":3651,"vement":3652,"Ġtalk":3653,"ĠCamb":3654,"Ġasp":3655,"ĠLou":3656,"ĠJose":3657,"Ġyet":3658,"Ġunable":3659,"ĠEnter":3660,"Ġaccount":3661,"Ġmovement":3662,"Ġcommander":3663,"aught":3664,"Ġstatus":3665,"ĠCatholic":3666,"Ġdom":3667,"Ġdivision":3668,"ĠServ":3669,"ĠRoss":3670,"ĠNic":3671,"Ġanaly":3672,"Ġvia":3673,"Ġcentre":3674,"ĠBrad":3675,"Ġmatches":3676,"Ġannual":3677,"Ġindividual":3678,"Ġimmediately":3679,"ĠNorthern":3680,"iated":3681,"mas":3682,"sis":3683,"uing":3684,"Ġpark":3685,"ĠBey":3686,"ĠIf":3687,"ĠDem":3688,"anded":3689,"agan":3690,"Ġpresence":3691,"Ġstarting":3692,"Ġ1930":3693,"Ġcovered":3694,"Ġwaters":3695,"Ġinspired":3696,"Ġgreater":3697,"Ġremoved":3698,"Ġmethod":3699,"pool":3700,"itude":3701,"arrow":3702,"Ġpay":3703,"Ġmorning":3704,"Ġhot":3705,"ĠTaylor":3706,"Ġliving":3707,"ĠBob":3708,"ĠRob":3709,"ĠOs":3710,"Ġclosed":3711,"ibly":3712,"Ġweap":3713,"ixon":3714,"Ġcollect":3715,"Ġperformances":3716,"rowd":3717,"embly":3718,"Ġoperation":3719,"Ġrequest":3720,"Ġissued":3721,"Ġbegins":3722,"TV":3723,"ees":3724,"ining":3725,"Ġbad":3726,"Ġinters":3727,"Ġhundred":3728,"usband":3729,"Ġstone":3730,"ĠRA":3731,"Ġconver":3732,"ĠNot":3733,"Ġhero":3734,"Ġ47":3735,"Ġleaders":3736,"Ġschools":3737,"Ġstrength":3738,"ĠChicago":3739,"kan":3740,"Ġtourn":3741,"ros":3742,"Ġnorm":3743,"Ġgirl":3744,"ĠNor":3745,"Ġhealth":3746,"ĠOver":3747,"Ġ37":3748,"Ġoffered":3749,"Ġinfantry":3750,"Ġprevent":3751,"Ġbattalion":3752,"Ġbooks":3753,"Ġattempted":3754,"Ġnucle":3755,"ĠSquadron":3756,"Ã³n":3757,"Ġmurder":3758,"iqu":3759,"Ġfeder":3760,"isk":3761,"road":3762,"ĠSol":3763,"ĠSaint":3764,"abb":3765,"pted":3766,"Ġcontinue":3767,"Ã¡n":3768,"ĠCross":3769,"olf":3770,"tered":3771,"ĠLatin":3772,"ĠOtt":3773,"Ġ42":3774,"Ġfinanc":3775,"Ġdaughter":3776,"Ġpath":3777,"omer":3778,"ĠCard":3779,"ĠLong":3780,"Ġroom":3781,"izing":3782,"ĠAnother":3783,"Ġdefend":3784,"Ġextended":3785,"Ġartist":3786,"Ġbelow":3787,"Ġgreatest":3788,"Ġfigure":3789,"Ġtraditional":3790,"force":3791,"Ġcasualties":3792,"At":3793,"cer":3794,"ien":3795,"enon":3796,"Ġbox":3797,"Ġbatter":3798,"Ġnative":3799,"ĠHo":3800,"ifa":3801,"Ġsev":3802,"ishop":3803,"peror":3804,"everal":3805,"ĠAustralians":3806,"Ġcourse":3807,"stitute":3808,"Ġess":3809,"Ġthrow":3810,"urs":3811,"owler":3812,"ĠJust":3813,"ipal":3814,"iple":3815,"ĠCharl":3816,"rael":3817,"Ġcontrovers":3818,"Ġconfir":3819,"Ġinitial":3820,"Ġculture":3821,"ĠParty":3822,"like":3823,"onna":3824,"lement":3825,"ĠAI":3826,"ĠJam":3827,"ĠKn":3828,"ellig":3829,"Ġinches":3830,"Ġuses":3831,"Ġenj":3832,"Ġimage":3833,"Ġprep":3834,"Ġshell":3835,"Ġcarry":3836,"Ġconfl":3837,"Ġphot":3838,"Ġmarked":3839,"Ġstandard":3840,"Ġsituation":3841,"Ġaudience":3842,"Ġmachine":3843,"Ġheavily":3844,"can":3845,"sen":3846,"itch":3847,"Ġmor":3848,"Ġhar":3849,"Ġreally":3850,"Ġthings":3851,"ushed":3852,"ĠJane":3853,"Ġselected":3854,"arts":3855,"ĠUp":3856,"ĠVilla":3857,"Ġ1993":3858,"Ġwriters":3859,"Ġmetal":3860,"Ġrefused":3861,"Ġattempts":3862,"Ġmarried":3863,"ĠMichigan":3864,"Ġpurp":3865,"Ġsomething":3866,"Ġcollection":3867,"Ġinformation":3868,"ares":3869,"hold":3870,"house":3871,"ĠTurn":3872,"uries":3873,"ĠNixon":3874,"Ġang":3875,"ĠLady":3876,"ĠEmp":3877,"Ġprec":3878,"ĠFranc":3879,"ĠChristmas":3880,"Ġtracks":3881,"ĠTex":3882,"Ġarchit":3883,"Ġcathedral":3884,"kin":3885,"rical":3886,"Ġcrowd":3887,"ĠChe":3888,"adium":3889,"Ġstating":3890,"erset":3891,"ĠGo":3892,"Ġ39":3893,"Ġcomposed":3894,"Ġrecover":3895,"Ġsecurity":3896,"Ġblood":3897,"Ġpowerful":3898,"onic":3899,"Ġsaf":3900,"atre":3901,"Ġpick":3902,"Ġhusband":3903,"ĠTw":3904,"ĠSince":3905,"Ġnecess":3906,"ether":3907,"ĠHurricane":3908,"cend":3909,"ĠNations":3910,"ria":3911,"Ġincor":3912,"Ġinside":3913,"ĠIsrael":3914,"ĠCenter":3915,"Ġfriends":3916,"ĠSeries":3917,"ĠCarolina":3918,"ĠCollege":3919,"een":3920,"isl":3921,"ĠSal":3922,"ĠAre":3923,"ĠMill":3924,"ims":3925,"ĠDj":3926,"aped":3927,"ĠChina":3928,"Ġ1996":3929,"Ġ1997":3930,"Ġhighly":3931,"iverpool":3932,"Ġpresented":3933,"ĠClub":3934,"ĠPolish":3935,"Ġsource":3936,"Ġresulted":3937,"Ġterritory":3938,"alveston":3939,"Ġconcluded":3940,"ĠSoviet":3941,"eg":3942,"Ġborder":3943,"Ġdyn":3944,"ils":3945,"Ġscul":3946,"Ġtext":3947,"ĠSea":3948,"Ġconstit":3949,"ĠAdm":3950,"Ġservices":3951,"ĠSecond":3952,"Ġresponsible":3953,"Ġir":3954,"Ġtax":3955,"ese":3956,"ĠSix":3957,"ĠLos":3958,"illed":3959,"Ġdeploy":3960,"anta":3961,"Ġspir":3962,"Ġ2016":3963,"athan":3964,"annel":3965,"iami":3966,"Ġcounty":3967,"Ġheadquarters":3968,"Ġmiddle":3969,"Ġadminist":3970,"Ġrespectively":3971,"ylvania":3972,"oration":3973,"andid":3974,"ĠFoot":3975,"Ġtransl":3976,"Ġcontinues":3977,"Ġsixth":3978,"Ġallowing":3979,"Ġhands":3980,"ipped":3981,"ĠCorps":3982,"Ġneeded":3983,"ĠHighway":3984,"Ġreduced":3985,"ĠMosley":3986,"Ġcelebr":3987,"reme":3988,"enge":3989,"ĠTenn":3990,"ĠHu":3991,"ĠRam":3992,"rawn":3993,"Ġnumerous":3994,"Ġmainly":3995,"Ġcyclone":3996,"ĠQueen":3997,"ĠPenns":3998,"II":3999,"yc":4000,"Ġbodies":4001,"anas":4002,"Ġintern":4003,"Ġmountain":4004,"ĠTheir":4005,"ĠPri":4006,"ulations":4007,"ĠForm":4008,"ĠGames":4009,"ĠLiverpool":4010,"ĠJim":4011,"Ġsearch":4012,"essa":4013,"Ġspace":4014,"Ġ44":4015,"Ġ51":4016,"ĠThree":4017,"Ġscoring":4018,"eyer":4019,"Ġweaken":4020,"Ġadvant":4021,"Ġlevels":4022,"ĠParis":4023,"Ġdeclared":4024,"Ġpeaked":4025,"Ġfigures":4026,"Ġproducer":4027,"ĠSmith":4028,"Ġwounded":4029,"ĠTexas":4030,"mon":4031,"ware":4032,"Ġtask":4033,"Ġsout":4034,"isher":4035,"alty":4036,"roll":4037,"ĠBon":4038,"estival":4039,"ecting":4040,"anger":4041,"Ġsecret":4042,"Ġgrand":4043,"Ġsymb":4044,"Ġsinger":4045,"Ġcountries":4046,"Ġseparate":4047,"Ġcompletely":4048,"ĠAlex":4049,"Th":4050,"pole":4051,"rate":4052,"ening":4053,"ĠTre":4054,"Ġseem":4055,"Ġkick":4056,"ĠAlice":4057,"Ġmanaged":4058,"Ġentr":4059,"Ġstudies":4060,"Ġmarriage":4061,"ĠMuseum":4062,"ĠJackson":4063,"track":4064,"Ġeducation":4065,"Ġrevealed":4066,"ding":4067,"iny":4068,"eds":4069,"Ġcorn":4070,"asc":4071,"Ġtoday":4072,"Ġhour":4073,"Ġrate":4074,"Ġroy":4075,"Ġattention":4076,"ports":4077,"Ġactive":4078,"Ġblue":4079,"Ġbridge":4080,"Ġ150":4081,"Ġdistance":4082,"Ġofficer":4083,"Ġefforts":4084,"Ġissues":4085,"Ġsquare":4086,"Ġbecomes":4087,"Ġmeeting":4088,"Ġcopies":4089,"ĠAcad":4090,"ĠRosebery":4091,"oncÃ©":4092,"Ġiron":4093,"Ġsides":4094,"icient":4095,"ĠBol":4096,"Ġbeat":4097,"Ġ182":4098,"Ġdispl":4099,"Ġdisapp":4100,"Ġactions":4101,"Ġactually":4102,"Ġbrown":4103,"Ġvariety":4104,"Ġcontrast":4105,"Ġactivity":4106,"Ġwidely":4107,"Ġvocal":4108,"while":4109,"ĠBusch":4110,"Ġcontemporary":4111,"Ġenjoy":4112,"CA":4113,"gian":4114,"ka":4115,"light":4116,"ĠIll":4117,"ĠHum":4118,"ĠEr":4119,"ĠOpen":4120,"Ġ1991":4121,"Ġexpected":4122,"Ġrespond":4123,"ĠChris":4124,"Ġelev":4125,"Ġdrum":4126,"Ġrights":4127,"Ġera":4128,"ĠSomerset":4129,"ĠScotland":4130,"ĠBeyoncÃ©":4131,"ĠEmpire":4132,"uated":4133,"Ġboard":4134,"Ġnation":4135,"ĠMiami":4136,"ĠBoth":4137,"utch":4138,"unic":4139,"osh":4140,"oses":4141,"ĠGalveston":4142,"ĠOut":4143,"Ġuniversity":4144,"ension":4145,"Ġ76":4146,"Ġpeace":4147,"Ġextr":4148,"Ġdescribes":4149,"Ġcombat":4150,"Ġactivities":4151,"ĠPennsylvania":4152,"hew":4153,"room":4154,"Ġhol":4155,"umber":4156,"Ġrule":4157,"appen":4158,"Ġrecomm":4159,"Ġ49":4160,"Ġdise":4161,"Ġdisplay":4162,"Ġdemonst":4163,"Ġcombined":4164,"ricket":4165,"Ġtrees":4166,"ĠItalian":4167,"och":4168,"Ġwalk":4169,"isation":4170,"Ġthr":4171,"Ġnin":4172,"ĠPen":4173,"ĠDan":4174,"aine":4175,"ĠNaz":4176,"Ġcompos":4177,"Ġability":4178,"ĠTrans":4179,"Ġopportun":4180,"ograph":4181,"shire":4182,"Ġhigher":4183,"ĠSomal":4184,"Ġslightly":4185,"right":4186,"Ġx":4187,"itness":4188,"ala":4189,"Ġple":4190,"Ġpow":4191,"Ġpun":4192,"Ġmax":4193,"ican":4194,"ĠGroup":4195,"odon":4196,"essions":4197,"ĠAnt":4198,"ugby":4199,"ĠArch":4200,"Ġmeans":4201,"Ġ1992":4202,"Ġamount":4203,"Ġcalling":4204,"Ġsets":4205,"Ġeffort":4206,"Ġnortheast":4207,"Ġgenus":4208,"Ġnuclear":4209,"Ġstrugg":4210,"Ġproteins":4211,"Ġvehic":4212,"Ġcondoms":4213,"Ġwithdraw":4214,"Ġhouses":4215,"Ġfederal":4216,"Ġwords":4217,"Ġbene":4218,"Ġpiano":4219,"acher":4220,"ĠBig":4221,"ĠDam":4222,"ĠJul":4223,"Ġresidents":4224,"Ġ48":4225,"Ġoffensive":4226,"Ġteach":4227,"Ġshowed":4228,"Ġresulting":4229,"arent":4230,"Ġprimarily":4231,"Ġquestion":4232,"ĠVirginia":4233,"onents":4234,"Ġmel":4235,"ĠSouthern":4236,"stone":4237,"Ġlot":4238,"Ġonto":4239,"ĠHM":4240,"emic":4241,"ĠLand":4242,"asty":4243,"Ġtrue":4244,"Ġ34":4245,"Ġcontrib":4246,"Ġdefence":4247,"Ġinstit":4248,"Ġfeaturing":4249,"Ġtypically":4250,"Ġlegal":4251,"Ġtermin":4252,"Ġhistorical":4253,"Ġofficials":4254,"ĠHaifa":4255,"ĠHawai":4256,"Ġarchitect":4257,"lies":4258,"town":4259,"Ġwing":4260,"ingu":4261,"Ġhabit":4262,"ecause":4263,"ĠFur":4264,"ĠLive":4265,"rie":4266,"rial":4267,"Ġplays":4268,"Ġoffer":4269,"Ġquality":4270,"Ġgraph":4271,"Ġconcent":4272,"ledge":4273,"Ġowned":4274,"Ġappearances":4275,"Ġobserved":4276,"ĠLouis":4277,"ĠService":4278,"BA":4279,"lers":4280,"Ġrough":4281,"Ġnarr":4282,"estic":4283,"Ġrhy":4284,"apo":4285,"Ġsust":4286,"berg":4287,"Ġresc":4288,"ĠHead":4289,"ĠThrough":4290,"ocks":4291,"ologists":4292,"Ġemot":4293,"Ġinstr":4294,"Ġprogress":4295,"Ġtwenty":4296,"Ġavoid":4297,"Ġconditions":4298,"Ġsexual":4299,"ĠCaptain":4300,"Ġpractice":4301,"Ġparents":4302,"ãĥ":4303,"Ġcam":4304,"Ġthous":4305,"ĠMidd":4306,"ols":4307,"ĠWater":4308,"ĠLit":4309,"ĠKent":4310,"Ġroles":4311,"Ġ52":4312,"Ġrelief":4313,"Ġwrite":4314,"Ġqual":4315,"Ġalongside":4316,"Ġdistinct":4317,"Ġaccepted":4318,"ĠJoseph":4319,"iro":4320,"mitted":4321,"esb":4322,"arian":4323,"Ġinh":4324,"Ġhair":4325,"ĠSir":4326,"ĠManc":4327,"ĠWash":4328,"ogue":4329,"Ġscale":4330,"Ġrelatively":4331,"Ġdesignated":4332,"echan":4333,"Ġsequence":4334,"Ġstruck":4335,"Ġachieved":4336,"Ġsurrounding":4337,"RA":4338,"bour":4339,"ga":4340,"hood":4341,"ply":4342,"Ġsense":4343,"Ġwear":4344,"Ġdu":4345,"iled":4346,"ĠCer":4347,"ĠGar":4348,"Ġplant":4349,"send":4350,"Ġspread":4351,"Ġrecent":4352,"Ġwebs":4353,"Ġ65":4354,"Ġseasons":4355,"Ġ1994":4356,"ĠRev":4357,"Ġ1986":4358,"ĠConf":4359,"Ġorganization":4360,"ĠBraat":4361,"Ġancient":4362,"ufact":4363,"Ġsculpt":4364,"Ġathlet":4365,"Ġpound":4366,"Ġrear":4367,"Ġlif":4368,"ĠHal":4369,"Ġsuc":4370,"ĠStorm":4371,"Ġ46":4372,"Ġexpressed":4373,"Ġartists":4374,"elsh":4375,"Ġfamil":4376,"Ġbasis":4377,"Ġelected":4378,"ĠRichmond":4379,"Ġchem":4380,"nesota":4381,"ĠGovernment":4382,"Ġtower":4383,"ĠRhodes":4384,"Ġnewspaper":4385,"bed":4386,"atch":4387,"Ġmile":4388,"Ġmole":4389,"ĠAv":4390,"ĠDist":4391,"ĠKa":4392,"ĠAlkan":4393,"Ġdefense":4394,"ĠAtt":4395,"Ġnorthwest":4396,"Ġportion":4397,"ĠAnderson":4398,"Ġsoundtrack":4399,"ceeded":4400,"ironment":4401,"ĠVietnam":4402,"ĠAngeles":4403,"Ġincorpor":4404,"ĠFootball":4405,"ĠWashington":4406,"rid":4407,"Ġfaced":4408,"iles":4409,"ĠBu":4410,"use":4411,"ĠDou":4412,"ĠGreen":4413,"Ġchampionship":4414,"ends":4415,"Ġperman":4416,"ĠYue":4417,"orship":4418,"Ġfounded":4419,"ĠColon":4420,"Ġtitled":4421,"Ġorganized":4422,"ĠWeek":4423,"Ġmagn":4424,"Ġrepresented":4425,"ĠMinnesota":4426,"Ġtransferred":4427,"gal":4428,"Ġterr":4429,"rect":4430,"Ġsn":4431,"orus":4432,"itual":4433,"Ġfarm":4434,"ĠSar":4435,"ams":4436,"Ġnarrow":4437,"ĠBre":4438,"utions":4439,"ĠWelsh":4440,"akapo":4441,"Ġprepar":4442,"Ġneigh":4443,"Ġspecim":4444,"ĠShiva":4445,"ĠSpain":4446,"Ġmodel":4447,"Ġbattles":4448,"Ġauthorities":4449,"Ġflooding":4450,"Ġultimately":4451,"Ġadvantage":4452,"ĠManchester":4453,"mark":4454,"enant":4455,"Ġinch":4456,"Ġpaper":4457,"Ġmis":4458,"Ġmess":4459,"ĠCast":4460,"ura":4461,"ĠMeyer":4462,"ĠLar":4463,"Ġcoming":4464,"Ġ180":4465,"Ġagg":4466,"Ġfloor":4467,"Ġbackground":4468,"Ġemph":4469,"Ġshortly":4470,"Ġtried":4471,"Ġencoun":4472,"uous":4473,"Ġwild":4474,"ĠCivil":4475,"Ġaltern":4476,"Ġalone":4477,"Ġrang":4478,"ĠOcean":4479,"Ġintellig":4480,"Ġ181":4481,"Ġmovie":4482,"ervation":4483,"Ġreports":4484,"Ġportray":4485,"ĠDef":4486,"pedo":4487,"Ġlegisl":4488,"Ġaffected":4489,"Ġexcav":4490,"Ġpiece":4491,"Ġconflict":4492,"ĠLittle":4493,"aen":4494,"ping":4495,"Ġwa":4496,"Ġcore":4497,"Ġtoward":4498,"Ġmind":4499,"Ġhorse":4500,"ĠFleet":4501,"osen":4502,"ĠLi":4503,"Ġexhib":4504,"Ġsport":4505,"Ġarmed":4506,"irection":4507,"Ġapparent":4508,"ĠYoung":4509,"Ġremark":4510,"Ġrepe":4511,"ĠColumb":4512,"Ġviewers":4513,"Ġdivided":4514,"Ġcannot":4515,"Ġfinancial":4516,"ĠAcademy":4517,"nis":4518,"Ġsales":4519,"Ġcandid":4520,"Ġfruit":4521,"Ġmission":4522,"Ġthir":4523,"ĠSen":4524,"ĠCons":4525,"Ġrat":4526,"Ġcomedy":4527,"oper":4528,"hips":4529,"Ġactor":4530,"Ġmusc":4531,"Ġoccasion":4532,"Ġ1920":4533,"intin":4534,"Ġinfluenced":4535,"Ġvocals":4536,"ĠTurk":4537,"Ġadopted":4538,"ĠSociety":4539,"bon":4540,"bird":4541,"met":4542,"Ġsays":4543,"Ġsister":4544,"ora":4545,"Ġfired":4546,"Ġmechan":4547,"ĠTropical":4548,"Ġreign":4549,"Ġlosing":4550,"Ġnaval":4551,"adm":4552,"idian":4553,"Ġproved":4554,"ipl":4555,"eller":4556,"ibr":4557,"Ġ64":4558,"Ġacting":4559,"Ġprison":4560,"ĠNews":4561,"ancy":4562,"Ġbroken":4563,"ĠBlue":4564,"Ġcapture":4565,"ĠSecret":4566,"ĠBraathens":4567,"ij":4568,"wen":4569,"Ġsac":4570,"Ġfiction":4571,"Ġhors":4572,"Ġheart":4573,"acks":4574,"astic":4575,"perial":4576,"ĠAnn":4577,"Ġassault":4578,"Ġmanufact":4579,"Ġdoing":4580,"Ġ1988":4581,"ĠJohnson":4582,"ype":4583,"Ġofficially":4584,"Ġedge":4585,"ĠAdd":4586,"beer":4587,"Ġsociety":4588,"onymous":4589,"Ġtorpedo":4590,"ĠNicole":4591,"ĠOttoman":4592,"Ġroyal":4593,"ĠIllino":4594,"Ġemphas":4595,"cy":4596,"kn":4597,"lam":4598,"ĠTod":4599,"Ġlb":4600,"ela":4601,"ĠHorse":4602,"Ġraid":4603,"abama":4604,"Ġ55":4605,"Ġscient":4606,"Ġworkers":4607,"Ġproduce":4608,"Ġgrass":4609,"Ġinvasion":4610,"Ġdepart":4611,"uese":4612,"Ġtitles":4613,"ĠPrince":4614,"Ġbehav":4615,"Ġstructures":4616,"Ġearliest":4617,"Åį":4618,"Ġfully":4619,"ĠTik":4620,"ĠCat":4621,"ĠBalt":4622,"igg":4623,"Ġvess":4624,"Ġyellow":4625,"Ġadj":4626,"ĠThunder":4627,"ĠArg":4628,"ĠMarine":4629,"ĠCommon":4630,"Ġfreeway":4631,"Ġcouple":4632,"Ġdoub":4633,"Ġmentioned":4634,"ĠPortuguese":4635,"Ġdedicated":4636,"gn":4637,"Ġfle":4638,"Ġbott":4639,"ĠTessa":4640,"acement":4641,"ĠMajor":4642,"lyt":4643,"ĠBurn":4644,"ĠBoy":4645,"ĠKore":4646,"ovic":4647,"Ġyour":4648,"Ġappeal":4649,"Ġattended":4650,"ĠYank":4651,"Ġconsisted":4652,"Ġdefensive":4653,"airs":4654,"prise":4655,"Ġtypes":4656,"Ġdissip":4657,"ys":4658,"Ġfast":4659,"alle":4660,"Ġpaid":4661,"Ġdut":4662,"ĠSil":4663,"Ġnest":4664,"ĠWild":4665,"izes":4666,"Ġthemes":4667,"Ġprominent":4668,"Ġcausing":4669,"ushing":4670,"ĠAssembly":4671,"ĠTownsend":4672,"Ġindividuals":4673,"Ġillust":4674,"ĠWalpole":4675,"Ġintensity":4676,"Ġphysical":4677,"Ġpotential":4678,"Ġdismiss":4679,"Ġabandoned":4680,"Ġentrance":4681,"iate":4682,"Ġaid":4683,"rel":4684,"rete":4685,"Ġfix":4686,"anwhile":4687,"ĠTintin":4688,"acts":4689,"ette":4690,"ĠBet":4691,"Ġacad":4692,"ĠEngine":4693,"Ġbrigade":4694,"azz":4695,"venue":4696,"Ġsimply":4697,"ĠSpec":4698,"ĠClark":4699,"Ġpossibly":4700,"ĠProt":4701,"Ġpattern":4702,"Ġcultural":4703,"Ġkept":4704,"ĠRecords":4705,"Ġmeasure":4706,"Ġprotein":4707,"Ġrainfall":4708,"Ġdetermined":4709,"ĠTurner":4710,"esbitt":4711,"Ã¼":4712,"Ġsay":4713,"Ġsand":4714,"Ġlives":4715,"Ġgained":4716,"etts":4717,"ĠHorn":4718,"ĠFred":4719,"ĠFowler":4720,"Ġseems":4721,"Ġplaces":4722,"Ġroll":4723,"issipp":4724,"athus":4725,"Ġseconds":4726,"Ġ120":4727,"Ġ179":4728,"Ġimpact":4729,"arrison":4730,"ĠMississipp":4731,"Ġcriticized":4732,"Ġequip":4733,"ĠBarb":4734,"Ġmanagement":4735,"ĠHait":4736,"Ġhomes":4737,"ĠOlympic":4738,"Ġdomestic":4739,"Ġast":4740,"ĠBook":4741,"imony":4742,"Ġstep":4743,"ĠHome":4744,"ĠPost":4745,"ĠFox":4746,"Ġshape":4747,"Ġunivers":4748,"Ġenemy":4749,"Ġenergy":4750,"Ġcolor":4751,"Ġenter":4752,"ĠBridge":4753,"Ġwinter":4754,"Ġolder":4755,"Ġauthority":4756,"Ġsites":4757,"Ġplanet":4758,"Ġopin":4759,"Ġtournament":4760,"admium":4761,"lim":4762,"lied":4763,"wide":4764,"inn":4765,"Ġsen":4766,"Ġpaint":4767,"ication":4768,"Ġdirection":4769,"Ġhospital":4770,"ĠBh":4771,"ĠPit":4772,"ĠPop":4773,"Ġchief":4774,"udd":4775,"ocated":4776,"Ġtry":4777,"Ġ56":4778,"ricult":4779,"Ġformation":4780,"Ġleader":4781,"Ġextra":4782,"Ġpassing":4783,"ĠCont":4784,"ĠCommission":4785,"helm":4786,"Ġrequire":4787,"Ġforeign":4788,"Ġencour":4789,"ĠValley":4790,"Ġdocument":4791,"ĠApple":4792,"ĠForest":4793,"Ġtarget":4794,"Ġcerem":4795,"Ġschedul":4796,"ĠTikal":4797,"ĠMississippi":4798,"Mont":4799,"da":4800,"ux":4801,"ãģ":4802,"ero":4803,"Ġsal":4804,"Ġgrew":4805,"Ġstra":4806,"ĠRaj":4807,"ĠLock":4808,"Ġseek":4809,"iana":4810,"Ġyoun":4811,"Ġcontain":4812,"Ġadvert":4813,"Ġattend":4814,"ĠAlabama":4815,"ĠZhou":4816,"Ġexped":4817,"Ġdepth":4818,"Ġbroke":4819,"aha":4820,"Ġpasses":4821,"Ġboats":4822,"Ġargued":4823,"Ġkilometres":4824,"Ġdisease":4825,"erry":4826,"orter":4827,"Ġcities":4828,"alions":4829,"Ġhun":4830,"oured":4831,"enture":4832,"ĠBowl":4833,"iring":4834,"ĠDirect":4835,"ĠLord":4836,"Ġspl":4837,"Ġspot":4838,"Ġarrest":4839,"Ġcharge":4840,"ĠAmericans":4841,"Ġartic":4842,"Ġ1941":4843,"Ġoperated":4844,"Ġstanding":4845,"Ġsuggests":4846,"Ġgrowing":4847,"Ġeye":4848,"Ġjournal":4849,"Ġenvironment":4850,"ĠHistor":4851,"ĠMeyerbeer":4852,"known":4853,"uge":4854,"Ġut":4855,"inem":4856,"Ġsens":4857,"edar":4858,"Ġfung":4859,"Ġfought":4860,"Ġfolk":4861,"ulate":4862,"ĠOx":4863,"Ġchosen":4864,"orney":4865,"Ġalbums":4866,"Ġ1964":4867,"ĠDev":4868,"Ġfrag":4869,"ĠPerÃ³n":4870,"Ġpromoted":4871,"Ġwalls":4872,"Station":4873,"Ġmoment":4874,"Ġrejected":4875,"ĠDemocr":4876,"Ġmaximum":4877,"pass":4878,"ua":4879,"Ã¨":4880,"ãĤ":4881,"Ġrom":4882,"Ġtur":4883,"Ġwave":4884,"Ġpan":4885,"Ġmouth":4886,"ĠTri":4887,"ental":4888,"ĠFour":4889,"ĠNesbitt":4890,"ĠGall":4891,"ĠGood":4892,"ĠLl":4893,"istry":4894,"istics":4895,"Ġkakapo":4896,"Ġcontent":4897,"ĠVan":4898,"Ġimages":4899,"Ġnewly":4900,"Ġinterp":4901,"Ġlanding":4902,"ĠCommun":4903,"Ġedition":4904,"Ġkilling":4905,"arnia":4906,"Ġclaims":4907,"ĠEva":4908,"Ġreligion":4909,"ĠPlayStation":4910,"Ġsettlement":4911,"Ġconfirmed":4912,"anasi":4913,"Ġxenon":4914,"ĠIllinois":4915,"upp":4916,"Ġtun":4917,"Ġwor":4918,"isters":4919,"Ġdiam":4920,"ĠTime":4921,"Ġven":4922,"Ġsend":4923,"Ġkg":4924,"ector":4925,"Ġcompr":4926,"Ġweather":4927,"Ġneut":4928,"Ġ1985":4929,"Ġbelong":4930,"Ġlands":4931,"ographer":4932,"Ġdebuted":4933,"Ġtwice":4934,"Ġidentified":4935,"Ġletter":4936,"Ġreaching":4937,"Ġhonor":4938,"Ġindependent":4939,"ĠOperation":4940,"Ġgranted":4941,"Ġweapons":4942,"ĠMiddle":4943,"Ġequipment":4944,"VD":4945,"Ġtim":4946,"inated":4947,"Ġfres":4948,"Ġfear":4949,"Ġhappen":4950,"ĠCra":4951,"ĠMatt":4952,"unte":4953,"ĠRo":4954,"Ġseg":4955,"alls":4956,"Ġshare":4957,"Ġunknown":4958,"Ġweak":4959,"Ġconsecutive":4960,"ĠClass":4961,"Ġtemple":4962,"Ġlooking":4963,"Ġcases":4964,"ihanna":4965,"Ġresults":4966,"Ġpieces":4967,"Ġflying":4968,"che":4969,"atops":4970,"Ġmob":4971,"Ġmounted":4972,"lection":4973,"ĠSR":4974,"ĠSo":4975,"ĠSat":4976,"ayer":4977,"aved":4978,"umes":4979,"ĠOm":4980,"ighth":4981,"ĠUl":4982,"Ġspect":4983,"ogad":4984,"Ġrow":4985,"Ġ41":4986,"Ġ53":4987,"Ġ57":4988,"Ġremix":4989,"Ġflank":4990,"Ġcolony":4991,"Ġtherefore":4992,"Ġdoct":4993,"fully":4994,"Ġ1987":4995,"insula":4996,"Ġsupporting":4997,"Ġadvanced":4998,"ĠAndrew":4999,"Ġfunction":5000,"Ġcouncil":5001,"Ġsources":5002,"Ġeconomic":5003,"Ġrapidly":5004,"Ġwebsite":5005,"By":5006,"mit":5007,"more":5008,"writ":5009,"ishes":5010,"Ġbit":5011,"ĠAvenue":5012,"ĠMass":5013,"iments":5014,"unction":5015,"ĠField":5016,"ĠWay":5017,"ĠLis":5018,"Ġcontaining":5019,"Ġcontributed":5020,"Ġserve":5021,"Ġregions":5022,"Ġfollows":5023,"Ġsinging":5024,"Ġmatter":5025,"Ġreturning":5026,"Ġbelieve":5027,"ĠEdward":5028,"Ġsolo":5029,"Ġincreasingly":5030,"ĠScottish":5031,"Ġscholars":5032,"ĠArgent":5033,"aith":5034,"kare":5035,"sw":5036,"then":5037,"uan":5038,"Ġaired":5039,"Ġahead":5040,"Ġmaster":5041,"ĠSeveral":5042,"ety":5043,"ĠBBC":5044,"imore":5045,"ĠLo":5046,"ĠJup":5047,"gend":5048,"Ġunp":5049,"ĠVen":5050,"Ġperfect":5051,"Ġjump":5052,"ĠAnth":5053,"Ġprin":5054,"Ġsingles":5055,"Ġstudent":5056,"Ġguest":5057,"Ġexplained":5058,"Ġprojects":5059,"ĠMinister":5060,"Ġknowledge":5061,"ĠMorr":5062,"ĠSlam":5063,"ĠEarly":5064,"ĠMeridian":5065,"Ġmultiple":5066,"Ġcontrolled":5067,"Ch":5068,"mun":5069,"yr":5070,"Ġsought":5071,"Ġdress":5072,"Ġreaction":5073,"oted":5074,"ĠDVD":5075,"ĠFA":5076,"ĠGre":5077,"Ġrisk":5078,"ĠEastern":5079,"ĠKir":5080,"ella":5081,"Ġunique":5082,"Ġ43":5083,"ĠThough":5084,"icks":5085,"Ġmuseum":5086,"Ġ1947":5087,"Ġprotest":5088,"Ġreference":5089,"ĠAirport":5090,"Ġanimal":5091,"Ġemployed":5092,"ĠRussian":5093,"Ġlabel":5094,"Ġaccompan":5095,"aenathus":5096,"Le":5097,"Ġtact":5098,"itable":5099,"adel":5100,"ĠMat":5101,"ĠRihanna":5102,"ĠDest":5103,"ĠFey":5104,"ĠLew":5105,"Ġhere":5106,"ĠOf":5107,"Ġorb":5108,"antly":5109,"ishu":5110,"ieut":5111,"Ġcolumn":5112,"Ġ1989":5113,"Ġ1942":5114,"Ġdeliver":5115,"Ġboat":5116,"urban":5117,"Ġtemperature":5118,"ĠTemple":5119,"Ġpolicy":5120,"ĠEntertain":5121,"ĠFurther":5122,"Ġstraight":5123,"aver":5124,"eer":5125,"eed":5126,"Ġcust":5127,"ĠSum":5128,"stream":5129,"ĠMax":5130,"ĠBir":5131,"ĠDen":5132,"iance":5133,"Ġherself":5134,"Ġimag":5135,"Ġdefin":5136,"ertain":5137,"Ġ1972":5138,"Ġopposed":5139,"ĠWilliams":5140,"Ġcollabor":5141,"Ġburied":5142,"Ġdropped":5143,"uzz":5144,"Ġfailure":5145,"Ġplatform":5146,"ogadishu":5147,"bl":5148,"hat":5149,"sy":5150,"Ġox":5151,"Ġbud":5152,"Ġpict":5153,"asure":5154,"Ġmic":5155,"ĠSAF":5156,"ĠBecause":5157,"ĠDo":5158,"ersey":5159,"ĠGreek":5160,"ĠLine":5161,"Ġheight":5162,"Ġvo":5163,"Ġspring":5164,"Ġincident":5165,"Ġcontained":5166,"Ġweight":5167,"Ġ700":5168,"Ġflag":5169,"Ġassass":5170,"Ġsupply":5171,"Ġmaintained":5172,"Ġ1984":5173,"ancing":5174,"inkel":5175,"ĠConstant":5176,"Ġguard":5177,"Ġdrive":5178,"Ġvisited":5179,"ĠChurchill":5180,"Ġspeak":5181,"Ġhistorian":5182,"Ġorders":5183,"ĠSwed":5184,"Ġhorses":5185,"ĠJupiter":5186,"ĠSAFE":5187,"An":5188,"Following":5189,"haps":5190,"iot":5191,"Ġselling":5192,"edkare":5193,"Ġwitness":5194,"Ġcricket":5195,"ano":5196,"Ġmales":5197,"ĠBart":5198,"thur":5199,"ĠDutch":5200,"agement":5201,"Ġrating":5202,"Ġrival":5203,"Ġchose":5204,"ĠStep":5205,"Ġtrain":5206,"Ġunsu":5207,"ĠVill":5208,"Ġscience":5209,"Ġ95":5210,"ocked":5211,"Ġwrites":5212,"ĠIndepend":5213,"Ġphil":5214,"Ġsignificantly":5215,"Ġstrike":5216,"Ġcondition":5217,"Ġproblem":5218,"white":5219,"Ġsustained":5220,"With":5221,"cel":5222,"ena":5223,"Ġbid":5224,"Ġbass":5225,"Ġreact":5226,"Ġge":5227,"uting":5228,"ĠEven":5229,"antasy":5230,"Ġexcl":5231,"ĠUs":5232,"Ġoverl":5233,"ressive":5234,"Ġteacher":5235,"Ġretired":5236,"Ġpoly":5237,"ĠConference":5238,"Ġ130":5239,"Ġideas":5240,"Ġgrowth":5241,"Ġconnected":5242,"Ġinjury":5243,"ĠCongress":5244,"Although":5245,"Ġbattery":5246,"ĠOxford":5247,"ao":5248,"iable":5249,"ket":5250,"mission":5251,"Ã¶":5252,"inity":5253,"Ġod":5254,"Ġfan":5255,"esh":5256,"Ġbank":5257,"asters":5258,"Ġhor":5259,"Ġlaid":5260,"add":5261,"ĠMounted":5262,"ĠNight":5263,"ĠGulf":5264,"ĠJur":5265,"Ġrac":5266,"ortal":5267,"illo":5268,"Ġdeities":5269,"ansas":5270,"Ġ600":5271,"ĠArm":5272,"Ġfamous":5273,"ĠCarl":5274,"ĠAllied":5275,"Ġbelief":5276,"Ġfemales":5277,"Ġdeclined":5278,"Ġstrik":5279,"Ġsubsequent":5280,"Ġburns":5281,"ĠDuMont":5282,"ĠOdaenathus":5283,"ĠHelms":5284,"Ġsilver":5285,"Ġseventh":5286,"ĠDistrict":5287,"Ġscheduled":5288,"inkelstein":5289,"ridge":5290,"uct":5291,"Ġ+":5292,"Ġoil":5293,"ato":5294,"ĠTra":5295,"olved":5296,"ĠId":5297,"ĠHart":5298,"ĠRail":5299,"ĠGard":5300,"ĠLike":5301,"ĠStan":5302,"Ġarms":5303,"Ġresemb":5304,"izations":5305,"Ġminer":5306,"heless":5307,"Ġreflect":5308,"Ġbreeding":5309,"Ġpopularity":5310,"ĠSystem":5311,"Ġvolume":5312,"Ġnominated":5313,"Ġproperty":5314,"ĠJeff":5315,"Ġprepared":5316,"Ġnecessary":5317,"ĠThunderbird":5318,"Ġbottom":5319,"fort":5320,"ias":5321,"lusion":5322,"Ġtail":5323,"Ġsail":5324,"Ġfict":5325,"Ġboy":5326,"Ġmist":5327,"iced":5328,"Ġdance":5329,"Ġreform":5330,"ĠSpr":5331,"ĠSarnia":5332,"ĠDun":5333,"ava":5334,"ĠJon":5335,"ĠJour":5336,"ordon":5337,"Ġcompar":5338,"Ġnews":5339,"Ġ800":5340,"Ġactors":5341,"Ġ1944":5342,"Ġlandfall":5343,"Ġserving":5344,"Ġcommonly":5345,"Ġcreating":5346,"Ġstrengthen":5347,"ĠWilhelm":5348,"Ġpurchased":5349,"ĠCardiff":5350,"han":5351,"win":5352,"heastern":5353,"render":5354,"Ġswe":5355,"Ġwr":5356,"Ġparliament":5357,"Ġmo":5358,"Ġham":5359,"ĠSky":5360,"Ġgain":5361,"ider":5362,"ĠPrem":5363,"ĠRos":5364,"ĠDar":5365,"ĠNative":5366,"Ġridge":5367,"ĠEll":5368,"resp":5369,"ĠInstitute":5370,"Ġunus":5371,"ampion":5372,"awa":5373,"Ġends":5374,"Ġcoal":5375,"Ġconcrete":5376,"Ġcreation":5377,"ĠIndust":5378,"Ġ1965":5379,"Ġstarts":5380,"Ġpasseng":5381,"ashion":5382,"ĠGuard":5383,"Ġpersonnel":5384,"Ġmedical":5385,"Ġfacilities":5386,"Ġlosses":5387,"Ġanimals":5388,"ĠMcCall":5389,"Ġsemi":5390,"Ġversions":5391,"ĠAdmir":5392,"ĠBaltimore":5393,"Ġsenior":5394,"ieutenant":5395,"When":5396,"iy":5397,"rin":5398,"Ġtall":5399,"onent":5400,"Ġouter":5401,"Ġbul":5402,"Ġdaily":5403,"Ġhapp":5404,"ĠTim":5405,"ĠAD":5406,"ĠBas":5407,"Ġstreet":5408,"Ġbeaut":5409,"ules":5410,"ĠLiber":5411,"Ġrise":5412,"ĠEnd":5413,"Ġvirt":5414,"Ġchair":5415,"Ġexec":5416,"Ġshaped":5417,"ĠStone":5418,"ĠChild":5419,"Ġ73":5420,"ĠOnce":5421,"Ġ1981":5422,"Ġdescript":5423,"Ġextensive":5424,"ĠAdv":5425,"Ġsystems":5426,"Ġcampus":5427,"Ġtrial":5428,"Ġeffective":5429,"Ġcriticism":5430,"Ġpitched":5431,"Ġregarded":5432,"Ġhyd":5433,"Ġslowly":5434,"ĠVaranasi":5435,"Ġchalleng":5436,"ĠHMS":5437,"ML":5438,"OT":5439,"inary":5440,"Ġtheory":5441,"Ġsave":5442,"aria":5443,"Ġpul":5444,"Ġdated":5445,"ĠMov":5446,"ĠBand":5447,"Ġstations":5448,"ĠHib":5449,"anda":5450,"Ġcomes":5451,"ĠUN":5452,"Ġrecently":5453,"Ġ54":5454,"ansion":5455,"Ġagricult":5456,"ĠItaly":5457,"Ġ62":5458,"Ġremn":5459,"Ġfilmed":5460,"amese":5461,"phia":5462,"Ġexpanded":5463,"Ġconcer":5464,"Ġoccas":5465,"Ġtrip":5466,"Ġturns":5467,"Ġimproved":5468,"Ġnegative":5469,"ĠEgyptian":5470,"Ġgradually":5471,"Ġoccupied":5472,"Ġfrequently":5473,"Ġclean":5474,"Ġexperienced":5475,"ĠAddition":5476,"ĠOmaha":5477,"adelphia":5478,"ĠEntertainment":5479,"TC":5480,"mosp":5481,"rine":5482,"rell":5483,"Ġwed":5484,"Ġcited":5485,"Ġcadmium":5486,"Ġla":5487,"Ġgives":5488,"ivity":5489,"ifying":5490,"ĠUr":5491,"ips":5492,"Ġunf":5493,"ieval":5494,"Ġroof":5495,"Ġcollected":5496,"Ġactress":5497,"Ġsubmar":5498,"Ġdistrib":5499,"Ġsimple":5500,"Ġsouthwest":5501,"Ġcaptain":5502,"Ġfinding":5503,"Ġsuccessfully":5504,"chers":5505,"ĠVietnamese":5506,"Ġdominated":5507,"Ġpremi":5508,"ĠCeres":5509,"oe":5510,"oen":5511,"rum":5512,"rons":5513,"Ġtree":5514,"ati":5515,"Ġbats":5516,"Ġdial":5517,"Ġdrop":5518,"ĠSund":5519,"urches":5520,"ĠMountain":5521,"ĠBan":5522,"ĠBost":5523,"Ġbey":5524,"ĠRy":5525,"ĠRog":5526,"ĠNever":5527,"ĠKey":5528,"Ġprefer":5529,"ĠMario":5530,"Ġallows":5531,"ĠAndy":5532,"Ġparalle":5533,"Ġdelay":5534,"Ġsurvey":5535,"Ġpromotion":5536,"Ġvalue":5537,"Ġletters":5538,"Ġcells":5539,"ĠKeats":5540,"ĠSteve":5541,"ĠMartin":5542,"ĠVictoria":5543,"ĠCroatia":5544,"Ġaspects":5545,"Ġanalysis":5546,"Ġbudget":5547,"FA":5548,"ez":5549,"Äĩ":5550,"áĥ":5551,"isy":5552,"Ġdates":5553,"stead":5554,"Ġeas":5555,"ĠMike":5556,"ĠMogadishu":5557,"Ġstages":5558,"Ġatmosp":5559,"ĠNorm":5560,"ager":5561,"Ġheard":5562,"Ġring":5563,"ĠOh":5564,"illing":5565,"Ġchorus":5566,"sea":5567,"Ġsports":5568,"outs":5569,"There":5570,"Ġ72":5571,"Ġunderground":5572,"ĠShort":5573,"Ġsevere":5574,"Ġemperor":5575,"Ġ1966":5576,"Ġopera":5577,"Ġpublication":5578,"Ġprotect":5579,"Ġhumans":5580,"Ġengaged":5581,"Ġentirely":5582,"Ġproducers":5583,"Ġrecognized":5584,"Ġparticipated":5585,"Ġliterature":5586,"ĠDjedkare":5587,"Ġbeyond":5588,"lines":5589,"Ġaim":5590,"Ġfat":5591,"arp":5592,"Ġmig":5593,"Ġdraft":5594,"ĠCold":5595,"ĠBru":5596,"idges":5597,"ote":5598,"ĠPre":5599,"ĠRod":5600,"ĠDes":5601,"ĠWat":5602,"ĠNBA":5603,"ĠLes":5604,"Ġexecutive":5605,"anga":5606,"Ġ61":5607,"anny":5608,"Ġmush":5609,"Ġ160":5610,"Ġ164":5611,"Ġexpress":5612,"Ġ1939":5613,"Ġarrival":5614,"Ġcastle":5615,"ĠPeople":5616,"Ġstopped":5617,"Ġsettlers":5618,"ĠRevolution":5619,"ĠDougl":5620,"lythe":5621,"ĠApplewhite":5622,"aire":5623,"bo":5624,"load":5625,"Ã¤":5626,"Ġpal":5627,"rot":5628,"standing":5629,"Ġeth":5630,"Ġegg":5631,"ĠMur":5632,"ĠMem":5633,"ults":5634,"ĠDue":5635,"ĠFre":5636,"ĠFriend":5637,"ĠFestival":5638,"ĠNH":5639,"ĠGordon":5640,"ĠLy":5641,"ĠEach":5642,"Ġadapt":5643,"Ġ96":5644,"Ġ110":5645,"iversary":5646,"Ġ177":5647,"ĠColor":5648,"Ġbattalions":5649,"Ġ1918":5650,"Ġphase":5651,"Ġsquad":5652,"Ġfavour":5653,"ĠMcCart":5654,"Ġnegot":5655,"ĠPhiladelphia":5656,"Ġbriefly":5657,"Ġcommissioned":5658,"ĠRAAF":5659,"ĠArea":5660,"Ġsoutheast":5661,"Ġfamilies":5662,"Ġmolec":5663,"Ġaccompanied":5664,"Ġfictional":5665,"Wh":5666,"Å¡":5667,"Ġbought":5668,"rog":5669,"Ġlabor":5670,"ading":5671,"ĠMong":5672,"lying":5673,"ĠDer":5674,"ĠDomin":5675,"ĠFam":5676,"Ġtrying":5677,"Ġcompound":5678,"rug":5679,"Ġoverse":5680,"ĠAsia":5681,"Ġdidn":5682,"Ġdeaths":5683,"ĠOrigin":5684,"ĠTeam":5685,"Ġtreatment":5686,"Ġdegree":5687,"Ġresponded":5688,"AC":5689,"uate":5690,"Ġmount":5691,"ĠAst":5692,"ĠMore":5693,"ĠHan":5694,"ĠHaven":5695,"ĠGreg":5696,"Ġru":5697,"Ġseat":5698,"aka":5699,"ĠInnis":5700,"usted":5701,"Ġcomputer":5702,"angers":5703,"Ġfinish":5704,"Ġdecline":5705,"Ġdecades":5706,"Ġ82":5707,"Ġundert":5708,"anner":5709,"Ġacres":5710,"Ġsecondary":5711,"Ġdoor":5712,"Ġcool":5713,"Ġpopulations":5714,"Ġadding":5715,"Ġ1971":5716,"Ġheaded":5717,"Ġelement":5718,"Ġlasted":5719,"ĠMeanwhile":5720,"Ġcombination":5721,"Ġagreement":5722,"Ġindependence":5723,"Ġlearned":5724,"Ġnormal":5725,"Ġweakened":5726,"ĠBono":5727,"ĠDaniel":5728,"ĠCrazy":5729,"Ġunsuccess":5730,"chen":5731,"hm":5732,"rig":5733,"set":5734,"yles":5735,"Ġawards":5736,"Ġtheat":5737,"isers":5738,"Ġdrawn":5739,"ĠSus":5740,"aming":5741,"ĠMot":5742,"ĠBull":5743,"ĠBoard":5744,"Ġstret":5745,"andy":5746,"ĠFive":5747,"ĠFinkelstein":5748,"Ġitems":5749,"iston":5750,"istan":5751,"apes":5752,"Ġnotable":5753,"rait":5754,"Ġ59":5755,"Ġfinals":5756,"Ġevac":5757,"Ġ66":5758,"Ġcenturies":5759,"Ġdecre":5760,"Ġ85":5761,"Ġ94":5762,"Ġinterchange":5763,"Ġperforming":5764,"Ġlongest":5765,"Ġ1968":5766,"Ġowners":5767,"Ġvisual":5768,"Ġglob":5769,"Ġholding":5770,"Ġbegun":5771,"Ġexisting":5772,"ĠCoast":5773,"Ġpilot":5774,"Ġnucleus":5775,"Ġroughly":5776,"ca":5777,"chest":5778,"iations":5779,"Ġi":5780,"Ġaer":5781,"Ġopt":5782,"Ġfit":5783,"Ġfellow":5784,"Ġbow":5785,"Ġpet":5786,"Ġdata":5787,"Ġhired":5788,"omp":5789,"Ġbeach":5790,"Ġisol":5791,"Ġnothing":5792,"Ġcontact":5793,"Ġperhaps":5794,"ĠAlf":5795,"ropri":5796,"Ġaccident":5797,"Ġsetting":5798,"ĠReview":5799,"Ġreceiving":5800,"Ġ1975":5801,"Ġinscript":5802,"Ġrestaur":5803,"Ġworldwide":5804,"Ġpossibility":5805,"Ġstoryline":5806,"ographic":5807,"Ġimportance":5808,"Ġinvolvement":5809,"Ġelimin":5810,"Ġfinds":5811,"Ġcougar":5812,"ĠMagazine":5813,"ĠPalest":5814,"Ġfocused":5815,"Ġreinforce":5816,"Ġpermanent":5817,"Ġfresh":5818,"Ġphilos":5819,"ĠDouglas":5820,"According":5821,"Ġfox":5822,"Ġtomb":5823,"ĠAri":5824,"Ġlane":5825,"ĠCle":5826,"ĠCub":5827,"ĠMel":5828,"lywood":5829,"ĠHy":5830,"ĠLu":5831,"Ġchoice":5832,"rupt":5833,"Ġapplic":5834,"ĠAlso":5835,"Ġcommittee":5836,"Ġconsists":5837,"Ġdecade":5838,"Ġ81":5839,"Ġfilming":5840,"Ġprotagon":5841,"espread":5842,"ĠProv":5843,"Ġpropos":5844,"Ġassociation":5845,"Ġcurrently":5846,"Ġregarding":5847,"Ġreasons":5848,"borough":5849,"Ġattract":5850,"Ã¡nh":5851,"ĠLewis":5852,"Ġexclus":5853,"bar":5854,"iences":5855,"Ġtrou":5856,"inal":5857,"reets":5858,"eda":5859,"atus":5860,"itan":5861,"ingly":5862,"ĠAthlet":5863,"Ġload":5864,"Ġnor":5865,"ĠCre":5866,"ads":5867,"ĠMD":5868,"Ġgreen":5869,"ĠIron":5870,"ĠDown":5871,"ĠWall":5872,"ĠWork":5873,"ĠGi":5874,"Ġrif":5875,"ĠOp":5876,"ĠKang":5877,"ĠKenn":5878,"Ġarc":5879,"aret":5880,"wealth":5881,"Ġcommit":5882,"ublin":5883,"ĠOnly":5884,"ooking":5885,"Ġemp":5886,"Ġdeveloping":5887,"Ġdistrict":5888,"Ġcourts":5889,"Ġsentence":5890,"Ġmyth":5891,"Ġroads":5892,"Ġsurviv":5893,"Ġprograms":5894,"Ġhousehold":5895,"Ġcollege":5896,"Ġvolunte":5897,"ĠHamels":5898,"Ġrebu":5899,"ĠFinal":5900,"Ġexistence":5901,"Ġescape":5902,"ĠMacLe":5903,"ĠGovernor":5904,"Ġfirm":5905,"Ġpurpose":5906,"Ġadministration":5907,"Ġenjoyed":5908,"Ġintelligence":5909,"ĠTurkish":5910,"Ġparallel":5911,"la":5912,"lik":5913,"mes":5914,"Ġsom":5915,"ĠSor":5916,"ĠAp":5917,"ĠCa":5918,"ĠChel":5919,"ĠMen":5920,"ĠBor":5921,"imet":5922,"Ġstream":5923,"ĠRol":5924,"ĠRay":5925,"ĠJac":5926,"ĠJones":5927,"Ġnote":5928,"Ġcomposition":5929,"Ġcontest":5930,"iege":5931,"Ġrot":5932,"Ġroutes":5933,"Ġ71":5934,"ilding":5935,"ĠMarines":5936,"Ġsole":5937,"Ġsupplies":5938,"Ġcalls":5939,"Ġinvited":5940,"Ġextrem":5941,"Ġprovides":5942,"Ġdistingu":5943,"Ġanything":5944,"ĠJuan":5945,"Ġ1914":5946,"Ġserves":5947,"Ġturning":5948,"Ġgreatly":5949,"ĠAmong":5950,"Ġcrossing":5951,"Ġruled":5952,"Ġpainting":5953,"Ġchapel":5954,"Ġcolonial":5955,"Ġtells":5956,"Ġathletes":5957,"Ġrepeated":5958,"ĠColorado":5959,"GN":5960,"born":5961,"cle":5962,"yson":5963,"erted":5964,"Ġsle":5965,"Ġfilled":5966,"isf":5967,"Ġdry":5968,"Ġneck":5969,"ĠCole":5970,"ĠBaby":5971,"utation":5972,"ĠRon":5973,"ĠRow":5974,"ĠDis":5975,"Ġcomic":5976,"opher":5977,"ewhere":5978,"Ġchurches":5979,"Ġplanning":5980,"essed":5981,"sey":5982,"Ġspons":5983,"Ġ77":5984,"Ġconsp":5985,"Ġneither":5986,"Ġcapable":5987,"Ġbranch":5988,"Ġ1973":5989,"Ġ250":5990,"Ġoldest":5991,"Ġopposition":5992,"Ġbasket":5993,"Ġviewed":5994,"ĠAbu":5995,"ĠSongs":5996,"Ġcorrect":5997,"ĠEvita":5998,"ĠCrown":5999,"Ġaccompl":6000,"Ġmassive":6001,"Ġsynt":6002,"Ġpoetry":6003,"Ġconsisting":6004,"Ġconverted":6005,"Ġsymbol":6006,"Ġpaintings":6007,"BS":6008,"burg":6009,"come":6010,"laim":6011,"rang":6012,"Ġign":6013,"Ġtend":6014,"erc":6015,"aton":6016,"Ġfaith":6017,"Ġthing":6018,"ĠSub":6019,"ĠSound":6020,"amy":6021,"ĠMu":6022,"ĠPers":6023,"ĠRome":6024,"ĠRidge":6025,"ĠDublin":6026,"ĠGirl":6027,"opes":6028,"ighter":6029,"Ġapplied":6030,"Ġenl":6031,"Ġfinishing":6032,"Ġcharges":6033,"Ġassemb":6034,"Ġsubstant":6035,"Ġmoves":6036,"ĠScience":6037,"ĠJoe":6038,"Ġreceive":6039,"Ġ1943":6040,"Ġ1969":6041,"Ġheads":6042,"Ġ1936":6043,"Ġprotection":6044,"ĠProject":6045,"Ġauthors":6046,"Ġclubs":6047,"Ġislands":6048,"Ġpurs":6049,"Ġwidespread":6050,"Ġtechnique":6051,"ĠCommander":6052,"Ġviolence":6053,"Ġbillion":6054,"ĠOffice":6055,"Ġchapter":6056,"Ġcalc":6057,"ĠStudios":6058,"hetic":6059,"Ġvehicles":6060,"Ġopinion":6061,"ĠBoston":6062,"30":6063,"aser":6064,"ilton":6065,"lyss":6066,"iday":6067,"ivered":6068,"osa":6069,"ĠLuc":6070,"ĠLieutenant":6071,"abil":6072,"Ġchannel":6073,"ĠChap":6074,"Ġresist":6075,"Ġreserv":6076,"Ġreconst":6077,"ibbe":6078,"ĠAlbum":6079,"attle":6080,"Ġsupposed":6081,"Ġfoundation":6082,"Ġ1945":6083,"Ġ1946":6084,"ĠIsab":6085,"Ġgovernor":6086,"ĠBroad":6087,"Ġintroduction":6088,"ÃŃa":6089,"Ġclosely":6090,"Ġmissing":6091,"Ġeconomy":6092,"Ġdrama":6093,"Ġsculpture":6094,"ibrary":6095,"ĠToday":6096,"Ġdissipated":6097,"ĠMacLeod":6098,"à¸":6099,"Ġerr":6100,"Ġcaught":6101,"Ġfashion":6102,"Ġdrew":6103,"ĠTru":6104,"entially":6105,"iration":6106,"ĠTheatre":6107,"Ġstore":6108,"ĠHard":6109,"ĠRox":6110,"eman":6111,"Ġaltar":6112,"ĠFar":6113,"ĠWind":6114,"ĠGA":6115,"agre":6116,"Ġrural":6117,"apers":6118,"ĠInstead":6119,"ĠVideo":6120,"okes":6121,"Ġresident":6122,"Ġimpr":6123,"rence":6124,"aware":6125,"Ġflights":6126,"Ġvert":6127,"Ġsoft":6128,"Ġdowntown":6129,"Ġ1974":6130,"Ġ1978":6131,"Ġairport":6132,"Ġeditor":6133,"Ġskin":6134,"Ġhistoric":6135,"idden":6136,"ĠWalter":6137,"ĠTorres":6138,"Ġdollar":6139,"Ġacquired":6140,"Ġdigital":6141,"ĠCambod":6142,"Ġterminus":6143,"ĠCommonwealth":6144,"For":6145,"pson":6146,"Ġton":6147,"inj":6148,"Ġsan":6149,"Ġcit":6150,"Ġcateg":6151,"Ġfuel":6152,"alent":6153,"Ġdin":6154,"Ġdog":6155,"stances":6156,"ĠCook":6157,"acity":6158,"usal":6159,"ĠDream":6160,"agle":6161,"ĠObs":6162,"ichol":6163,"Ġuns":6164,"Ġjack":6165,"ropol":6166,"ĠArthur":6167,"Ġ98":6168,"Ġmonument":6169,"ĠSha":6170,"Ġ1967":6171,"Ġproviding":6172,"Ġstrateg":6173,"Ġ1952":6174,"Ġiniti":6175,"Ġtowns":6176,"Ġdelivered":6177,"ipping":6178,"Ġspeaking":6179,"Ġcompetitions":6180,"Ġsurvived":6181,"ĠBarrow":6182,"Ġsufficient":6183,"Ġmotion":6184,"ĠKhÃ¡nh":6185,"ĠBraz":6186,"Ġestablishment":6187,"Ġarchaeological":6188,"Ġopportunity":6189,"Ġbenef":6190,"ĠColonel":6191,"Ġsplit":6192,"ĠThunderbirds":6193,"ĠPremier":6194,"respond":6195,"ii":6196,"Ġhyp":6197,"amm":6198,"ĠCop":6199,"uration":6200,"Ġgas":6201,"ĠHin":6202,"ĠHomer":6203,"ĠNathan":6204,"estone":6205,"ĠJain":6206,"Ġrich":6207,"Ġplum":6208,"iously":6209,"Ġ87":6210,"Ġgameplay":6211,"Ġgoes":6212,"ĠCaribbe":6213,"Ġ1919":6214,"Ġdetails":6215,"Ġtries":6216,"Ġcrimin":6217,"Ġtypical":6218,"Ġreplace":6219,"Ġviews":6220,"Ġdestroyers":6221,"Äģda":6222,"Ġvalley":6223,"Ġmissions":6224,"Ġassistance":6225,"Ġconcerns":6226,"Ġderived":6227,"ĠJamal":6228,"Ġinstrument":6229,"Ġastron":6230,"ĠAnthony":6231,"sych":6232,"While":6233,"lysses":6234,"tty":6235,"ini":6236,"Ġsort":6237,"Ġcrop":6238,"itors":6239,"Ġmort":6240,"Ġdrug":6241,"ĠCD":6242,"ĠPublic":6243,"ĠWrit":6244,"ĠNick":6245,"uma":6246,"ĠJes":6247,"rier":6248,"ears":6249,"ĠIng":6250,"ĠUlysses":6251,"ĠStadium":6252,"Ġtruth":6253,"ogen":6254,"Ġrob":6255,"Ġrose":6256,"Ġdescend":6257,"Ġsecure":6258,"formation":6259,"ĠLeon":6260,"Ġlocations":6261,"Ġtransit":6262,"Ġ1976":6263,"Ġinstruct":6264,"Ġlanded":6265,"ĠCommittee":6266,"cliff":6267,"Ġcommanded":6268,"iece":6269,"ĠExp":6270,"Ġrenamed":6271,"Ġfunding":6272,"Ġdenied":6273,"Ġremainder":6274,"Ġinnings":6275,"Ġintersection":6276,"Ġoccasionally":6277,"Ġwedding":6278,"ĠCaribbean":6279,"gie":6280,"iar":6281,"war":6282,"ym":6283,"Ġwars":6284,"Ġmut":6285,"Ġdating":6286,"amin":6287,"Ġones":6288,"ĠMic":6289,"ĠBeck":6290,"ĠPagan":6291,"Ġwhy":6292,"Ġconsequ":6293,"ĠJud":6294,"Ġrub":6295,"ĠOreg":6296,"iful":6297,"quake":6298,"Ġshared":6299,"ĠChains":6300,"Ġattached":6301,"mann":6302,"ĠAnonymous":6303,"Ġknew":6304,"Ġgrav":6305,"Ġstudied":6306,"Ġwatched":6307,"ĠTownship":6308,"Ġcertified":6309,"Ġproducing":6310,"Ġseparated":6311,"ĠImperial":6312,"Ġshooting":6313,"Ġsections":6314,"ĠFrancisc":6315,"Ġsafety":6316,"Ġsucceeded":6317,"ĠOregon":6318,"know":6319,"var":6320,"Ġurban":6321,"Ġtied":6322,"Ġaware":6323,"Ġsun":6324,"ĠAge":6325,"elve":6326,"ador":6327,"ĠBul":6328,"ĠBern":6329,"ĠBrian":6330,"ĠBlythe":6331,"ĠLenn":6332,"ĠJay":6333,"ĠERA":6334,"Ġpros":6335,"Ġselect":6336,"allow":6337,"ells":6338,"Ġshel":6339,"ĠLee":6340,"Ġentering":6341,"Ġsurrender":6342,"Ġdisturb":6343,"Ġ1953":6344,"Ġ1916":6345,"Ġ1917":6346,"Ġprotected":6347,"Ġcamps":6348,"psons":6349,"ĠPhill":6350,"Ġconvoy":6351,"Ġcorrespond":6352,"ĠSimpsons":6353,"Ġsquadron":6354,"Ġtechnology":6355,"Ġpitch":6356,"Ġmotor":6357,"Ġjourney":6358,"Ġcredited":6359,"Ġthousands":6360,"ĠAdditionally":6361,"It":6362,"VN":6363,"break":6364,"de":6365,"tav":6366,"ona":6367,"oral":6368,"Ġfair":6369,"Ġha":6370,"str":6371,"Ġlob":6372,"ĠMod":6373,"ĠMTV":6374,"ĠIra":6375,"aked":6376,"pping":6377,"Ġcho":6378,"Ġexact":6379,"ĠAli":6380,"ribed":6381,"Ġdefined":6382,"Ġaddress":6383,"Ġrevolution":6384,"Ġ1963":6385,"Ġreplacement":6386,"Ġbasic":6387,"Ġfields":6388,"Ġglass":6389,"Ġbaseball":6390,"Ġpenalty":6391,"Ġapart":6392,"ĠOde":6393,"ĠGolden":6394,"Ġimmig":6395,"ĠMountains":6396,"ĠOslo":6397,"ĠTennyson":6398,"Ġdismissed":6399,"Ġacademic":6400,"ĠSummer":6401,"ĠHibari":6402,"rations":6403,"ses":6404,"ÅĤ":6405,"Ġwick":6406,"Ġwins":6407,"amber":6408,"ĠMah":6409,"ĠBond":6410,"Ġstem":6411,"ĠRÃ©":6412,"ĠFel":6413,"ĠJersey":6414,"Ġsud":6415,"acked":6416,"Ġnoting":6417,"Ġlegend":6418,"ĠStew":6419,"Ġadult":6420,"Ġ69":6421,"Ġsecured":6422,"Ġdecor":6423,"ĠMarl":6424,"Ġ97":6425,"Ġcolour":6426,"Ġdepict":6427,"Ġ112":6428,"Ġleads":6429,"Ġ1979":6430,"Ġmoder":6431,"Ġ1915":6432,"ĠQedar":6433,"Ġclassified":6434,"Ġexplos":6435,"Ġcrime":6436,"ĠPrinc":6437,"ivalent":6438,"Ġwindow":6439,"ĠRomani":6440,"Ġgetting":6441,"Ġtechnical":6442,"Ġcircum":6443,"Ġcreator":6444,"Ġtribes":6445,"ĠMoz":6446,"Ġarranged":6447,"Ġconsiderable":6448,"ĠAttorney":6449,"Ġportrayed":6450,"ĠDirector":6451,"ĠSunday":6452,"ĠBrazil":6453,"AA":6454,"min":6455,"ture":6456,"icial":6457,"entions":6458,"Ġlov":6459,"adow":6460,"ĠMaster":6461,"ĠIGN":6462,"ceived":6463,"aga":6464,"agn":6465,"rif":6466,"Ġchance":6467,"ĠUTC":6468,"Ġspacing":6469,"pton":6470,"ĠVol":6471,"Ġpregn":6472,"Ġcommitted":6473,"issance":6474,"Ġmeets":6475,"Ġinteract":6476,"Ġinterior":6477,"Ġsomeone":6478,"Ġquite":6479,"Ġdepartment":6480,"Ġdepicted":6481,"Ġreception":6482,"Ġ1910":6483,"Ġevening":6484,"Ġways":6485,"ĠAbout":6486,"Ġcrosses":6487,"graded":6488,"ĠIslands":6489,"stitution":6490,"Ġwooden":6491,"Ġeyes":6492,"guan":6493,"Ġconstitution":6494,"Ġpowers":6495,"Ġteaching":6496,"ĠSecretary":6497,"ĠConstantine":6498,"ĠFriends":6499,"ĠChelsea":6500,"cliffe":6501,"LI":6502,"RE":6503,"eenth":6504,"gÃ©":6505,"hi":6506,"Ġtable":6507,"real":6508,"ori":6509,"Ġcrown":6510,"Ġbaby":6511,"Ġinland":6512,"Ġdub":6513,"Ġharm":6514,"ĠSav":6515,"ĠAer":6516,"eless":6517,"ola":6518,"ĠBishop":6519,"ĠHon":6520,"Ġconference":6521,"ĠFantasy":6522,"ĠWy":6523,"apped":6524,"ables":6525,"Ġshore":6526,"ources":6527,"ĠChronic":6528,"Ġadap":6529,"Ġoffers":6530,"ĠYe":6531,"aws":6532,"Ġ91":6533,"Ġunderw":6534,"Ġregime":6535,"Ġpublisher":6536,"Ġhighlight":6537,"Ġreputation":6538,"Ġ1982":6539,"Ġdescribing":6540,"Ġsuccessor":6541,"Ġ1951":6542,"Ġopponents":6543,"ĠPerry":6544,"Ġsolid":6545,"Ġoccurs":6546,"Ġcrossed":6547,"Äģn":6548,"Ġbrothers":6549,"Ġdiscussed":6550,"Ġcontroversy":6551,"Ġdynasty":6552,"Ġdeployed":6553,"Ġceremony":6554,"Ġexpedition":6555,"Ġarticle":6556,"ĠMorrison":6557,"ĠSpring":6558,"ĠAdmiral":6559,"mod":6560,"Ã¸":6561,"Ġice":6562,"Ġbowl":6563,"anth":6564,"Ġinner":6565,"Ġpuzz":6566,"ĠTen":6567,"ĠTop":6568,"oming":6569,"adal":6570,"Ġstones":6571,"ĠHug":6572,"Ġalleg":6573,"ĠWin":6574,"ĠNBC":6575,"Ġvic":6576,"ardo":6577,"ĠStarr":6578,"ĠChief":6579,"Ġattributed":6580,"ĠArts":6581,"Ġflu":6582,"Ġsubs":6583,"anean":6584,"Ġcapacity":6585,"Ġdownload":6586,"ructure":6587,"ĠConn":6588,"Ġ1956":6589,"Ġ1913":6590,"Ġclasses":6591,"Ġpolitics":6592,"Ġfranch":6593,"Ġjoint":6594,"ĠGeorg":6595,"Ġinterested":6596,"Ġfacing":6597,"Ġcoastal":6598,"Ġmissed":6599,"glades":6600,"Ġsector":6601,"Ġfavorite":6602,"Ġdollars":6603,"ĠHoward":6604,"ĠHoly":6605,"ĠCharlie":6606,"ĠLiu":6607,"Ġthirty":6608,"Ġmushroom":6609,"Ġextremely":6610,"ĠHindu":6611,"ĠIraq":6612,"He":6613,"OC":6614,"host":6615,"iÄĩ":6616,"erick":6617,"edom":6618,"Ġcard":6619,"Ġbal":6620,"Ġthin":6621,"ĠSnow":6622,"Ġeighth":6623,"ĠHell":6624,"ĠRun":6625,"ĠFer":6626,"ĠGram":6627,"Ġ1900":6628,"Ġraces":6629,"istol":6630,"abin":6631,"ĠKat":6632,"Ġleaves":6633,"Ġwealth":6634,"ĠMarc":6635,"ĠMarsh":6636,"oba":6637,"Ġretreat":6638,"Ġacid":6639,"ĠLev":6640,"Ġcontinuing":6641,"Ġattacking":6642,"Ġgeneration":6643,"ĠWhat":6644,"Ġappearing":6645,"Ġ1937":6646,"Ġorganizations":6647,"Ġlegs":6648,"ĠPhoen":6649,"Ġreality":6650,"Ġ1890":6651,"Ġdifficulty":6652,"Ġpredecess":6653,"Ġzone":6654,"Ġrules":6655,"Ġforests":6656,"ĠHollywood":6657,"ĠRadio":6658,"ĠCroatian":6659,"Ġmethods":6660,"ĠAlexander":6661,"unicipal":6662,"Ġrecommended":6663,"ĠPeninsula":6664,"Ġrhyth":6665,"Ġyounger":6666,"Ġworst":6667,"ĠVenus":6668,"Ġpassengers":6669,"aug":6670,"dal":6671,"hol":6672,"jillo":6673,"nest":6674,"oh":6675,"ois":6676,"pe":6677,"theless":6678,"wise":6679,"ycl":6680,"Ġsession":6681,"orters":6682,"itled":6683,"Ġpy":6684,"Ġpup":6685,"Ġhill":6686,"state":6687,"Ġlic":6688,"amar":6689,"Ġec":6690,"ĠCape":6691,"ĠMid":6692,"ĠMul":6693,"Ġgal":6694,"igades":6695,"ĠHung":6696,"aya":6697,"ĠDota":6698,"ĠDaily":6699,"ĠWalk":6700,"ĠNether":6701,"ĠGully":6702,"agues":6703,"ĠLow":6704,"ĠLess":6705,"ĠEu":6706,"Ġplants":6707,"onder":6708,"Ġagent":6709,"Ġju":6710,"Ġparties":6711,"ĠAlan":6712,"Ġaccur":6713,"Ġacknow":6714,"Ġnoisy":6715,"Ġmaintain":6716,"ĠBefore":6717,"Ġmedieval":6718,"Ġexperiment":6719,"Ġeverything":6720,"ĠAbb":6721,"encies":6722,"Ġpatrol":6723,"evo":6724,"Ġpursu":6725,"Ġwatch":6726,"Ġadmitted":6727,"Ġdrawing":6728,"Ġresponsibility":6729,"Ġveget":6730,"Ġthreatened":6731,"Ġnomination":6732,"Ġcompletion":6733,"ĠMaeda":6734,"ĠPatrick":6735,"Ġemerged":6736,"Ġninth":6737,"ĠColumbia":6738,"ĠBetween":6739,"ĠHornung":6740,"Ġdiameter":6741,"ĠRolling":6742,"From":6743,"ns":6744,"nell":6745,"onom":6746,"rets":6747,"Ġbes":6748,"Ġbay":6749,"Ġpushed":6750,"Ġpsych":6751,"ician":6752,"ĠTel":6753,"Ġlap":6754,"ĠCorn":6755,"Ġgross":6756,"ĠDanny":6757,"ĠWars":6758,"umps":6759,"Ġrugby":6760,"Ġvary":6761,"Ġshif":6762,"ĠInc":6763,"ipe":6764,"pty":6765,"Ġarts":6766,"Ġjazz":6767,"Ġprey":6768,"Ġknots":6769,"Ġ88":6770,"Ġdefended":6771,"Ġassumed":6772,"Ġwhereas":6773,"Ġaccused":6774,"Ġaccounts":6775,"Ġ123":6776,"Ġmonarch":6777,"Ġshowing":6778,"Ġpoll":6779,"Ġ1948":6780,"Ġapproached":6781,"Ġconvection":6782,"Ġnovels":6783,"Ġcharts":6784,"Ġsteel":6785,"Ġsequel":6786,"ĠMaryland":6787,"Ġspecifically":6788,"ĠEverglades":6789,"Ġattracted":6790,"ĠSamuel":6791,"Ġearthquake":6792,"ĠCambridge":6793,"Ġhotel":6794,"ĠUpon":6795,"Ġrecovered":6796,"Ġemotional":6797,"ĠHaiti":6798,"Ġfungus":6799,"Ġunusual":6800,"Ġsudden":6801,"bur":6802,"ror":6803,"Ġur":6804,"Ġworth":6805,"itage":6806,"Ġmine":6807,"Ġdie":6808,"Ġhope":6809,"ĠSa":6810,"ĠSanta":6811,"ĠAML":6812,"ĠBack":6813,"using":6814,"Ġconqu":6815,"ĠFame":6816,"ĠNC":6817,"ĠGil":6818,"rior":6819,"Ġvan":6820,"Ġkings":6821,"ĠâĢĳ":6822,"ĠAniston":6823,"Ġcharter":6824,"Ġfollowers":6825,"Ġoperating":6826,"Ã©t":6827,"Ġpointed":6828,"Ġattempting":6829,"Ġreviewer":6830,"Ġdemol":6831,"ĠPrime":6832,"ĠBrook":6833,"Ġelectric":6834,"ĠEliz":6835,"Ġholds":6836,"Ġappoint":6837,"Ġimprove":6838,"ĠBoise":6839,"Ġexception":6840,"ĠHotel":6841,"Ġancest":6842,"Ġfiring":6843,"Ġarrangement":6844,"Ġprincipal":6845,"Ġleadership":6846,"Ġpicked":6847,"Ġduties":6848,"Ġwrong":6849,"iary":6850,"nic":6851,"rec":6852,"orer":6853,"organ":6854,"Ġcens":6855,"Ġbrick":6856,"ĠTrib":6857,"acent":6858,"Ġgall":6859,"igation":6860,"othes":6861,"ĠRangers":6862,"ĠDet":6863,"ĠFish":6864,"ĠFire":6865,"ĠJosh":6866,"rien":6867,"Ġvision":6868,"ateur":6869,"ĠKil":6870,"Ġshut":6871,"ĠStev":6872,"Ġtrail":6873,"ĠChart":6874,"Ġincome":6875,"oked":6876,"Ġscrap":6877,"angerous":6878,"Ġoutf":6879,"Ġupd":6880,"Ġsoil":6881,"Ġentry":6882,"Ġprovince":6883,"Ġdesignation":6884,"ossible":6885,"Ġanniversary":6886,"Ġapproved":6887,"Ġbasin":6888,"attered":6889,"ĠTelevision":6890,"Ġfrig":6891,"ucky":6892,"Ġstatement":6893,"Ġcatch":6894,"Ġseeing":6895,"ĠHamilton":6896,"ĠMadonna":6897,"Ġlaunch":6898,"Ġregularly":6899,"ĠSquare":6900,"Ġtreaty":6901,"Ġindicate":6902,"Ġlinked":6903,"Ġcontroversial":6904,"Ġcarrying":6905,"ĠArchae":6906,"Ġhabitat":6907,"ĠRhodesian":6908,"Ġatmosphere":6909,"ĠTrujillo":6910,"rain":6911,"ta":6912,"uit":6913,"orous":6914,"Ġfal":6915,"Ġfish":6916,"Ġble":6917,"inger":6918,"ĠAk":6919,"aments":6920,"Ġnob":6921,"ĠChen":6922,"urd":6923,"Ġgather":6924,"otes":6925,"ĠIguan":6926,"ĠHun":6927,"ĠHere":6928,"ĠHospital":6929,"ĠRif":6930,"Ġcong":6931,"ĠDi":6932,"osure":6933,"Ġhear":6934,"apa":6935,"Ġproceed":6936,"abeth":6937,"Ġorchest":6938,"Ġexerc":6939,"Ġshots":6940,"Ġunn":6941,"ender":6942,"Ġpartners":6943,"Ġoverw":6944,"anges":6945,"Ġdesire":6946,"Ġoffense":6947,"Ġimpl":6948,"ultane":6949,"amps":6950,"Ġ63":6951,"Ġregional":6952,"Ġreleg":6953,"Ġ121":6954,"ĠAsh":6955,"uchi":6956,"Ġdepend":6957,"Ġdistributed":6958,"Ġ1958":6959,"Ġdriving":6960,"Ġvisible":6961,"Ġbelieves":6962,"Ġbreaking":6963,"iveness":6964,"Ġtwelve":6965,"Ġsurviving":6966,"Ġlimit":6967,"ĠSimon":6968,"Ġtreated":6969,"Ġidentity":6970,"Ġindustrial":6971,"Ġcivilian":6972,"Ġrailroad":6973,"Ġtraveled":6974,"Ġabsor":6975,"ĠCampb":6976,"ĠMilitary":6977,"ĠSurv":6978,"hews":6979,"Ġrescue":6980,"ĠThroughout":6981,"ĠCastle":6982,"ĠYankovic":6983,"ĠEngineer":6984,"ĠStephen":6985,"Ġsurvivors":6986,"ĠMozamb":6987,"ait":6988,"body":6989,"cient":6990,"ients":6991,"key":6992,"ni":6993,"ooth":6994,"zi":6995,"á»":6996,"Ġtaught":6997,"Ġpage":6998,"Ġpool":6999,"Ġmanner":7000,"Ġhall":7001,"Ġhits":7002,"ĠTam":7003,"ĠTerrit":7004,"iling":7005,"ĠAR":7006,"Ġnone":7007,"Ġnick":7008,"ĠML":7009,"ivals":7010,"ĠIV":7011,"Ġstadium":7012,"ĠPot":7013,"ĠPress":7014,"ĠRio":7015,"Ġconvers":7016,"osite":7017,"ĠEarl":7018,"Ġproport":7019,"Ġyouth":7020,"Ġ58":7021,"Ġflo":7022,"Ġfled":7023,"ockey":7024,"Ġdefences":7025,"Ġindig":7026,"Ġsym":7027,"Ġminister":7028,"Ġsigning":7029,"Ġ1961":7030,"Ġ1955":7031,"Ġ1927":7032,"intend":7033,"Ġvictims":7034,"Ġequal":7035,"Ġdivisions":7036,"Ġfalling":7037,"Ġrecognition":7038,"going":7039,"ĠQueens":7040,"Ġsurrounded":7041,"Ġimmediate":7042,"Ġblocks":7043,"Ġcolonies":7044,"Ġexamples":7045,"ĠHistory":7046,"Ġscholar":7047,"Ġrarely":7048,"Ġchallenge":7049,"ĠWeekly":7050,"Ġmessage":7051,"Ġcandidate":7052,"Ġdocumentary":7053,"ĠLisa":7054,"Ġsynthes":7055,"Ġcitiz":7056,"bles":7057,"vest":7058,"yard":7059,"zen":7060,"Ġsoul":7061,"Ġcinem":7062,"itals":7063,"Ġfaces":7064,"icts":7065,"Ġdock":7066,"Ġdivers":7067,"ĠTs":7068,"ĠSi":7069,"ĠAston":7070,"otton":7071,"ĠDom":7072,"ifna":7073,"Ġvon":7074,"ewhat":7075,"Ġexisted":7076,"ĠKar":7077,"ĠKel":7078,"Ġintention":7079,"Ġcloud":7080,"ube":7081,"Ġaged":7082,"ibl":7083,"Ġteeth":7084,"ĠAnton":7085,"ĠMaria":7086,"Ġindicated":7087,"Ġ122":7088,"Ġ05":7089,"ajevo":7090,"Ġpassage":7091,"ĠCarter":7092,"Ġ1954":7093,"Ġprotests":7094,"Ġdetail":7095,"Ġconvin":7096,"Ġcommunic":7097,"Ġhistorians":7098,"ĠSimone":7099,"Ġconnection":7100,"ĠDuke":7101,"ĠDepression":7102,"Ġmulti":7103,"Ġrailway":7104,"Ġhoped":7105,"Ġinhabit":7106,"ĠSarajevo":7107,"Ġspecimens":7108,"Ġratings":7109,"Ġromantic":7110,"Ġconcerts":7111,"Ġeggs":7112,"Ġisolated":7113,"Ġsomewhat":7114,"ĠRoxas":7115,"Ar":7116,"ba":7117,"kins":7118,"rant":7119,"Ġtie":7120,"Ġsed":7121,"Ġske":7122,"Ġwants":7123,"orist":7124,"Ġcry":7125,"Ġcold":7126,"arning":7127,"rosc":7128,"ĠBank":7129,"ĠPatt":7130,"ĠPoint":7131,"ĠDNA":7132,"osis":7133,"avia":7134,"ĠLords":7135,"ĠElect":7136,"abled":7137,"Ġkits":7138,"ureau":7139,"Ġreserve":7140,"Ġrecre":7141,"Ġ79":7142,"formed":7143,"Ġintercept":7144,"Ġmaint":7145,"Ġobtained":7146,"Ġwarm":7147,"raph":7148,"inking":7149,"ennis":7150,"Ġclassical":7151,"Ġmarks":7152,"ĠMuslim":7153,"Ġantimony":7154,"ĠOrder":7155,"Ġframe":7156,"Ġstrongly":7157,"Ġcommunities":7158,"Ġposted":7159,"ombat":7160,"Ġdivine":7161,"Ġdiscovery":7162,"Ġsuperv":7163,"Ġ1880":7164,"ĠHarry":7165,"Ġpractices":7166,"Ġescort":7167,"Ġpainted":7168,"Ġfeeling":7169,"Ġstayed":7170,"ĠJerusal":7171,"Ġpurchase":7172,"ĠStrand":7173,"Ġbringing":7174,"ĠSpecial":7175,"ĠHistoric":7176,"ĠIndustry":7177,"Ġdescription":7178,"Ġremnants":7179,"Ġeasily":7180,"ĠShortly":7181,"Ġbasketball":7182,"ĠIsabella":7183,"ĠLennon":7184,"Ġfranchise":7185,"ĠStevens":7186,"ĠJerusalem":7187,"iÅ":7188,"rative":7189,"ya":7190,"Ġtick":7191,"Ġsell":7192,"Ġworship":7193,"Ġcul":7194,"ingale":7195,"Ġmart":7196,"Ġdim":7197,"ĠAround":7198,"amer":7199,"Ġnav":7200,"uses":7201,"ĠPower":7202,"ĠRugby":7203,"ĠNar":7204,"ĠLab":7205,"ĠLanc":7206,"ĠJun":7207,"ĠJos":7208,"ĠEs":7209,"Ġvide":7210,"Ġchronic":7211,"Ġchampion":7212,"ĠInt":7213,"Ġlearning":7214,"Ġ99":7215,"Ġrelie":7216,"Ġflat":7217,"rows":7218,"Ġexpansion":7219,"Ġdepos":7220,"Ġ1983":7221,"Ġbright":7222,"Ġextension":7223,"Ġ1949":7224,"Ġimplement":7225,"Ġdriven":7226,"uropium":7227,"Ġstands":7228,"Ġstandards":7229,"Ġsuffering":7230,"ĠCalvert":7231,"Ġcirculation":7232,"offman":7233,"ĠGermans":7234,"Ġtribute":7235,"Ġterritories":7236,"Ġconcerned":7237,"Ġwatershed":7238,"senal":7239,"Ġspirit":7240,"Ġseemed":7241,"Ġlbw":7242,"Ġarrested":7243,"Ġhydro":7244,"Ġsubmarine":7245,"Ġconspir":7246,"ĠFrancisco":7247,"lan":7248,"wick":7249,"Ã§":7250,"Ġau":7251,"Ġster":7252,"Ġsessions":7253,"Ġsiege":7254,"iterr":7255,"isis":7256,"icop":7257,"Ġhang":7258,"ĠCrit":7259,"ĠCru":7260,"ĠBat":7261,"ĠBang":7262,"imal":7263,"otic":7264,"usad":7265,"ussion":7266,"Ġstreak":7267,"ĠHor":7268,"ĠPope":7269,"union":7270,"Ġansw":7271,"agu":7272,"ĠLate":7273,"Ġrated":7274,"Ġprohib":7275,"Ġvac":7276,"Ġshark":7277,"Ġspin":7278,"ogether":7279,"Ġagree":7280,"teenth":7281,"arked":7282,"Ġ68":7283,"Ġ74":7284,"Ġdeck":7285,"Ġacts":7286,"Ġretire":7287,"Ġcoord":7288,"Ġpoems":7289,"ĠMaya":7290,"ĠClin":7291,"Ġ1935":7292,"ĠPlunk":7293,"Ġeffectively":7294,"Ġfootage":7295,"Ġchanging":7296,"Ġpromote":7297,"ĠRoberts":7298,"ÃŃvar":7299,"ĠActivision":7300,"Ġcollaps":7301,"Ġassistant":7302,"Ġvoted":7303,"ĠSingles":7304,"Ġsettled":7305,"ĠBradford":7306,"ĠTransport":7307,"ĠSomalia":7308,"Ġbehavi":7309,"ĠKorean":7310,"ĠDestiny":7311,"Ġagricultural":7312,"Ġoverseas":7313,"Ġunsuccessful":7314,"Ġprotagonist":7315,"Brien":7316,"Sh":7317,"ext":7318,"fare":7319,"ĠÎ":7320,"onica":7321,"atures":7322,"ashed":7323,"Ġhat":7324,"ĠTower":7325,"Ġrect":7326,"ĠSher":7327,"sta":7328,"amic":7329,"ĠCE":7330,"Ġgro":7331,"oli":7332,"ĠHud":7333,"ĠPul":7334,"emed":7335,"ĠDA":7336,"Ġritual":7337,"uda":7338,"Ġexchange":7339,"ĠKaw":7340,"ĠKurt":7341,"ections":7342,"aste":7343,"ĠStock":7344,"ĠStef":7345,"raz":7346,"Ġadults":7347,"Ġpartly":7348,"Ġpartial":7349,"Ġserial":7350,"Ġ78":7351,"Ġconsum":7352,"Ġ89":7353,"Ġretained":7354,"Ġmovements":7355,"ĠShak":7356,"Ġ175":7357,"Ġcarries":7358,"Ġ1977":7359,"Ġairline":7360,"Ġowner":7361,"ĠUSA":7362,"Ġwinner":7363,"ĠForces":7364,"Ġpossession":7365,"Ġinvolving":7366,"aska":7367,"Ġgenre":7368,"ĠSimilar":7369,"Ġlooked":7370,"Ġreading":7371,"Ġdifficulties":7372,"Ġmeetings":7373,"Ġsuperior":7374,"scape":7375,"Ġcloser":7376,"Ġrelationships":7377,"ĠMediterr":7378,"Ġliterary":7379,"ĠOlympics":7380,"Ġbombard":7381,"ĠResear":7382,"onnaissance":7383,"ĠJaneiro":7384,"ĠBolÃŃvar":7385,"ĠSomali":7386,"Ġwearing":7387,"Ġincorporated":7388,"Ġvessels":7389,"Ġfixed":7390,"ĠFrederick":7391,"Ġutil":7392,"ĠArgentina":7393,"Ġoccasions":7394,"Ġadapted":7395,"ĠMediterranean":7396,"ris":7397,"uv":7398,"worth":7399,"Ġib":7400,"Ġtank":7401,"heim":7402,"Ġocean":7403,"Ġcart":7404,"itated":7405,"Ġblow":7406,"Ġbond":7407,"Ġpric":7408,"Ġmap":7409,"lets":7410,"entional":7411,"illy":7412,"ĠSonic":7413,"ĠAz":7414,"ĠAld":7415,"uri":7416,"urrent":7417,"Ġalle":7418,"Ġalien":7419,"ĠDC":7420,"ctions":7421,"ĠLife":7422,"ophy":7423,"Ġexit":7424,"Ġplain":7425,"ĠInit":7426,"ĠStation":7427,"Ġtra":7428,"Ġrecalled":7429,"ĠHearts":7430,"ĠAlbert":7431,"Ġpreced":7432,"Ġverse":7433,"Ġ06":7434,"Ġ07":7435,"Ġpreserved":7436,"Ġ162":7437,"velopment":7438,"ĠSpace":7439,"Ġ1911":7440,"ĠBeat":7441,"Ġreviewers":7442,"Ġopposite":7443,"Ġmedium":7444,"Ġelabor":7445,"Ġspeech":7446,"Ġpraise":7447,"Ġaccommod":7448,"Ġreduce":7449,"Ġinspiration":7450,"Ġstationed":7451,"Ġpersp":7452,"Ġabsol":7453,"Ġvisitors":7454,"ĠJean":7455,"Ġaccompany":7456,"Ġinstitutions":7457,"Ġcamera":7458,"Ġalternative":7459,"iplom":7460,"ĠWilde":7461,"uppet":7462,"Ġhappened":7463,"ĠIndependent":7464,"ĠStanley":7465,"Ġrestaurant":7466,"hl":7467,"oes":7468,"ugh":7469,"Ġå":7470,"Ġels":7471,"Ġter":7472,"Ġtack":7473,"Ġtanks":7474,"rep":7475,"Ġsight":7476,"inge":7477,"ĠSup":7478,"ĠMortal":7479,"Ġgone":7480,"ĠBal":7481,"ĠBass":7482,"ĠPine":7483,"ĠDark":7484,"ĠFront":7485,"Ġanth":7486,"ĠKombat":7487,"Ġspaces":7488,"Ġafterwards":7489,"weet":7490,"Ġactual":7491,"Ġenth":7492,"Ġcrest":7493,"Ġestate":7494,"Ġ1962":7495,"Ġcarbon":7496,"Ġinstalled":7497,"ĠConst":7498,"Ġmusicians":7499,"Ġcharacteristics":7500,"Ġhelicop":7501,"ĠHergÃ©":7502,"Ġdetailed":7503,"ĠFlight":7504,"Ġreferences":7505,"Ġvictories":7506,"Ġsky":7507,"Ġpatron":7508,"Ġequipped":7509,"Ġerected":7510,"Ġimprov":7511,"Ġraise":7512,"Ġmeasures":7513,"Ġfunds":7514,"Ġgrey":7515,"ĠEmperor":7516,"Ġemerg":7517,"ĠBCE":7518,"ĠFormula":7519,"Ġchemical":7520,"Ġspecimen":7521,"ĠDemocratic":7522,"Ġcustom":7523,"Ġhappy":7524,"Ġpyram":7525,"ĠIguanodon":7526,"Ġelsewhere":7527,"bie":7528,"hu":7529,"ng":7530,"sch":7531,"Ê»":7532,"Ġic":7533,"Ġille":7534,"inals":7535,"Ġcreek":7536,"Ġbed":7537,"arth":7538,"ĠTig":7539,"Ġready":7540,"entures":7541,"Ġonline":7542,"ĠBos":7543,"ĠBert":7544,"ĠBureau":7545,"iders":7546,"ĠRain":7547,"ifer":7548,"Ġorn":7549,"anti":7550,"Ġexha":7551,"ocal":7552,"ĠKev":7553,"oven":7554,"Ġresources":7555,"Ġappropri":7556,"Ġpartially":7557,"Ġaftern":7558,"anyon":7559,"Ġextreme":7560,"ĠBlood":7561,"Ġ1959":7562,"Ġmodified":7563,"Ġannually":7564,"Ġwilling":7565,"ĠGuy":7566,"Ġclassic":7567,"Ġ1921":7568,"Ġstarling":7569,"Ġclaiming":7570,"Ġdefeating":7571,"istered":7572,"Ġcheck":7573,"Ġcoup":7574,"Ġarmor":7575,"Ġkingdom":7576,"Ġrebels":7577,"Ġhosted":7578,"Ġintensified":7579,"ĠMontana":7580,"ĠVictorian":7581,"iques":7582,"Ġdisplays":7583,"Ġlegislation":7584,"Ġadjacent":7585,"ĠClarkson":7586,"ĠProtest":7587,"Ġencouraged":7588,"ĠBanai":7589,"ĠRyan":7590,"Ġpreferred":7591,"Ġresistance":7592,"Ġinitiative":7593,"ĠGeorgia":7594,"Ġrhythm":7595,"Ġalleged":7596,"eper":7597,"ras":7598,"à¤":7599,"Ġtone":7600,"Ġwrest":7601,"Ġow":7602,"aten":7603,"Ġinaug":7604,"Ġpure":7605,"icide":7606,"Ġdens":7607,"Ġhip":7608,"lete":7609,"ilation":7610,"ĠSand":7611,"ĠAP":7612,"Ġloy":7613,"ĠCory":7614,"eton":7615,"ĠBow":7616,"ĠImp":7617,"ĠPA":7618,"Ġalter":7619,"ĠDyn":7620,"ĠFree":7621,"ĠWolf":7622,"Ġrum":7623,"Ġprol":7624,"iform":7625,"Ġsees":7626,"ĠKit":7627,"ĠKansas":7628,"ĠStory":7629,"ĠChannel":7630,"Ġago":7631,"Ġ67":7632,"Ġconsol":7633,"Ġ86":7634,"Ġverte":7635,"Ġacclaim":7636,"Ġforming":7637,"Ġ165":7638,"athers":7639,"Ġimpossible":7640,"Ġreturns":7641,"Ġ1912":7642,"Ġ1932":7643,"Ġ1929":7644,"ĠGeoff":7645,"Ġdestruction":7646,"Ġdebate":7647,"Ġlowest":7648,"Ġequivalent":7649,"Ġ1909":7650,"Ġinterests":7651,"ĠFederal":7652,"Ġrenew":7653,"Ġmerch":7654,"ĠKeamy":7655,"Ġwithdrew":7656,"ĠÃĹ":7657,"Ġabsence":7658,"Ġtowers":7659,"Ġcruiser":7660,"Ġensure":7661,"Ġhundreds":7662,"ĠNorway":7663,"Ġessential":7664,"Ġnarrative":7665,"Ġapparently":7666,"Ġsegment":7667,"Ġdistribution":7668,"Ġdialogue":7669,"ĠNetherlands":7670,"ĠElizabeth":7671,"Ġvideos":7672,"ĠClinton":7673,"MO":7674,"ean":7675,"mel":7676,"rating":7677,"wich":7678,"yer":7679,"heme":7680,"Ġtheatre":7681,"Ġfold":7682,"aled":7683,"aling":7684,"ĠTest":7685,"ĠType":7686,"Ġrever":7687,"ĠSap":7688,"Ġet":7689,"Ġeuropium":7690,"ĠCas":7691,"ĠMir":7692,"ĠBed":7693,"ĠBad":7694,"ĠBall":7695,"terbury":7696,"thosaurus":7697,"emet":7698,"emia":7699,"ĠJifna":7700,"Ġcomments":7701,"Ġexcess":7702,"ĠVice":7703,"Ġcloth":7704,"Ġresumed":7705,"Ġreconnaissance":7706,"achus":7707,"Ġevil":7708,"ĠMarg":7709,"Ġformally":7710,"ifications":7711,"Ġ127":7712,"Ġsurpr":7713,"Ġexpensive":7714,"Ġtransition":7715,"Ġ176":7716,"ĠAdam":7717,"ĠAdams":7718,"Ġ1931":7719,"Ġ1938":7720,"Ġrefers":7721,"ĠCanterbury":7722,"poration":7723,"Ġstarred":7724,"Ġwindows":7725,"ĠOrgan":7726,"Ġcovers":7727,"itarian":7728,"apping":7729,"Ġcriticised":7730,"ĠGeorgian":7731,"Ġneeds":7732,"Ġsteam":7733,"Ġburned":7734,"Ġobjects":7735,"Ġinjuries":7736,"ĠRichardson":7737,"Ġsatisf":7738,"Ġmoments":7739,"Ġjudge":7740,"oirs":7741,"ĠFIA":7742,"Ġdefenders":7743,"Ġshells":7744,"Ġpurposes":7745,"Ġinternal":7746,"Ġdoubt":7747,"Ġassassination":7748,"ĠRoger":7749,"Ġglobal":7750,"ĠBeckham":7751,"Ġafternoon":7752,"ban":7753,"dess":7754,"Ġtight":7755,"hered":7756,"erog":7757,"rees":7758,"Ġcraft":7759,"Ġfine":7760,"Ġfram":7761,"Ġbat":7762,"Ġbone":7763,"anj":7764,"rose":7765,"Ġdiplom":7766,"ĠTreat":7767,"ĠSk":7768,"ĠSn":7769,"elin":7770,"elle":7771,"acle":7772,"Ġgarrison":7773,"ĠBron":7774,"ĠHind":7775,"ithic":7776,"ĠNintend":7777,"ĠJenn":7778,"Ġleuk":7779,"ignment":7780,"Ġrecru":7781,"enses":7782,"Ġ93":7783,"Ġrelative":7784,"annah":7785,"Ġammun":7786,"Ġenters":7787,"Ġ161":7788,"atherine":7789,"ĠIndones":7790,"Ġbelt":7791,"Ġcarved":7792,"Ġoperate":7793,"espe":7794,"ĠBeach":7795,"aurus":7796,"Ġperiods":7797,"Ġbiographer":7798,"Ġ1860":7799,"Ġengineers":7800,"Ġengineering":7801,"Ġestablishing":7802,"Ġvote":7803,"ĠFei":7804,"Ġinvestigation":7805,"Ġobservations":7806,"Ġunderstand":7807,"ĠHuman":7808,"ĠGarc":7809,"Ġscientific":7810,"Ġvessel":7811,"Ġpanel":7812,"Ġproposal":7813,"Ġcriminal":7814,"ĠExpress":7815,"Ġacknowled":7816,"Ġoverwhel":7817,"Ġbehaviour":7818,"ĠKevin":7819,"ĠNintendo":7820,"Ġammunition":7821,"bound":7822,"night":7823,"rast":7824,"rabb":7825,"ĠÅ":7826,"Ġtailed":7827,"onia":7828,"Ġmask":7829,"ĠSem":7830,"ĠSuch":7831,"Ġliber":7832,"ĠCab":7833,"ĠMand":7834,"ĠBase":7835,"Ġstock":7836,"ĠHou":7837,"ĠPass":7838,"Ġconj":7839,"ĠFlow":7840,"osl":7841,"ĠNeb":7842,"ĠLang":7843,"Ġhem":7844,"ĠJoy":7845,"Ġray":7846,"apse":7847,"ĠOt":7848,"Ġdeleg":7849,"Ġshop":7850,"iang":7851,"Ġtrained":7852,"Ġintense":7853,"uez":7854,"Ġoutbreak":7855,"Ġfeed":7856,"Ġentitled":7857,"ĠFraser":7858,"Ġsimultane":7859,"Ġadvis":7860,"Ġrestric":7861,"Ġrestored":7862,"ĠMcG":7863,"quez":7864,"Ġdemand":7865,"alky":7866,"Ġtrading":7867,"Ġgrounds":7868,"Ġinfluential":7869,"Ġprogramme":7870,"Ġtravelled":7871,"ĠPoland":7872,"coming":7873,"Ġvillages":7874,"Ġpitcher":7875,"Ġdevot":7876,"Ġbiography":7877,"Ġreveals":7878,"forced":7879,"Ġinjured":7880,"ĠRadcliffe":7881,"Ġdramatic":7882,"ĠDelaware":7883,"Ġnormally":7884,"ĠBurns":7885,"Ġinterpret":7886,"ĠJournal":7887,"ĠSkye":7888,"ĠGuardian":7889,"Ġbatsman":7890,"ĠMongol":7891,"ĠFamily":7892,"Ġastronom":7893,"ĠJesus":7894,"ĠKilmer":7895,"ĠResearch":7896,"espeare":7897,"AT":7898,"EC":7899,"OK":7900,"ds":7901,"vention":7902,"wald":7903,"ĪĴ":7904,"eral":7905,"Ġsons":7906,"Ġpin":7907,"Ġpack":7908,"Ġpine":7909,"Ġmunicipal":7910,"icit":7911,"Ġdiet":7912,"ĠTer":7913,"ĠTok":7914,"ilst":7915,"ĠSweet":7916,"Ġlin":7917,"eline":7918,"Ġwasn":7919,"Ġforcing":7920,"imeter":7921,"Ġash":7922,"Ġbearing":7923,"ĠWW":7924,"ĠNatives":7925,"ĠGun":7926,"ĠEdu":7927,"ĠOwen":7928,"ategy":7929,"ĠKim":7930,"iped":7931,"ishment":7932,"Ġdesert":7933,"Ġattrib":7934,"ĠYour":7935,"Ġtele":7936,"Ġinteraction":7937,"Ġformal":7938,"Ġmonuments":7939,"ekÄģn":7940,"Ġinstance":7941,"Ġdesigns":7942,"Ġgenerated":7943,"Ġuseful":7944,"ĠMega":7945,"Ġengage":7946,"Ġcovering":7947,"Ġelse":7948,"Ġskull":7949,"Ġcycle":7950,"ĠWithin":7951,"Ġwatching":7952,"Ġdoesn":7953,"ĠAtlanta":7954,"Ġpredomin":7955,"ĠPalmy":7956,"ĠRecording":7957,"Ġtests":7958,"Ġrepresenting":7959,"ĠMexican":7960,"Ġtribut":7961,"Ġobjective":7962,"ĠWilson":7963,"Ġpersu":7964,"itzer":7965,"Ġmemorial":7966,"Ġdocuments":7967,"Ġfeelings":7968,"ĠLawrence":7969,"Ġdegrees":7970,"Ġexperiences":7971,"Ġtouchdowns":7972,"Ġcorner":7973,"Ġdrums":7974,"Ġcomposer":7975,"Ġbehavior":7976,"Ġjournalist":7977,"Ġreconstruction":7978,"inje":7979,"Ġcircumstances":7980,"Ġnickn":7981,"ĠShakespeare":7982,"emetery":7983,"Despite":7984,"SA":7985,"after":7986,"dale":7987,"dney":7988,"graf":7989,"how":7990,"lie":7991,"put":7992,"va":7993,"inson":7994,"eratops":7995,"Ġsale":7996,"Ġsailed":7997,"Ġfitted":7998,"Ġbarr":7999}